#version: 0.2
e r
e n</w>
i n
t h
e n
u n
a n
e r</w>
c h
th e</w>
t i
r e
i t
u r
s t
o n
o n</w>
e s</w>
d i
d er</w>
l i
a r
a l
i n</w>
o f</w>
o r
i s
e s
a t
a u
e d</w>
a ti
e l
i l
di e</w>
s i
en t
in g</w>
d en</w>
an d</w>
r o
a l</w>
E ur
t o</w>
2 0
e i
un d</w>
g e
Eur o
c h</w>
un g
e t
un g</w>
e c
a s
v er
c o
an k
a s</w>
e in
s ch
o t
e m
T h
o r</w>
b e
e m</w>
f ü
a n</w>
d es</w>
w i
r i
t er
a h
a b
r a
i s</w>
u l
a t</w>
e it
20 1
t en</w>
ati on</w>
Th e</w>
E Z
ati on
w er
o l
t e</w>
C B</w>
en t</w>
l e</w>
p o
c e</w>
c i
d er
b er</w>
E CB</w>
h r
u s
m m
ung en</w>
g en
li ch
c on
re s
fü r</w>
y st
g en</w>
D i
v on</w>
i t</w>
i m</w>
u m
b e</w>
n ot
ung s
p er
b ank
au f</w>
f or</w>
d e</w>
e ur
20 0
s yst
q u
p ro
w il
n e
wil l</w>
Euro p
EZ B</w>
l o
d e
t e
f i
g e</w>
a c
a m
z u
f or
v e</w>
ent r
Euro syst
V er
z u</w>
i ch
is ch
e g
as s
S t
B ank
A n
e b
v i
f er
in s
b er
a p
b y</w>
m a
Di e</w>
co un
it y</w>
s h
it h</w>
ti on</w>
wi r
m p
m it</w>
s u
eur o</w>
wer den</w>
e h
w ith</w>
o un
l y</w>
at e</w>
a r</w>
f f
I n
f in
e x
a d
m on
ent s</w>
ei t</w>
ä n
o p
t s</w>
c k
d em</w>
ar y</w>
m e
is t</w>
il li
Eurosyst em</w>
t o
ar e</w>
st r
h i
es ch
el l
an k</w>
a re
e t</w>
e d
wir d</w>
fer en
s p
n ation
em ber</w>
a k
ro m</w>
z i
f rom</w>
t er</w>
o ver
es t</w>
t r
d as</w>
ge b
in g
in ter
m ent</w>
w e
di es
ti on
i on</w>
s o
u m</w>
a ch
en d
au s</w>
A u
l a
R e
th at</w>
illi on</w>
isch en</w>
o u
t s
over n
er h
m e</w>
po li
ä hr
g el
ar k
B -
ein e</w>
Bank not
Europ e
U n
Europe an</w>
for m
D er</w>
u b
u e</w>
s it
l e
s t</w>
fin an
bank not
J ah
C oun
EZ B-
si ch
d a
t u
si ch</w>
li ch</w>
es s
d ec
i o</w>
an d
o mm
g r
ci l</w>
Coun cil</w>
s s
entr al
entr al</w>
m en</w>
g i
f ol
wi e</w>
w ur
p or
I n</w>
t ed</w>
st ell
s ti
a f
l ei
Z entral
ü ber</w>
lich en</w>
et s</w>
ation s</w>
co mp
G overn
are a</w>
Euro -
s in
au f
th er</w>
e in</w>
Europ ä
st en</w>
E r
p ri
al l
E in
ä l
r u
w eit
o m
e st
in c
er i
d u
S ch
s e</w>
it ä
eb sit
r it
g er
al s</w>
w w
ich t</w>
m illion</w>
E n
ub li
i g
w or
t en
p ar
ü ck
sin d</w>
r ate</w>
at es</w>
o per
inter est</w>
em s</w>
v is
qu i
t ur
e k
ä r
it s</w>
p re
con t
al l</w>
ti es</w>
b ank</w>
201 4</w>
mon et
an ce</w>
n en</w>
d en
g h
a ch</w>
be i</w>
n o
es e</w>
ebsit e</w>
M a
Govern ing</w>
t z
g es
au s
at en</w>
s ec
h al
as e</w>
M io</w>
il ity</w>
g ra
a m</w>
te il
p ubli
c y</w>
c ul
EZB- R
f o
m ark
h as</w>
coun ter
ab le</w>
zu r</w>
ff ent
ap it
er e</w>
an n
m ents</w>
s o</w>
r is
l u
e l</w>
banknot es</w>
as s</w>
a g
v al
o v
fü hr
at ed</w>
& #
&# 9
e p
0 0</w>
qu ot
W ähr
B e
r ä
po s
ah l
Z ins
d s</w>
E P
h a
A r
nation al</w>
e ch
d ur
P re
ö ffent
w hi
whi ch</w>
d ass</w>
monet ary</w>
li e
l l
ah men</w>
i hr
e u
counter f
th is</w>
si d
a y
lich e</w>
P ro
t ra
t sch
ci al</w>
nation al
itä t</w>
i r
b et
Europä ischen</w>
v or
re c
quot ;</w>
1 3
& quot;</w>
re s</w>
ne w</w>
c es</w>
Au f
i er
l an
g ro
Eurosyst ems</w>
lo w
da y</w>
ein er</w>
ar d</w>
ü n
un ter</w>
si on</w>
isch e</w>
ec t</w>
ch n
S EP
feren ce</w>
f ra
M it
Banknot en</w>
tion s</w>
Währ ungs
re g
el d
d ed</w>
e y</w>
A b
201 3</w>
y e
en d</w>
bank s</w>
a li
st ab
en den</w>
b u
F r
201 5</w>
a ge</w>
. e
w as</w>
str um
esch ä
d ing</w>
feren z
a il
A us
re i
ch an
äl sch
t ing</w>
in e</w>
eschä f
4 9</w>
b le</w>
w h
st a
eur op
be it
as ed</w>
6 9</w>
t ung</w>
13 4
so wie</w>
ol l
ti g
B ank</w>
zi er
th ei
thei r</w>
i e</w>
et z
Un ion</w>
t ri
o w
K on
ver gen
t h</w>
h o
re finan
c entral</w>
an u
134 4</w>
res er
ein en</w>
a mm
ti ve</w>
sid ent</w>
si s</w>
per i
f ur
er s</w>
ha ve</w>
EZB-R at</w>
öffent lich
s at
e -
du c
poli ti
n icht</w>
ü ber
re ference</w>
i ties</w>
SEP A</w>
Jah r</w>
us amm
f l
ei l</w>
t ak
r en</w>
national en</w>
fi r
at eg
r ü
Re ferenz
en s
an s
un ter
res p
ne u
m it
in n
E U</w>
C entral</w>
i m
geb i
g li
Zentral bank</w>
ö n
ul d</w>
n ach</w>
er t
counterf eit
ö h
ti tu
ins titu
D as</w>
o b
ab en</w>
sat z</w>
Zentral bank
val ue</w>
v el
ou t</w>
il ität</w>
ge f
poli cy</w>
l and</w>
ing s</w>
g an
U m
wur den</w>
wi ck
tri es</w>
ma in
m in
er t</w>
co me</w>
201 2</w>
ä u
v o
res s</w>
m is
h at</w>
e w
En t
z ei
sch en</w>
for der
f ac
coun tries</w>
un d
ge m
al so</w>
R eg
i mp
eit en</w>
ar i
V or
G eld
B er
.e u</w>
gel d
es s</w>
ec b
ww w
www .
ti gen</w>
o uld</w>
f fi
er al</w>
eh r</w>
c an</w>
M e
F in
peri o
un k
ri ch
be en</w>
wur de</w>
or y</w>
gra mm
In form
on e</w>
k eit</w>
ecb .
b is</w>
au ch</w>
2 5</w>
k en</w>
e v
rü f
re d</w>
or d
o ther</w>
europ a
at s</w>
apit al</w>
a sis</w>
Fr ank
än der
st eh
p ay
is e</w>
g n
c al</w>
ation en</w>
J anu
Eur o</w>
w el
u p</w>
te t</w>
l eg
k ön
inc lu
et t
ö r
por t</w>
en en</w>
an z
Z ahl
W ebsite</w>
Th is</w>
co mm
ass ets</w>
E U
per vis
ecb. europa
ac c
Referenz wer
wick l
re ch
ex p
d it
ati sti
Mit gli
usamm en
or s</w>
am oun
5 0</w>
ü r
ä tz
inc re
ac coun
wer e</w>
w ebsite</w>
ur r
ma in</w>
m o
lei ch
in strum
in come</w>
ig n</w>
cul ation</w>
S ich
zu m</w>
v or</w>
no t</w>
in form
ecb.europa .eu</w>
ci r
an t</w>
a v
Zentralbank en</w>
N Z
M on
L i
th ese</w>
fir st</w>
I m</w>
0 .
si e</w>
oper ations</w>
e w</w>
ur e</w>
re qui
it z
g u
au m</w>
a i
R ahmen</w>
201 1</w>
z w
finan cial</w>
en ti
Sich erh
M ar
Frank fur
t eil</w>
po in
or t
dies e</w>
cont in
b asis</w>
a pos
C omm
3 ;</w>
1 ;</w>
&#9 3;</w>
&#9 1;</w>
& apos
vo m</w>
ur ities</w>
tsch af
s el
me di
ing le</w>
c re
Währungs gebi
zier ungs
t or</w>
i c</w>
en s</w>
cir culation</w>
c urr
201 0</w>
re dit
k s</w>
i a</w>
er k
ü ss
Ü ber
wor k</w>
un der</w>
ter m</w>
m s</w>
kön nen</w>
g t</w>
Euro- Währungsgebi
v er</w>
us s</w>
rit eri
ov er</w>
ati ve</w>
Ar ti
ver öffentlich
p l
o der</w>
f ah
Eur or
ne h
Mitgli ed
D e
200 7</w>
pro c
or i
h eit
f en</w>
b esch
ar g
Z usammen
N C
2 0</w>
st e</w>
s er
p h
h r</w>
h eu
f ass
b i
av ail
an n</w>
W ert
M ember</w>
v en</w>
u s</w>
stell ung</w>
s oll
par ti
p ur
mit t
is i
h in
b illion</w>
M ark
H er
200 9</w>
t w
sh ould</w>
sh ed</w>
re l
n um
in s</w>
in di
di t</w>
ar beit
an g</w>
W ir
Mitglied sta
ye ar</w>
v es</w>
to day</w>
su b
str u
er en</w>
ent en</w>
avail able</w>
ac t</w>
Zahl ungs
S p
tr ans
to ber</w>
ge w
P rä
NZ B
Frankfur t</w>
D ec
Banknot e</w>
om in
li gi
h t
ges am
dur ch</w>
ch en</w>
NZB en</w>
K redit
H au
st än
r ates</w>
po si
or e</w>
on s</w>
end ing</w>
b el
1 0</w>
1 ,
w ar
s e
refinan zierungs
on d</w>
neu en</w>
ne t</w>
geld politi
ge h
dies er</w>
d es
counterfeit s</w>
al y
B s</w>
w th</w>
th o
pro vi
p ap
fü ll
ein em</w>
e ff
di en
c apital</w>
ar s</w>
Pre is
N ov
G en
u res</w>
r in
o w</w>
instrum ents</w>
inform ation</w>
g eschäf
ein heit
d et
c al
be wer
al le</w>
Nov ember</w>
NC Bs</w>
F älsch
; s</w>
200 6</w>
1 9
&apos ;s</w>
st and
ot al</w>
on om
o o
num ber</w>
m at
ass ess
ach st
Zins satz</w>
Wert pap
Jah res
200 8</w>
z ahl
veröffentlich t</w>
n ung</w>
k t</w>
er ung</w>
el le</w>
con c
c ing</w>
www. ecb.europa.eu</w>
stell t</w>
pri ce</w>
o h
is sion</w>
f e
er ten</w>
er sten</w>
banknot e</w>
St ates</w>
mis es</w>
in de
f ris
e ligi
de vel
ah l</w>
J un
Fin anz
Europä ische</w>
A l
te l</w>
publi c</w>
l em
in to</w>
in t
gramm e</w>
fol low
er s
b t</w>
G r
wickl ung</w>
t a
sch af
s c
o c
den omin
Inform ationen</w>
Bank en</w>
200 5</w>
st atisti
st at
st ar
sch i
p p
on -
n ahmen</w>
mark et</w>
m en
k on
ec onom
cre dit</w>
M r
M 3</w>
K apit
Auf sich
t re
t lich</w>
su pervis
ow n</w>
is su
ihr e</w>
gro wth</w>
en de</w>
devel op
c ation</w>
I t</w>
t otal</w>
st ri
oper ation</w>
f ul
at ing</w>
al sch
E x
Dec ember</w>
- term</w>
är k
wi th
vi ew</w>
tw o</w>
ti ge</w>
stab ility</w>
publi shed</w>
n ah
m an
le v
ihr er</w>
heu te</w>
führ ung</w>
et en</w>
dec i
de u
d ar
Mitgliedsta aten</w>
Kon vergen
B esch
w en
w ei
vergen ce</w>
j ah
fra gen</w>
e f
ch e</w>
a z
In ter
F or</w>
ver b
s ed</w>
lo ss
ci p
b es
Pre sident</w>
G ro
F or
C on
19 9
ätz e</w>
rei b
omm en</w>
m ö
ge führ
fol gen
el ungen</w>
eb ru
con si
b ei
au ms</w>
ation s
S itz
G eschäf
F ebru
sec urities</w>
r an
p res
le ase</w>
erh in</w>
er n</w>
are d</w>
al ly</w>
H öh
E S
. m
w end
re ich
lei st
g esch
fac ility</w>
as t</w>
weit erhin</w>
ver y</w>
s am
reser ve</w>
pri l</w>
p unk
p rüf
n i
is ed</w>
Ver b
Fälsch ungen</w>
A pril</w>
u al</w>
ti g</w>
res ul
hal f</w>
geldpoliti schen</w>
ge gen
ent e</w>
en ce</w>
der en</w>
Besch l
t n
pre mises</w>
l auf</w>
k ur
k ann</w>
jah r</w>
h aben</w>
fah ren</w>
el t</w>
.m .</w>
ä h
z weit
z el
u st
stab ilität</w>
i fi
geb en</w>
fo re
eri es</w>
en e</w>
en der</w>
ar ds</w>
S yst
N e
Mr d</w>
F ra
200 4</w>
änder n</w>
tur e</w>
tr ä
th ey</w>
re e</w>
o ur
neh men</w>
in d
geb n
g aben</w>
f t</w>
erh al
er te</w>
Z u
U hr</w>
Referenzwer t</w>
K omm
Höh e</w>
G em
F alsch
Euro- Banknoten</w>
Ein k
zei chn
stän di
sec ond</w>
perio d</w>
n on-
me et
h er
g er</w>
ent ation</w>
bel ow</w>
Janu ary</w>
B o
z ins
wi ch
vi ces</w>
th er
stru c
refinan cing</w>
l in
g lich</w>
fore ign</w>
ein es</w>
dies em</w>
deci ded</w>
c s</w>
bank ing</w>
at vi
Sch ul
P ar
L atvi
G ew
Euro-Währungsgebi et</w>
Di ese</w>
ä hi
wel l</w>
we en</w>
val u
us t</w>
s ätze</w>
on der
geschäf te</w>
f est
eligi ble</w>
el y</w>
ec ted</w>
contin ue</w>
al e</w>
Un ter
Prä sident</w>
200 3</w>
0 ,
z e</w>
ver k
v ed</w>
tra g</w>
teil ung</w>
si ble</w>
resp on
qui d
pro f
pay ment</w>
m ore</w>
lie ß
h ol
en cy</w>
eg t</w>
an s</w>
all s</w>
Hau p
EZB-R ats</w>
Ab sch
200 2</w>
1 2</w>
än der</w>
ä ß
ye ars</w>
requi re
re k
o s</w>
nah me</w>
mo st</w>
me work</w>
l ine</w>
i el
f ähi
ent sp
econom ic</w>
ec tive</w>
cont act</w>
bet ween</w>
ber eit
assess ment</w>
ap p
St ück
S ingle</w>
J ul
1 5</w>
ü tz
us s
un der
um s</w>
um fass
ul ation</w>
re co
lo v
ht t
gh i</w>
geführ t</w>
gef älsch
f te</w>
ep t
em ent</w>
eff ect</w>
dur ch
ch it
b al
ad op
a u</w>
S lov
S S
Haup t
Be wer
pro gramme</w>
poin ts</w>
lo w</w>
la gen</w>
g lichen</w>
counterf eit</w>
co m
b en</w>
al t
S u
Q u
L ändern</w>
A s</w>
3 0</w>
te gr
s ein</w>
re port</w>
r aum</w>
k ung</w>
j ect</w>
incre ased</w>
h ang</w>
forder ungen</w>
follow ing</w>
d re
accoun t</w>
R ück
M F
D ur
B et
ö l
z en</w>
tur al</w>
th an</w>
rich ten</w>
res s
p lease</w>
k e</w>
j e
htt p</w>
g leich
g es</w>
fl ation</w>
d ings</w>
Wertpap ier
G er
ä ch
zweit en</w>
wir tschaf
w achst
un i
trans fer
tion en</w>
st s</w>
si gn
s s</w>
pur ch
ne ue</w>
n e</w>
medi a</w>
l on
l ed</w>
h ar
gen u
for e</w>
fo li
et to
c le</w>
c k</w>
az ilität</w>
Z eit
N etto
Me dien
De z
ti me</w>
te chn
t lichen</w>
steh t</w>
st ütz
sp ar
s ol
reg ul
re view</w>
p er</w>
ou t
imp lem
ich t
gen en</w>
g overn
fo und</w>
ex c
et e</w>
e ar
c ent
b ar</w>
an fragen</w>
all en</w>
ad di
Preis stabilität</w>
O c
Medien anfragen</w>
Ma y</w>
Haupt refinanzierungs
D ra
Aufsich ts
An teil</w>
5 0
zw ischen</w>
tion al</w>
si ve</w>
ou s</w>
m arg
inde st
in ed</w>
g keit</w>
g h</w>
ett bewer
eh en</w>
eb en</w>
Sicherh eiten</w>
M indest
Janu ar</w>
Euror aums</w>
Dez ember</w>
C E
Bo ard</w>
1 6</w>
w n</w>
vis ion</w>
sti tu
s etz
re m
ra g</w>
m äß
lich er</w>
indi c
i ti
gh t</w>
chan ge</w>
b ri
ai d</w>
Oc tober</w>
Ent wicklung</w>
E st
A m
schi ed
sch ließ
s et</w>
pay ments</w>
ou r</w>
fü g
f u
ept ember</w>
e ti
di rec
cal end
b eit</w>
an ti
Zusammen hang</w>
S eptember</w>
L änder</w>
EU -
Dra ghi</w>
1 .
üss en</w>
z eit</w>
we i</w>
us e</w>
u d
tak e</w>
stell en</w>
proc ed
por t
or der</w>
on al</w>
n ach
ma y</w>
l at
itä ts
is ion</w>
int ro
i h
g a
einheit lichen</w>
con vergence</w>
al ity</w>
ab out</w>
Arti cle</w>
Am ts
z o
we is
u si
ti l</w>
sam e</w>
require ments</w>
rec ei
par t</w>
p la
me chan
h el
entsp rech
e hr
dre i</w>
der ungen</w>
de t</w>
comp eti
cent age</w>
c lo
au en</w>
W eit
T re
R isi
M E
K o
In strum
Gen eral</w>
G es
Banknot en
0 00</w>
- S
ä ß</w>
z ü
un c
u p
ti v
th ree</w>
star ting</w>
re t
ot h</w>
n u
mechan is
marg in
h äl
ffi cial</w>
f ten</w>
er n
em b
ei li
d ra
be k
au th
Th ese</w>
T r
St a
S ie</w>
Mar ch</w>
F ur
sp ec
sh are</w>
punk te</w>
per centage</w>
p rä
n it
mäß i
mitt el
mark ets</w>
k o
il y</w>
gesam t</w>
genu ine</w>
fra mework</w>
dur ing</w>
develop ments</w>
det ail
ci es</w>
at s
amoun ted</w>
ag a
ab li
Wir tschaf
Mar io</w>
Geld men
Europ a</w>
Ein führung</w>
Bewer tung</w>
Arti k
us ing</w>
ti mm
t liche</w>
sich tig
s m
re ali
l au
hal ten</w>
gegen über</w>
f r
en th
duc ed</w>
co ll
ag es</w>
ac k
Ver fahren</w>
V i
Stück elungen</w>
SS M</w>
P ress
P o
Hauptrefinanzierungs geschäfte</w>
Gr und
5 5
201 6</w>
Ä n
un til</w>
t est</w>
sich er
re main
parti cip
p ass
ord nung</w>
ol o
mon th
loss en</w>
k ün
f alls</w>
ent ly</w>
ein zel
dec re
c ed</w>
bes onder
Referenzwer ts</w>
Konvergen z
Jun e</w>
Er füll
B as
A ll
4 .
ß nahmen</w>
z wei</w>
we ver</w>
v ol
t ly</w>
so li
institu tions</w>
fris tigen</w>
den ti
consi der
an aly
amoun t</w>
ad j
Ma i</w>
M ün
L it
I I</w>
H o
Euror aum</w>
Au f</w>
Artik el</w>
Ar beit
1 1</w>
ß er
wend ungen</w>
we ise</w>
ver ed</w>
ver age</w>
un den</w>
su p
rüf ung</w>
riteri a</w>
on ly</w>
n al</w>
la g</w>
in flation</w>
il l
ihr en</w>
i l</w>
folgen den</w>
est abli
el n</w>
ec ts</w>
dec ision</w>
d ung</w>
d own</w>
competi tion</w>
c riteria</w>
c or
b ar
aus ge
ass en</w>
Wir kung</w>
Weit ere</w>
Reg ulation</w>
R es
O r
K al
En de</w>
Bas is
z ur
z ahl</w>
y s</w>
teil t</w>
t ation</w>
syst em</w>
s ingle</w>
s en</w>
m ehr</w>
lan g</w>
in tegr
ge ment</w>
fur ther</w>
for m</w>
er fol
dec isi
de fin
d ue</w>
con s
comp ared</w>
Ma in</w>
M o
L eit
Jah ren</w>
H al
Gew inn
Gem ein
EU R</w>
Comm ission</w>
An aly
2 .
1 0
x t</w>
w oh
verk ehr
u fen</w>
tak en</w>
t ors</w>
st er</w>
schaf t</w>
sch e</w>
s ehr</w>
ma de</w>
l äu
l ending</w>
l auf
ge stellt</w>
g s</w>
er füll
des ign</w>
be lie
ap pro
ann ual</w>
ann oun
an st
ag g
W ettbewer
Gro ß
G eb
B ar
3 .
2 ,
199 8</w>
sid enten</w>
re it
r n</w>
r e</w>
parti cul
p i
margin al</w>
leg al</w>
k eine</w>
ins t</w>
h en</w>
h en
ger ufen</w>
em ents</w>
e i</w>
contin u
ch ten</w>
c ations</w>
at z
an i
an ge
a verage</w>
Z w
S ec
Re ch
Q R</w>
M illi
Komm ission</w>
K ar
Her rn</w>
E s</w>
D aten</w>
B eit
B I
A QR</w>
A -
un ity</w>
tu r</w>
th u
str ateg
statisti cs</w>
poin t</w>
p .m.</w>
oc um
o gra
meet ing</w>
lev el</w>
l ä
i .e
i.e .</w>
hi gh
h and
gra m
gen ommen</w>
gen eral</w>
gan is
f e</w>
ex change</w>
es si
ell en</w>
einzel nen</w>
ec u
e ffi
d ate</w>
b en
am it</w>
addi tion</w>
a y</w>
a ff
a d</w>
Um lauf</w>
Sitz ungen</w>
Sicherh eit
P ers
O k
M är
Li thu
K ateg
In stitu
G re
Febru ary</w>
7 5</w>
3 1</w>
200 1</w>
2 2</w>
2 1</w>
- T
riteri en</w>
r und</w>
r on
qu ality</w>
posi t</w>
p ress</w>
o -
n ec
n am
me as
li st</w>
k l
gr und</w>
foli o</w>
er ation</w>
ek on
der ung</w>
der s</w>
d at
co ins</w>
be g
an y</w>
an ia</w>
an di
ab gerufen</w>
Ver k
Tr ans
Schul d
Ok tober</w>
Mün zen</w>
Mär z</w>
L T
Instrum ente</w>
Hal b
Fra u</w>
Bank en
3 4</w>
z eit
ul g
u t
tr an
stri bu
st leist
soll te</w>
sh ort
sch nit
sch ei
s ett
reser ven</w>
reco gn
pro pos
po l</w>
or en</w>
lich keit</w>
k ing</w>
k ey</w>
implem entation</w>
il e</w>
hi bi
gram m</w>
gel egt</w>
ge gen</w>
ep t</w>
enti al</w>
de posit</w>
calend ar</w>
bu il
b ility</w>
at y</w>
Zins sätze</w>
Tre aty</w>
T e
Halb jahr</w>
G e
Di rek
B il
An forderungen</w>
ück sichtig
ärk te</w>
y -
wir k
supervis ory</w>
stand ing</w>
st ä
ser vices</w>
sec tor</w>
sch reib
ri bu
resp ective</w>
requi red</w>
rei ch</w>
re main</w>
politi k</w>
monet är
mon th</w>
m i
govern ment</w>
ecu tive</w>
denomin ation</w>
decre ased</w>
decisi ons</w>
cont ribu
c c
b re
ation al</w>
at eral</w>
as si
ar o
ar is
ann t</w>
agg reg
adj ust
ab ility</w>
Währungs reserven</w>
T A
Syst em</w>
Su pervis
S low
Re chn
Press ekon
H in
Fur ther</w>
Euro-Währungsgebi ets</w>
Di es
D ar
Ber icht</w>
B est
1 7</w>
- Banknote</w>
än de</w>
y ing</w>
w ar</w>
un de</w>
um p
transfer red</w>
tho se</w>
ten ance</w>
syst ems</w>
reser v
re hen
rehen sive</w>
pp e</w>
pla ce</w>
p rin
p f
mis sion</w>
min i
man y</w>
main tenance</w>
m em
lon g
la ge</w>
j ähr
incre ase</w>
fi g
europ ä
e fore</w>
dies en</w>
den ce</w>
da ys</w>
d amit</w>
be zü
b il
ay s</w>
ar chit
ar beit</w>
al en</w>
aga inst</w>
Wirtschaf ts
T ab
S M
Ne ub
Ma ßnahmen</w>
MF I
Kapit al
Kal ender</w>
F ü
Er gebn
E ch
Di en
Basis punkte</w>
20 -</w>
zu ständi
zahl ungen</w>
w ür
w ähr
ur y</w>
u te</w>
u t</w>
trä ge</w>
ten den</w>
st ress</w>
qu eries</w>
mm t</w>
mark th
lan gu
l and
j o
inclu ding</w>
in nen</w>
führ en</w>
f all</w>
d ocum
curr ency</w>
con duc
con di
comp rehensive</w>
c ated</w>
ber s</w>
ber icht</w>
an deren</w>
al ität</w>
a in</w>
Zahlungs verkehr
Ver öffentlich
St atisti
St at
Jun i</w>
Ex ecutive</w>
B ed
A t</w>
A k
A N
ü l
woh l</w>
ten der</w>
sp ra
sich tlich</w>
s on
ris ks</w>
ris k</w>
re lev
prof essi
p ot
o k</w>
me tho
markth alle</w>
lan g
ins gesamt</w>
inclu de</w>
in v
in iti
gramm s</w>
ge ther</w>
erhal b</w>
coun tr
besonder e</w>
be ing</w>
Zusammen arbeit</w>
St ell
R O
Jul y</w>
Ges am
Febru ar</w>
Euro gebi
Ent wur
Ech th
CE T</w>
Beschl uss</w>
Be i</w>
B ulg
B el
An teil
1 9</w>
1 7
1 6
1 3</w>
zu gel
with dra
war en</w>
w ould</w>
v ing</w>
ur ity</w>
um s
ti m
steh en</w>
so me</w>
setz ung</w>
sch ri
s eries</w>
s am</w>
ri b
reg ard</w>
re ad
pri v
per form
month s</w>
m üssen</w>
m us</w>
l än
hin aus</w>
h e</w>
gro up</w>
gan g</w>
fi ed</w>
ess en</w>
ent al</w>
ens ure</w>
en z
el l</w>
duc tion</w>
detail s</w>
d em
coll ateral</w>
bal ance</w>
all er</w>
al ten</w>
ag re
Wertpapier en</w>
St and
MFI s</w>
ME Z</w>
K ul
Geld sch
G D
GD P</w>
Eink lang</w>
5 7</w>
w ard</w>
v oll
v e
ungs perio
t ori
sign ifi
s aid</w>
ro u
rin zi
ri ech
respon sible</w>
rem un
ot ogra
ord ance</w>
ni mmt</w>
n s</w>
n o</w>
n ed</w>
m usi
lo ans</w>
li quid
j ew
jew eili
is h
imp ort
gr und
gem äß</w>
en kt</w>
e qui
dies es</w>
de bt</w>
co operation</w>
bereit s</w>
ar k</w>
am s</w>
ak down</w>
af ter</w>
acc ordance</w>
T eil</w>
Sitz ung</w>
Mark t
Geld politik</w>
Erfüll ungsperio
EZB- Website</w>
D eu
50 -</w>
5 5</w>
1 00</w>
- b
ßer dem</w>
zur ück
zeichn is</w>
wor ks</w>
wh o</w>
ver schied
un ver
ter n</w>
sti e
son sti
s k
re qu
re por
ra c
r ul
provi de</w>
proced ures</w>
ph ase</w>
p e
on g</w>
no ch</w>
nec ess
mon ey</w>
ma ke</w>
langu ages</w>
j ek
is se</w>
im pro
ier t</w>
i tion</w>
ht m
hibi tion</w>
ge zo
g lie
g ed</w>
etz t</w>
en n
em e</w>
e der
e as
di stribu
dat a</w>
d -
chan ges</w>
c l
b oth</w>
b ec
app li
an t
ai l</w>
adop ted</w>
ad t</w>
a g</w>
Ver ordnung</w>
Stat ute</w>
St r
SEP A-
R G
P rüfung</w>
P ol
P h
P ay
Netto zins
N ot
Mindest reserv
Li quid
Konvergen z</w>
Geldmen gen
Er weit
Ein la
ES Z
Direk tori
Deu tsch
Bulg ari
An zahl</w>
An pass
201 7</w>
ör den</w>
with in</w>
wen n</w>
w är
w o
verb ind
valu ation</w>
v ot
tsch rit
tr end</w>
t as
sub ject</w>
su ch</w>
st er
st ei
spec ifi
signifi c
sh e
rinzi p</w>
rib ed</w>
re gi
pre p
poli cies</w>
particul ar</w>
p ru
op le</w>
neh m
mechanis mus</w>
long -term</w>
lo ss</w>
liquid ity</w>
institu te</w>
i en</w>
häl fte</w>
hal ten
h öh
gew ähr
ges enkt</w>
g ab
f il
ev ents</w>
ers ch</w>
er forder
en er</w>
di f
d o
conc ern
co sts</w>
c as
besch lossen</w>
bei den</w>
b lei
auf wendungen</w>
atz ung</w>
at ors</w>
an z</w>
an is
an der
ach i
ac ro
Z ahl</w>
Supervis ory</w>
Sch ül
S atzung</w>
Risi ken</w>
Re port</w>
N u
M ersch</w>
Geb äu
Est on
E N</w>
Dur ch
Comm unity</w>
Ber ei
Bel gi
Bank a</w>
Al l</w>
9 0</w>
200 0</w>
2 9</w>
2 8
ü bri
übri gen</w>
ör der
ö ß
Än derungen</w>
zu g</w>
z ent
ver ein
v ari
unter stütz
th rou
sup port</w>
stru k
stleist ungen</w>
soll ten</w>
soll en</w>
sett led</w>
schließ lich</w>
s h</w>
rit t</w>
resp ect</w>
res st
relev ant</w>
professi onal</w>
pro g
pp en</w>
pot ential</w>
p lan
necess ary</w>
mini str
k eiten</w>
jeweili gen</w>
it ed</w>
inclu ded</w>
im s</w>
i mm
i ere</w>
har mon
gef azilität</w>
g oo
g ar
ex i
et er</w>
erhal ten</w>
erh öh
e ach</w>
durch schnit
di es</w>
der i
curr ent</w>
comm it
b ro
aris ing</w>
arbeit en</w>
ar den</w>
af f</w>
a b</w>
a .m.</w>
Z eit</w>
Wertpap iere</w>
W achst
Um setzung</w>
Um f
U R
Tab elle</w>
St resst
S o
R ol
Pro gramms</w>
N CB</w>
Milli arden</w>
Mark t</w>
M r</w>
Lithu ania</w>
Jahres hälfte</w>
In di
Hau sh
Gemein schaft</w>
Europ e</w>
Einla gefazilität</w>
ES CB</w>
E R
Amts spra
6 0</w>
199 9</w>
1 0.
öffent lichen</w>
withdra wn</w>
ver teilt</w>
us ed</w>
to gether</w>
ti ce</w>
ter s</w>
ta ined</w>
su res</w>
st en
si de</w>
sel kur
schri ften</w>
s z
s ation</w>
refinanzierungs f
refinanzierungsf azilität</w>
qu ar
pro vision</w>
pri ces</w>
par ties</w>
or ity</w>
o ff
ma ch
l uss</w>
itz en
itzen refinanzierungsfazilität</w>
issu ed</w>
ich ts</w>
h eiten</w>
gesam ten</w>
gel d</w>
gefälsch te</w>
gab e</w>
fr ist</w>
fah r
ex am
es en</w>
end ed</w>
en g
einheit liche</w>
ein ge
ei st
e k</w>
de fi
de b
d .</w>
curr ently</w>
countr y</w>
condi tions</w>
con fir
co ur
ch ec
bre akdown</w>
b lat
ass et</w>
Zahlungsverkehr s
W o
Verk ehr</w>
Ver füg
Ver ein
Th ey</w>
Sp itzenrefinanzierungsfazilität</w>
R ats</w>
Po li
Kar ten
Jul i</w>
I t
Ger ä
F ri
E N
E B
Dies er</w>
Bank s</w>
Arbeit s
Analy se</w>
Amtsspra chen</w>
A ss
5 00</w>
3 ,
- K
üss e</w>
ärk ten</w>
zw öl
z ep
x ed</w>
unter su
to -
th ere</w>
th em</w>
st ed</w>
sp i
sich t</w>
read y</w>
re fl
ra ch
r ück
qu anti
prog ress</w>
prof it</w>
pos sible</w>
pe ople</w>
ord in
national e</w>
mp f
monetär en</w>
main ly</w>
l t</w>
l ar
kün f
ing ungen</w>
import ant</w>
hal b</w>
ha d</w>
h .</w>
gi ven</w>
ge dec
fu ture</w>
fol gt</w>
fin den</w>
fe es</w>
erfüll t</w>
er gebn
ent ed</w>
en ar
ein ger
ech selkur
da zu</w>
cul tur
comp li
bu t</w>
ber ücksichtig
bek annt</w>
bank fähi
b li
aro und</w>
ar ly</w>
analy sis</w>
ali si
Y ves</w>
W echselkur
Ver lu
U LT
ULT UR
Rechn ungs
Rech ts
R at</w>
N ach
Mindestreserv e-
M it</w>
In fl
H ar
H I
Fr ance</w>
For tschrit
EP C</w>
Dar über</w>
Banknoten um
BI P</w>
8 0
7 4
1 .</w>
zu gr
zugr unde</w>
zi eh
z usamm
z us
y o
wh en</w>
we ek
w ach
v en
un ion</w>
ther efore</w>
tas ks</w>
su cc
st aff</w>
rec ent</w>
reali sed</w>
r frist</w>
qu e</w>
proc ess</w>
port folio</w>
per rfrist</w>
p r
nu r</w>
min im
meet ings</w>
meas ures</w>
m anu
lo ok</w>
lie gen</w>
leich t</w>
lei sten</w>
l ying</w>
hel d</w>
h än
gro ß
gr öß
g y</w>
fe at
exp ens
erfol g
en bankfähi
emb arg
embarg o</w>
el en</w>
eh ol
ebsit es</w>
cultur al
counterfeit ing</w>
co vered</w>
ci ent</w>
c ard</w>
blat t</w>
bet ru
berücksichtig t</w>
ateg ie</w>
announ ced</w>
an ces</w>
ak ia</w>
a gement</w>
Zw ec
Unter nehmen</w>
Trans mission</w>
Str ategie</w>
Slow ak
Slov akia</w>
S perrfrist</w>
S ek
S ach
Qu alität</w>
Pro gramm</w>
P ubli
P rinzip</w>
P ort
Mindestreserve- Erfüllungsperio
Latvi a</w>
L u
Kul tur
Anpass ung</w>
All gem
A c
1 2
- to-
wor den</w>
wer t</w>
weit ere</w>
vi ron
v öl
umfass enden</w>
tran spar
tra gen</w>
tak es</w>
supervis ion</w>
su sta
struc tion</w>
strateg y</w>
sp e
sh ing</w>
s ech
rel ated</w>
purch ase</w>
pro duc
pf lich
perio ds</w>
p ast</w>
our nal</w>
or ities</w>
on en</w>
ol d</w>
ob j
o fficial</w>
o ch</w>
no w</w>
ne ed</w>
mem bers</w>
m ember</w>
li ties</w>
k ation</w>
intro duction</w>
ins besondere</w>
i denti
htm l</w>
hin sichtlich</w>
ger ing</w>
gem ein
ge prüf
g lich
ful ly</w>
fu l</w>
feren z</w>
feren ces</w>
ex peri
erk m
eri e</w>
er dings</w>
enar io</w>
en zi
en falls</w>
ed ri
con om
chit ek
c la
c ateg
buil ding</w>
be steht</w>
be gr
b o
au to
ar ding</w>
al o
achi ev
Zins er
W i
Veröffentlich ung</w>
Verfüg ung</w>
Ver zeichnis</w>
U m</w>
Slowak ei</w>
Sec urities</w>
Rück stellung</w>
Reg elungen</w>
P or
O fficial</w>
N eu
M ech
Lit auen</w>
Latvi j
Konvergenz bericht</w>
K apital</w>
J ournal</w>
Infl ations
Ho wever</w>
Govern ors</w>
Geschäf t
Gesam t
Falsch geld
E E
E C
D ays</w>
Con vergence</w>
C ul
Ar chitek
201 8</w>
änder t</w>
äl t</w>
ä m
währ end</w>
wh ere</w>
völ k
vel y</w>
under lying</w>
struc ture</w>
st ing</w>
specifi c</w>
sel y</w>
sech s</w>
se e</w>
sch ed
sched ul
s es</w>
rul es</w>
reich en</w>
regul ar</w>
re pres
provi ded</w>
po se</w>
p ut</w>
o k
n äch
mon it
medi um
ma j
m an</w>
loss es</w>
lo cated</w>
lang fristigen</w>
l it
isch er</w>
inter national</w>
institu tion</w>
in n</w>
hi gh</w>
gr u
gen den</w>
ge halten
ga ins</w>
ful l</w>
ff en</w>
ex hibition</w>
eur teilung</w>
entsprech enden</w>
en z</w>
en h
ear ned</w>
e ad</w>
cour se</w>
con fi
clo sely</w>
bli ck</w>
auth orities</w>
auth enti
ass ump
anst alt
anis m</w>
am p
a st
St adt</w>
Sicherheit en
SM P</w>
S te
N ach</w>
Mech anism</w>
M il
Latvij as</w>
L ett
J e
Geschäf ts
G ru
F ol
Entwur f</w>
En tsch
E conom
Di es</w>
Cul tural</w>
C har
Banknotenum lauf</w>
B eurteilung</w>
B en
B eh
B au
B an
Aufsich t</w>
Au ßerdem</w>
Al le</w>
5 .
über sch
é n
wi esen</w>
wen di
wachst ums</w>
w ay</w>
völk erung</w>
uss es</w>
us in
ul tation</w>
ud ents</w>
tr end
ti eren</w>
techn i
t ungen</w>
t able</w>
stie g</w>
si x</w>
si eh
sh are
s us
ru f
ruf bar</w>
ro le</w>
recogn ised</w>
r ati
quanti t
propos ed</w>
po sit
p rac
over all</w>
ob ach
o ck
ne ed
nam ely</w>
n er</w>
mitt l
medium -term</w>
medi um</w>
l üss
k at
inn e</w>
ind ung</w>
in es</w>
il s</w>
i hr</w>
i ge</w>
hol dings</w>
ho w</w>
glie der</w>
gen e</w>
fi zier
expens es</w>
exp ected</w>
et ary</w>
ess es</w>
erkm ale</w>
er c
ec tion</w>
der zeit</w>
con struction</w>
chan ged</w>
ch ar
besch ri
be deu
andi d
an geh
ad ministr
ab rufbar</w>
Syst ems</w>
Stell ung
Sta ats
Rück gang</w>
Pro gramme</w>
Pay ments</w>
P ress</w>
Or ganis
O ver</w>
O O
N i
N ew</w>
Mon etary</w>
MF I</w>
M ärkte</w>
L in
Kateg ori
Falsch geld</w>
E A
E -
Bet rag</w>
Be zug</w>
B eg
Auf gaben</w>
An k
Amts blatt</w>
Absch reib
7 3
4 0</w>
10. 00</w>
1 8</w>
öffent liche</w>
zuständi g</w>
y m
wend ung</w>
vot ing</w>
untersu chten</w>
un ds</w>
um lauf
u ch
tra gs</w>
th en</w>
t ä
t ro
susta in
sol l</w>
sh i
s einer</w>
ro ati
ris i
ri es</w>
resul ts</w>
remain s</w>
r ing
qui ries</w>
purch ased</w>
punk t</w>
pre vi
pl ann
p ment</w>
p aid</w>
no wn</w>
ne xt</w>
ne w
mäßi ge</w>
minim um</w>
mat eri
m uss</w>
l eit
k riterien</w>
j ed
jed och</w>
h äu
h at
gr ation</w>
ge t</w>
ge geben</w>
g ust</w>
finan zi
feat ures</w>
f unc
ex erc
eur o-
equi pment</w>
ent schei
en viron
em p
el d</w>
ein f
ec e</w>
ec b</w>
di sc
denomin ations</w>
de st
d ated</w>
counterfeit ed</w>
con ference</w>
bi et
auf grund</w>
app ly</w>
an -
ad ap
accoun ts</w>
ab er</w>
Zeit raum</w>
Wettbewer b
Wechselkur s
Ver anstalt
T o</w>
Sta aten</w>
Slov en
R ei
Mon aten</w>
Me et
Inform ation</w>
I T
Haush al
Grund lage</w>
Gre ece</w>
Fin an
Euro pol</w>
Eston ia</w>
Erweit erten</w>
Ein zel
EB A</w>
Direktori ums</w>
Au gust</w>
A re
6 9
1 4</w>
1 4.
- Banknoten</w>
én y
ény i
ényi -T
ényi-T or
ényi-Tor sten
ényi-Torsten ss
ényi-Torstenss on</w>
zusamm en</w>
zu stellen</w>
zeit raum</w>
z un
wh ile</w>
w eit</w>
v a</w>
tn er</w>
tion ing</w>
tig keit</w>
throu gh</w>
techni cal</w>
te xt</w>
t ényi-Torstensson</w>
t el
sz ter</w>
str eng
signific ant</w>
she et</w>
share s</w>
sch er</w>
s eit</w>
ret ail</w>
reg arding</w>
prüf en</w>
proced ure</w>
pre ci
ot line</w>
or ie</w>
op in
ob tained</w>
mark t
län ger
leg ungs
land s</w>
k ommen</w>
k omm
k nown</w>
inn ing</w>
in du
ho wever</w>
h e
gh ts</w>
ges etzt</w>
g ung</w>
g ten</w>
fris tige</w>
fig sten</w>
fest gelegt</w>
experi ence</w>
es day</w>
ergebn is</w>
er ti
er ste</w>
er läu
ein schließlich</w>
ein geführt</w>
ech ten</w>
eas ily</w>
dies bezü
denomin ated</w>
de p
cultural -
cultural- days</w>
cor por
continu es</w>
consi st
con soli
co -
cl assi
c ity</w>
belie fen</w>
belie f</w>
an lagen</w>
ah er</w>
ack ed</w>
Wettbewer b</w>
W e
Ver tr
V ol
Te il
St ate</w>
S timm
Res er
Rechnungs legungs
R ah
O n</w>
O n
Nu tz
Mindestreserve-Erfüllungsperio den</w>
Mil tényi-Torstensson</w>
Meet ings</w>
Liquid itäts
Lett land</w>
I S
Groß markthalle</w>
Geschäf te</w>
G u
Er stellung</w>
Econom ic</w>
Echth eit</w>
EU- Mitgliedstaaten</w>
E szter</w>
C o
C ity</w>
Bed ingungen</w>
55 55</w>
5 ,
zu führen</w>
y th
wo bei</w>
we ils</w>
wachst um</w>
ver sion</w>
ver füg
un changed</w>
tn is</w>
ti tel</w>
ti er</w>
th ir
te ams</w>
t age</w>
t a</w>
star t</w>
stand ards</w>
soli di
sin ce</w>
shi p</w>
sh ow
schi e
schaf ten</w>
s or
s eine</w>
s af
resul t</w>
remun eration</w>
rech tlichen</w>
recei ved</w>
re duced</w>
r one</w>
r aums</w>
r au
pur pose</w>
prä sidenten</w>
pro por
propor tion</w>
pres ent</w>
pr o</w>
po sures</w>
otogra ph
ot enzi
on ds</w>
oh ne</w>
o me</w>
not enbankfähi
ni edri
min dest
me ans</w>
m ärkten</w>
low er</w>
l etz
je weils</w>
it e</w>
is ier
is cal</w>
ing -
in ing</w>
ih res</w>
h l
ges ichts</w>
geprüf t</w>
gen er
gan genen</w>
ful fil
ferenz en</w>
er wor
enth ält</w>
en nung</w>
en ing</w>
em in
eligi bility</w>
el ung</w>
el s
eg er</w>
ech t</w>
e p</w>
du k
direc tly</w>
des c
d a</w>
conduc ted</w>
cla ims</w>
ci t</w>
ch ungen</w>
c e-
blei ben</w>
bet re
bec ome</w>
b usin
auto m
an ts</w>
an ten</w>
am ent</w>
ak tu
ad d
ach t</w>
ab o
Zentralbank präsidenten</w>
U S</w>
T o
Stellung nahme</w>
Stand ards</w>
Pressekon ferenz</w>
P ri
P ap
P P</w>
Kultur tage</w>
Institu tionen</w>
In s
I f</w>
Hin blick</w>
G leich
For derungen</w>
Falsch not
Euro- Banknotenumlauf</w>
Est land</w>
Ergebn isse</w>
E i
Durch führung</w>
Dien stleistungen</w>
C ol
Bil anz</w>
Beschl üsse</w>
Be völkerung</w>
Aufsichts mechanismus</w>
Are a</w>
An nahmen</w>
Abschreib ungen</w>
Ab satz</w>
A d
80 34</w>
4 ,
2 4</w>
äh ri
wich tig
weit er</w>
vi ew
ungs ver
un ft</w>
um f
u tion</w>
ti schen</w>
ta g</w>
t es</w>
str y</w>
sti mm
so mit</w>
sieh e</w>
si mp
recei ve</w>
rec or
re land</w>
prüf ung</w>
provi des</w>
pro z
pre is
particip ating</w>
opin ion</w>
not e</w>
mö glich
mat ters</w>
mach ines</w>
li egt</w>
lei ch</w>
kon solidi
j ähri
inclu des</w>
in t</w>
in fra
hr en</w>
ges ehen</w>
gen de</w>
gehalten en</w>
gefälsch ten</w>
g old</w>
g leich</w>
fü gt</w>
fol ge</w>
fi cation</w>
f er</w>
exerc ise</w>
ev en</w>
erhöh t</w>
erh eb
er ster</w>
eld -to-
eld-to- mat
eh l
durch geführt</w>
direc t</w>
d ow
d au
confir m
c ust
c ase</w>
besch loss</w>
be ur
au ss
are as</w>
ann ten</w>
al tung</w>
al ready</w>
agre ed</w>
administr ative</w>
abo ve</w>
ab sch
Währ ung</w>
W as</w>
Ver trags</w>
T ran
Schül er
Schuld titel</w>
Reg ier
Prä sidenten</w>
Me hr
Lin ie</w>
Kon s
Jah re</w>
I reland</w>
I L
H ung
Gre ek</w>
Fri day</w>
F A</w>
Eurogebi ets</w>
Euro- Zahlungsverkehrs
Er n
Entsch ei
Ent wür
Ei gen
EU RO
ER M</w>
E mitt
Di rec
CE T
C h
Beh örden</w>
Banken auf
An stieg</w>
Ak tiv
Ac coun
4 0
1 8
0. 25</w>
&apos ;</w>
ö ren</w>
äh n
â n
zi f
z ul
weis ungen</w>
we den</w>
w enden</w>
vi er</w>
verschied enen</w>
verb ess
vari ous</w>
unver ändert</w>
unk tion
und es
umfass t</w>
u ation</w>
tre ten</w>
tak ing</w>
t oren</w>
t eten</w>
syst eme</w>
sus p
sub sc
sti l
so wohl</w>
sch aff
s si
s on</w>
ro ss
riteri um</w>
rit er
riter ion</w>
ri ff
reit ag</w>
reco vered</w>
rau ch
r aten</w>
prin cip
previ ous</w>
preci ation</w>
prac tice</w>
poli ce</w>
pl an</w>
or ganis
ol d
ock s</w>
metho d</w>
main ta
m ust</w>
m ark</w>
l et
kön n
ko sten</w>
jähr lichen</w>
jek t</w>
j e</w>
is sen</w>
inv est
integr ation</w>
inn erhalb</w>
incre as
ig er</w>
hat te</w>
gru ppe</w>
goo ds</w>
gi bt</w>
gh ted</w>
gezo gene</w>
gedec k
ge wich
ge geb
g riech
forder t</w>
folgen de</w>
fi xed</w>
f äl
f iscal</w>
ex ter
es sion</w>
er ungs
er sch
ent wicklung</w>
el ine</w>
ei gn
ec tions</w>
e um</w>
e qu
du al</w>
deu tlich</w>
desc ribed</w>
defi cit</w>
de vices</w>
d ru
d o</w>
cust om
consist ent</w>
commit ment</w>
comm uni
co ver</w>
c ross
c riterion</w>
c ar
be h
be fore</w>
b ene</w>
b au
b ased</w>
arbeit ung</w>
ar t
ar en</w>
all ück
aggreg ate</w>
Zinser träge</w>
Zahl ungen</w>
Z i
W ith</w>
W ie</w>
Verb rauch
Verb ess
Un gar
Umf ang</w>
Stresst est</w>
Pro duk
P f
P P
Neub au</w>
Mit glieder</w>
Ma il</w>
L and</w>
Kredit institute</w>
Kon z
Kategori e-
Kapit allück
K ur
K riterien</w>
K andid
Inform ations
Hung ary</w>
Her r</w>
Gen er
Gem äß</w>
Geldsch ein</w>
Geldmen ge</w>
Ge gen
G -
Fortschrit te</w>
F reitag</w>
F ak
Ex per
Eink ün
EURO P
ESZ B</w>
E- Mail</w>
Con st
C lau
Beit rit
B ür
B undes
B es
Au ch</w>
An n
A n</w>
A T
- L
ür ze</w>
ö s
äm lich</w>
Ö ffent
Än derung</w>
zugel assen</w>
z usammen
x emb
wor l
worl d</w>
w es
vor gesch
voll ständi
vis i
ver gangenen</w>
ver d
ums rate</w>
u is
tur ers</w>
ti c</w>
thir d</w>
teil nehm
succ ess
stil l</w>
sta g</w>
sonsti ge</w>
sit z
sit e</w>
si ze</w>
sec urity</w>
riff t</w>
rel ati
regul ated</w>
recor ded</w>
priv ate</w>
posit s</w>
po sten</w>
ph as
per son</w>
or m
oo l</w>
on z
olo gy</w>
o b</w>
not wendi
need s</w>
n ämlich</w>
mindest ens</w>
manu fac
manufac turers</w>
low ing</w>
lo b
la w</w>
la un
l är
l er</w>
k am
k a</w>
inter nationalen</w>
indic ators</w>
i f</w>
häu figsten</w>
high -
grund sätze</w>
gewähr leisten</w>
geschäf ten</w>
gel tenden</w>
g s
fin al</w>
f älsch
f y</w>
ex posures</w>
et able</w>
et -
establi shed</w>
er neu
enth alten</w>
ent fi
ens ek
em en</w>
ein ige</w>
effi zi
ec ti
eb enfalls</w>
e very</w>
di st
deu tung</w>
der n</w>
de posits</w>
d ür
d n
d ar</w>
consoli dated</w>
confi dence</w>
con text</w>
ci o</w>
c ert
betru g</w>
beschri eb
be obach
au ß
ati ves</w>
ati s
at ely</w>
assump tions</w>
arbeit et</w>
ant wor
an erk
am e</w>
all em</w>
ali sed</w>
ali en</w>
adjust ed</w>
ad vis
ad ver
accoun ted</w>
a di
Zeit punkt</w>
Wirtschafts -</w>
Vol k
Vertr auen</w>
Veranstalt ungen</w>
Tran spar
TA RG
TARG E
T el</w>
Sch ritt</w>
S a
Rol le</w>
Reg eln</w>
Rah men
Par l
Organis ation</w>
O T
NZ B</w>
Mon day</w>
Mitgli ed</w>
M ö
M alt
M T
Lu xemb
L ist</w>
K ürze</w>
K ra
Inter pol</w>
Inter national</w>
I r
Her stell
G onz
Falschnot en</w>
E r</w>
E C</w>
D ok
D A
C P</w>
Berei che</w>
Beg inn</w>
Be deutung</w>
Bank ing</w>
Bank ensek
Aus schreib
Ann ual</w>
Ank auf</w>
An wendung</w>
An gaben</w>
Ab wei
AN FA</w>
7 2</w>
6 5
6 3
20 0</w>
10 -</w>
. 2</w>
über nimmt</w>
ähr leist
ährleist ung</w>
ä ssi
ä mpf
ämpf ung</w>
ân cio</w>
Ö ster
zwöl f</w>
zugel ass
zo gen</w>
zei ch
wirk ungen</w>
weis en</w>
we ist</w>
us eum</w>
us ehol
usehol ds</w>
ur red</w>
ur ing</w>
unterstütz en</w>
un verbind
un ser
ul t
tu g
tug al</w>
transfer s</w>
trans fer</w>
ti vi
ti ert</w>
ten de</w>
t y
t ungs
stän de</w>
struk tur</w>
statisti cal</w>
stat us</w>
stat ements</w>
st re
st ep</w>
st ance</w>
so ur
simp le</w>
repor ting</w>
re valuation</w>
ran ge</w>
ra ised</w>
r än
priv aten</w>
prep ared</w>
pre par
or t</w>
or por
or gan
omm ens
olo gi
ol ution</w>
o us
non- financial</w>
n icht
mäßi gen</w>
monit or</w>
maj ority</w>
ma il</w>
lu s</w>
li ament</w>
leg ungen</w>
le ast</w>
l assen</w>
kat oren</w>
it y-
intro duced</w>
indu stry</w>
indic ative</w>
inc urred</w>
i ppen</w>
hol d</w>
ho useholds</w>
hel p</w>
hand elt</w>
h eit</w>
gleich en</w>
ges ell
geldpoliti sche</w>
ge st
g re
g o
ex per
ev ent</w>
europä ischen</w>
etz en</w>
establi shing</w>
erk lär
erforder lich</w>
er stellt</w>
er min
er geben</w>
entsprech end</w>
end it
en ber
en ari
el ten</w>
el te</w>
effi cient</w>
e at
dif fer
des ig
den en</w>
defin ition</w>
de vi
d rit
consider ations</w>
concern ing</w>
con ferences</w>
comp on
comm ent</w>
c andi
bro ad
bet rifft</w>
bet rag</w>
be stände</w>
be stä
be fin
bank as</w>
auß erhalb</w>
at or</w>
assess ed</w>
ass ung</w>
an f
adjust ment</w>
ad em
acro ss</w>
acc or
ac tions</w>
ab hän
a im</w>
Zi el</w>
Z ul
Z iel
Währungs union</w>
Wo chen</w>
W K
Vor bereit
Ver w
Ver tre
Ver trag</w>
Stimm rech
Sicherheiten ver
S icht</w>
S er
Referenz zeitraum</w>
Rechnungslegungs grundsätze</w>
R ig
R icht
Pro to
Pressekon ferenzen</w>
Por tugal</w>
Ph ase</w>
Par liament</w>
O ber
Neu bewer
Mon tag</w>
Me tho
M usi
M ore</w>
L an
Ko sten</w>
Ko mp
Kateg orie</w>
Karten zahlungen</w>
Kandid aten</w>
K unden</w>
J o
In tegr
In fra
H and
Gr ün
Gew ährleistung</w>
Gerä te</w>
Fü hl
F est
Eurogebi et</w>
Einzel heiten</w>
Eink ommens
Ein e</w>
E bene</w>
Dur ing</w>
Dok um
Deutsch land</w>
D es
D en
Const âncio</w>
Clau de</w>
CET 1</w>
Best ände</w>
Beschl üssen</w>
Ban que</w>
B ek
Ar beit</w>
Allgem eine</w>
8 0</w>
2 7
2 3</w>
über tra
über prüfen</w>
í tor</w>
ä tig
Über prüfung</w>
Über legungen</w>
Öffent lichkeit</w>
zus ätz
x im
wirtschaf tlichen</w>
wickl ungs
wickl ungen</w>
wh ol
wer ten</w>
week s</w>
war ds</w>
w indi
windi gkeit</w>
w ebsites</w>
vor aus
vis ed</w>
vi dence</w>
vi ce</w>
ver zins
ver schreib
verschreib ungen</w>
ver glichen</w>
ver ab
vel oc
veloc ity</w>
valu ed</w>
uss en</w>
un s
un realised</w>
uis enber
uisenber g</w>
transpar ency</w>
tr on
ti lt</w>
str a</w>
steh enden</w>
st u
st and</w>
spec i
spe zif
si ons</w>
si m
sh ow</w>
sec tion</w>
se qu
rä t</w>
rich et</w>
ret ari
retari at</w>
respon si
requ est</w>
rech tliche</w>
re lease</w>
rati o</w>
pur pos
purpos es</w>
pro ject</w>
prep are</w>
pl es</w>
ous ly</w>
otenzi al
organ ised</w>
oper ationen</w>
oper ational</w>
op en</w>
on or
on ce</w>
n isch
nisch f
nischf eger</w>
n esday</w>
mö glichen</w>
musi c</w>
mon at
ma chen</w>
m ental</w>
lo cation</w>
lin ie</w>
lei hen</w>
l ess</w>
kon z
k i
jähr lich</w>
j ury</w>
issu er</w>
is ti
infra structure</w>
imp act</w>
ich te</w>
high er</w>
hi er
heu tigen</w>
hand l
h is</w>
gr enz
gesch windigkeit</w>
gen cy</w>
gel eg
geh end</w>
geb ü
g rei
fol low</w>
fi z
fe el</w>
f our</w>
exc lu
ex t
europä ische</w>
euro- banknot
eu .</w>
erläu tern</w>
erfüll en</w>
er war
er fahr
entfi elen</w>
ent en
en quiries</w>
en land</w>
en aus
einf ach
eh men</w>
ef for
ed nesday</w>
econom y</w>
e- mail</w>
e vidence</w>
distribu tion</w>
diesbezü glichen</w>
develop ed</w>
dec line</w>
dec kt</w>
dau erh
dar über</w>
dar f</w>
d ance</w>
custom ers</w>
corpor ations</w>
cons ultation</w>
com b
clo se</w>
chn ung</w>
chec k</w>
categ ory</w>
cas h</w>
candi date</w>
calend ars</w>
c ement</w>
betre ff
bes timm
ben ef
befin d
b enen</w>
ass ess</w>
archit ects</w>
ar t</w>
ar ily</w>
ar -
ann te</w>
and bri
an- Claude</w>
alo g
al t</w>
al low
al ert</w>
a -
Z y
Z wei
Y S</w>
WK M</w>
W elt</w>
W ednesday</w>
Verein ig
Verb indung</w>
V ítor</w>
Um wel
ULTUR A
ULTURA L</w>
U ta</w>
U S
Transpar enz</w>
TARGE T
T richet</w>
T it
Ste f
St ab
S inne</w>
S h
Reser ve</w>
Rei he</w>
R u
R ates</w>
Qu art
Pro ject</w>
Pre mises</w>
Pf andbri
P otenzial
Nettozins er
N ational</w>
M i
M ass
M -
Latvi an</w>
L auf
Komp on
Komm uni
Kapit als</w>
Je an-Claude</w>
Jahres wachst
Jahres absch
Jah res</w>
J ury</w>
J ap
Ir land</w>
Ins gesamt</w>
IL T</w>
I -
Har nischfeger</w>
Gru ppe</w>
Gewinn e</w>
Geschäft spar
G riech
G old
G el
Fra gen</w>
Fol lowing</w>
Finan cial</w>
F örder
F EE
Euro-Zahlungsverkehrs raum</w>
Ern ennung</w>
Entwür fe</w>
Einkommens umlauf
Ein lagen</w>
E in</w>
De fiz
DA YS</w>
D uisenberg</w>
D at
C ULTURAL</w>
Bundes bank</w>
Bil anz
Beit rag</w>
Be zieh
Aus wirkungen</w>
All erdings</w>
Abwei chungen</w>
Absch luss</w>
A ward</w>
A gency</w>
7 ,
50 57</w>
5 1</w>
3 0
28 3</w>
0. 50</w>
. eu.</w>
übertra genen</w>
öffentlich em</w>
á le
Über weisungen</w>
Über tra
Übertra gung</w>
Öster reich</w>
zurück zuführen</w>
zun ehmen</w>
zier t</w>
zep rä
yo u</w>
x .
wh e
whe ther</w>
w rit
w ell
vorgesch la
vol um
vo i
verfüg bar</w>
verein bar
verd äch
ver ring
up on</w>
u r</w>
to wards</w>
teil e</w>
t licher</w>
susp ect</w>
success ful</w>
st udents</w>
ss markthalle</w>
spi eg
sp rüfung</w>
sp iel
sonsti gen</w>
sm all</w>
sicher gestellt</w>
si tion</w>
setz en</w>
s li
s ing</w>
ro t
risi ken</w>
ris e</w>
rich tung</w>
rich tet</w>
ri ghts</w>
res se</w>
repres ent
rel ation
relation ship</w>
publi cation</w>
posi tive</w>
particip ants</w>
p ill
out side</w>
out put</w>
otograph y</w>
on y</w>
on g
ob ser
o f
not es</w>
no v
nicht finanzi
n orm
n ommen</w>
month ly</w>
mi gration</w>
materi al</w>
man agement</w>
m ei
m and
lüss el</w>
le vel
lar ge</w>
l ab
lab our</w>
kur se</w>
k ed</w>
jähri gen</w>
j ün
is ch</w>
institu tional</w>
inde x.
increas ing</w>
in ation</w>
imp li
il ing</w>
ih nen</w>
ier en</w>
i eten</w>
ho ch
hi st
gu res</w>
gro up
gezo gen</w>
ger eg
gen annten</w>
gegeb ener</w>
ge ments</w>
g il
fähi ge</w>
follow s</w>
foli os</w>
fo c
fig ure</w>
fi gures</w>
f unds</w>
f mon
est ed</w>
erwor benen</w>
er zi
en nen</w>
en g</w>
en cies</w>
em por
einfach en</w>
ein zu
ei ther</w>
eff ective</w>
docum ent</w>
devi ations</w>
detail ed</w>
deri ved</w>
defin ed</w>
dar auf</w>
da von</w>
d rück
d ou
d essen</w>
d ann</w>
cons um
conc ept</w>
ci ples</w>
ch e
cal ly</w>
bu ch
bi lities</w>
bezü glich</w>
bet rä
beschrieb enen</w>
bei m</w>
bei ge
begr ü
b ond</w>
auss etz
aus zu
auf trag</w>
auf ge
ast schriften</w>
as ste</w>
ar ran
an ne
ali sation</w>
al le
ah r
ah ead</w>
ag ed</w>
adop tion</w>
ad v
accor ding</w>
abhän gi
a si
Währungs -</w>
W hen</w>
Vor aussetz
Volk s
Vi zeprä
Vi ce-
Verein bar
Ver pflich
Unter stütz
Un ited</w>
St ru
Sp ra
Sp ain</w>
Sicherheit sm
Schul den
S z
S it
Rig a</w>
R el
Port folio</w>
P ra
OO K
OOK -T
OOK-T ILT</w>
N et</w>
Mon at</w>
Mit arbeit
Mass en
Malt a</w>
M en
M an
L e
L astschriften</w>
L -L
L-L OOK-TILT</w>
K rone</w>
Integr ation</w>
Herstell er</w>
H onor
H inter
Gro ssmarkthalle</w>
Gonz ále
Ger many</w>
G i
Förder auftrag</w>
Frankfur ter</w>
Fra mework</w>
FEE L-LOOK-TILT</w>
Europ a
Euro- Münzen</w>
Einkommensumlauf geschwindigkeit</w>
Echth eit
ESZ B-
E H
Co mp
Bet eili
Beitrit ts
Banknoten be
B asis</w>
Aus stellung</w>
Aus gleich
Auf wendungen</w>
Architek ten</w>
Anteil s</w>
3 3
2 8</w>
0 0
über stei
ü t
ön lichkeit</w>
ö ff
ä ul
Ü H
ÜH L
zi ehen</w>
zei tig</w>
zahl ung</w>
z ki
zki j</w>
z e
yo ung</w>
ym bo
y pru
ypru s</w>
wirtschaf t</w>
wi e
wes ent
wel che</w>
w ände</w>
w ettbewer
w e</w>
vorgeschla genen</w>
vi dual</w>
vi a</w>
verbind licher</w>
valu es</w>
ur s
unterstütz t</w>
unter schied
unter schei
unter halb</w>
ungs -</w>
un ities</w>
ty p
trend mäßige</w>
tr u
tivi ties</w>
tig t</w>
ther more</w>
ter ms</w>
teil en</w>
t led</w>
sub st
subst anti
struc tural</w>
stell ungen</w>
stab il
st är
st ak
sich erung</w>
sich er</w>
si on
sh own</w>
sh es</w>
ser vice</w>
schaf ts
sch lag</w>
s st</w>
s posten</w>
s einen</w>
rit t
ri ti
ri ght</w>
remun er
remuner ated</w>
reali si
re vised</w>
re si
re m</w>
re le
re kt</w>
re form
r ental</w>
r en
r ahmen</w>
quar ter</w>
prin ciples</w>
posi tion</w>
pos ed</w>
plann ing</w>
pl ac
per form</w>
par ts</w>
p at
ow o
owo da
owoda zkij</w>
our g</w>
ou y</w>
orpor ate</w>
or ig
op port
o t</w>
näch sten</w>
non- regulated</w>
new -
national er</w>
mö glich</w>
mittl ere</w>
mechanis m</w>
mainta in</w>
ma king</w>
m ärkte</w>
m erk
m ens</w>
m acro
lo die</w>
li sted</w>
level s</w>
lem ent</w>
l usses</w>
l es</w>
konsolidi erten</w>
kam p</w>
k unft</w>
k ateg
itä ten</w>
issu es</w>
issu e</w>
invest ment</w>
institu tion
initi al</w>
indic ator</w>
in i</w>
ih rem</w>
ich tet</w>
i li
h kamp</w>
h and</w>
gu i
group s</w>
griech ischen</w>
gesch lossen</w>
ger ing
ger -term</w>
gen d</w>
geleg ten</w>
ge zeichn
ge wer
ge stell
g än
g ri
for t
fass t</w>
f örder
f und</w>
exper ts</w>
exc e
et w
est s</w>
ersch ein
erfahr ene</w>
er ungen</w>
enti tled</w>
ent wick
ent deckt</w>
end s</w>
en der
empor ary</w>
emin ar</w>
el s</w>
einger ei
einge zahl
ei gen
ec ting</w>
e gen</w>
durchschnit tlich</w>
dow ns</w>
distribu ted</w>
differ ent</w>
di rekt</w>
di rek
denti al</w>
dem ieten</w>
cross -b
cross-b order</w>
counter parties</w>
contribu tion</w>
confirm ed</w>
conc lu
compli ance</w>
comp ris
co st</w>
che stra</w>
ch t</w>
ch arg
charg es</w>
cert ain</w>
c ards</w>
busin ess</w>
bi d</w>
begrü ß
be halten</w>
b ein
authenti cation</w>
ati ven</w>
archit ec
ani an</w>
angeh ören</w>
anerk annte</w>
amp ;</w>
am ong</w>
am ents</w>
alog ue</w>
all ing</w>
al located</w>
aga in</w>
advis e</w>
accoun ting</w>
acc ession</w>
ac tivities</w>
a ce</w>
Zwec ken</w>
Zahlungs instrum
W illi
W A</w>
V or</w>
V P
Ungar n</w>
ULTUR TA
ULTURTA G
T ender
Stru k
Stef an</w>
Statisti ken</w>
St ability</w>
Sloven ia</w>
Sach anlagen</w>
S äul
S o</w>
Ru hkamp</w>
Rol f</w>
Re finan
RO s</w>
RG s</w>
R ot
R om
R is
R WA</w>
Pro zent
Pro z
Potenzial wachstums</w>
Pol and</w>
Pfandbri ef
Pers önlichkeit</w>
Pers onal</w>
Parl aments</w>
Or chestra</w>
N owodazkij</w>
N ouy</w>
N ation
Milli onen</w>
Mark ets</w>
M ari
Luxemb ourg</w>
Kredit forderungen</w>
Kapitallück en</w>
K un
K or
K ULTURTAG
Indi c
In flation</w>
I PP
I B
Haushal ts
HI CP</w>
H VP
Griech enland</w>
Govern or</w>
Gebäu demieten</w>
Fur thermore</w>
Frank reich</w>
F ÜHL
F otogra
Exper ten</w>
Europa -S
Europa-S erie</w>
Er war
Entschei dung</w>
Ent wicklungen</w>
Einkün fte</w>
Ein wände</w>
E lodie</w>
E M
D em
C yprus</w>
Bür ger</w>
Best and
Ben ders</w>
Bar geld
Bankensek tor</w>
Bankenauf sicht</w>
Bank fragen</w>
B ud
B uch
B ei
Ausgleich sposten</w>
Aus sch
Ass ets</w>
An gesichts</w>
A B
9 8</w>
9 8
73 90</w>
63 21</w>
6 0
4 4
3 6
3 3</w>
12 -
12- month</w>
- Sch
- D
& amp;</w>
übersch reit
zü glich</w>
zweit e</w>
zuständi gen</w>
zugelass enen</w>
z ei</w>
y one</w>
wirtschaf tliche</w>
wi d
whol e</w>
wei ghted</w>
vor genommen</w>
verk ehr</w>
ver wen
ver ordnung</w>
ve au</w>
ut ory</w>
unser er</w>
ungs lo
und am
um än
tur n</w>
tn ers</w>
tiv ity</w>
tig er</w>
ther lands</w>
th us</w>
th re
ter ly</w>
ten tion</w>
techn ischen</w>
techn ische</w>
sustain ability</w>
subsc ribed</w>
su pp
stri a</w>
stat utory</w>
stat t
st ein</w>
sich t
si a</w>
short falls</w>
se en</w>
schedul ed</w>
sc enario</w>
sat z
s werten</w>
s ur
s ending</w>
s ek
s eit
ro tation</w>
rich t</w>
resul ted</w>
require ment</w>
repor ts</w>
remain ing</w>
rel ating</w>
reib ungslo
regi me</w>
re icht</w>
re gel
r ing</w>
r .</w>
quar terly</w>
publi sh</w>
pro duced</w>
pri z
particul arly</w>
our ces</w>
om es
omes tic</w>
oll ar</w>
nu tz
nu n</w>
n ungs
mö gen
mögen swerten</w>
mäßi g</w>
mittel fris
mit ted</w>
mand ate</w>
macro economic</w>
lä sst</w>
lon ger-term</w>
li ers</w>
könn te</w>
kur z
k ro
k redit
k or
jün g
inter nationale</w>
institu ten</w>
initi ative</w>
impro v
i r</w>
i gen</w>
i er</w>
i an</w>
häl tnis</w>
ho hen</w>
gu te</w>
gu t</w>
grenz überschreit
goo d</w>
gesell schaften</w>
gen au
gemein sam</w>
gel ten</w>
geh t</w>
gegen wär
gefälsch t</w>
g lob
g liche</w>
fü n
fälsch ungen</w>
fin ition</w>
fer n</w>
f undam
f els
fels fall</w>
exc ep
eur o
erklär te</w>
er ts</w>
er cial</w>
equ al</w>
ep f
enari os</w>
em it
el ek
el -
ein kün
effor ts</w>
e- downs</w>
e di
du ce</w>
dru ck</w>
dou bt</w>
docum entation</w>
do es</w>
dist ing
disc us
di ver
di s
di ent</w>
develop ment</w>
de qu
da bei</w>
d- up</w>
d omestic</w>
d aher</w>
d acht</w>
curr encies</w>
cul tural</w>
contribu te</w>
compon ent</w>
comm on</w>
classi fied</w>
ch o
c le
c at
broad ly</w>
bil dung</w>
biet ungs
beobach ten</w>
beh örden</w>
be darf</w>
bal ances</w>
b st</w>
authenti city</w>
ausge wiesen</w>
ass ungs
as es</w>
appli ed</w>
ann t
amoun ts</w>
am end
all gem
al y</w>
ak tionen</w>
agre ement</w>
a k</w>
Zy per
Zwei felsfall</w>
Zul assungs
Zu kunft</w>
Wo ch
Wettbewerb s
W ebsites</w>
Vor jahr</w>
Vice- President</w>
Verpflich tung</w>
Ver mögenswerten</w>
Unterstütz ung</w>
Un verbindlicher</w>
U N
Tit el</w>
Th er
T ag</w>
Staats an
Spra che</w>
Slow en
Sicherh eit</w>
Schüler innen</w>
Schulden quot
Schuld verschreibungen</w>
Sach aufwendungen</w>
SS M-
Quart al</w>
Publi kation</w>
Prozent punkte</w>
Pro f
Poli zei</w>
Ni eder
Ne therlands</w>
N eben</w>
Mitarbeit er</w>
Mindest bietungs
Mehr zahl</w>
M useum</w>
M in
M erkmale</w>
Lithu anian</w>
L eist
Kra ft</w>
Kapital gesellschaften</w>
It aly</w>
Indic ative</w>
In iti
I G
Hinter grund</w>
Grün dung</w>
Groß teil</w>
Govern ment</w>
Gen eration</w>
Geldmengen aggreg
Fü r</w>
FÜHL EN
FÜHLEN -S
FÜHLEN-S EH
FÜHLEN-SEH EN
FÜHLEN-SEHEN -K
FÜHLEN-SEHEN-K IPP
Fr en
Fotogra fi
F ir
F I
Erwar tungen</w>
Erfüll ung</w>
Er höh
Er fol
En gli
Echtheit sprüfung</w>
E mpf
Dur ch</w>
De finition</w>
D ru
Bulgari a</w>
Bestand teil</w>
Berei ch</w>
Belgi um</w>
Belgi en</w>
Aufsichts gebü
Au stria</w>
A sm
9 .</w>
5 4
14. 30</w>
1, 3
- Sicherheiten</w>
ücksichtig ung</w>
è le</w>
ähn liche</w>
zusätz liche</w>
zeich net</w>
z entral
z -
y nam
www. new-
wor king</w>
wor k
wich tige</w>
wi r</w>
wen iger</w>
wel com
weit er
wei ß</w>
wei s</w>
we ch
wach sam</w>
w on
won ach</w>
w o</w>
w inning</w>
vor gesehen</w>
verwen det</w>
verschied ene</w>
verab schie
verabschie det</w>
ver wenden</w>
ver tr
ver th
verth el
verthel ess</w>
v eld
veld t</w>
ut z</w>
urs day</w>
unverbind liche</w>
unterschei den</w>
unc tioning</w>
un abhängi
ump el-
umpel- Gu
umpel-Gu ger
umpel-Guger ell</w>
tru de</w>
trans actions</w>
ti v</w>
thre e-
th em
t ations</w>
syst emen</w>
sustain able</w>
supp liers</w>
sub mitted</w>
su ffi
stütz t</w>
stand ard</w>
stak ehol
stakehol ders</w>
st ep
spi el</w>
speci al</w>
schedul e</w>
sch ätz
sch ul
sch lä
sam keit</w>
s weise</w>
s mo
s en
s ehen</w>
roati a</w>
ri st
ri g
ri ed</w>
resul tieren</w>
responsi bilities</w>
rem i
rele ased</w>
reg ards</w>
re vision</w>
ra gs</w>
r a</w>
quantit y</w>
provi ding</w>
pro zent
pro t
pro jekt</w>
princip le</w>
pri ze</w>
pre v
por tra
politi schen</w>
pi es</w>
p lus</w>
p end
p ai
ow ing</w>
or g
op ening</w>
on an</w>
on al
ol s</w>
ob en</w>
notwendi gen</w>
nit t</w>
neu n</w>
mo der
metho d
me hr
lie veldt</w>
lie genden</w>
li mit
li g</w>
li g
letz ten</w>
leit ung</w>
leist et</w>
l uss
l j
künf tige</w>
k rä
k al
je der</w>
integr ated</w>
ing- up</w>
indi vidual</w>
inde pend
in st
in nov
in gen</w>
impli cations</w>
imm er</w>
il fe</w>
il d
ich ts
ho h
her vor
harmon ised</w>
h t</w>
h otline</w>
groß e</w>
gro und</w>
gesam t
ger ä
gen au</w>
gem ess
gel eit
gedeck ter</w>
g remi
fulfil led</w>
forder ung</w>
fest gelegten</w>
f re
f -
exi sting</w>
exam ined</w>
et- B
et-B acked</w>
et ting</w>
ess er</w>
ess e</w>
es tim
es sive</w>
erk ennen</w>
eri d
erid an</w>
erfol gen</w>
er reicht</w>
er gi
environ mental</w>
environ ment</w>
entsp richt</w>
entschei den
ent nommen</w>
ent er
ens uring</w>
en for
en er
emp lo
emit teilung</w>
em pf
eld ung</w>
ein zi
ech nung</w>
e ver
di k</w>
deci de</w>
deb its</w>
de li
conc ert</w>
con sequ
comp le
comp ani
com ing</w>
co uld</w>
co pies</w>
ch te</w>
ch h
car ried</w>
c o</w>
c ame</w>
c alling</w>
bu d
bewer tet</w>
ber ei
bek ämpfung</w>
bank a</w>
b ul
b ish
b ark
az z</w>
aus gew
auf s
at t
at er
ass t</w>
ar an
appro ved</w>
appro pri
appro ach</w>
anz ös
ander em</w>
ander e</w>
an schließ
an g
an a</w>
all erdings</w>
alisi erung</w>
addi tional</w>
ack ground</w>
achiev ed</w>
ac y</w>
ab zu
ab ly</w>
a ir
a dequ
Zulassungs kriterien</w>
Willi am</w>
Wertpapier märkte</w>
We ise</w>
W ill
W h
W e</w>
W aren</w>
Vizeprä sident</w>
Vereinbar ung</w>
Umwel t
Ther efore</w>
Th ursday</w>
T ätig
T umpel-Gugerell</w>
Staatsan leihen</w>
St u
Slowen ien</w>
Sicherheitsm erkmale</w>
Sh eridan</w>
Ser vices</w>
Sch ool</w>
Sch au
S weden</w>
S PP</w>
Rot ations
Rom ania</w>
Risi ko
Risi k
Refinan zierungs
Rahmen verordnung</w>
R umän
R onan</w>
Proto k
Press emitteilung</w>
Pers onal
Par tner</w>
P eter</w>
O p
O FI
Nieder lan
Neubewer tung</w>
Neub au
Ne vertheless</w>
Mitgliedsta at</w>
Mindestbietungs satz</w>
Metho dik</w>
Le lieveldt</w>
Lauf zeit</w>
L or
Kredit e</w>
Kommuni kation</w>
Kar ten</w>
Kapit alsch
K roati
K riterium</w>
Jo s
Jap an</w>
Jahres übersch
J ür
Indi katoren</w>
I T</w>
Ho chh
Her aus
Har mon
H otline</w>
H eld-to-mat
Gleich wohl</w>
Geschäfts jahr</w>
Ger trude</w>
Geldmengen wachstum</w>
Fren ch</w>
Finanz stabilität</w>
Fak toren</w>
F unctioning</w>
F inn
Erhöh ung</w>
Ergebn is</w>
Entwur f
Engli sh</w>
En ergi
EZB- Präsident</w>
EUROP EA
EUROPEA N</w>
EC OFI
EA D</w>
E va</w>
E G-
Direc tor</w>
Col le
C roatia</w>
C H
Bud get</w>
Beteili gten</w>
Ber ücksichtigung</w>
Ber echnung</w>
Au th
Asm ussen</w>
Anteil e</w>
An nahme</w>
Allgem einen</w>
Ab wicklung</w>
Ab leitung</w>
Ab bildung</w>
A s
9 9
9 7</w>
9 6
74 16</w>
73 16</w>
69 25</w>
6 .</w>
6 ,
5 .</w>
3 7</w>
3 6</w>
2 7</w>
1 12</w>
1 1.
. 00</w>
-b acked</w>
über tragen</w>
ü ck</w>
ässi gen</w>
äh l
zwöl fmon
zwölfmon ati
zwölfmonati gen</w>
zw .</w>
zu folge</w>
zier ung</w>
z eh
ye arly</w>
with out</w>
wirtschaf tlicher</w>
wh er
well -
weit gehend</w>
week ly</w>
w ish
w er</w>
w ays</w>
view s</w>
view ed</w>
verzins t</w>
ver öffentlichen</w>
ver pflich
ver fol
ver antwor
v is</w>
ut y</w>
us ers</w>
ur o</w>
ur ity-
unk tion</w>
ungsver fahren</w>
umfass ende</w>
um sp
ul ti
u ish
tur en</w>
trä gen</w>
tion s
ti sche</w>
th or
thor ou
tel ef
telef on
telefon isch</w>
teilnehm enden</w>
sup por
sub mit</w>
step s</w>
sli gh
sligh tly</w>
sit uation</w>
sicher zustellen</w>
sich tigen</w>
si eben</w>
show s</w>
she ets</w>
sett lement</w>
sel ected</w>
schaff en</w>
sch ritt
sc ra
s ymbo
ru n</w>
ro und</w>
rin gen</w>
rel ation</w>
reich e</w>
realisi erten</w>
ra f
r ah
purch ases</w>
publi shes</w>
publi k</w>
publi cations</w>
prä s
prozent ual</w>
proc esses</w>
pro visi
pro min
pri or</w>
pri m
portra it</w>
plan s</w>
perform ances</w>
pass t</w>
par tners</w>
p iel
p ay</w>
p ack
ordin ation</w>
or and
orand um</w>
op p
on es</w>
on d
off set</w>
obj ections</w>
o p</w>
o ffi
non- euro</w>
no tice</w>
neu es</w>
n ische</w>
mö chte</w>
monetär e</w>
monat lich</w>
mo d
mittel fristigen</w>
method ology</w>
me t</w>
mark etable</w>
ma ßnahmen</w>
m yth
m ot
läu fi
län di
lo an</w>
lit as</w>
lin es</w>
lich keiten</w>
lich es</w>
li k
leg ung</w>
le di
laun ch</w>
l änder</w>
l ungs
konz ert</w>
j unc
j ub
j a</w>
isch en
is ses</w>
is piel
is l
ir e</w>
inter im</w>
in dem</w>
in -
implem ented</w>
im ed</w>
ill s</w>
ier ten</w>
icht eten</w>
i g</w>
i d</w>
i cs</w>
höh eren</w>
ho use</w>
harmon isier
h in</w>
h ear
größ ten</w>
gr en
gli scher</w>
gil t</w>
gewähr leistet</w>
genau e</w>
gen heiten</w>
gef asst</w>
gedec kt</w>
geb enen</w>
ge eign
g ree</w>
g licher</w>
g ing</w>
fähi gkeit</w>
fra ge</w>
forder n</w>
for ce</w>
follow ed</w>
foc us</w>
fl exi
fin det</w>
fass ung</w>
fac tors</w>
f unktion
f ew</w>
ext ended</w>
exp endit
exce ed</w>
exc essive</w>
euro-banknot es
et y</w>
er weit
er st</w>
er fasst</w>
er em
erem ony</w>
entr e</w>
ent er</w>
enh an
enfor cement</w>
ener gy</w>
en glischer</w>
en .
en -S
en-S eh
en-Seh en
en-Sehen -K
en-Sehen-K ippen</w>
em pl
elek tron
el ements</w>
eit s</w>
eff ek
ed ing</w>
ecti vely</w>
ech ter</w>
e fer
du ziert</w>
drück lich</w>
dra ft</w>
docum ents</w>
disting uish
dies jährigen</w>
dien stleistungen</w>
det ermin
deri v
de o</w>
de gree</w>
cul ture</w>
continu ed</w>
consum ers</w>
conduc t</w>
communi cation</w>
co l
ci ti
ch all
cas es</w>
c erti
c eremony</w>
c all</w>
bud get</w>
bro ad</w>
blei bt</w>
betru gen</w>
bet rach
benef its</w>
beit re
beg inning</w>
be ispiel
be ein
be d
bal d</w>
b zw.</w>
b onds</w>
b are</w>
auf genommen</w>
auf gaben</w>
au se</w>
au l
as sten</w>
arran gements</w>
appropri ate</w>
ann um</w>
ani en</w>
ange passt</w>
an tly</w>
an teil</w>
amoun ting</w>
alle l</w>
all ot
ali a</w>
al ways</w>
adver se</w>
ad o
a ward</w>
a ims</w>
a ge
Zyper n</w>
Zw ischen
Zins zahlungen</w>
Zeit plan</w>
Y e
Wirtschaf t</w>
Voraussetz ungen</w>
Vor sitz
Verw alt
Verlu ste</w>
Verk aufs
Verbess erung</w>
Un ter</w>
Un der</w>
Tätig keiten</w>
To day</w>
Tender operationen</w>
T able</w>
Stück elung</w>
Stimmrech t</w>
Statisti k</w>
St udents</w>
Sp anien</w>
Sch w
Sch atz
S ub
S ti
S eit</w>
S R
Rumän ien</w>
Ris k</w>
Reg i
Re publik</w>
Re public</w>
R oc
Preis en</w>
Pre ise</w>
Por trä
Ph otography</w>
P lan
O per
Nutz ung</w>
Not es</w>
Neubau projekt</w>
Nettozins ergebnis</w>
Netto gew
Nach hal
Musi k
Mark et</w>
Liquid ität</w>
Li efer
L eg
Kor rek
Kategorie- 1
Kapitalsch lüssel</w>
KULTURTAG E</w>
K ön
K enn
Jahresabsch lusses</w>
It alien</w>
Infra struktur</w>
IS O</w>
Held-to-mat urity-
Gro wth</w>
Gr and</w>
Geschäftspar tner</w>
Gener al
Geldsch eine</w>
G est
Fühl en-Sehen-Kippen</w>
FÜHLEN-SEHEN-KIPP EN</w>
For m</w>
Fir st</w>
Finanz märkten</w>
Fin ally</w>
F ei
F all</w>
Erfol g</w>
Er öff
Emitt enten</w>
Emitt enten
Eigen k
ESZB- Satzung</w>
E L
D än
D en</w>
D aher</w>
C s</w>
C orporate</w>
C ha
Bulgari en</w>
Ber ichts
Ber eit
Bei de</w>
Bau arbeiten</w>
Banknoten fälschungen</w>
Banken systems</w>
B oth</w>
Aus gaben</w>
Aufsichts gremi
Aufsichts aufgaben</w>
Ass et-Backed</w>
Arbeits weise</w>
Arbeit en</w>
A p
A cc
4 .</w>
3 5</w>
14. 00</w>
1, 4
. 3</w>
überstei gen</w>
über arbeit
ör g</w>
ör derung</w>
ö ch
äu ß
äch lich</w>
ß en</w>
zu dem</w>
zins ung</w>
zins en</w>
zei chen</w>
ze ch</w>
zahl ungs
z entr
xim ately</w>
wür di
wär e</w>
währ ungs
wirk sam</w>
wichtig sten</w>
wich tig</w>
wher e
wh at</w>
wer s</w>
wer k</w>
weit eren</w>
weit en</w>
weis es</w>
we ek</w>
we der</w>
w inn
w ahl</w>
vor schriften</w>
vollständi ge</w>
vol le</w>
vo s</w>
vi elen</w>
verpflich tet</w>
verein bar</w>
ver tre
ver fügt</w>
ver fahren</w>
ven tion</w>
ur b
uns ere</w>
ungs phase</w>
ung s</w>
und scra
undscra per</w>
unc ert
un s</w>
un ding</w>
um in
u vos</w>
u li
u ally</w>
ts ächlich</w>
trä gt</w>
tro l
to ur
to ok</w>
tn ern</w>
throu gh
through out</w>
th me
ter t</w>
ten en</w>
teil ungs
te es</w>
t or
t on</w>
t on
suffi cient</w>
succ ess</w>
su mm
stä tigkeit</w>
stu dies</w>
statisti schen</w>
statisti ken</w>
stand s
stabil itäts
sta mm
st at</w>
sp ru
sp l
sp ek
sor g
sorg fäl
so zi
sk ir
skir che</w>
signific antly</w>
sich ten</w>
si ght</w>
short ly</w>
short fall</w>
sh ocks</w>
seit ens</w>
se par
schritt weise</w>
sch ech
sc enarios</w>
s onder
sonder n</w>
s even</w>
s einem</w>
s atis
rä ge</w>
respon ding</w>
resp ectively</w>
res sed</w>
relati v</w>
reich ung</w>
regul är
re turn</w>
re over</w>
re form</w>
re comm
re as
re al</w>
re ach
rah mens</w>
ra li
publi shing</w>
propos al</w>
promin ent</w>
produc t</w>
pro j
prepar ing</w>
port folios</w>
plann ed</w>
pill ar</w>
ph ased</w>
par allel</w>
pai d-up</w>
p s</w>
p ite</w>
p ects</w>
p e</w>
p d
pd f</w>
out come</w>
ori es</w>
on n
omm enen</w>
ologi cal</w>
oc c
ob lig
näch ste</w>
nutz en</w>
notenbankfähi gen</w>
not ed</w>
neu er</w>
nach folgenden</w>
n ings</w>
n ers</w>
möglich st</w>
mittelfris tig</w>
mit tel</w>
meas ure</w>
mark s</w>
man ent</w>
maj or</w>
ma ghi</w>
m ov
m er
lo cal</w>
lj ana</w>
lit au
limit ed</w>
li ght</w>
leg t</w>
leg isl
lau ten</w>
lat est</w>
la id</w>
l or</w>
l ete</w>
künf tig</w>
kredit e</w>
komm t</w>
k B</w>
jub ljana</w>
jo int</w>
jo ins</w>
it te</w>
institution ellen</w>
ing ton</w>
ing ly</w>
inform iert</w>
ild ren</w>
il it
ier ung</w>
hol ding</w>
he ad
hal f-
h ington</w>
h eld-to-mat
held-to-mat urity</w>
glob al</w>
gi ving</w>
gew inne</w>
gestell ten</w>
gerä ten</w>
ger ichtet</w>
gener ation
gen ommenen</w>
gen heit</w>
gen der</w>
gem essen</w>
geb unden</w>
geb ot
ge plan
gan gs
ga b</w>
fün f</w>
fähi gen</w>
func tional</w>
fizier ung</w>
fi ve</w>
fahr ens</w>
fac ilit
f rü
f a
exter nal</w>
exp ec
excep tion</w>
ev a</w>
etz ung</w>
etw a</w>
et uvos</w>
et ent</w>
et ail
et -backed</w>
estim ated</w>
est i</w>
erneu t</w>
er möglichen</w>
er möglich
ep unk
ep ts</w>
enz o</w>
end -
enaus weises</w>
en -
emplo y
em ark</w>
el ben</w>
einkün fte</w>
einger ichteten</w>
effi ci
ed en
ech net</w>
eb y</w>
ear nings</w>
dür fen</w>
distinguish ed</w>
direc tive</w>
dien ste</w>
det a
deta illi
dem and</w>
decre ase</w>
de em
de di
dauerh after</w>
da ily</w>
d u</w>
d ent</w>
cor rec
cont rac
consider able</w>
consequ ence</w>
cons ist</w>
concern ed</w>
conc epts</w>
con nec
comple tion</w>
comp lete</w>
comp aris
comp are</w>
chec king</w>
categ ories</w>
cal culation</w>
cal cul
c are
c apit
c a</w>
bish eri
beur teilt</w>
beträ ch
betreff enden</w>
ber ich
bein hal
be stehenden</w>
be auf
bark eit</w>
b ringen</w>
ay lor</w>
aus es</w>
aul skirche</w>
au dit
at ory</w>
as pects</w>
as hington</w>
ari thme
architec tural</w>
ar ti
anst altung</w>
angeh ör
anf än
an gef
an den</w>
alo g</w>
allgem einen</w>
all ed</w>
ak zep
ak ing</w>
adop ting</w>
adem os</w>
add ress</w>
achiev ement</w>
ach samkeit</w>
acc ept</w>
acc ep
ab geschlossen</w>
a- Qualität</w>
Zwischen ergebnis</w>
Zins änder
Zins en</w>
Zahlungs institute</w>
Z u</w>
Währ ungen</w>
Woch enausweises</w>
Will em</w>
Wi r</w>
Wachst umsrate</w>
Wachst umsp
W ashington</w>
W achsamkeit</w>
Volks wirtschaft</w>
Veröffentlich ungen</w>
Vereinig ten</w>
Ver zinsung</w>
Ver hältnis</w>
Ver gleich</w>
Ver dacht</w>
V on</w>
US -D
Th eat
TARGET 2
TARGET2 -S
TARGET2-S ec
T schech
T otal</w>
T ier</w>
T aylor</w>
Säul e</w>
Sz enario</w>
Sub total</w>
Statisti cs</w>
So li
Sit uation</w>
Sek tors</w>
Schül er</w>
Schuldenquot e</w>
Schul en</w>
Sch rit
Sa int
S w
S onder
S maghi</w>
S in
S eiten</w>
Res olution</w>
Rechts vorschriften</w>
Rechn ung</w>
Prof it</w>
Preis entwicklung</w>
Porträ t</w>
Pol en</w>
Po sition</w>
Pay ment</w>
Pap er</w>
Pap ademos</w>
P resse</w>
P er
P aulskirche</w>
P ak
OO P</w>
O ther</w>
Neub aus</w>
Nachhal tigkeit</w>
NC As</w>
Mon ate</w>
Mo reover</w>
Mit tel
Mi gration</w>
Men schen</w>
Massen zahlungs
Mari a</w>
Man agement</w>
Ma ß
ME L
MEL B</w>
M em
M eldung</w>
M anu
M MELB</w>
Lor enzo</w>
Li ste</w>
Li etuvos</w>
Leg al</w>
LT ROs</w>
L o
L jubljana</w>
L RGs</w>
Kön ig
Kredit geschäfte</w>
Korrek tur</w>
Kons ultation</w>
Komm ent
Kategorie- 2
K ün
K in
K a
Jahreswachst umsrate</w>
J örg</w>
Instrum enten</w>
Honor are</w>
Held-to-maturity- Wertpapiere</w>
Haushal te</w>
Hand lungs
HI MMELB</w>
H ier
H am
Grund sätze</w>
Gru ppen</w>
Gewinn voraus
Gerä ten</w>
Gener ation
Gebäu de</w>
G ra
Fü hr
Fälsch ungs
Finn land</w>
Finanz en</w>
Fin land</w>
F unktion
F ern
F alls</w>
F .</w>
Euro stat</w>
Eston ian</w>
Er träge</w>
Ein heit
E esti</w>
Dän emark</w>
Durch schnit
Den mark</w>
D etail
D a
Colle ge</w>
Char t</w>
C zech</w>
C OOP</w>
Bezieh ung</w>
Bereit stellung</w>
Bek annt
BI Cs</w>
B r
B ini</w>
Auth ority</w>
Aus nahme</w>
An lage</w>
An h
Al s</w>
Aktiv a-Qualität</w>
Accoun ts</w>
Accoun t</w>
Absch nitt</w>
AT 0
A U</w>
A PP</w>
A F</w>
98 9</w>
8 6</w>
8 3
74 55</w>
7 16
716 2</w>
6 4
64 51</w>
5 8</w>
4 1</w>
3 5
2. 5</w>
2. 30</w>
17 4</w>
16 6</w>
1 5.</w>
1 5.
0 5</w>
-Sch ein</w>
œ ur
œur é</w>
ün sti
ün d
ück sichtigen</w>
überarbeit eten</w>
ü ter
öh n
í o</w>
äu ßer
äußer st</w>
Über gangs
zu ge
zeichn ung</w>
zeichn isses</w>
zei tigen</w>
zeh n</w>
zahl en</w>
z er
z a</w>
ye ar-
y le</w>
wür de</w>
www.new- euro-banknotes
www. neu
writ e-downs</w>
wish es</w>
wi der</w>
wi der
wider spieg
wi de</w>
wettbewer b</w>
wer tung</w>
weis ung</w>
vol l</w>
vi ert
viert el
veröffentlich ten</w>
veröffentlich te</w>
verring ert</w>
verdäch tige</w>
verb lei
verantwor tlich</w>
val ent</w>
v ending</w>
v ast</w>
ust ed</w>
ur ch</w>
unter liegen</w>
ungs kosten</w>
under standing</w>
un ten</w>
ums raten</w>
ums mit
um b
um an</w>
tz t</w>
typ es</w>
tw o-
trol le</w>
tri g
tre ated</w>
tra di
to wer</w>
ti ven</w>
ti ken</w>
ti e
them sel
themsel ves</w>
th eat
teil genommen</w>
te e</w>
t y</w>
t ot
stär ken</w>
stän den</w>
stä d
stri c
streng ungen</w>
str ong</w>
stie gen</w>
stell ungs
stei genden</w>
stat ement</w>
st yle</w>
st es</w>
st ence</w>
st ark
st able</w>
spezif ische</w>
so on</w>
so ci
so bald</w>
smo oth</w>
sion s
sim il
simil ar</w>
sign ed</w>
si erung</w>
short -term</w>
sh ort</w>
sh ment</w>
sel bst</w>
se ver
schaff ungskosten</w>
sch em
schem es</w>
sam en</w>
saf e</w>
s etting</w>
s er</w>
s eminar</w>
s ei
s al
rän k
ri k</w>
resi li
reser ves</w>
res e
requi res</w>
requ ested</w>
represent atives</w>
remain der</w>
relati vely</w>
rei mon
refl ects</w>
refl ected</w>
recogn ise</w>
recei ving</w>
re viewed</w>
re duziert</w>
rach t</w>
ra gende</w>
ra gen</w>
r y</w>
proz ess</w>
propos als</w>
pro hibition</w>
pro gramm</w>
princip al</w>
prim arily</w>
pres ented</w>
preis risiken</w>
posi tions</w>
posi tionen</w>
politi sche</w>
po ul
pla y</w>
perform ing</w>
perform ed</w>
perform ance</w>
p tsächlich</w>
p tion</w>
p le</w>
p an-
pan- European</w>
ov a</w>
opport unity</w>
op tim
oo k</w>
oo d</w>
ond ary</w>
on itäts
olo g
oll ar-
of fer
obj ecti
objecti ves</w>
o m</w>
o ci
o ber
nichtfinanzi ellen</w>
ni veau</w>
nehm er</w>
nach hal
n ine</w>
n a</w>
n a
mi d-
mei sten</w>
mat urity</w>
ma chten</w>
m ing</w>
länger fristigen</w>
lo genheiten</w>
ll en</w>
li sts</w>
li n</w>
li min
li ghts</w>
leist ete</w>
legisl ation</w>
leg acy</w>
ledi glich</w>
le gen</w>
laun ch
lau b
laub würdi
l änder
l ared</w>
künf tigen</w>
krä f
komm enden</w>
kl assi
kl ass
k ul
k tiken</w>
k re
k am</w>
jüng sten</w>
junc tion</w>
je des</w>
issu ers</w>
is h</w>
int ended</w>
inn t</w>
ing do
ingdo m</w>
in vol
in voi
in quiries</w>
improv ement</w>
impro ved</w>
impro ve</w>
imm edi
il en
identi fy</w>
identi fi
i es</w>
häl t</w>
ho sted</w>
ho he</w>
hist ory</w>
high- rise</w>
hier zu</w>
hibi tions</w>
handl ing</w>
ha ving</w>
h au
hau ptsächlich</w>
gu aran
gr ünd
gleich e</w>
gi ve</w>
gi ble</w>
gh t
gezeichn ete</w>
gew öhn
gereg elten</w>
gen d
gem äß
geleit et</w>
geh enden</w>
gegenwär tig</w>
ge t
ge l</w>
g ungs
g lichkeit</w>
fü gen</w>
func tioning</w>
frü h
fr anzös
fo rese
fi eld</w>
ffi cul
fer red</w>
f ter</w>
f rist
f rei
f est</w>
f ar</w>
expec tations</w>
exp en
expen se</w>
exi stence</w>
exam ination</w>
ex ten
ex hibitions</w>
eu te</w>
ess ential</w>
erschein t</w>
ermöglich t</w>
erhöh en</w>
erfol gt</w>
er ör
er st
equi valent</w>
ent weder</w>
ent ing</w>
ent gegen
enh ance</w>
en vor
en ken</w>
em phas
em er
em ble</w>
el ec
eingerei chten</w>
ein stimm
eigen s</w>
eb en
ear ly</w>
e valuation</w>
du ally</w>
disc lo
dif ferences</w>
dies elben</w>
di fficul
di alogue</w>
det ected</w>
deriv ation</w>
der zeitigen</w>
dep ending</w>
dec lared</w>
dec ken</w>
dar in</w>
d ynam
d ungen</w>
d ollar</w>
cre di
cre ate</w>
cor responding</w>
cont ro
consider ation</w>
conclu ded</w>
conc erts</w>
con junction</w>
compris ing</w>
comparis on</w>
comp etent</w>
comp ati
co- operation</w>
cle ar</w>
ch ing-up</w>
ch est
cat ching-up</w>
c y-
c lu
c ast</w>
c as</w>
c ap
busin esses</w>
bul k</w>
biet et</w>
bet rags</w>
bestä tigen</w>
ber ücksichtigen</w>
bel assen</w>
beitre tenden</w>
beispiel sweise</w>
beinhal tet</w>
begrüß t</w>
beg innt</w>
bedeu tet</w>
be w
b est</w>
b au</w>
b as
bas eline</w>
b ackground</w>
autom atis
automatis ch</w>
autom ati
aus reich
au ßerdem</w>
au d</w>
ats durchschnit
at tention</w>
at eri
assump tion</w>
assess ing</w>
ass oci
ass et-backed</w>
archit ek
ar ischen</w>
ar di
appli c
ap e</w>
anne x</w>
ann ually</w>
angehör enden</w>
ange fordert</w>
an zu
an hand</w>
an gible</w>
an gesichts</w>
amend ments</w>
allow ed</w>
al ong</w>
al location</w>
adj ust</w>
ad urch</w>
ad s</w>
ad a</w>
acc ess</w>
acc ess
ac tivity</w>
ac qui
ab ge
a imed</w>
a de</w>
Zwec k</w>
Zu teilungs
Zu ständi
Zinsänder ungs-</w>
Zins aufwendungen</w>
Zahlungsinstrum enten</w>
Zahlungs mittel</w>
Z usamm
Z us
Z ei
Wh ile</w>
Wechselkurs -</w>
We g</w>
Wachst um</w>
Vorbereit ung</w>
Vor schlag</w>
Vi enn
Verbrauch er</w>
Verbrauch er
Verbess erungen</w>
Verb ind
Ver teilung</w>
V iel
UN G
Th ere</w>
Te ams</w>
T eu
Supervis ion</w>
Su ch</w>
Sti ch
Stab ilität</w>
Sp rach
So me</w>
Slov ak</w>
Sicherheitenver zeichnisses</w>
Sek retariat</w>
Sec retariat</w>
Schuld ner</w>
Schau spiel</w>
Sch weden</w>
Sch ocks</w>
Sch aff
Roc ío</w>
R adi
Publi cations</w>
Pro jekt</w>
Pro jek
Pre is</w>
Poli ti
Personal aufwendungen</w>
P ur
P l
On ce</w>
Ober gren
OT C</w>
OT C
OTC -
OTC- Markt</w>
O N
O L
Niederlan de</w>
Nettozinser trag</w>
N um
N o</w>
N icht
Mö glichkeit</w>
Mo d
Mo U</w>
Mitgliedsta ats</w>
Mit tel</w>
Me ilen
Markt teilnehm
Ma ß</w>
Lu cas</w>
Lit er
Lit as</w>
Liquiditäts kateg
Liquiditäts bedarf</w>
Liefer anten</w>
Leit er</w>
L and
König reich</w>
Kul tur</w>
Kroati en</w>
Konvergenz kriterien</w>
Kons ult
Komment are</w>
Kategorie-2 -Sicherheiten</w>
K l
K ingdom</w>
Jahresübersch uss</w>
Inter est</w>
Initi ative</w>
Inflations raten</w>
IB AN
IBAN s</w>
I EC</w>
Hin weis</w>
Haush alten</w>
HVP I</w>
H eute</w>
H e
Gu i
Gonzále z</w>
Gold preisrisiken</w>
Gold bestände</w>
Gleich zeitig</w>
Ges ell
Gel ände</w>
G üter
G ar
Finanz sek
Finanz geschäften</w>
Fest legung</w>
F örderung</w>
F il
F assung</w>
Energi e
En ga
Empf ehl
Einheit lichen</w>
Eigen mittel
EZB- Neubaus</w>
EUROP A-
EU- Rat</w>
ES R
EG- Vertrag</w>
EE A</w>
E ig
E ach</w>
E R</w>
Dokum ent</w>
Direktori umsmit
Dies es</w>
Dien stag</w>
Di vision</w>
Di stribu
Deutsch en</w>
Des halb</w>
Dem entsprechend</w>
Defiz it</w>
Dec ision</w>
Dat en
D is
D er
Comm on</w>
Comm it
Cha ir</w>
C œuré</w>
C urr
C an
Bulgari an</w>
Bes timm
Bekannt gabe</w>
Bed enken</w>
Banknotenbe arbeit
B lin
B al
B T
Aus stellungs
Aufsichtsgremi ums</w>
Aufsichtsgebü hren</w>
Auf trag</w>
Auf hol
Auf gabe</w>
Ar ten</w>
Ar t</w>
Anteil en</w>
Analy se
An yone</w>
An strengungen</w>
An schaffungskosten</w>
An la
Absch luss
Ab teilung</w>
Ab stimm
AB S</w>
A m</w>
A fter</w>
A R
A N</w>
9 4</w>
7 0</w>
2 6</w>
2 6
0 -</w>
. 5</w>
. 0</w>
- Münzen</w>
- 0.
ün em
ünem ann</w>
ü m
üm er</w>
ü ben</w>
ör ung</w>
î t</w>
äuß erte</w>
ärk ung</w>
änder ungen</w>
än ger
äh lt</w>
äh ere</w>
á ro
áro dn
árodn á</w>
á ra
ára m
áram o</w>
Über wach
zus etzen</w>
zur ück</w>
zul egen</w>
zu vor</w>
zu geführt</w>
zi elle</w>
zer o</w>
zei behörden</w>
z- P
z-P áramo</w>
z it</w>
z in
zin sten</w>
z ens</w>
ym n
y mp
y i</w>
y et</w>
y c
wo durch</w>
wirk lich
wirklich ung</w>
winn er</w>
wie gende</w>
wid ely</w>
wich ts
wi eder
where as</w>
wendi gkeit</w>
welcom es</w>
w l
wl ed
w ing</w>
w eil</w>
vot e</w>
vor nehmen</w>
vor liegenden</w>
vor aus</w>
visi ble</w>
vi el
vertr au
verdäch tig</w>
verblei b
verb unden</w>
ver s</w>
ver li
ver ifi
verifi ed</w>
ver gabe</w>
v ef
vef onds</w>
v at
v an</w>
us es</w>
urb an</w>
ur o-
uro- Schüler
ur iti
ur g</w>
up d
unver zinsten</w>
unter zogen</w>
ungs gemäß
ungsgemäß en</w>
ung sch
ungsch ef
ungschef s</w>
un ve
umf asste</w>
um gesetzt</w>
um e</w>
ul ated</w>
u esday</w>
tä glicher</w>
tu rel
turel le</w>
tu re
trig ger</w>
tran si
tra c
tn er
tig ung</w>
tig es</w>
three- month</w>
ther eby</w>
th ens</w>
ter ung</w>
teil ten</w>
te gri
t z</w>
t te</w>
t ete</w>
t emporary</w>
t eln</w>
sur plus</w>
suppor ts</w>
substanti ally</w>
substanti al</w>
subsc ri
subscri ption</w>
su ant</w>
stä tte</w>
struk turen</w>
stleist ungs
stei ger
steh ende</w>
stand s</w>
st adt</w>
sp ective</w>
sour ces</w>
sour c
sign s</w>
sicht sp
sich ts
sich erh
sicherh eit</w>
si st
sel ection</w>
schätz ung</w>
schreib ung</w>
schließ en</w>
schi ed</w>
sch ool</w>
satz ungsgemäßen</w>
s ure</w>
s pro
s low
s ity</w>
s ets</w>
s el</w>
s co
s ale</w>
rück en</w>
ro se</w>
risi k
rich tungen</w>
ri gi
ri eren</w>
ress es</w>
resili ence</w>
res ources</w>
remain ed</w>
rem d
remd währungs
reit en</w>
reform s</w>
reform en</w>
re dit</w>
re alen</w>
ran gi
raf verfol
quantit ativen</w>
quantit ative</w>
qu ity</w>
präs enti
prot ection</w>
pro per
pro mot
pre c
po st
po p
plac es</w>
pl at
phas ing-
parti ally</w>
p en
p ec
pec i
peci ally</w>
ow ners</w>
out standing</w>
orig in
ori en</w>
ord ingly</w>
or chest
orchest er</w>
oper ating</w>
oper ates</w>
op ran
ologi e</w>
ol ar</w>
offi ce</w>
o ît</w>
notwendi g</w>
notenbankfähi ge</w>
no wled
no ti
niedri ger</w>
niedri ger
nichtfinanzi elle</w>
new premises</w>
need ed</w>
ne g
n one</w>
n is</w>
myth ology</w>
musi cal</w>
mittel fristige</w>
mitt elt</w>
ministr ation</w>
mat en
margin alen</w>
main tained</w>
mach t</w>
m il
mil est
m ig
m eist
lä t
lon ger</w>
lo ad
load ed</w>
lin i
lini envor
lin ed</w>
limin ary</w>
li s</w>
li mit</w>
li ke</w>
li c
li ber
liber alisation</w>
let tischen</w>
lem ente</w>
leit enden</w>
lei den
le af
leaf l
le -
launch ed</w>
lat ter</w>
land sc
lan ge</w>
la y</w>
l ust</w>
l ing</w>
l ate</w>
l ast</w>
l .</w>
könn ten</w>
kur s</w>
kro on</w>
kor rigi
kon trolle</w>
klassi fizier
kal ender</w>
k rone</w>
k riterium</w>
k eit
k ar
jo ining</w>
jo ined</w>
je de</w>
j azz</w>
is lang</w>
inv ited</w>
intro duce</w>
inter pre
inform ed</w>
index. en.
in tegri
in a</w>
illi ons</w>
ig es</w>
iel s</w>
iel e</w>
i st
i je</w>
i et</w>
i e
htm l.</w>
hin zu
hin gegen</w>
high- level</w>
high lights</w>
hi b
her aus
heraus ragende</w>
hear ing</w>
hal tung</w>
groß es</w>
groß en</w>
gro ss</w>
grenzüberschreit enden</w>
gra dually</w>
govern ments</w>
govern ance</w>
gli ed</w>
gleich gewich
gewöhn lichen</w>
gewich teten</w>
gesch ri
ger ingen</w>
ger echt</w>
gener ally</w>
gemein same</w>
gem ent
geh en</w>
geführ ten</w>
geeign ete</w>
geb äu
geb racht</w>
ge ändert</w>
ge zahl
ge anst
g te</w>
g am
führ te</w>
fundam ental</w>
ful fi
fulfi l</w>
fr aud</w>
form s</w>
form er</w>
forese en</w>
for ces</w>
fl ä
finanzi elle</w>
finan cing</w>
fi x
ffi zi
ff assung</w>
fest gestellt</w>
fer ner</w>
fass ungen</w>
facilit ate</w>
f requ
f lu
f am
f allen</w>
exp la
exclu ding</w>
exclu ded</w>
ex hib
euro .eu</w>
establi shment</w>
es tions</w>
es pecially</w>
erzi elt</w>
erwar teten</w>
erwar tet</w>
ers eits</w>
erneu te</w>
erk unft</w>
erheb lich</w>
erfolg te</w>
epf logenheiten</w>
ep uty</w>
entwick elt</w>
enth al
enthal tenen</w>
entgegen genommen</w>
ent ümer</w>
ent rali
ens ka</w>
ens etzung</w>
end ation</w>
enbankfähi gkeit</w>
en n</w>
en ger</w>
en ge</w>
en ess</w>
em ent
em ali
el ds</w>
eingezahl ten</w>
eingezahl t</w>
einge halten</w>
ein führen</w>
ein an
einan der</w>
ei ght</w>
eh emali
effizi ent</w>
eden k
ec tu
eb cast</w>
eas y</w>
e- style</w>
e .
dür fte</w>
du ties</w>
dru ck
drit ten</w>
dow n
discus sions</w>
di en</w>
deu tlichen</w>
desig ns</w>
desig ned</w>
dep th</w>
defi zit</w>
deem ed</w>
deb tors</w>
de preciation</w>
de l</w>
de .
dauerh af
d eline</w>
countr y-
contro l</w>
contribu ted</w>
cont emporary</w>
cont a
confir m</w>
concern s</w>
compli es</w>
compli ant</w>
comp ly</w>
comp iling</w>
commit ted</w>
comm ercial</w>
com position</w>
com posed</w>
co- ordin
classi cal</w>
citi zens</w>
char ge</w>
ch ildren</w>
certi fication</w>
care fully</w>
calcul ated</w>
c ru
c el
c e
buch mäßigen</w>
bu ch</w>
beur teilen</w>
betreff ende</w>
bet ter</w>
beschri eben</w>
berei che</w>
ber ichte</w>
ber eit</w>
ber alisierung</w>
beige fügt</w>
bei zu
befind lichen</w>
bed ingungen</w>
bec ause</w>
beauf sichtig
be zieh
be vor</w>
be stehen</w>
b rücken</w>
b r
b indung</w>
b in
b esser</w>
b asi
aus gerichtet</w>
aufge fordert</w>
auf kommen</w>
auf geführt</w>
au ens</w>
att ach
ation sp
at z</w>
at or
applic able</w>
ap poin
anne xed</w>
ani èle</w>
angef all
angefall enen</w>
analy ses</w>
an te</w>
an o</w>
an gt</w>
an gen</w>
an cy</w>
am ended</w>
allow s</w>
allot ment</w>
al tet</w>
al low</w>
al er</w>
aktu ellen</w>
aktu alisi
ak t</w>
air ment</w>
af itte</w>
adver sen</w>
adop t</w>
adap tation</w>
ad ding</w>
access ed</w>
accep ted</w>
acc el
ac tion</w>
ab züglich</w>
ab wicklungs
ab geleitet</w>
a war
a voi
a gen
a gement
Zusamm ensetzung</w>
Zu teilung</w>
Zu ge</w>
Zinser trag</w>
Ziel e</w>
Zei chnung</w>
Zahl en</w>
Z wei</w>
Währ end</w>
Wi der
Wettbewerb s</w>
Wert min
Wechselkurs mechanismus</w>
W oh
W er</w>
W enn</w>
W el
Vor teile</w>
Vor sichtsp
Verw altung</w>
Verlu sten</w>
Verb ot</w>
Ver änderungen</w>
Ver wirklichung</w>
Ver lust</w>
Un gleichgewich
Umf eld</w>
U r
To gether</w>
Th em
Teil nehmer</w>
Teil nahme</w>
TARGET2-Sec urities</w>
T wo</w>
T uesday</w>
T ra
T al
T LTROs</w>
T .</w>
Stresst est
Stimmrech te</w>
Stell vertre
Ste u
Staats -</w>
St rafverfol
St elle</w>
St ark</w>
So mit</w>
Sloven ije</w>
Slov enska</w>
Sicherheitenver zeichnis</w>
Sek tor</w>
Schrit te</w>
Schaff ung</w>
Sch lüss
Saint -
SR M</w>
SM P
SMP -
S ehen</w>
Rotations systems</w>
Richt linienvor
Reser vefonds</w>
Res sourc
Regier ungschefs</w>
Regier ungen</w>
Rech t</w>
Re vision</w>
Re view</w>
Re st
Re alised</w>
R us
R unde</w>
R ub
R ich
R h
R ein
R ec
Qu al
Pur suant</w>
Prä geanst
Proz ess</w>
Protok ol
Produk te</w>
Poli zeibehörden</w>
Pfandbrief e-style</w>
Par ti
P lat
P ank</w>
P al
P act</w>
O ur</w>
Not wendigkeit</w>
Not enbankfähigkeit</w>
Nettogew inn</w>
Netto -
Netto- Finanz
Netto-Finanz anlagen</w>
N ähere</w>
N árodná</w>
N or
N iels</w>
N B</w>
Mö glich
Mr .</w>
Marktteilnehm er</w>
Markt wert</w>
Mark etable</w>
Manu el</w>
MT S</w>
M ich
M ak
Leit ung</w>
Leit linie</w>
Leit kurse</w>
L auf</w>
L au
L afitte</w>
Kur s</w>
Kun st</w>
Kredit instituten</w>
Konz ert</w>
Konz ept</w>
Konvergenz berichte</w>
Kenn tnis</w>
Kal en
K ippen</w>
Jür gen</w>
Jos é</w>
Jahreswachst umsraten</w>
J umb
It alia</w>
Inter nationale</w>
Institu te</w>
In n
I I
Höh epunk
Heraus forderung</w>
He ads</w>
Haushalts defizit</w>
H erkunft</w>
H ead</w>
H ard</w>
Güter märkten</w>
Gui deline</w>
Gro up</w>
Gonzále z-Páramo</w>
Gi ven</w>
Gewinnvoraus zahlung</w>
Gewinn er</w>
Gest alt</w>
Geschäft stätigkeit</w>
Generation -</w>
Gem essen</w>
Geldmengenaggreg ats</w>
Geb iet</w>
Ge wichts
G ymn
G epflogenheiten</w>
G eh
G edenk
Fühl en</w>
For m
Finanz markt
Finan zierung</w>
Fern er</w>
Falschgeld bekämpfung</w>
F remdwährungs
F rei
F ehl
Euro- Ländern</w>
Euro- Fälschungen</w>
Euro tower</w>
Erweit erung</w>
Er läu
Entwurf s
Ein richtungen</w>
Eigenk apit
Eig entümer</w>
EZB-R ats
E quity</w>
E ligi
E lemente</w>
E ffizi
E W
E S</w>
Distribu tion</w>
Di f
Deutsch e</w>
De preciation</w>
D r.</w>
D eputy</w>
D eb
D au
D anièle</w>
D a</w>
Coun ter
C entre</w>
C ard</w>
C B
Bezieh ungen</w>
Bet ru
Bestimm ungen</w>
Ben oît</w>
Beitritts länder</w>
Beit ritt</w>
Be obach
Be arbeitung</w>
Basis sz
Banknotenbe arbeitung</w>
Bal ance</w>
B ünemann</w>
B y</w>
B re
B onitäts
B em
Ausschreib ungsverfahren</w>
Aus sichten</w>
Aus druck</w>
Auf grund</w>
Au gen
Au ffassung</w>
Au dit</w>
Architek tur
Anh örung</w>
An trag</w>
An merk
An hang</w>
An f
Aktiv a</w>
Ad ministration</w>
Acc ordingly</w>
Absch lag</w>
Ab wicklungs
Ab sicherung</w>
A spek
96 2</w>
8 5</w>
8 2</w>
8 1</w>
8 .</w>
7 28</w>
5 30</w>
40 6</w>
4 8</w>
4 2</w>
36 4</w>
33 2</w>
3. 75</w>
3 8</w>
27 .2</w>
200 00</w>
2 20</w>
2 17</w>
18 5</w>
17 .00</w>
134 4
13 0</w>
13 .</w>
12 6</w>
10 8</w>
10 0-</w>
1 21</w>
1 1.</w>
0. 5</w>
0, 25</w>
-to- GDP</w>
- 0,
, 0</w>
ē ter
ēter is</w>
ā r
ār s</w>
üt tung</w>
ür men</w>
über wiegende</w>
ü hren</w>
ü h
ör t</w>
ör de</w>
ö ss
ätz en</w>
är tet</w>
ä um
Überwach ung</w>
Über sch
zw ec
zw ar</w>
zusamm ens
zur zeit</w>
zul ässi
zentr um</w>
zeit gen
zeitgen öss
zeich nen</w>
zei gt</w>
zei gen</w>
z um
yth ologie</w>
ymp h
y r
y est
yest er
yester day</w>
x is</w>
wär ts
www.new-euro-banknotes .eu.</w>
www.neu e-
www.neue- euro-banknot
www.neue-euro-banknot en
wil lig</w>
widerspieg eln</w>
wh en
when ev
whenev er</w>
wettbewer b
wel come</w>
wach en</w>
w öch
w s</w>
w ind
w ater
water mark</w>
vor zulegen</w>
vor zu
vor her
vor ges
vorges eh
vollständi g</w>
vol un
volun t
volunt arily</w>
vis aged</w>
vi g
verzins liche</w>
verbess ert</w>
verbess ern</w>
verb un
verbun denen</w>
ver zeichnet</w>
ver länger
v re</w>
v al</w>
upd ates</w>
unverbind lichen</w>
unterschied liche</w>
uni cations</w>
ungs geräten</w>
under taken</w>
under take</w>
uncert a
unabhängi g</w>
un eration</w>
un an
unan im
umfass en</w>
umf ang</w>
u ts</w>
u tri
u red</w>
tä tigen</w>
tä glich</w>
ture llen</w>
tur reformen</w>
tungs gewinne</w>
tron ic</w>
tre ffen</w>
tre at
treat ment</w>
transpar ent</w>
transi tional</w>
transfer ring</w>
trans aktionen</w>
tran sition</w>
tra ining</w>
tour s</w>
tot alled</w>
to col
tocol s</w>
tion ed</w>
tig te</w>
ti n</w>
thorou gh
thorough ly</w>
th ou
thou gh</w>
th ly</w>
th eit</w>
ter ungen</w>
ter n
ten ders</w>
te ach
t sh
tsh aus</w>
t ory</w>
t in
t angible</w>
t -to-GDP</w>
symbo l</w>
sus pi
suspi ci
suspici ons</w>
supervis or</w>
stär kt</w>
städ te
stri e</w>
stre chnung</w>
strateg ic</w>
str ä
str ong
strong ly</w>
stitu tion</w>
ster ing</w>
steh end</w>
stands fähigkeit</w>
stamm en</w>
stab e</w>
sta at
st ück
st ood</w>
st oc
stoc k</w>
st ant</w>
st age</w>
ss emin
spru ch</w>
spl ätze</w>
sp r
sp h
sph ase</w>
sorgfäl tig</w>
sol o
sol che</w>
so weit</w>
so u
so for
so fern</w>
so cial</w>
sitz ungen</w>
sin strum
sicher er</w>
sever al</w>
ser ves</w>
separ ate</w>
sel ben</w>
sec ondary</w>
schie de</w>
schaf tshaus</w>
satis fied</w>
s äm
s um
s la
sla va</w>
s .</w>
rü st
ränk ungen</w>
rul e</w>
ro unding</w>
riti cal</w>
res olution</w>
represent ative</w>
repres ents</w>
rel ate</w>
reibungslo sen</w>
rei bt</w>
rei ber</w>
regulär en</w>
refl ecting</w>
refl ect</w>
recei ves</w>
rec all</w>
reali sation</w>
read ings</w>
re ve
re stric
re place</w>
re p
re li
re duction</w>
r o</w>
r ating</w>
r as
r ank
rank ing</w>
quot ed</w>
qu estions</w>
pur su
prä m
pru dential</w>
pru dence</w>
provisi ons</w>
proper ties</w>
proc ess
process ing</w>
proc e
pro tocols</w>
pro gramms</w>
pro b
priz ew
prev ent</w>
preis en</w>
pre ise</w>
prac ti
poul os</w>
pot enzi
pop ulation</w>
plac ed</w>
pla y
pl ying</w>
pill ars</w>
ph otograph
per c
per ative</w>
particip ate</w>
par am
pack ages</w>
p ak
p age</w>
out look</w>
our t</w>
ot os</w>
ori z
ori al</w>
or ro
or ous</w>
or ing</w>
or g</w>
opport unities</w>
oper ators</w>
on str
on s
on ing</w>
omm endation</w>
olo gramm</w>
ogra m</w>
off er</w>
ocum entation</w>
o u</w>
o red</w>
num bers</w>
not leiden
norm alen</w>
non- performing</w>
nachhal tige</w>
nach drücklich</w>
mö gliche</w>
musi ci
musici ans</w>
monit ored</w>
mittl ung</w>
mittl eren</w>
milest one</w>
mid- range</w>
mer k</w>
men tioned</w>
men gar
mengar ten</w>
mem orial</w>
mehr ere</w>
mechanis ti
me et</w>
materi als</w>
maten indu
matenindu strie</w>
mark t</w>
manu al</w>
mainta ining</w>
m ulti
m its</w>
m her
m et
m ann</w>
m als</w>
lät ter</w>
länger fristige</w>
low s</w>
lo se</w>
lo g
lin d</w>
lie b</w>
lich enfalls</w>
li days</w>
let tische</w>
leafl et</w>
le ch
le ad
lead ing</w>
laubwürdi gkeit</w>
lau tende</w>
lar gement</w>
lang fristige</w>
landsc ape</w>
l ändern</w>
l ung</w>
l arg
kün di
kurz fristigen</w>
kul turellen</w>
korrigi eren</w>
konsolidi erte</w>
ko ordin
kl ar</w>
k unden</w>
k un
k um
k n
k it</w>
k er</w>
k enn
k e
k ators</w>
k ations
jah res</w>
j unk
j ud
j etzt</w>
it t</w>
it em</w>
isch es</w>
is ing</w>
ir mher
ir c
inter vention</w>
integr aler</w>
integr al</w>
innov ative</w>
initi atives</w>
indi katoren</w>
index. de.
independ ent</w>
independ ence</w>
in eligible</w>
implem enting</w>
imp airment</w>
imp ai
im perative</w>
im balances</w>
ig t</w>
ier te</w>
identi fied</w>
i or
i ma
i lities</w>
häu fi
hän d
hol ogram</w>
hoch rangi
ho lidays</w>
ho ben</w>
he et</w>
half- yearly</w>
hal t</w>
hal b
ha irc
h um
h il
h eben</w>
h eb
h -
gu age</w>
grund le
gru ppen</w>
gro unds</w>
gri ffen</w>
grei fen</w>
grei f
go ing</w>
gi g</w>
gezeichn eten</w>
gezahl t</w>
gewer tet</w>
gew issen</w>
geschäf t</w>
geschri eben</w>
gesch aff
geschaff en</w>
gesamt wirtschaftlicher</w>
gesam te</w>
ges etz
gering fü
geringfü gig</w>
geplan ten</w>
genu tzt</w>
gen ü
gemess enen</w>
gemein samen</w>
gehalten e</w>
geh ört</w>
geh ören</w>
geführ te</w>
gef asste</w>
gebäu de</w>
ge tro
ge prä
gan z</w>
ga inst</w>
g ünsti
g g
g a</w>
führ t</w>
förder n</w>
fundam ent
fulfil s</w>
frei willig</w>
form en</w>
for -
fo ur
fl uss</w>
fix ation</w>
fin ali
fi ght</w>
fest zustellen</w>
fest steht</w>
fe e</w>
fahr ung</w>
f ree</w>
f eld</w>
f and</w>
f ab
expendit ure</w>
exp lan
exp and
expand ed</w>
exhib ited</w>
ex tre
ew ed</w>
euro- denominated</w>
est nische</w>
erzi elte</w>
erwor ben</w>
erweit erten</w>
erti fizierung</w>
ert age</w>
eri o
erheb liche</w>
erh ärtet</w>
erforder lichenfalls</w>
erfolg reichen</w>
er zeichen</w>
er reichen</w>
er lau
epf lich
entsprech en</w>
entscheiden der</w>
entschei den</w>
enter ed</w>
ent ail</w>
enh eit</w>
en zen</w>
en visaged</w>
en ed</w>
employ ment</w>
emb les</w>
em uneration</w>
elektron ischen</w>
elec tronic</w>
el eg
einzu reichen</w>
einzi ge</w>
einstimm ig</w>
ein s</w>
ein igen</w>
eign ior
ei g
ei en</w>
eg u
effici ency</w>
edri ch</w>
eder al</w>
ecb.europa .eu.</w>
ecb. int</w>
eben so</w>
e ve</w>
e valu
durchschnit tliche</w>
duc ing</w>
down loaded</w>
diver sity</w>
direk ten</w>
difficul t</w>
diesbezü gliche</w>
di ssemin
di ge</w>
develop ing</w>
deri ves</w>
dedi cated</w>
dec lined</w>
dec kung</w>
deb t-to-GDP</w>
de valued</w>
de ep
dar stellen</w>
dar gestellt</w>
da lities</w>
da für</w>
cultural days</w>
cru cial</w>
cross -
country- specific</w>
correc t</w>
cor ding</w>
continu ation</w>
cont ain</w>
consider ed</w>
consi sts</w>
cons ult
connec tion</w>
confirm ation</w>
condi tional</w>
compani es</w>
compani ed</w>
comp let
comm ents</w>
comb ating</w>
co operates</w>
co l</w>
cla im</w>
cir c
cho sen</w>
char ities</w>
ch er</w>
capit alised</w>
cap ac
capac ity</w>
c ritical</w>
c ert</w>
c ates</w>
c andid
candid ates</w>
c alls</w>
buil dings</w>
bri d
bo ard</w>
bisheri gen</w>
bil den</w>
bi eten</w>
betre ffen</w>
betrach tet</w>
bestä tigt</w>
bestimm te</w>
besonder s</w>
bereit stellen</w>
ber echnet</w>
benef it</w>
beizu behalten</w>
beit ragen</w>
beh örde</w>
begr enz
befind licher</w>
beein fl
bedeu tende</w>
bec om
beaufsichtig ten</w>
be ziehen</w>
be stehende</w>
be geben</w>
be geb
bau lichen</w>
banknot en</w>
b ür
b ung</w>
b lind</w>
b lieb</w>
b illions</w>
b ig
b ase</w>
autom aten</w>
auto matenindustrie</w>
ausgew ähl
ausge glichen</w>
ausge geben</w>
aus üben</w>
auf zu
au ßer
ati v</w>
ati es</w>
at ure</w>
ass um
ass erzeichen</w>
ass e</w>
as ury</w>
ar brücken</w>
appro ximately</w>
ap preciation</w>
announ cing</w>
anis h</w>
anfän glichen</w>
an ischen</w>
an gew
am ending</w>
al itäten</w>
al d</w>
akzep tieren</w>
aktu elle</w>
ak ova</w>
ah me</w>
aggreg ates</w>
agg regi
agen cies</w>
aff ected</w>
adv ance</w>
adv an
adjust ments</w>
adequ ate</w>
addi ert</w>
add ressed</w>
adap ting</w>
adap t</w>
ack nowled
achi eve</w>
ach tet</w>
accel er
acc ru
acc ept
ac k</w>
ac companied</w>
ab les</w>
ab ilities</w>
ab gewertet</w>
ab ase</w>
a h</w>
a den</w>
Zwec ke</w>
Zw öl
Zuständi g
Zus ätz
Zu r</w>
Zins bindung</w>
Ziel en</w>
Zahlungsverkehr sinstrum
Zahlungsinstrum ente</w>
Zahlungs instituten</w>
Zahlungs dienstleistungen</w>
Z un
Z um</w>
Wider standsfähigkeit</w>
Wertpapier abwicklungs
W erte</w>
W ert</w>
W er
W asserzeichen</w>
Vorbereit ungen</w>
Vor schriften</w>
Vor feld</w>
Vor aus</w>
Vienn a</w>
Vi deo</w>
Verwalt ungs
Vertre tung</w>
Vertre tern</w>
Vertre ter</w>
Verlu strechnung</w>
Vereinig te</w>
Veranstalt ungs
Ver glichen</w>
Ver fassung</w>
Ver antwor
V ari
Unter schiede</w>
Ungar ns</w>
Un realised</w>
Un der
Um stellung</w>
UNG EN</w>
Tschech ischen</w>
Tre aties</w>
Tre asury</w>
Theat er</w>
Teu erungs
Teil en</w>
T ex
T ermin
T aking</w>
T H
Struk turreformen</w>
Stresst ests</w>
Stich ting</w>
Stand ort</w>
St and</w>
Sprach en
Sit z</w>
Sin ce</w>
Schatz wech
Sch war
Sch utz</w>
Sch irmher
Sa arbrücken</w>
SMP- Portfolio</w>
SEPA- Instrumente</w>
S ol
S k
S heet</w>
S eminar</w>
S eh
S E
Rück stellungen</w>
Rus sia</w>
Rub rik</w>
Richt linie</w>
Ressourc en</w>
Res ources</w>
Rel ations</w>
Refinanzierungs geschäfte</w>
Rechts dienste</w>
Rec ommendation</w>
Re gel</w>
R uss
R unden</w>
R und</w>
R o
R emuneration</w>
R at
R O</w>
Qual itäts
Qu ality</w>
Publi k
Prägeanst alten</w>
Protokol le</w>
Proto col</w>
Pri ce</w>
Port folios</w>
Po si
Plan ung</w>
Pfandbrief e</w>
Pers onen</w>
Par tner
Pal mengarten</w>
P ēteris</w>
P unk
P erio
P en
P e
On ly</w>
Obergren ze</w>
OL AF</w>
O ver
O utri
Nutz er</w>
Num ber</w>
Nu r</w>
Not e</w>
Nicht -
Nettozinser träge</w>
Ne ue</w>
Nation al
N r.</w>
N omin
N -
Möglich keiten</w>
Musi k</w>
Mr s.</w>
Mon thly</w>
Mit teln</w>
Mindestreserve-Erfüllungsperio de</w>
Metho de</w>
Mem orandum</w>
Meilen stein</w>
Massen zahlungen</w>
ME P</w>
M ythologie</w>
M and
Lo ss</w>
Li beralisierung</w>
Leit kurs</w>
Leist ungen</w>
Lan guage</w>
Lan des</w>
L ehr
L e</w>
Kün st
Kompon enten</w>
Kapitallück e</w>
Kapital instrum
K ern
Jahres ende</w>
J az
Inter ven
Inter ess
Institu t</w>
Ins besondere</w>
Inflations rate</w>
IS H</w>
IB AN</w>
Harmon isier
HVP I-
H uman</w>
H ologramm</w>
H imm
H ig
Grund satz</w>
Gewinn -</w>
Gesell schaftshaus</w>
Geschäftspar tnern</w>
Geschäfts jahres</w>
Gesamt umfang</w>
Ger man</w>
Gemein schafts
Geldsch einen</w>
Geldmengenaggreg at</w>
Geldmengen wachstums</w>
Geld politische</w>
Gel e
Gegen zug</w>
Gedenk stätte</w>
Geb ühren</w>
G- 10
G-10 -
G laubwürdigkeit</w>
G LRGs</w>
Führ ungen</w>
Fri edrich</w>
Fortschrit ts
For derung</w>
Fest stellung</w>
Falschgeld -
Falschgeld- Analyse
F rom</w>
F ederal</w>
F alt
Ex p
Europ as</w>
Euro- Geldscheine</w>
Euro gruppe</w>
Euro group</w>
Eröff nungs
Ergebn issen</w>
Er richtung</w>
Er fahrung</w>
En s
Empfehl ung</w>
Emittenten gruppe</w>
Eligi ble</w>
Einzel händ
Einkün ften</w>
Ein schätzung</w>
Effizi enz</w>
EZB- Publikation</w>
EZB- Neubau</w>
EZB- Bilanz</w>
EW R</w>
EUROPA- KULTURTAGE</w>
ESR B</w>
EM U</w>
ECOFI N</w>
ECOFI N-
E hr
Dru ck
Direc tive</w>
Di alog</w>
Des pite</w>
Der zeit</w>
Dec kung</w>
Daten bank</w>
Da bei</w>
D ocumentation</w>
D ob
Counter f
Con sum
Con stitution</w>
Con cert</w>
Comm unications</w>
Comm ercial</w>
Char ity</w>
CB PP
C redit</w>
C ourt</w>
C ho
Bür ger
Buch stabe</w>
Buch mäßige</w>
Bilanz en</w>
Bet reiber</w>
Bes uch
Ber at
Bek ämpfung</w>
Be is
Basissz enario</w>
Bargeld transaktionen</w>
Banknotenbearbeit ungsgeräten</w>
Banknot es</w>
Bankenauf sichts
B ü
B ri
B is</w>
Aus wahl</w>
Augen merk</w>
Auf wärts
Au s</w>
Arbeits -</w>
Arbeit splätze</w>
Anf ang</w>
An sicht</w>
An gel
Ak tu
Ak ti
Ad resse</w>
Ac cording</w>
AB SPP</w>
A gainst</w>
A S</w>
7 .
6 .2</w>
5. 5</w>
5, 5</w>
5 75</w>
4 4</w>
4 40</w>
30 7</w>
3. 25</w>
3 7
3 19</w>
3 .</w>
28 7</w>
2. 75</w>
2 .</w>
17 1</w>
17 .</w>
15. 00</w>
1. 5</w>
1. 3</w>
1, 5</w>
1 0,
0. 7</w>
0, 7</w>
0, 50</w>
-b ased</w>
- run</w>
к а</w>
а р
š ē
šē vi
šēvi č
šēvič s</w>
überstei gt</w>
über prüf
überprüf t</w>
über mäß
übermäß iges</w>
ü ll
ö k
ó k</w>
é sor
ésor erie</w>
é s
és or</w>
é e</w>
äu figsten</w>
äu fen</w>
äu fe</w>
ätig ung</w>
än dige</w>
á zi
ázi um</w>
Über gang</w>
Ü ber</w>
zun ah
zunah m</w>
zul ässigen</w>
zu gän
zier ten</w>
zier en</w>
zi ja</w>
zentral e</w>
zeit raums</w>
zei ch</w>
z ter
zter .m
zter.m il
zter.mil ten
zter.milten yi</w>
z t</w>
z eu
z ah</w>
ymph ony</w>
y our</w>
y ond</w>
y line</w>
y g
y en</w>
www. s
www. generation
www.generation euro.eu</w>
www. euro
www.euro .
work places</w>
wirtschaf ts
wir ken</w>
wind ow</w>
wie der</w>
wick elt</w>
wichtig ste</w>
wich tigen</w>
wi j
wh el
whel ming</w>
wesent lichen</w>
wesent liche</w>
wer b</w>
well en
welcom ed</w>
weiter führ
w ahr
vorher gehenden</w>
vorgeseh enen</w>
vor zunehmen</w>
vor läufi
vor h
vor gelegt</w>
volum es</w>
volum en</w>
vo ur
vis -
viertel jährlichen</w>
vi deo</w>
verring erte</w>
verli eren</w>
verk auf
verbess erte</w>
verab schied
verabschied eten</w>
ver zeichnen</w>
ver teilten</w>
ver hin
verhin dern</w>
ver gleichen</w>
ver gleich</w>
ver gleich
ver folgt</w>
ver anstaltung</w>
ve za</w>
vari ety</w>
v ity</w>
v e-
v ali
v ac
vac ancy</w>
ust er
us st</w>
up ward</w>
unter nehmen</w>
uns ch</w>
uni que</w>
ung e</w>
unanim ously</w>
un weighted</w>
un less</w>
un gewichteten</w>
un covered</w>
un conditional</w>
umf ang
ul le
ulle tin</w>
ud m
udm il</w>
ubli n</w>
u tz
u ine</w>
u gend
u es</w>
u G
uG H</w>
typ e</w>
tu n</w>
trend s</w>
trend mäßigen</w>
tre chn
trechn ungen</w>
tra t</w>
tr ésorerie</w>
tr y</w>
tr usted</w>
tr ust</w>
tr itt</w>
to wers</w>
to ols</w>
to o
too l</w>
to in
toin land
toinland spro
toinlandspro du
toinlandsprodu kt</w>
tiv itäts
tiv eness</w>
tion sp
tin u
tim eline</w>
tig ten</w>
ti sed</w>
ti erten</w>
thorou gh</w>
ther ine</w>
theat re</w>
th äufigsten</w>
th ings</w>
th ilfe</w>
th eu
theu s</w>
th eme</w>
ten si
ten schlä
tenschlä ger</w>
ten e</w>
ten d</w>
teil nehmen</w>
techn ological</w>
techn olog
teach ers</w>
te sting</w>
te ke</w>
te am</w>
ta in</w>
ta gen</w>
t ók</w>
t wor
t toinlandsprodukt</w>
t proz
tproz en
tprozen tigen</w>
t l
t ent
t end
t empl
templ ates</w>
t ar
tar ge
t ag
symbo li
susp ects</w>
supervis e</w>
sup pl
suppl ement
supplement ary</w>
su chungen</w>
su chen</w>
strä ger</w>
struk turelle</w>
streng th</w>
streng th
stitu to</w>
statisti k</w>
stat tung</w>
stat t</w>
stark en</w>
star k</w>
sta y</w>
st ärk
st eva</w>
st ate</w>
spiel en</w>
spezif ischen</w>
spe ech
speech es</w>
sp ä
sp lay</w>
sozi ierte</w>
solo ist</w>
so und</w>
so dass</w>
slow ak
sk a</w>
sign alisi
signalisi eren</w>
sign al</w>
sieh t</w>
sid ents</w>
sichtig t</w>
sicher gestellten</w>
sicher es</w>
si ghted</w>
si ert</w>
si bility</w>
show ing</w>
show ed</w>
setz t</w>
sen si
sec uriti
se es</w>
schul d
schie den</w>
schei dung</w>
sch wachen</w>
sch eme</w>
saf ety</w>
saf egu
s oun
s opran
sopran o</w>
s eines</w>
s cal
scal e</w>
s an
s -
rüst ung</w>
rü hren</w>
rän kt</w>
rä ume</w>
ru ttoinlandsprodukt</w>
rot z</w>
ron ze</w>
ron age</w>
ro man
riti sh</w>
rit e-downs</w>
ris k
rig or</w>
ri s</w>
ri ers</w>
ri eb
ret ail
retail ers</w>
responsi bility</w>
res t</w>
repor ted</w>
ren ewed</w>
reit ung</w>
rei he</w>
regi stri
regel mäßig</w>
reg ulation</w>
refinanzierungs fähige</w>
recogn ition</w>
reas on</w>
reach ed</w>
re sidents</w>
re ig
reig n
re ducing</w>
re confirm</w>
re -
ra d</w>
r un
r on</w>
qu es</w>
qu ali
qu al
qual it
qualit ativ</w>
pru dent</w>
proz esses</w>
prot ect</w>
proj ections</w>
professi on
produc ts</w>
produc tivity</w>
pro gramm
programm es</w>
prizew inn
prizewinn ers</w>
pri j
prij at
prijat el
prijatel je
prijatelje v</w>
previ ously</w>
pres sures</w>
pres ents</w>
pres entation</w>
prepar atory</w>
pre mis
premis es
premises .
pre liminary</w>
pre -
practi ces</w>
pr 0
potenzi ellen</w>
posit e</w>
posi tiv</w>
pos sibility</w>
po sted</w>
pi el</w>
pi ec
piec es</w>
photograph s</w>
phasing- out</w>
ph otography</w>
per spective</w>
per manent</w>
pat ronage</w>
pat h</w>
particip ation</w>
par ty</w>
par tly</w>
pack age</w>
p ran
p ra
p r</w>
p ol
pol yg
p ft</w>
p ages</w>
over whelming</w>
otenzi al</w>
oriz ons</w>
orig in</w>
ori enti
ori entation</w>
organis iert</w>
organis ations</w>
organis ation</w>
org as</w>
ordin ierung</w>
ord n
or tised</w>
or der
opp ing</w>
op tion</w>
oo s</w>
oo p</w>
oo king</w>
onn er
onner stag</w>
ong -term</w>
on t</w>
on nen</w>
on a</w>
om an
oman agement</w>
ollar- Portfolio</w>
oll s</w>
oh n
off en
occ a
oblig ations</w>
obj ective</w>
ober halb</w>
ob wohl</w>
ob ili
ob igen</w>
ob ald</w>
o v</w>
o th
nungs bau
nungsbau kredite</w>
norm al</w>
non- monetary</w>
non- credit</w>
ni eder
neg ative</w>
ne go
nego ti
nam e</w>
nah m</w>
nah e</w>
nach gel
na zija</w>
n äh
n ie</w>
n ab
moder nen</w>
mod els</w>
mo dern</w>
mo del</w>
mo dalities</w>
mittel bar</w>
mit einander</w>
mis sions
mi gr
mem orandum</w>
mechanisti cally</w>
me theus</w>
markt fähigen</w>
mark et-
man is</w>
ma ß
ma kro
m ārs</w>
m useum</w>
m u
m stadt</w>
m l
ml ad
mlad ine</w>
m ine</w>
m ely</w>
m el
m al</w>
m a</w>
läu ft</w>
ländi schen</w>
lo s</w>
litau ischen</w>
litau ische</w>
lin ked</w>
ließ lich</w>
ließ en</w>
lie fer
lich eren</w>
li qui
li ppe</w>
li mits</w>
li er</w>
li abilities</w>
li a</w>
leit et</w>
le av
lauf s</w>
lauf ende</w>
lar gel
largel y</w>
langu age</w>
lan gen</w>
la sting</w>
l s
l mārs</w>
kündi gt</w>
konz ept</w>
kon zep
kon zent
kon tak
ko sten
ko mp
klassifizier t</w>
kl ar
keit s
ke ep</w>
kat or</w>
kar ten
kam en</w>
k ers</w>
k ept</w>
k eines</w>
k einen</w>
k einem</w>
k aro
karo v</w>
jähri ge</w>
jähr liche</w>
j unge</w>
j ener</w>
j ap
itäts -</w>
ity- Konzert</w>
it ors</w>
it able</w>
it SM
itSM F</w>
isti n</w>
issu ance</w>
is wirksam</w>
is sion
is m</w>
invol ved</w>
inv es
inter national
inter nal</w>
inter ested</w>
inter ac
integri erten</w>
int y</w>
int ends</w>
instrum ent</w>
inst all
inn s</w>
inform ieren</w>
indi kators</w>
index.de. html</w>
increas es</w>
in tention</w>
in k
in form</w>
in fl
infl ation
in ey</w>
in en</w>
in compati
improv ements</w>
import ance</w>
impai red</w>
immedi ately</w>
im šēvičs</w>
ill ets</w>
il itäts-</w>
il ed</w>
ig ht</w>
ie ßen</w>
i sträger</w>
i or</w>
i ch</w>
höh ere</w>
häufi g</w>
hoh es</w>
hoh er</w>
hin der
hil fen</w>
hier bei</w>
hi lippe</w>
her rühren</w>
her ange
herange zogen</w>
hel fen</w>
hat ten</w>
harmonisier te</w>
handl ers</w>
hand eln</w>
halb jährlichen</w>
h orizons</w>
h inter
h egt</w>
gui ded</w>
gui dance</w>
gu t
gs bekämpfung</w>
gründ lich</w>
größ ere</w>
grund s
gro undscraper</w>
griech ische</w>
grenzüberschreit ende</w>
grei ft</w>
gre ement</w>
gra dual</w>
glie derung</w>
gi ves</w>
gi ge</w>
gew innen</w>
getro ffen</w>
ges tie
gereg el
geregel ter</w>
ger ne</w>
geprüf ten</w>
generation euro</w>
gen ießen</w>
geldpoliti scher</w>
gel eist
gel der</w>
gel aden</w>
geh ende</w>
gef assten</w>
gedeck ten</w>
ge macht</w>
ge m</w>
gan genheit</w>
gam es</w>
g o</w>
g ingen</w>
g est</w>
g au
gau ges</w>
g ame</w>
förder t</w>
fäl lig</w>
fulfil ment</w>
fris tiger</w>
französ ischen</w>
foli o
folgen der</w>
folgen d</w>
fol gen</w>
fo ster</w>
fmon atsdurchschnit
fmonatsdurchschnit t</w>
flä chen</w>
flu c
fluc tu
flexi ble</w>
fir ms</w>
finan z
finan ces</w>
fin dings</w>
fin d</w>
fin alisation</w>
fil ms</w>
fi k
fi er</w>
fe sten</w>
fac t</w>
fa vour
f s</w>
f on
f lows</w>
f es
f ell</w>
f assten</w>
f alt</w>
extre mely</w>
exter nen</w>
ext ent</w>
expendit ures</w>
exp ects</w>
exp an
exam ple</w>
exam ines</w>
ex t</w>
ex act</w>
ever yone</w>
ever al</w>
ev ent
europä ischer</w>
eur e</w>
et ris</w>
ess or</w>
es zter.miltenyi</w>
erschein ende</w>
erläu tert</w>
erk enn
erkenn t</w>
erhal tene</w>
ergebn iswirksam</w>
erforder lichen</w>
erfolg reiche</w>
er wiesen</w>
er w
er teams</w>
er richtet</w>
er reich
er o
er mittelt</w>
er leich
er fassten</w>
ep h</w>
entwick eln</w>
entral e</w>
enti ties</w>
enti re</w>
enter ing</w>
ens emble</w>
enhan ced</w>
eng ing</w>
enaus schreibung</w>
enari en</w>
en largement</w>
en det</w>
en cy-
ency- Bo
ency-Bo ar
ency-Boar d-
en cour
emphas ise</w>
emer ging</w>
ell er</w>
elektron ische</w>
el f</w>
el ement</w>
el b</w>
eit e</w>
einheit licher</w>
eingerei cht</w>
einger ichtet</w>
einge stu
einf ach</w>
ein deu
ein ander
ei ß
ei ra</w>
ei m
ei genen</w>
ehemali gen</w>
eh mig
eg io</w>
effek tiven</w>
effek tive</w>
ed u
ed bank</w>
ear lier</w>
e f</w>
e ast
east ern</w>
du ci
duci ve</w>
drit thäufigsten</w>
dre a</w>
do kum
diver si
dist inc
dif ference</w>
dien st</w>
dien ce</w>
di splay</w>
devel op</w>
detailli erte</w>
des ire</w>
dem onstr
deli very</w>
defin iert</w>
dec entrali
de x</w>
d w
d ri
d on
d ität</w>
d ation</w>
credi bility</w>
counterfeit ers</w>
consum er</w>
consider s</w>
conduc ting</w>
con stitu
con ducive</w>
compon ents</w>
complet ed</w>
comp ar
communi cated</w>
comm unities</w>
com posite</w>
coll ection</w>
coll ected</w>
co des</w>
clu ding</w>
clo sing</w>
clo ser</w>
cle arly</w>
cl ari
char ac
chall enging</w>
ch or</w>
ch i
cel ona</w>
ce- sheet</w>
ce iling</w>
cas h-
c entrale</w>
c -
bre it</w>
bil anz
bilanz en</w>
big gest</w>
bi eter</w>
beträ gt</w>
bet ro
bestimm ten</w>
besonder es</w>
besch luss</w>
besch le
bes ich
berich tenden</w>
bereit gestellt</w>
beobach tet</w>
ben ö
ben ch
bel angt</w>
beit ritt</w>
bein halten</w>
bei behalten</w>
beg onnen</w>
beg innen</w>
beeinfl ussen</w>
bedeu tender</w>
becom es</w>
be zogen</w>
be yond</w>
be sten</w>
be hinder
be frist
be ab
beab sichtigt</w>
bar riers</w>
bar er</w>
bal an
balan ce-sheet</w>
b ulg
b ring
b lätter</w>
b illets</w>
b es</w>
awar ded</w>
auszu sch
ausgew ählt</w>
ausge gebenen</w>
aus stattung</w>
aus sch
aus führ
aus drücklich</w>
auf zunehmen</w>
auf weisen</w>
auf treten</w>
audit ed</w>
au ern</w>
au dience</w>
attach ed</w>
ator ischen</w>
at ri
at h</w>
as signs</w>
arti sts</w>
arran gement</w>
arithme tischen</w>
arithme tic</w>
architek ten</w>
architec ture</w>
ar d
ar ben
appro val</w>
appli es</w>
appli cations</w>
appli cation</w>
ap plying</w>
ant -
anschließ end</w>
ans ässigen</w>
announ cement</w>
announ ce</w>
angew and
ange kündigt</w>
anf allen</w>
and lung</w>
analy siert</w>
analy sed</w>
an weisungen</w>
an nehmen</w>
an ist</w>
an gs</w>
an gemessen</w>
an gebot
an ese</w>
an c
an belangt</w>
amend ment</w>
am ortised</w>
am ber</w>
alle in</w>
ali karov</w>
al most</w>
al ed</w>
ak is</w>
aggregi erten</w>
age lis</w>
ag nie</w>
advan ced</w>
ado eva</w>
administr ations</w>
adi a</w>
adem ie</w>
add resses</w>
adap ted</w>
ad ded</w>
ad d</w>
acknowled ged</w>
ach tprozentigen</w>
ach e</w>
accoun t
acc eding</w>
abzu geben</w>
abge wickelt</w>
ab sol
ab ine</w>
a x</w>
a ve</w>
a therine</w>
a gen</w>
Zwöl fmonatsdurchschnitt</w>
Zuteilungs betrags</w>
Zun ahme</w>
Zu dem</w>
Zahlungs verkehr</w>
Z veza</w>
Z ertifizierung</w>
Ye ar</w>
Ye ang</w>
Y en</w>
X Y</w>
Wi eder
Wettbewerb sphase</w>
Wel teke</w>
W unsch</w>
W rite-downs</w>
W W
WW U</w>
Vorsitz ende</w>
Vorsichtsp rinzip</w>
Voraussetz ung</w>
Viel falt</w>
Vi ol
Verwaltungs aufwendungen</w>
Verwalt ungen</w>
Verlu st
Verkaufs automatenindustrie</w>
Verb reitung</w>
Ver wendung</w>
Ver trägen</w>
Ver st
Ver gangenheit</w>
V agelis</w>
Unter suchungen</w>
Ungleichgewich te</w>
Under standing</w>
Un til</w>
Un d</w>
Um ständen</w>
US-D ollar</w>
US-D ollar-Portfolio</w>
U K</w>
Tra di
Tr ésor</w>
Them a</w>
Th at</w>
TARGET 2</w>
TA N</w>
T s</w>
T rotz</w>
T on</w>
T etris</w>
T est</w>
T est
T anz</w>
T age</w>
Säul en</w>
Syst em
Sw edbank</w>
Su pran
Su mm
Stu dien</w>
Stresstest -
Strafverfol gungs
Stimm en</w>
Stell enausschreibung</w>
Stab ilitäts-</w>
St ärkung</w>
St ändige</w>
St ellen</w>
St art</w>
St ar
St ad
Sprachen dienst</w>
Sp iele</w>
Sp eira</w>
Sonder status</w>
Soli dität</w>
Sicherheiten rahmen</w>
Sh ort
Schw eger</w>
Schatzwech sel</w>
Schatz anweisungen</w>
Sch wellen
Sch wei
Sch lüssel</w>
Sch ließlich</w>
Sch eine</w>
Saint- Jos
Saint-Jos eph</w>
SSM- Rahmenverordnung</w>
SE B</w>
S ü
S obald</w>
S everal</w>
S erie</w>
S el
S eignior
S abine</w>
S P</w>
S M</w>
Rück zahlung</w>
Russ land</w>
Risiko kontrolle</w>
Risik omanagement</w>
Richtlinienvor schlag</w>
Rest betrag</w>
Rein is</w>
Reg elung</w>
Reg arding</w>
Refinanzierungs geschäften</w>
Referenz jahr</w>
Re presentation</w>
Rahmen werk</w>
Rah mens</w>
Radi o</w>
R oos</w>
R oh
R imšēvičs</w>
R ed
R ating</w>
R adoeva</w>
R a
R G</w>
R E
R .</w>
Publik um</w>
Protok olls</w>
Produk tivitäts
Pro metheus</w>
Pro gramm
Pri vat
Pre isträger</w>
Pra xis</w>
Pra ktiken</w>
Pra et</w>
Posi tionen</w>
Port folio
Politi k</w>
Pol je</w>
Pol ens</w>
Per manent</w>
Parti cip
Parl ament</w>
P ru
P rin
P hilippe</w>
P alikarov</w>
O st
O s
O per</w>
O R
O MT
Nu n</w>
Neubewer tungsgewinne</w>
Nettozins einkünfte</w>
Ne der
National bank</w>
Nation ale</w>
Nach stehend</w>
N äch
N o
N enn
N adia</w>
Mün z
Mon ats
Mittel -</w>
Min ts</w>
Mehr heit</w>
Me di
Maß e</w>
Markt fähige</w>
Mand ats</w>
Ma de</w>
MT N</w>
M uster
M s</w>
M US
M ROs</w>
Luxemb urg</w>
Liquiditätskateg orie</w>
Leit zinsen</w>
Leist ung</w>
Lau tenschläger</w>
Lan g
L ös
L udmil</w>
L ooking</w>
L ong-term</w>
L es</w>
L eben</w>
Kun den
Konvergenz prüfung</w>
Konsult ations
Kon junk
Kompon ente</w>
Ko ordinierung</w>
Kl aus</w>
Kin der</w>
Kin der
Kategorie-1 -Sicherheiten</w>
Kategori en</w>
Karten systeme</w>
Kapital verkehr
Kalen ders</w>
Ka is
K K</w>
K .</w>
Jür ges</w>
Jaz z
Jap anese</w>
Jah r
J ugend
J azz</w>
Inter ne</w>
Inter nal</w>
Institu ten</w>
Infra strukturen</w>
Informations material</w>
Inflations entwicklung</w>
In folge</w>
IT SM</w>
IT -
IS CH
IG 3</w>
I- 29</w>
I stituto</w>
I lmārs</w>
I V</w>
I S</w>
I CH
Honor aren</w>
Hochh auses</w>
Himm elb</w>
Hier zu</w>
Heraus forderungen</w>
Her manis</w>
Hand buch</w>
Ham zah</w>
H u
H ans</w>
H RGs</w>
H AN
Gymn ázium</w>
Grund stein</w>
Groß e</w>
Gro undscraper</w>
Gra vity</w>
Gr und</w>
Gewinn erteams</w>
Gewichts anteil</w>
Gew innen</w>
Gesamt indikators</w>
Gesam trechnungen</w>
Gerä te
General direk
Gen uine</w>
Gemein den</w>
Gele genheit</w>
Geld nach
Gebäu des</w>
Gebäu de
Ge orgas</w>
Gar anten</w>
G-10- Ländern</w>
G rigor</w>
G esch
G A
G 10</w>
Fälsch ung</w>
Fremdwährungs bestände</w>
Frei verkehr</w>
Fotografi en</w>
Fotografi e-
Finanz institute</w>
Fei er</w>
Falschgeld-Analyse zentrum</w>
Falschgeld aufkommen</w>
Fak tor</w>
F unktion</w>
F e
F ax</w>
F IL
Ex empl
Euro-Zahlungsverkehrs raums</w>
Eröffnungs konzert</w>
Ern st</w>
Erläu terungen</w>
Erfüllungsperio de</w>
Er reichung</w>
Entwür fen</w>
Enga gement</w>
Einzelhänd ler</w>
Ein richtung</w>
Ein haltung</w>
Ein fluss</w>
Eigenmittel portfolio</w>
Ehr lich</w>
EZB- Mitarbeiter</w>
EZB- Direktoriums</w>
EL A</w>
EC J</w>
EB U</w>
E uGH</w>
E reign
E ls
E ins
E ben
E as
Durchschnit t</w>
Direktoriumsmit glied</w>
Direk tor</w>
Dif ferenzen</w>
Dien stleistungs
Detail s</w>
Detail ed</w>
Den noch</w>
Defiz it
Dar mstadt</w>
D ublin</w>
D rit
D reimon
D onnerstag</w>
D ank</w>
D anish</w>
D an
D amit</w>
D adurch</w>
D NB</w>
D IT
D ER
D C</w>
D C
DC R</w>
D .
D. C
D.C .</w>
Curr ency-Board-
Consum er</w>
Comp agnie</w>
Commit tee</w>
Col our
Col egio</w>
Cho ir</w>
Char ity-Konzert</w>
Ch or
CBPP 3</w>
C oop</w>
C iney</w>
C hr
C hi
C atherine</w>
C apital</w>
C R
C DCR</w>
Bürger innen</w>
Bre akdown</w>
Bonitäts beur
Blin den</w>
Bewer tungs
Betru gsbekämpfung</w>
Bet räge</w>
Best ätigung</w>
Besch ränkungen</w>
Ber lin</w>
Ber ichts</w>
Beitrit ts</w>
Beis piel</w>
Beh andlung</w>
Bar tók</w>
Bar geld</w>
Bar celona</w>
Bankenaufsichts behörde</w>
Ban co</w>
Ban ca</w>
BT F</w>
BI C</w>
B ulletin</w>
B ruttoinlandsprodukt</w>
B ritish</w>
B ook</w>
B ons</w>
B li
B islang</w>
B au</w>
B TAN</w>
B .</w>
Aus stellungen</w>
Aus richtung</w>
Aus gabe</w>
Aufsichtsgebü hr</w>
Aufhol prozesses</w>
Auf wertung</w>
Auf nahme</w>
Auf bau</w>
Ass et</w>
Aspek te</w>
As soziierte</w>
As soci
Arbeits gruppe</w>
Anmerk ungen</w>
Anla ge
Ank äufe</w>
Angel ov</w>
Analy sen</w>
An twor
An frage</w>
An drea</w>
An bieter</w>
Al vis</w>
Ad di
Abstimm ung</w>
Abschluss konzert</w>
A thens</w>
A then</w>
A greement</w>
A SP</w>
99 9</w>
99 5</w>
96 5</w>
9 72</w>
9 5</w>
9 3</w>
9 .3</w>
83 34</w>
83 20</w>
8 7</w>
8 00</w>
74 57</w>
74 0
740 4</w>
7 1</w>
7 15</w>
65 94</w>
65 4</w>
65 3</w>
63 3</w>
60 3
603 11</w>
6 8</w>
6 4</w>
6 1</w>
55 5</w>
54 f</w>
54 7</w>
5, 000</w>
5 6</w>
5 36</w>
5 33</w>
5 2</w>
44 3</w>
4. 5</w>
4. 25</w>
4 9.3</w>
4 8
4 72</w>
4 6</w>
4 37</w>
4 34</w>
4 17</w>
4 15</w>
4 00</w>
37 6</w>
36 6</w>
35 9</w>
3. 5</w>
3. 50</w>
3. 2</w>
3. 00</w>
3, 5</w>
3 46</w>
3 40</w>
3 34</w>
3 2.5</w>
3 16</w>
3 1.</w>
28 9</w>
27 7</w>
20 7</w>
2, 5</w>
2 90</w>
2 3.</w>
2 29</w>
19 2</w>
18 7</w>
16 1</w>
1344 -
11. 30</w>
1. 00</w>
1, 6</w>
1, 3</w>
1 41</w>
1 40</w>
1 15</w>
1 -
00 5</w>
0. 05</w>
0, 5</w>
0, 05</w>
0 82</w>
0 69
-Sch eins</w>
-0. 20</w>
-0, 20</w>
- vis</w>
- up</w>
- Geldschein</w>
š en
šen val
šenval ds</w>
ī ga</w>
Ē ri
Ēri ks</w>
ütz en</w>
üt ten</w>
ün den</w>
üh ungen</w>
über wach
überwach t</w>
über mäßigen</w>
über arbeitet</w>
ü s
ü ren</w>
ü pft</w>
ök onom
öffent lich</w>
ö st</w>
ö m
ñ a</w>
äum lichkeiten</w>
äu ft</w>
är in</w>
änger in</w>
änder te</w>
än ische</w>
än e</w>
än den</w>
ähr ungs
ährungs gebi
ähn lichen</w>
äch st</w>
ä ss
à -vis</w>
Übergangs zeit</w>
Über nahme</w>
Über arbeitung</w>
Über arbeit
Überarbeit ungsphase</w>
Ö l
Ö ff
Ä N
ÄN DER
zw in
zwin gend</w>
zw ei
zusammens etzen</w>
zusammen hän
zusammen arbeiten</w>
zurück zu
zulässi g</w>
zugän glich</w>
zugelass ene</w>
zuge wiesen</w>
zu zuführen</w>
zu weisung</w>
zu ver
zu stehen</w>
zif fern</w>
zi elung</w>
zi ell</w>
zentral en</w>
zentr en</w>
zeitgenöss ische</w>
z za</w>
z y
z one</w>
z ept
yr to</w>
ynam i
ynami k</w>
ymbo l</w>
year- on-
year-on- year</w>
year- end</w>
y or</w>
y cle</w>
xim al
ximal betrag</w>
x ts</w>
wöch iger</w>
www.new- ecb
www.new-ecb -
www.new-ecb- premises.
www.new-ecb-premises. com
www.new-ecb-premises.com .</w>
www.neue-euro-banknoten .eu</w>
writ ing</w>
work sh
worksh op</w>
wor tet</w>
woh ner</w>
woh l
withdra w
wirtschafts politischen</w>
wirtschaf tet</w>
wieder her
wiederher zustellen</w>
wid met</w>
wickl ung
wichtig es</w>
wichtig er</w>
wi es
wies ene</w>
wi eri
whol es
wholes ale</w>
wh om</w>
wettbewerb s</w>
wer te</w>
wer ke</w>
well- made</w>
well- known</w>
wel t
wel ch
welch em</w>
weiterführ ender</w>
wech sel
we gen</w>
w ebcast</w>
w ahl
vorzu gs
vorzugs weise</w>
vorh anden</w>
vorgesch lagen</w>
voraus sichtlich</w>
voraus sich
voraussich tliche</w>
vor über
vor liegt</w>
vor gestellt</w>
vor ange
vor ab</w>
volum e</w>
vollständi gen</w>
voll er</w>
voll en</w>
voll em</w>
vol ati
vis- à-vis</w>
vis u
vis its</w>
vis it</w>
vis en
viron mental</w>
viertel jährlich</w>
viel e</w>
vi o
vio lin</w>
vi gil
vi erte</w>
vi ded</w>
verschied ener</w>
verlänger t</w>
verkauf t</w>
verfüg bare</w>
vereinbar ter</w>
vereinbar t</w>
verein f
verbleib enden</w>
verbleib ende</w>
verbess erten</w>
verb ri
verbri ef
ver trag</w>
ver ti
ver stärkt</w>
ver stehen</w>
ver läuft</w>
ver hältnis</w>
ver größ
vergröß erte</w>
ver fügen</w>
ven ues</w>
ven tive</w>
ven tions</w>
ve ys</w>
v eil</w>
v ats
vats ka</w>
ut ch</w>
usin ess</w>
us sel
ussel s</w>
us er</w>
us ef
usef u
usefu l</w>
uro-Schüler wettbewerbs</w>
uro-Schüler wettbewerb</w>
ur spr
urspr ün
up side</w>
up gra
up date</w>
unve iling</w>
unve iled</w>
untersu cht</w>
unterschied lichen</w>
unter schieden</w>
unter geladen</w>
unser es</w>
uni ver
ungsver lu
ungsver fahrens</w>
ungs positionen</w>
ungs maßnahmen</w>
ungs arbeiten</w>
under stand</w>
uncerta inty</w>
uncert ain</w>
un veil</w>
un mittelbar</w>
un mehr</w>
un besich
un able</w>
un a</w>
umlauf enden</w>
umin ated</w>
umin ale</w>
umfass ender</w>
umfang reichen</w>
um zusetzen</w>
um st
umst ances</w>
um ination</w>
um enten
umenten kredite</w>
ul s
uls ory</w>
ul ates</w>
ud y</w>
ub ills</w>
ub au</w>
u tiv
u re
u mm
u en</w>
u b</w>
tz ins
tzins en</w>
tz ei
ty pi
typi cally</w>
tw och</w>
tur ns</w>
tur m</w>
tur bul
trä ch
tro tz</w>
tro ll
tre e</w>
transpar enten</w>
tradi tional</w>
tra ded</w>
tra ck</w>
tr a</w>
ton umm
to per
toper ationen</w>
to m
tiv al</w>
tions kurse</w>
tinu ier
timm t</w>
tim ely</w>
tig ungs
tig stellung</w>
ti ves</w>
ti tionen</w>
ti mis
ti gem</w>
ti er
ti egen</w>
ti ck
th res
thres hold</w>
th old
thold y</w>
th ank
th aben</w>
tern ative</w>
ter isti
ter en</w>
ter e</w>
tent e
ten der
tender ing</w>
teil zunehmen</w>
teil ungen</w>
te xts</w>
te sten</w>
te st
tas k</w>
targe ts</w>
tak t</w>
ta x</w>
t opping</w>
t olar</w>
t ment</w>
t linie</w>
t lich
t eien</w>
t al
t ables</w>
t -
säm tliche</w>
susta ined</w>
supervis ors</w>
supervis ed</w>
summ er</w>
success fully</w>
su red</w>
su m</w>
su g
su cht</w>
ständi ge</w>
streng then</w>
stre ck
strateg ische</w>
strateg ies</w>
strateg ien</w>
stleist er</w>
sti m
ster in</w>
ster ed</w>
stell te</w>
steiger t</w>
steh ung</w>
steh ender</w>
statt finden</w>
statt fand</w>
stat tet</w>
stark e</w>
star ts</w>
star ted</w>
stand ardi
stabilitäts orienti
stabilitäts kriterium</w>
stab il</w>
sta aten</w>
st ück</w>
st udy</w>
st ore</w>
st ers</w>
st em</w>
st e
st aus
staus ch</w>
st ates</w>
spl an</w>
spiel raums</w>
spieg elte</w>
spieg elt</w>
spezif ischer</w>
specifi cations</w>
spe aking</w>
sp rüf
sp ace</w>
sp a
spa ña</w>
sour ce</w>
soun dn
soundn ess</w>
sou th
sorgfäl tige</w>
sor gen</w>
soli de</w>
sol ution</w>
sol d</w>
sol cher</w>
sol chen</w>
sofor tiger</w>
so me
some what</w>
so h
soh n</w>
sm us</w>
slowak ischen</w>
sk y</w>
simp li
sim ulation</w>
sicht bar</w>
sicher ungs
sicher stellen</w>
sicher gestell
sichergestell ter</w>
si x
si vely</w>
si eg
sh all</w>
ser mittlung</w>
sensi tive</w>
sel f</w>
sek ret
sekret ärin</w>
seit e</w>
sei tigen</w>
sec ure</w>
se i</w>
se ek
sco pe</w>
schuld verschreibungen</w>
schri ft</w>
schlä ge</w>
schließ enden</w>
schließ end</w>
schied ung</w>
sch ützen</w>
sch wieri
sch reibt</w>
sch n
schn ell</w>
sch la
sch ein
sch au
satz es</w>
sal ari
salari es</w>
safegu ards</w>
s m</w>
s ing
sing er</w>
s eri
seri ous</w>
s end</w>
s ch</w>
s ations</w>
s ank
rück läufi
run n
rou ght</w>
rot ürmen</w>
ro om</w>
ro b
rob ust</w>
risik o</w>
ring erung</w>
rin ka</w>
rich tlinie</w>
ri enti
rienti erungs
rientierungs hilfen</w>
ri en</w>
ri cal</w>
reve aled</w>
ret ary</w>
resul ting</w>
restric tions</w>
respon se</w>
resp ond</w>
reserv epflich
reservepflich tigen</w>
res sive</w>
repres ent</w>
rep ly</w>
ren am
rem ov
reli able</w>
rel ative</w>
reimon ati
reich end</w>
reibungslo se</w>
reibungslo s</w>
reib en</w>
regulär e</w>
reg ion</w>
recomm end
recommend ations</w>
rech tzei
rech t</w>
rec ently</w>
rec ast</w>
re valued</w>
re sident</w>
re produc
reproduc tions</w>
re in
re ferred</w>
re duce</w>
re dem
redem p
redemp tions</w>
re cip
recip i
re chnung</w>
re b
re ality</w>
re ad</w>
re a
rati slava</w>
raf t
ra ß
r wortet</w>
r vatska</w>
r schaft</w>
r an</w>
qui ck
quick ly</w>
quali fy</w>
pursu it</w>
präsenti ert</w>
präsenti eren</w>
präs ent
präm ierten</w>
provisi oning</w>
provi ders</w>
promot e</w>
proj ected</w>
produc ing</w>
proce eding</w>
prob lem
pro ximately</w>
pro ved</w>
pro long
pro jek
pro fi
profi tieren</w>
priz es</w>
priz e-
pri ority</w>
prev ail
prevail ing</w>
pres ent
present ations</w>
pres ence</w>
prepar ation</w>
preis inde
preisinde x</w>
prec ise</w>
pre vention</w>
pre fer
prefer ably</w>
pre -b
pre-b oo
pre-boo ked</w>
posi tiven</w>
pos ure</w>
politi cal</w>
poli cy-
po p</w>
play ed</w>
plan mäßig</w>
pl äne</w>
pi rical</w>
ph y
perio de</w>
perc ent</w>
per mission</w>
pen sion</w>
particip ated</w>
param et
paramet ers</w>
pak ets</w>
p an
p ace</w>
overn ight</w>
over view</w>
over sight</w>
over eig
overeig n</w>
ov e-
ove- mentioned</w>
oun ced</w>
oth ers</w>
ot s</w>
ot o
orro w</w>
orm al
ormal fall</w>
origin ated</w>
ori cal</w>
order ed</w>
or isier
or ated</w>
optim al</w>
oper ations
op timis
op ens</w>
oo se</w>
oo k
ong side</w>
on- making</w>
on sti
on deren</w>
ollar- denominated</w>
oh är
offer s</w>
offer ed</w>
off enen</w>
occa sion</w>
obser ver</w>
obser ved</w>
oblig atorischen</w>
obj ection</w>
ob enen</w>
o il</w>
o ften</w>
o eu
oeu vre</w>
o d
näh er</w>
näch stes</w>
nov ationen</w>
noti fied</w>
notenbankfähi g</w>
norm ally</w>
non- standard</w>
no tiert</w>
niedriger en</w>
niedriger e</w>
niedri g</w>
ne ubau</w>
ne u</w>
ne ben</w>
ne ar</w>
ne ar
near er</w>
nachgel esen</w>
nach folgende</w>
n unmehr</w>
n or
n ected</w>
n ature</w>
n aro
naro dn
narodn a</w>
n -
mö chten</w>
mov ing</w>
mov ements</w>
monit oring</w>
monat lichen</w>
mon g</w>
moder ate</w>
mm y</w>
mittelfris tiges</w>
mittel -</w>
mindest reservepflichtigen</w>
migr ate</w>
meist ern</w>
mehr eren</w>
me works</w>
maß geb
materi alien</w>
mat ter</w>
markt fähige</w>
mark toperationen</w>
marg ins</w>
man oeuvre</w>
man agement
makro ökonom
ma ßen</w>
ma ß</w>
ma li
m üs
m äh
m ort
m ess
m ent
m ar
m ann
mann er</w>
ländi sche</w>
lä ss
lä ge</w>
luss fol
lussfol ger
lussfolger ungen</w>
lon g</w>
lo sing</w>
lo bal
lin ing</w>
lin ien</w>
lik i</w>
lik ely</w>
liefer t</w>
li ving</w>
li ve</w>
li fe</w>
li es</w>
li eben</w>
letz tlich</w>
leich ter</w>
leg er</w>
leav ing</w>
le- for-
lauf enden</w>
lauf en</w>
lauf eigen
laufeigen schaften</w>
lat er</w>
la ys</w>
la g
l üsse</w>
l en</w>
l ectu
lectu res</w>
l ats</w>
l ack</w>
kräf tige</w>
kre is</w>
kor una</w>
koordin iert</w>
kontak tiert</w>
kon tinuier
kon ten</w>
kon kre
komm ens</w>
kn üpft</w>
klass ischen</w>
klass ische</w>
kl är
kl ore</w>
kl ein
klein ere</w>
kateg orien</w>
kat alog</w>
k raft
k pakets</w>
k now</w>
k lus</w>
k ein</w>
k bereiche</w>
k amp
kamp ag
k -
jud gement</w>
jo in</w>
jeweili ge</w>
je den</w>
je dem</w>
jap anischen</w>
j ust</w>
itz er
itzer land</w>
it self</w>
it ing</w>
it es</w>
is o
is k
is es</w>
is ation</w>
ir k
ir gend
invoi cing</w>
intro duc
introduc tory</w>
international ly</w>
inter ne</w>
integr ity</w>
institution elle</w>
institu t</w>
inst ead</w>
ins p
ins o
innov ation</w>
initi ally</w>
inform ationen</w>
inflation ary</w>
indic ates</w>
index.en. html</w>
index.en. html.</w>
incompati bilities</w>
inclu sion</w>
inc orporate</w>
inc orpor
in- depth</w>
in ter</w>
in tensi
in ess</w>
impro ving</w>
impli es</w>
implem ent</w>
immedi ate</w>
ill uminated</w>
il l</w>
ih m</w>
i i</w>
i ett
iett a</w>
i de
höh er</w>
htt ps</w>
hol ders</w>
hochrangi gen</w>
ho st</w>
ho c</w>
ho c-
hoc- Oper
hoc-Oper ationen</w>
hist orical</w>
hist or
hinzu addiert</w>
hin e-
hine- Main</w>
high est</w>
hier für</w>
heu tige</w>
her vor</w>
her untergeladen</w>
her ence</w>
hel p
heb ung</w>
head ing</w>
half- year</w>
hairc uts</w>
h öch
h nen</w>
h ne</w>
h app
h all</w>
h ab
guaran tors</w>
größ te</w>
grund eleg
grundeleg ung</w>
gro ws</w>
gre at</w>
gr at
gr an
govern ors</w>
go al</w>
glie dern</w>
gleich zeitig</w>
gi cal</w>
ght -
gg reg
gewich tet</w>
gew isse</w>
gestie genen</w>
gest ern</w>
gesetz lichen</w>
gesamt europäischen</w>
ges tiegen</w>
gering er</w>
gering er
ger mei
ger en</w>
ger echnet</w>
geprä gten</w>
geplan t</w>
genü gend</w>
geleist et</w>
geh and
geh ab
gehab t</w>
gegenwär tigen</w>
gegen nahme</w>
gegeb en
gegeben enfalls</w>
gefälsch ter</w>
gef ähr
gedeck te</w>
geb ou
geb ot</w>
geb lieben</w>
ge zi
ge tragen</w>
ge stützt</w>
ge steigert</w>
ge over</w>
ge liki</w>
ge knüpft</w>
ge halten</w>
ga in</w>
g ül
g ungen</w>
g m
g lobal
g leitenden</w>
g eschä
füg ten</w>
fü rwortet</w>
fälsch ungs
fäl li
fähi ger</w>
funktion ieren</w>
func tion</w>
ful l
früh eren</w>
frequ ently</w>
frequ ency</w>
fre uen</w>
fra meworks</w>
fr ont</w>
four th</w>
fort geführten</w>
form al</w>
for tschrit
fon ietta</w>
folgen der
folgender maßen</w>
fo stering</w>
flexi bility</w>
finali se</w>
fik ationen</w>
fi es</w>
fi elds</w>
fi eh
fieh lt</w>
fi cates</w>
fest legen</w>
feren ti
feat uring</w>
favour able</w>
fass ungs
fam ily</w>
fac ts</w>
fac eb
f unktion</w>
f unk
f unding</w>
f tw
f ts</w>
f ri
f onds</w>
f low</w>
f lo
f ew
few er</w>
f enen</w>
f anden</w>
exter ne</w>
exten sive</w>
explan ation</w>
expla ins</w>
expens ed</w>
expan sion</w>
exp ect</w>
exc ell
ex posure</w>
ex ecu
execu tion</w>
et was</w>
et abli
etabli erten</w>
establi shes</w>
establi sh</w>
es ungen</w>
erör tern</w>
erw ähn
erst mals</w>
ers etzen</w>
erreich ten</w>
ern annt</w>
erleich tern</w>
erlau bt</w>
erklär t</w>
erk ungen</w>
erh ält</w>
erh obenen</w>
erh oben</w>
erfolg s
erfolg reich</w>
er öff
er y</w>
er wirtschaftet</w>
er weise</w>
er tigstellung</w>
er ter</w>
er streck
er inn
er hi
er griffen</w>
er greifen</w>
er gibt</w>
er fahren</w>
er b
equi ties</w>
ep iso
entsprech ender</w>
entsprech ende</w>
entscheiden d</w>
entschei det</w>
ent nehmen</w>
ens erie</w>
ens embles</w>
enhan cing</w>
endit ure</w>
endit en</w>
end gül
end els
endels sohn</w>
en sures</w>
en sured</w>
en ges</w>
en gen</w>
en ced</w>
en able</w>
en ab
enab ling</w>
employ ed</w>
emphas ised</w>
empf ehl
empf angen</w>
emp ir
emp fiehlt</w>
em pirical</w>
ell ectu
ellectu al</w>
el ay</w>
ek utiv
einzi gar
einzel ne</w>
einkün ften</w>
eingestu ft</w>
eindeu tig</w>
ein satz</w>
ein mal</w>
ein igt</w>
ein gesetzt</w>
ein gesch
ein gehende</w>
ein erseits</w>
ehmig ung</w>
effor t</w>
effizi ent
eff ects</w>
ed ens</w>
ed b
econom ies</w>
ech te</w>
eas ing</w>
e zi
e th
e den</w>
e ase</w>
dynam ics</w>
durchschnit tlichen</w>
du mmy</w>
drück t</w>
drit te</w>
discus sed</w>
disclo sure</w>
disclo sed</w>
direc tion</w>
dif ferenti
dies jährige</w>
di vided</w>
di um</w>
di enen</w>
di c
deu tet</w>
determin es</w>
determin ed</w>
det ail</w>
des pite</w>
der t</w>
der ne</w>
dep uty</w>
denti fier</w>
den noch</w>
den de</w>
defin e</w>
defi c
dedi cation</w>
decisi ve</w>
decisi on-making</w>
dec lines</w>
deb it</w>
de f
de al</w>
dauerhaf te</w>
dau ert</w>
dat abase</w>
dar unter</w>
da ß</w>
d- hoc-Operationen</w>
d änische</w>
d reimonati
d rei
d one</w>
d ollar-denominated</w>
d elay</w>
d ank
d adurch</w>
custom er</w>
cross- checking</w>
credi ble</w>
cre te</w>
cre ating</w>
counter party</w>
corpor ates</w>
corpor ate</w>
contribu tions</w>
contrac t</w>
continu ing</w>
conta ins</w>
consult ations</w>
consoli dation</w>
consider ing</w>
connec ting</w>
confir ms</w>
confi dent</w>
con version</w>
con ventions</w>
con stant</w>
con nected</w>
con ferred</w>
compris es</w>
competi tiveness</w>
competi tive</w>
compati ble</w>
compar able</w>
comp ulsory</w>
communi c
commit tees</w>
comm unity</w>
comm un
comm ence</w>
comb ination</w>
comb at</w>
com pos
co- ordination</w>
co pe</w>
co ordination</w>
co m</w>
co in</w>
classi fication</w>
citi zen</w>
circ umstances</w>
ci ently</w>
chi ev
chec ked</w>
char ity</w>
chan geover</w>
chall enge</w>
ch oose</w>
ch es</w>
cert gebou
cat alogue</w>
car ry</w>
capit a</w>
c ycle</w>
c ore</w>
c entre</w>
c ending</w>
c ements</w>
c an
can not</w>
bür germei
bulg arischen</w>
buil t</w>
buil d</w>
buch mäßige</w>
bro ch
bring t</w>
brid ge</w>
br ings</w>
bisheri ge</w>
bil an
bezieh ung</w>
bewer tung</w>
bew usst</w>
beträch tliche</w>
betrach teten</w>
bet eili
bestä tigte</w>
besonder er</w>
beschrieb ene</w>
besch ränkt</w>
besch ließen</w>
bes onderen</w>
ber t</w>
ber ichts</w>
ber eiten</w>
ber ech
bench mark</w>
bel äuft</w>
bel egen</w>
bel auf
belauf en</w>
bek annt
bek ann
beige tragen</w>
beige fügten</w>
bei de</w>
behinder te</w>
begrüß en</w>
begrenz ten</w>
begr enzen</w>
begeb ene</w>
beg ins</w>
befrist eten</w>
befind liche</w>
beein träch
bedeu tend
be völkerung</w>
be hält</w>
be hoben</w>
be handelt</w>
be fürwortet</w>
be finden</w>
be ar
bear ing</w>
be achtet</w>
basi c</w>
bar en</w>
b ü
b ungen</w>
b rought</w>
b ring</w>
b reiten</w>
b oo
b ilität</w>
b ess
b em
b auen</w>
avoi d</w>
automati cally</w>
auszusch ütten</w>
auss age
ausreich ende</w>
ausreich end</w>
ausgewähl ten</w>
ausge wiesene</w>
aus gesetzt</w>
aus geschrieben</w>
aus gesch
auf sich
auf nehmen</w>
auf kommens</w>
auf fordern</w>
atsdurchschnit ts</w>
ats ache</w>
ationsp ak
ationspak et</w>
ati c</w>
ateri alien</w>
ateg ory</w>
at ur</w>
at er</w>
associ ations</w>
associ ated</w>
assi stance</w>
as ks</w>
as ing</w>
as cending</w>
aro se</w>
architek ton
ar ische</w>
ar f</w>
appoin ted</w>
anzös ischer</w>
anti cip
ant age</w>
anschließ t</w>
anschließ ender</w>
angewand ten</w>
ange halten
ange gebenen</w>
ange geben</w>
an wend
an spru
an gesehen</w>
an gemess
an ada</w>
amp a
amm er
allot ted</w>
all mäh
all es</w>
alisi ert</w>
al th</w>
al ongside</w>
ak tivi
ak tiv</w>
ak tiv
ak tion</w>
ak tion
ag ner</w>
advis es</w>
adv antage</w>
ado poulos</w>
adi ly</w>
adequ acy</w>
adem ic</w>
ad y</w>
acqui res</w>
acqui red</w>
achiev ements</w>
accru es</w>
account ability</w>
ac tors</w>
ac qu
ac ademic</w>
abhängi gkeit</w>
abge halten</w>
ab sicherung</w>
ab schiedung</w>
ab ove-mentioned</w>
ab le-for-
a ß
a des</w>
a .</w>
a .
Zy klus</w>
Zuteilungs volumen</w>
Zusätz liche</w>
Zuständig keiten</w>
Zusammen fassung</w>
Zu grundelegung</w>
Zu gang</w>
Zins statistiken</w>
Zins statistik</w>
Zins satzes</w>
Ziel s</w>
Zahlungs systemen</w>
Währungs raums</w>
Woh nungsbaukredite</w>
Wirtschafts statistiken</w>
Wettbewerbs fähigkeit</w>
Wertpapierabwicklungs systeme</w>
Wertmin derung</w>
Wechselkurs strategien</w>
Wechselkur se</w>
Wachstumsp otenzial</w>
Wachstumsp akt</w>
Wachst ums</w>
W or
W ol
W ien</w>
W est
W erts</w>
W eiß
W ebcast</w>
W ahr
W agner</w>
W F</w>
Vorsitz enden</w>
Vorbereit ungsarbeiten</w>
Vor stands
Vor laufeigenschaften</w>
Vor ab
Vol um
Vizeprä sidenten</w>
Vertr auens</w>
Verlust zuweisung</w>
Verfüg barkeit</w>
Vereinbar ungen</w>
Verbraucher preisindex</w>
Verantwor tung</w>
Ver ringerung</w>
Ver gleich
Ver fahrens</w>
Ver abschiedung</w>
V oll
V en
V asks</w>
V ER
Unter zeichnung</w>
Unter schied</w>
Unter scheidung</w>
Un sicherheit</w>
Un ser</w>
Un like</w>
Un abhängigkeit</w>
Umwelt management
Umf elds</w>
Tschech ische</w>
Trans aktionen</w>
Tradi tion</w>
Theat re</w>
Th ree</w>
Th ir
Th emen</w>
Teuerungs rate</w>
Tender kalender</w>
Te en
Tab ellen</w>
Tab akova</w>
TH E</w>
TA B
T olar</w>
T il
T ests</w>
T er
T ech
T atsache</w>
Sz enarien</w>
System ic</w>
Syst eme</w>
Sw itzerland</w>
Summ en</w>
Stu die</w>
Struk turen</w>
Struk tur</w>
Stellvertre ter</w>
Stellung nahmen</w>
Statisti kpakets</w>
Stat us</w>
Star ting</w>
Stand ardi
St reichung</w>
St aff</w>
Sp ezi
Sonder maßnahmen</w>
Sloven ian</w>
Sin fonietta</w>
Sich er</w>
Ser vi
Sec retary</w>
Schül ern</w>
Schwellen wert</w>
Schwei z</w>
Schw edens</w>
Schuldenquot en</w>
Schlüss els</w>
Schlüss el
Schirmher rschaft</w>
Sch lussfolgerungen</w>
SSM- Verordnung</w>
S ymphony</w>
S ymbol</w>
S onsti
S im
S i
S amm
Risiko absicherung</w>
Risik os</w>
Rich ard</w>
Rh yth
Rel ease</w>
Rel ation</w>
Rei ch
Regier ungs
Regier ung</w>
Reg ion</w>
Referenz zeitraums</w>
Rechts rahmen</w>
Rechnungs stellung</w>
Rechnungs ho
Rech te</w>
Rech en
Re formen</w>
Re den</w>
Re alität</w>
Rat ing
Radi o
Ra ther</w>
R īga</w>
R äumlichkeiten</w>
R hine-Main</w>
R ap
R A
Qualitäts sicherung</w>
Punk ten</w>
Pru dential</w>
Projek tionen</w>
Produktivitäts wachstums</w>
Pri ces</w>
Preis stabilitätskriterium</w>
Poli cy</w>
Plat z</w>
Pe ople</w>
Par teien</w>
Pap adopoulos</w>
Pak ete</w>
P rüf
P ass
Over sight</w>
Or gan
Oper ations</w>
Op ening</w>
Ober bürgermei
OMT s</w>
O rientierungshilfen</w>
O hne</w>
Nutz en</w>
Not en</w>
Niederlan den</w>
Nicht- Kreditinstitute</w>
Ni zza</w>
Ni veau</w>
Ni ce</w>
Nettozins einkünften</w>
Netto einkünfte</w>
Nation alen</w>
Nach frage</w>
N ow</w>
N ormalfall</w>
N ext</w>
Muster banknoten</w>
Monats bericht</w>
Mod elle</w>
Mod alitäten</w>
Mo derne</w>
Mit twoch</w>
Mit gliedern</w>
Mindest betrag</w>
Min i
Mi gr
Mem bers</w>
Mehr ere</w>
Maß nahme</w>
Massenzahlungs systeme</w>
Markt preisen</w>
Markt es</w>
Mark tzinsen</w>
Mark ts</w>
Man agement
Ma yor</w>
Ma ximalbetrag</w>
MFI -
ME N
M ärkten</w>
M yrto</w>
M eter</w>
M ess
M endelssohn</w>
M ehr</w>
M aterialien</w>
M RO</w>
M F</w>
Lit auens</w>
Liquiditätskateg orien</w>
Liquiditäts ausstattung</w>
Li sten</w>
Lett lands</w>
Leit linien</w>
Lehr krä
Lang frist
Land schaft</w>
L änder
L uminale</w>
L etz
L esungen</w>
L ats</w>
L age</w>
Künst l
Kur z
Kroati ens</w>
Kredit vergabe</w>
Kredit operationen</w>
Kredit gewer
Kredit -</w>
Kra steva</w>
Konz erte</w>
Kons umentenkredite</w>
Kommuni kations
Komm is
Ko ordination</w>
Ko operations
Ko operation</w>
Kenn ziffern</w>
Kategorie-1 -</w>
Kapitalverkehr s</w>
Kapitalinstrum ente</w>
KULTURTAG EN</w>
K lar
K ey</w>
K anada</w>
K ammer
K T
Jumb o</w>
Jumb o-
Je des</w>
Je der</w>
Je de</w>
Jahresübersch usses</w>
Jahresabsch luss</w>
J ur
J oh
Interven tionskurse</w>
Inter esse</w>
Informations systeme</w>
Informations kampag
Inform ationspaket</w>
Indi kator</w>
In novationen</w>
In dex</w>
ISCH EN</w>
I ts</w>
I mp
I ll
I dentifier</w>
I ch</w>
I WF</w>
I R
I MF</w>
I II</w>
I A</w>
Höhepunk te</w>
Hochh aus
Hin weise</w>
Hin sichtlich</w>
Hin sicht</w>
Hig h
Herstell ern</w>
Harmonisier ten</w>
Harmon ised</w>
Handlungs spielraums</w>
Handlungs rahmens</w>
HVPI- Inflationsraten</w>
H rvatska</w>
H ilfe</w>
H el
H an
H RG</w>
Gesch ichte</w>
Gesamt bevölkerung</w>
Gesam theit</w>
Ges etz
Generaldirek tor</w>
General sekretärin</w>
Gen ehmigung</w>
Gemein schaften</w>
Geldnach fra
Geldmengen -</w>
Gegen wer
Gar anti
G eld</w>
Führ ungspositionen</w>
Fälsch ern</w>
Fr anzösischer</w>
Fotografi e</w>
Fortschrit ten</w>
Form blätter</w>
Fol klore</w>
Fol glich</w>
Finanzsek tors</w>
Finanzsek tor</w>
Finanz marktoperationen</w>
Fin ance</w>
Fei ertage</w>
Fehl betrag</w>
Falt blatt</w>
Falschnot en
Falschgeld anteil</w>
Falschgeld an
Fak ten</w>
F äl
F und</w>
F i
F ertigstellung</w>
F am
Exp enditure</w>
Ex posures</w>
Ex ekutiv
Ex cluding</w>
Euro- W</w>
Euro- Leitkurse</w>
Euro -</w>
Est lands</w>
Erweit erte</w>
Erfüll ungs</w>
Er ör
Er zielung</w>
Er ster</w>
Er ste</w>
Er hebung</w>
Entwurf s</w>
Entschei dungen</w>
Entschei d
Ent stehung</w>
Ent gegennahme</w>
Ens emble</w>
Enga gements</w>
Energie -</w>
En vironmental</w>
En g
En d</w>
Eins atz</w>
Ein ige</w>
Eigenmittel portfolios</w>
Eigenkapit als</w>
Eigenkapit al
Econom ics</w>
Eben falls</w>
Eas y</w>
EZB-Rats sitzungen</w>
EZB- Leitzinsen</w>
EU- Rats</w>
EG- Vertrags</w>
ECOFIN- Rats</w>
EC AF</w>
E šenvalds</w>
E very</w>
E th
E spaña</w>
E missions
E lement</w>
Durchschnit ts
Dreimon atsdurchschnitts</w>
Dokum ents</w>
Dob rinka</w>
Direktoriumsmit glieder</w>
Des ign</w>
De visen
Dau er</w>
D ynamik</w>
D utch</w>
D s</w>
D ritt
D o
D ance</w>
D T
D ES</w>
D ER</w>
D Ds</w>
D .</w>
Currency-Board- Regelung</w>
Counterf eits</w>
Con certgebou
Comp ared</w>
Commit tees</w>
Comm unities</w>
Co de</w>
Ch rist
Ch amber</w>
Can ada</w>
CET 1-
C losing</w>
C ategory</w>
C ar
C Ts</w>
C SPP</w>
C D</w>
C A
CA C</w>
Bü rotürmen</w>
Bulgari ens</w>
Br ussels</w>
Br and
Bonitätsbeur teilungen</w>
Bewertungs absch
Bewer bungen</w>
Berat ungen</w>
Ber ichte</w>
Ber ater
Beobach ter</w>
Bem ühungen</w>
Bem erkungen</w>
Belgi an</w>
Beitritts ländern</w>
Bed arf</w>
Bar tholdy</w>
Bar rieren</w>
Banknotenum laufs</w>
Banknot enserie</w>
Banken union</w>
Banken -</w>
Bank kon
Bank bilanzen</w>
B ut</w>
B usiness</w>
B ubills</w>
B u
B rü
B ratislava</w>
B ran
B ills</w>
B eschäf
B aum</w>
B ased</w>
B alls</w>
B ackground</w>
B ach</w>
Ausstellungs katalog</w>
Ausschreib ungsverfahrens</w>
Ausschreib ungs
Ausschreib ung</w>
Aussch üttung</w>
Aussch üsse</w>
Aussch usses</w>
Aus zeichnung</w>
Aus wahl
Aus führung</w>
Aufwärts druck</w>
Aufhol prozess</w>
Auf gliederung</w>
Au tor
Artik els</w>
Architek tur</w>
Ap proximately</w>
Antwor ten</w>
Anpass ungen</w>
Analy sis</w>
An zeichen</w>
An spruch</w>
An schließend</w>
An satz</w>
An leihen</w>
An leger</w>
An lagen</w>
An geliki</w>
An der
All es</w>
Al ter</w>
Akti en</w>
Addi tional</w>
Acc ession</w>
Abwicklungs mechanismus</w>
Abstimm ungs
Abschreib ung</w>
Abschluss veranstaltung</w>
Ab ständen</w>
A v
A mong</w>
A mat
A ggreg
A d-hoc-Operationen</w>
A chiev
A b</w>
9 .
9 ,
80 3</w>
8 8
8 2
7, 000</w>
7 00</w>
6, 2</w>
6, 000</w>
6 .5</w>
5 9</w>
5 7
5 -</w>
4. 3</w>
4. 1</w>
4, 5</w>
4, 3</w>
4, 1</w>
33 1,
331, 000</w>
3. 8</w>
3. 1</w>
3, 8</w>
3, 75</w>
3 31</w>
20 .</w>
2. 50</w>
2. 25</w>
2. 1</w>
2. 0</w>
2, 75</w>
2, 1</w>
2 4.</w>
18 .</w>
13 ,
10. 2</w>
1. en.
1. 75</w>
1. 6</w>
1. 50</w>
1. 25</w>
1,4 40</w>
1, 4</w>
1, 220</w>
1, 166</w>
1, 108</w>
1, 00</w>
1 st</w>
1 4.</w>
1 2.
1 2,
0. 4</w>
0. 30</w>
0. 00</w>
0, 4</w>
0, 30</w>
0, 000</w>
. org</w>
. .</w>
-D ay</w>
-0. 10</w>
- week</w>
- Rating</w>
- Geldscheinen</w>
ъ л
ъл г
ълг ар
ългар с
ългарс ка</w>
о д
од н
одн а</w>
н ка</w>
н ар
нар одна</w>
б а
ба нка</w>
Б ългарска</w>
χ τ
χτ ή</w>
ο ι
οι χτή</w>
ν οιχτή</w>
λ ι
λι ά</w>
κ α
κα λιά</w>
γ καλιά</w>
Α νοιχτή</w>
Α γκαλιά</w>
ž ig
žig rad</w>
ż an
żan ow
żanow sk
żanowsk i</w>
š š
šš o</w>
š t
št v
štv o</w>
š ol
šol a</w>
ņ š</w>
ē na</w>
Č ad
Čad ca</w>
ütz liche</w>
üt tet</w>
ür tel</w>
ür f
ürf n
ünsti gen</w>
ün zen</w>
ün f
üll er</w>
über zeu
über reich
überreich te</w>
über nommen</w>
über greif
über arbeiten</w>
ü tungen</w>
ü tung</w>
ü di
ü bung</w>
ü bli
übli n</w>
ú lia</w>
ú ch</w>
örder t</w>
ör tlichen</w>
ör se</w>
öm ungen</w>
ö ten</w>
ö ri
ö ll
öll ath</w>
ö ger
ô le</w>
ó n</w>
ë ns</w>
én ée</w>
é solution</w>
é r
ér ard</w>
é ja</w>
é ens</w>
ç o</w>
äuß ert</w>
äum t</w>
ätz ungen</w>
ätz lich</w>
äss er</w>
ärk e</w>
är kt</w>
är e</w>
änder ten</w>
än ger</w>
äm äl
ämäl ä
ämälä inen</w>
äl tlich</w>
äl tigen</w>
äl ter</w>
äl fte</w>
ährungsgebi et</w>
ähr ungen</w>
ähl en</w>
ähi gkeit</w>
äh ern
ähern d</w>
ân c
ânc u
âncu ş
á s</w>
á ri
ári a</w>
á n
án yi</w>
á ly</w>
á ci
áci a</w>
Übersch usses</w>
Übersch uss</w>
Übergangs regel
Über weisung</w>
Über schrift</w>
Über blick</w>
Ü V</w>
Ü D</w>
Öster reich
Österreich ische</w>
Öl preis
Öff nung</w>
ÄNDER UNGEN</w>
zy żanowski</w>
zwöl ften</w>
zwei wöchiger</w>
zwec ken</w>
zuver lä
zuverlä ssi
zusätz lichen</w>
zuständi ge</w>
zusammens etzt</w>
zusammen gefasst</w>
zusammen ge
zus ehen</w>
zurückzu fordern</w>
zurück ging</w>
zurück gehen</w>
zurück ge
zun ächst</w>
zum ind
zumind est</w>
zum e
zume ist</w>
zulässi ge</w>
zuge teilten</w>
zu weisen</w>
zu ges
zuges timmt</w>
zu genommen</w>
zu geh
zugeh öri
zu fügen</w>
zu fri
zins liche</w>
zieh ung</w>
zi one</w>
zi gen</w>
zi elt</w>
zi elen</w>
zi el</w>
zi el
ziel e</w>
zept anz</w>
zentral er</w>
zeit punkt</w>
zeichn ungen</w>
zeichn ete</w>
zei gte</w>
zeh n
ze f</w>
zahl reiche</w>
z- Au
z-Au h
z-Auh of</w>
z öger
z ählt</w>
z zo
z y</w>
z ure</w>
z uni
zuni mmt</w>
z ins</w>
z i</w>
z h
zh an</w>
z erti
zerti fizier
z eiten</w>
z ef
zef a</w>
z .</w>
yst ru
ystru p</w>
yr ne</w>
ym po
ympo s</w>
ye es</w>
yc ée</w>
yc li
yc eum</w>
y- Brand
y-Brand t-
y-Brandt- Platz</w>
y technische</w>
y ss
yss an
yssan th
yssanth ak
yssanthak o
yssanthako poul
yssanthakopoul ou</w>
y ri
yri ques</w>
y po
ypo th
ypoth ek
y n
y kers</w>
y iel
yiel ds</w>
y er</w>
y an</w>
wär tig</w>
wär en</w>
währungs politischen</w>
währ ung</w>
www.s n
www.sn b
www.snb .
www.snb. ch</w>
www.s ep
www.sep a
www.new-euro-banknotes .eu</w>
www.neue-euro-banknoten .eu.</w>
www.neu es
www.neues ges
www.neuesges icht
www.neuesgesicht des
www.neuesgesichtdes euro.eu</w>
www.euro. ecb.
www.euro.ecb. int
www.euro.ecb.int .</w>
www.euro. ecb
www.euro.ecb .eu</w>
www. fe
www.fe der
www.feder al
www.federal reserv
www.federalreserv e.
www.federalreserve. go
www.federalreserve.go v</w>
www. faceb
www.faceb ook
www.facebook .
www.facebook. com</w>
www. euro-
www.euro- are
www.euro-are a-
www.euro-area- statisti
www.euro-area-statisti c
www.euro-area-statistic s
www. bo
www.bo j
www.boj .
www.boj. or
www.boj.or .
www.boj.or. j
www.boj.or.j p</w>
writ e-
work est</w>
wor th</w>
wor t</w>
wor fenen</w>
wor d</w>
wohl tätigen</w>
wo men</w>
withdraw al</w>
withdra w</w>
with hold</w>
with al</w>
wish ing</w>
wirk ten</w>
wirk samen</w>
winn ers</w>
wij s</w>
wij k
wijk sch
wijksch ol
wijkschol en</w>
wieder um</w>
wie gend</w>
widerspieg elt</w>
wicklungs plans</w>
wicklung stag</w>
wickl ungsverfahren</w>
wi g</w>
wi ew
wiew eit</w>
where withal</w>
wh o
who se</w>
wettbewerb s
wesent licher</w>
wesent lich</w>
wes halb</w>
wer tete</w>
wer ing</w>
wer ful</w>
welt weiten</w>
weiter er</w>
weit e</w>
wei ght
weight ings</w>
wei gh
weigh ting</w>
we g</w>
we ak</w>
war r
warr ant</w>
wahr nehmen</w>
w re
wre ath</w>
w ish</w>
w ise</w>
w ink
wink el</w>
w eg
w are</w>
w ann</w>
w ank
w and</w>
w and
w a
vot es</w>
vorüber geh
vorübergeh ender</w>
vorange gangenen</w>
vor wiegend</w>
vor stellen</w>
vor lie
vorlie gender</w>
vor igen</w>
vor gaben</w>
vor bereit
vor ant
vorant reiben</w>
vor an</w>
volum ina</w>
voll es</w>
visu ali
visuali sations</w>
vis itors</w>
vigil ant</w>
vig ations
vi r
vir tu
vi ol
vi et</w>
vi erten</w>
vi el</w>
vi d</w>
vi br
vibr ant</w>
vertre tende</w>
vertrau t</w>
vertrau lich</w>
vertrau ens
vertr auen</w>
verring ern</w>
verk äufen</w>
vergleich barer</w>
vergen z</w>
verfüg baren</w>
verfol gen</w>
vereinf acht</w>
vereinbar ung</w>
vereinbar ten</w>
vereinbar te</w>
verein bark
vereinbark eiten</w>
verd y</w>
verbind lichkeiten</w>
verantwor tlichen</w>
ver zeichnete</w>
ver wend
ver teilen</w>
ver stärken</w>
ver st
verst ärkten</w>
ver sch
ver nehm
vernehm lich</w>
ver mei
vermei den</w>
ver lu
ver lie
ver lei
ver laufen</w>
ver lassen</w>
ver ing</w>
ver fassungs
verfassungs rechtlichen</w>
ver fahrens</w>
ver anstalt
veranstalt ungen</w>
ver anst
veranst altet</w>
ver an
ve- yearly</w>
ve aus</w>
vat ori
vatori um</w>
vari ed</w>
vari able</w>
vari ab
variab ler</w>
v onn
vonn öten</w>
v it
vit al</w>
v inc
v et
vet a</w>
v es
v ent
v ate</w>
v ary</w>
ut langen</w>
uss y</w>
usi as
usias m</w>
us sion</w>
us on
uson turm</w>
us ker</w>
us it
usit ano</w>
us ep
usep pe</w>
us ap
usap in</w>
us age</w>
ursprün glich</w>
uriti es
urities -
urities- Programm</w>
ure ment</w>
urb ana</w>
ur s</w>
ur ged</w>
ur en</w>
ur ator</w>
ur ation</w>
ur ate</w>
ur ance</w>
upgra de</w>
up y</w>
unver änderte</w>
unver züglich</w>
unver zinsliche</w>
unterschied licher</w>
unterschied lich</w>
unterschei det</w>
unter ziehen</w>
unter zeichnet</w>
unter stre
unterstre icht</w>
unter st
unterst reichen</w>
unter nimmt</w>
unter m
unterm auern</w>
unter liegt</w>
uns er</w>
unk t</w>
uni gen</w>
uni form</w>
uni form
uniform ly</w>
ungsverlu sten</w>
ungsver anstaltung</w>
ungs mittel
ungs bil
ungsbil d</w>
under sc
undersc ore</w>
under line</w>
und ária</w>
und lichen</w>
und heit
undheit s
und funk
undfunk s</w>
uncerta in
uncertain ties</w>
unbesich erte</w>
unabhängi gkeit</w>
un prec
unprec ed
unpreced ented</w>
un official</w>
un il
unil ateral</w>
un igt</w>
un gewissen</w>
un es</w>
un di
un des</w>
un den
un ded</w>
un da
unda ci
undaci ón</w>
un bed
unbed ing
unbeding t</w>
umlauf s</w>
umlauf ende</w>
um stellung</w>
um sch
umsch icht
umschicht ungen</w>
um eist
umeist a</w>
um ben
umben annt</w>
um -T
um-T er
um-Ter m</w>
ulti p
ulti mat
ultimat ely</w>
ult an
ultan e
ultane ously</w>
uli erung</w>
uli ert</w>
ul u</w>
ul ous</w>
ul l</w>
ul er
uler nen</w>
ul ar</w>
uis h</w>
ud wig</w>
ud os</w>
uch esse</w>
ub ra</w>
ub ia</w>
u č</w>
u tions</w>
u n</w>
u ffi
u ff
uff i</w>
u .</w>
tz te</w>
two- thir
two-thir ds</w>
tw ährungen</w>
turbul enzen</w>
tungs zeitraum</w>
tungs gemäß</w>
tu res</w>
tsch en</w>
ts zahlungen</w>
ts etzung</w>
ts etzen</w>
troll ing</w>
tri um</w>
tri ght</w>
tri eben</w>
trend mäßig</w>
tre tenen</w>
tre tenden</w>
transpar ente</w>
trans mission</w>
trans late</w>
tradi tion</w>
trac tive</w>
trac ted</w>
tra pi
trapi ant
trapiant at
trapiantat i</w>
tra k
tra g
tra ding</w>
tr ôle</w>
tr ast</w>
tour i</w>
tot als</w>
tonumm er</w>
ton i
toni adi
toniadi s</w>
to ward</w>
to p</w>
to on</w>
to be
tobe zeichnungen</w>
tl yceum</w>
tionsp unkt</w>
timm ung</w>
tim ier
timier ungsphase</w>
tim el
timel iness</w>
tigungs wachstum</w>
tig ate</w>
tie f</w>
tick et
ticket ing</w>
ti vely</w>
ti ro
tiro poulos</w>
ti c
tic ism</w>
three- round</w>
tho lie
tholie k</w>
ther wise</w>
ther e
theat er</w>
thank ed</w>
th énée</w>
th y</w>
th in</w>
th e
th a</w>
test ens</w>
teristi cs</w>
ter te</w>
ter r
terr or
ter national
ternational .org</w>
ter nal</w>
ter es</w>
tente ams</w>
ten stein</w>
tel ec
telec on
teil weise</w>
teil te</w>
technolog ischer</w>
techni ques</w>
te sts</w>
te is
teis ko
teisko ulu</w>
te g
teg lit
teglit z</w>
te d
ted .
ted. europa
ted.europa .eu</w>
tag t</w>
ta ire</w>
t ungsverlusten</w>
t ums</w>
t op
t lichkeiten</w>
t liches</w>
t le</w>
t ke</w>
t i</w>
t form</w>
t eure</w>
t ellectual</w>
t days</w>
t au
t ;</w>
t -</w>
säm tlichen</w>
syst em
sur rounding</w>
suppor ted</w>
supervis ing</w>
sup ran
summ ary</w>
summ ar
sug ge
sugge sts</w>
suffi ciently</w>
sub stance</w>
sub sequ
sub mission</w>
stütz te</w>
stück e</w>
stärk ere</w>
ständi gen</w>
städte baulichen</w>
städte -</w>
struk tur
struc tures</w>
stri kt</w>
stri k
stri gen</w>
strength ening</w>
streng thens</w>
stre et</w>
str ing</w>
str asse</w>
stimm berech
stim ulates</w>
sti schen</w>
sti s</w>
sti p
sti n</w>
ster le
sterle e</w>
stell vertretende</w>
stell er</w>
stei gender</w>
statt fin
stattfin den
stattfinden den</w>
stat ten</w>
stat s
stats Ap
statsAp p</w>
stat ement
statement .
statement. gre
statement.gre en
statement.green ecb</w>
stand enen</w>
stamm te</w>
stak es</w>
stabilitätsorienti erten</w>
stabilitäts fonds</w>
stabil ity-
stability- ori
stability-ori ented</w>
stab ili
stab ile</w>
staat lichen</w>
staat liche</w>
sta b</w>
st verhältnis</w>
st op</w>
st on</w>
st off
st europ
st eu
st ets</w>
st elle</w>
st e-
ste- Polje</w>
st ats</w>
st as</w>
st anten</w>
st anden</w>
st ages</w>
st -
ss m</w>
ss el</w>
spä testens</w>
spä teren</w>
spro c</w>
spra ch
sprach iges</w>
spr ungs</w>
spiel fr
spielfr ank
spielfrank fur
spielfrankfur t</w>
spi rit
specifi ed</w>
speci fy</w>
spec ts</w>
spec tives</w>
spe zielle</w>
sp ons
spons ors</w>
sp li
spli t</w>
sp it
spit al
spital et</w>
sp eter</w>
sp ending</w>
sp ei
sp ann
sp ach
spach er</w>
sozi alen</w>
south -
south- eastern</w>
son gs</w>
sol utions</w>
sol t</w>
sol ch</w>
sofor t</w>
soci ali
sociali st</w>
so ftw
softw are</w>
smo ke</w>
sm ärkten</w>
sm ärkte</w>
slow en
slowen ischen</w>
sli ght</w>
sk yline</w>
sk ro
skro v</w>
six -week</w>
sist ent</w>
sions bezü
sionsbezü ge</w>
sin n
sim ulated</w>
signifi k
sieg reichen</w>
si onen</w>
si dium</w>
si des</w>
short -run</w>
shi fts</w>
share holders</w>
sh op
shop s</w>
sh ilfe</w>
sh e</w>
sh ared</w>
sh ape</w>
sever e</w>
setz ungs
ser ve</w>
ser vatorium</w>
sen det</w>
sel ten</w>
sel ections</w>
sei zure</w>
sei tige</w>
seek ing</w>
securiti sed</w>
sec tions</w>
se ar
sear ch</w>
sco la
scola ire</w>
schätz en</w>
schul ler</w>
schul e</w>
schul dung</w>
schri f
schlä gt</w>
schla gs</w>
schied ene</w>
schein ungsbild</w>
schedul es</w>
schau spielfrankfurt</w>
schafts gest
schaftsgest altung</w>
sch üren</w>
sch wer
sch wank
sch utz</w>
sch utz
sch ung</w>
sch ten</w>
sch reiten</w>
sch lüss
sch luss</w>
sch lossen</w>
sch loss</w>
sch lagen</w>
sch es</w>
sc o</w>
sank en</w>
san is</w>
sal es</w>
saf ely</w>
s- Woch
s-Woch en-
s-Wochen- Zyklus</w>
s- Hilfe</w>
s ätzen</w>
s ängerin</w>
s yn
s overeign</w>
s kosten</w>
s gewinne</w>
s et-
set- up</w>
s ession</w>
s ere</w>
s ent</w>
s ens
s enden</w>
s eign
seign er</w>
s eh
s col
scol a</w>
s ar</w>
s ank</w>
s al</w>
rückläufi g</w>
rän kung</w>
runn ing</w>
rul ing</w>
rot fab
rotfab rik</w>
rot ating</w>
rot ate</w>
ron ounced</w>
ron ca</w>
roman ticism</w>
ro unds</w>
ro unded</w>
ro tier
ro schüren</w>
ro s</w>
ro konten</w>
ro h
roh es</w>
riti us</w>
risk -based</w>
risik ob
risikob asi
risikobasi erten</w>
risi ko
ris is</w>
ris ing</w>
ris ey</w>
ris es</w>
rinzi ps</w>
rin gend</w>
rig orous</w>
rig in
rieb skosten</w>
rich e</w>
rib es</w>
ri ver</w>
ri me</w>
ri j
rij kor
rijkor k
rijkork est</w>
ri ert</w>
ri eg
ri de</w>
ri d</w>
ri ck</w>
reve als</w>
ret y</w>
ret ta</w>
resul tierten</w>
ress ing</w>
ress en
ressen bau
ressenbau er</w>
respon ses</w>
resi stant</w>
resi dential</w>
res ol
requi re</w>
requ ests</w>
renam ed</w>
ren ow
renow ned</w>
ren omm
remov ed</w>
rem em
remem ber
remember ing</w>
relev anten</w>
relev ance</w>
rel ations</w>
rel ates</w>
rein force</w>
reich es</w>
reich barkeit</w>
rei ß
regul ations</w>
regul arly</w>
registri ert</w>
regi stering</w>
regi stered</w>
regi onal</w>
regel n</w>
regel mäßigen</w>
reg in
regin a.
regina. schuller</w>
reg at</w>
refinanzierungs fähigen</w>
recor d</w>
recomm ends</w>
recomm ended</w>
recogn ising</w>
recogn ises</w>
reco very</w>
reco vers</w>
recipi ent</w>
rechtzei tig</w>
rech te</w>
rech ens</w>
rec t</w>
reb s-Hilfe</w>
reas oning</w>
realisi erte</w>
reali sm</w>
reach es</w>
rea gi
re va</w>
re turns</w>
re tain</w>
re st
re präsentiert</w>
re präsent
re places</w>
re placed</w>
re pai
repai r</w>
re ogra
re min
remin ds</w>
re ly</w>
re location</w>
re ise</w>
re ferences</w>
re dn
redn ja</w>
re di
redi ents</w>
re deem
redeem able</w>
re chn
rechn ungs
re build</w>
re assessed</w>
re adily</w>
re ach</w>
raß e</w>
rati os</w>
rati fication</w>
ras tischen</w>
ras ch</w>
rach te</w>
ra ther</w>
ra pi
ra ig</w>
ra chten</w>
ra ch</w>
ra ce</w>
ra at</w>
r zyżanowski</w>
r unden</w>
r k</w>
r ang</w>
quot e</w>
qui r
quar ters</w>
qu ery</w>
qu elle</w>
publi c
public ly</w>
prüf geräten</w>
präm iert</w>
prä sidium</w>
prä che</w>
pru den
pruden zielle</w>
proz esse</w>
provi der</w>
prolong ed</w>
projek ts</w>
prof its</w>
produc ers</w>
problem los</w>
pro tracted</w>
pro spects</w>
pro spective</w>
pro pose</w>
pro gram
program -
program- schedule</w>
pro duziert</w>
pro duk
produk tionen</w>
pro duce</w>
pro c</w>
prin ting</w>
prin ted</w>
pres sure</w>
preci ated</w>
pre- scheduled</w>
pre dic
pre defined</w>
pre dec
predec essor</w>
pra ktiken</w>
pr0 60
pr060 50
pr06050 4</w>
pr0 40
pr040 6
pr0406 28</w>
pr er
prer equ
prerequ is
post p
postp one</w>
post -
posit ory</w>
posi tioning</w>
port l
portl ycée</w>
port ation</w>
polyg onal</w>
polyg on
polygon alen</w>
policy- related</w>
po werful</w>
po und</w>
po geschäfte</w>
play ers</w>
plat zierten</w>
plat form</w>
plan ungs
plan ung</w>
plan gemäß</w>
pla ying</w>
pl en
plen ary</w>
pi ck
pi ano</w>
pi anist</w>
phy si
phasing- in</w>
ph p</w>
ph otos</w>
ph oto
photo award</w>
perform ers</w>
perc ep
percep tions</w>
per spectives</w>
per sistent</w>
per s</w>
per mit</w>
pen sions</w>
pe di
pedi at
pediat riche</w>
pat tern</w>
pass en</w>
parti al</w>
param eter</w>
pap er</w>
pan el</w>
pak ete</w>
p ub</w>
p ronounced</w>
p in</w>
p h</w>
p al</w>
p a
over see</w>
over come</w>
out lines</w>
out flows</w>
our ne
ourne y</w>
our lis</w>
our ing</w>
our en
ouren ço</w>
oun d
oun akis</w>
ou vre</w>
ou tright</w>
ot ential</w>
orro wing</w>
orisier ung</w>
orig ins</w>
ori er</w>
organis ierten</w>
org os</w>
org is</w>
ordn ete</w>
ord akis</w>
or isch</w>
or ge</w>
or f</w>
or az
oraz ones</w>
or ation</w>
or ate</w>
or angef
orangef arben
or al</w>
optimis ation</w>
optim ale</w>
opran istin</w>
opp a</w>
opin i
opini ons</w>
oper ation
oper ate</w>
oper a</w>
op tions</w>
op t</w>
op ran</w>
op f-
opf- BIP</w>
op ened</w>
op en
op e</w>
oo g
oog le</w>
ons oren</w>
onom ska</w>
ond ation</w>
on- site</w>
on- going</w>
on- balance-sheet</w>
on ne</w>
on line</w>
on ic</w>
on as</w>
omm as
ommas o</w>
omin o</w>
om on</w>
om bin
om as</w>
om al
omal a
omala inen</w>
olog ischen</w>
oll ateral</w>
oll ar
ollar bestände</w>
ol ympos</w>
ol tke</w>
ol lan
ollan i</w>
ol en
olen ces</w>
ol ding</w>
ok us</w>
ok ed</w>
ohär enz</w>
ohn ányi</w>
off -
off- balance-sheet</w>
of the
of f</w>
od ity</w>
occ ur</w>
occ upy</w>
oc ation</w>
obser ves</w>
obser vers</w>
obili sierung</w>
obili sation</w>
ob tain</w>
ob sproc</w>
ob il
o therwise</w>
o slava</w>
o que</w>
o ols</w>
o g
og ation</w>
o ft</w>
o det
odet ska</w>
o de
ode wijkscholen</w>
o d</w>
nutz er</w>
notleiden de</w>
noti erte</w>
notenbankfähi ger</w>
not en</w>
nor mali
non- marketable</w>
non- MFI</w>
niedri ge</w>
ni veaus</w>
ni l</w>
ni co</w>
new- euro-banknotes
new-euro-banknotes .eu</w>
new fac
newfac e
newface ofthe
nehm ung</w>
nehm ens
neh men
negoti ating</w>
necess arily</w>
ne bst</w>
ne a
nea rest</w>
nah mer
nahmer eg
nahmereg elung</w>
nah en</w>
nach zuweisen</w>
nach folgend</w>
nach dem</w>
nab ás</w>
na vig
n- Pf
n-Pf und</w>
n ützliche</w>
n ungsveranstaltung</w>
n ull</w>
n sängerin</w>
n omin
n etting</w>
n et
net works</w>
n ess</w>
n ern</w>
n ei
nei gh
neigh b
neighb ouring</w>
n den</w>
n d</w>
n ady</w>
müs sten</w>
möglich erweise</w>
musi ker</w>
musi k</w>
musi k
multi ple</w>
mu ch</w>
mov ed</w>
mot to</w>
mort ga
mortga ge
mortgage -backed</w>
monat liche</w>
mon k
monk os</w>
moder n
mod ell</w>
mo di
mittel n</w>
mit glieder</w>
mit glied</w>
minim ise</w>
mini ster</w>
min us</w>
min dert</w>
mi thilfe</w>
mi stakes</w>
metho ds</w>
metho den</w>
metho de</w>
met res</w>
merk samkeit</w>
merk sam</w>
mem ber
member ship</w>
mel de
melde verfahren</w>
mechanis ms</w>
meas ured</w>
me an
maßgeb lichen</w>
mat ch</w>
markt fähiger</w>
marg in</w>
manu ell</w>
manu ally</w>
man ag
manag eri
manageri al</w>
makroökonom ischen</w>
ma xim
ma kers</w>
m ünzen</w>
m är
m te</w>
m obilisation</w>
m nazija</w>
m ir
m essen</w>
m eldung</w>
m ass</w>
m as
läufi ges</w>
läss lich</w>
länger e</w>
länder übergreif
länder spezifischen</w>
länder spezifische</w>
län e</w>
lu g
loss enheit</w>
loss enen</w>
long -run</w>
log isti
log ische</w>
lob regat</w>
lob alisierung</w>
lo ß</w>
lo oked</w>
lo k
lo gical</w>
lj uč</w>
lit er
lin e-
lin -S
lin-S teglitz</w>
limit ations</w>
lik yan</w>
lic it
licit ly</w>
lic ante</w>
li x</w>
li ver</w>
li ra</w>
li kation</w>
li j
lij k</w>
li gen
ligen ce</w>
li erte</w>
li cit</w>
lev y</w>
letz te</w>
lem e</w>
lei det
leg ten</w>
leg te</w>
lech ter
le k
le ave</w>
le ar
lear n</w>
lauf end</w>
lau tender</w>
larg est</w>
larg ed</w>
lang fristiger</w>
land sche</w>
lan tlyceum</w>
la ws</w>
la gn
lagn ah
lagnah mte</w>
l ös
l ots</w>
l o</w>
l exi
lexi bilität</w>
l ex
l esser</w>
l ero
lero i</w>
l ehen</w>
l eben</w>
l ass</w>
l a</w>
l -L
l-L udwig</w>
kün ften</w>
kurz fristige</w>
kurz -</w>
kur ze</w>
kur sen</w>
kun den
kunden geschäft</w>
kräf tigen</w>
kredit vergabe</w>
konzep ts</w>
konzep te</w>
konzent rieren</w>
kontinuier lich</w>
kon vergenz</w>
kon stanten</w>
kon sist
komp lex
komm uni
kn ap
klär ung</w>
klassifizier te</w>
ki ds</w>
kenn enz
kennenz ulernen</w>
keits berei
kations co
kationsco de</w>
karten automaten</w>
kal na</w>
k- Rahmen</w>
k tor</w>
k its</w>
k it
kit ek
kitek ter</w>
k in
k ennen</w>
k einer</w>
k apital</w>
k apit
jüng ster</w>
jüng ste</w>
jün geren</w>
junc ture</w>
jud ges</w>
jo in-
join- up</w>
jek te</w>
jah ren</w>
j ungen</w>
j ourney</w>
j obsproc</w>
j et
j en
it é</w>
it kids</w>
it ems</w>
it ations</w>
it ant</w>
it .
it. be</w>
isti an</w>
ist on</w>
ission er</w>
isk us</w>
isi ons</w>
is zt</w>
is sh
is ons</w>
irk ka</w>
irgend einer</w>
ir onic</w>
ir ation</w>
ir a</w>
invoi ces</w>
invoi ced</w>
invest or</w>
inves titionen</w>
inv ite</w>
inv itations</w>
interpre tations</w>
interac tive</w>
inter net</w>
inter essi
intensi fy</w>
integr ate</w>
int -L
int-L odewijkscholen</w>
instrum enten</w>
install ation</w>
inst al
ins uffi
innov atives</w>
ink lijk</w>
ing redients</w>
ing in</w>
ing S</w>
infra strukturen</w>
indic ations</w>
indic ated</w>
indic ate</w>
indi vi
indi rek
indi rect</w>
index. php</w>
inde ed</w>
incorpor ated</w>
in- Region</w>
in zwischen</w>
in z</w>
in wieweit</w>
in tr
in side</w>
in put</w>
in ou</w>
in ländischen</w>
in ländische</w>
in ion</w>
in hab
inhab itant</w>
in gen
ingen i
ingeni eure</w>
in folge</w>
in flu
in der
inder spacher</w>
in den</w>
in au
inau g
imp ressive</w>
imp ly</w>
imm er
immer mann</w>
imm ateri
ima ges</w>
ima g
imag in
im um</w>
im posed</w>
im nazija</w>
im ing</w>
illi qui
ili sierung</w>
ili e</w>
ild finan
ildfinan c
ildfinanc ein
ildfinancein ternational.org</w>
il le</w>
il itäten</w>
il harmon
ih ards</w>
ig ns</w>
ig ars</w>
ier ens</w>
iel er</w>
identifi kationscode</w>
identifi es</w>
identifi ers</w>
identi fication</w>
ich ten</w>
ich el</w>
i sten</w>
i orgis</w>
i oppa</w>
i k-Rahmen</w>
i gr
i ce</w>
i cal</w>
i T
iT unes</w>
höh epunk
höhepunk te</w>
höch sten</w>
hän gt</w>
hum an
hr t</w>
hr e</w>
hoh em</w>
hoch wer
hoch baulichen</w>
ho me</w>
ho ff
hoff e</w>
ho ch</w>
hl en</w>
histor ischer</w>
hinzu zufügen</w>
hinter legten</w>
hin zu</w>
hin weisen</w>
hin reichend</w>
high- quality</w>
hi on</w>
hi er</w>
heu tigem</w>
hervor heben</w>
hervor geht</w>
hervor ge
her stellung</w>
her steller</w>
her r
her gestellt</w>
her gehen</w>
her an
her ab
herab gesetzt</w>
hen folge</w>
hen ce
hence for
hencefor th</w>
hel ps</w>
head quarters</w>
head ings</w>
he el
heel it.be</w>
harmonisier ter</w>
harmonisier ten</w>
harmon ise</w>
happ en</w>
hand ing</w>
hand els
handels ak
handelsak ademie</w>
hairc ut</w>
ha èle</w>
h ütung</w>
h ypothek
h under
h uman</w>
h teiskoulu</w>
h ope</w>
h ka</w>
h ei</w>
günsti ge</w>
günsti g</w>
gän z
gän gige</w>
gän ger
gut geschrieben</w>
gut ach
gutach ten</w>
gungs frist</w>
gui ding</w>
gui de</w>
guaran tees</w>
guaran tee</w>
gu zhan</w>
gu tes</w>
gründ liche</w>
größ e</w>
grunds ätzlich</w>
grundle genden</w>
gro wn</w>
grenz ung</w>
greif b
greifb are
greifbare s</w>
gre ens</w>
gran ite</w>
gra d</w>
gra d
grad ben
gradben a</w>
gr and</w>
govern ing</w>
gm p</w>
global en</w>
glob alisation</w>
gi mnazija</w>
gi gen</w>
gi c</w>
ght -K
ght-K äufen</w>
gh ters</w>
gh an</w>
gezi elten</w>
gewähr t</w>
gewähr en</w>
gewer te</w>
gew issh
get an</w>
gest ärkt</w>
gest raat</w>
gest altet</w>
gest alten</w>
gesell schaft</w>
geschäf ts</w>
geschä tzt</w>
gesch ichte</w>
gesch i
ges präche</w>
ges p
gerä te</w>
geringer em</w>
ger s</w>
ger n</w>
ger in
ger ade</w>
ger a
gera at</w>
genü gen</w>
genu tzte</w>
gener ell</w>
gener ated</w>
genau er</w>
gen ze</w>
gen eri
generi eren</w>
gen eration</w>
gen der
gen -</w>
gemess enheit</w>
geleit eten</w>
geleg te</w>
gel öst</w>
gel assen</w>
gel ass
gelass ene</w>
gel angt</w>
gehand elt</w>
geführ ter</w>
gefähr det</w>
gef ördert</w>
gef unktion</w>
gef unden</w>
gef lossen</w>
gef ess
gefess elte</w>
gef aß
gef allen</w>
geeign eten</w>
gebot e</w>
geb ung</w>
geb illi
geb eten</w>
ge änderten</w>
ge zeigt</w>
ge worden</w>
ge widmet</w>
ge strigen</w>
ge stattet</w>
ge odetska</w>
ge liefert</w>
ge fordert</w>
ge einigt</w>
ge druck
gedruck t</w>
ge dacht</w>
ge ared</w>
gar de</w>
gan ze</w>
gan gen</w>
gam e-
game- 20
game-20 .
game-20. new-euro-banknotes.eu</w>
g ütungen</w>
g t;</w>
g sermittlung</w>
g laubwürdi
g lass</w>
g ische</w>
g ile</w>
g d</w>
g .</w>
fün f
füg te</w>
förder liches</w>
fälschungs sicherer</w>
fälli ge</w>
funktion iert</w>
funktion alen</w>
fundament alen</w>
fundament ale</w>
func tions</w>
full -
früh ere</w>
fris tig</w>
fre undlichen</w>
französ ische</w>
fra gile</w>
fort geführt</w>
form uliert</w>
form ulated</w>
form elle</w>
form ell</w>
form ats</w>
form ation</w>
form ally</w>
forder ten</w>
for ward</w>
for tsetzen</w>
fol k</w>
fol gten</w>
fol glich</w>
foc used</w>
fo recast</w>
fo od</w>
fo hlen</w>
flä che</w>
fluctu ated</w>
flo ating</w>
fizier te</w>
fizier en</w>
finan ziert</w>
finan ced</w>
finan ce</w>
finali sts</w>
fin e</w>
fin alised</w>
fil ming</w>
fig uration</w>
fi zierungs
ffi ce</w>
ff ene</w>
ff ek
fest zusetzen</w>
fest gesetzt</w>
fest gelegte</w>
feren d
ferend um</w>
fer s</w>
fer ring</w>
fer nung</w>
fe edb
feedb ack</w>
fe a
fea sible</w>
fass en</w>
fam ili
fah r</w>
facilit ating</w>
fac tor</w>
fac ing</w>
fac es</w>
fac ades</w>
fab ulous</w>
fa den</w>
f undi
f tung</w>
f th</w>
f rohes</w>
f oun
f it
f f</w>
f es</w>
f ei
fei ertage</w>
f ehl
f ast</w>
f asste</w>
f as
fas hion</w>
f all
f ak
fak toren</w>
f ace</w>
exten d</w>
explan atory</w>
exper ten</w>
exp ressed</w>
exp licitly</w>
exp licit</w>
exp and</w>
exerc ising</w>
exclu sively</w>
excep tional</w>
excell ent</w>
exce ed
exceed s</w>
exc ept</w>
exam ine</w>
ex trac
ex tra</w>
ex por
ex ecutive</w>
ex ac
exac tly</w>
ew ish</w>
evalu ated</w>
evalu ate</w>
ev sky</w>
ev olution</w>
ev en
even ings</w>
ev ant</w>
europa weit</w>
europ e.
europe. ch
europe.ch ildfinanceinternational.org</w>
eu gd</w>
etz ler</w>
etw ai
etw a
etwa iger</w>
eth ics</w>
et tische</w>
et te</w>
et sia</w>
et ra</w>
et ero
etero gen
et c</w>
ess y</w>
ess ay</w>
es tival</w>
es ische</w>
es hka</w>
erör tert</w>
erwähn t</w>
erweit ert</w>
erti ficates</w>
ert ini</w>
ert es</w>
ert a</w>
erst raße</w>
ersch wert</w>
ers etzt</w>
erlau ben</w>
erk ennung</w>
erk e</w>
erk an</w>
erinn ern</w>
erhöh ten</w>
erhi elt</w>
erheb liches</w>
erheb licher</w>
erh ältlich</w>
erh aus</w>
ergebn isse</w>
erforder t</w>
erforder n</w>
erfolgs wirksamen</w>
erfolg ten</w>
erfahr enen</w>
er werb</w>
er weist</w>
er strasse</w>
er olympos</w>
er lantlyceum</w>
er innen</w>
er ing</w>
er gruppen</w>
er gaben</w>
er gab</w>
er eien</w>
er ci
erci al
ercial i</w>
er arbeitet</w>
er achtet</w>
er a</w>
er -</w>
equ ally</w>
episo des</w>
epflich t</w>
ep ing</w>
entscheiden den</w>
entschei dungen</w>
entrali sierung</w>
entr usted</w>
entr ance</w>
enti rety</w>
enti erte</w>
enti ert</w>
enth usiasm</w>
entfi el</w>
enten reform</w>
ent wicklungen</w>
ent uren</w>
ent standenen</w>
ent schied</w>
ent ers</w>
ent als</w>
enhan cements</w>
end- users</w>
end- June</w>
end- 2010</w>
end en
enden gelder</w>
encour age</w>
en- System</w>
en ster</w>
en larged</w>
en comp
en be
enbe zo
emplo yees</w>
empir ischen</w>
empf unden
emp fohlen</w>
emer genze</w>
em enten</w>
em an</w>
els ingin</w>
elec tri
eld orf</w>
eld mann</w>
eld -
eld- for-
el o</w>
el low</w>
el ev
el ementen</w>
el emen</w>
el ekon
elekon ferenz</w>
el ab
ek onomska</w>
eist erung</w>
einzu zahlen</w>
einzu bin
einzubin den</w>
einzu behalten</w>
einheit licheren</w>
einheit lich</w>
einger äumt</w>
einge fügt</w>
einander setzung</w>
ein zuführen</w>
ein vernehmlich</w>
ein seitigen</w>
ein nehmen</w>
ein hergehen</w>
ein halten</w>
ein gestellt</w>
ein geleiteten</w>
ein geflossen</w>
ein -
ein- Ma
ein-Ma in-Region</w>
ei tigung</w>
ei ron</w>
ei ght-
eh t</w>
eg re</w>
effizi enter</w>
effizi enten</w>
effizi ente</w>
effici ently</w>
edu cation</w>
edu c
educ ational</w>
edi tion</w>
edi atri
ediatri cs</w>
ed ro</w>
ed onas</w>
ed itors</w>
ech tenstein</w>
ech s-Wochen-Zyklus</w>
ec nico</w>
eb nen</w>
eb ene</w>
eb asis</w>
ear ch</w>
e. g.</w>
e- money</w>
e x</w>
e fi
e fen</w>
e e</w>
dür ften</w>
dynam ic</w>
dw in</w>
durch geführten</w>
durch geführte</w>
durch aus</w>
dur able</w>
druck s
dri ve</w>
dreimonati ge</w>
dra ma</w>
dou b
don ations</w>
don ate</w>
dokum enten</w>
do steurop
do ch</w>
diversi fizierte</w>
diversi fied</w>
distribu tions</w>
distribu te</w>
disting uish</w>
distinc tion</w>
dissemin ation</w>
dissemin ates</w>
discus sion</w>
disc uss</w>
direk ter</w>
direc ted</w>
differenti als</w>
differ ing</w>
dien stleistungs
di o</w>
di gungsfrist</w>
di fikationen</w>
di ff
di ert</w>
di d</w>
di cal</w>
devi ation</w>
deu tschen</w>
deu tlicher</w>
detailli er
detail ing</w>
det eri
det ecting</w>
desig ner</w>
desc ribes</w>
der wijs</w>
der ogation</w>
der gebn
dep end</w>
denti el</w>
denti ality</w>
den d</w>
den ab
denab grenzung</w>
demonstr ated</w>
dem ateri
deli ver</w>
defin ite</w>
defin ing</w>
defin ieren</w>
defic its</w>
def au
defau lt</w>
deci ding</w>
decentrali sed</w>
decentrali sation</w>
deb tor</w>
de vised</w>
de k</w>
de ad
dead line</w>
dauerhaf tes</w>
dat um</w>
dar stellt</w>
dar gelegt</w>
dar fs</w>
dar aus</w>
dar auf
darauf hin</w>
dank te</w>
da zugehöri
d ály</w>
d y</w>
d ro
d ringend</w>
d rastischen</w>
d olences</w>
d ly</w>
d ling</w>
d liche</w>
d its</w>
d ith</w>
d aten</w>
d an
cul tdays</w>
cul ar</w>
counter parts</w>
cor respond</w>
contribu ting</w>
contribu tes</w>
contrac ts</w>
continu ous</w>
conta ined</w>
cont ent</w>
constitu tional</w>
constitu te</w>
consist ency</w>
consider ably</w>
consi der</w>
consequ ently</w>
confi dentiality</w>
confi dential</w>
condi tion</w>
conclu sions</w>
conclu des</w>
con vinc
con veys</w>
con figuration</w>
con ferring</w>
con dolences</w>
con crete</w>
compris ed</w>
compos ers</w>
comple x</w>
comp lying</w>
comp any</w>
communic ating</w>
commun al</w>
comm odity</w>
comm ission
comm em
comb ined</w>
co-ordin ates</w>
co-ordin ate</w>
co- Management</w>
co herence</w>
clu ster</w>
clo sed</w>
clari fication</w>
cl ar
clar ity</w>
ck winkel</w>
ck et</w>
circ us</w>
cho se</w>
cho reogra
cho ice</w>
chec ks</w>
charac teristics</w>
char itable</w>
chan ting</w>
chall enges</w>
ch ung</w>
ch s
ch oral</w>
ch ern</w>
ch en
ch ance</w>
certi fied</w>
cent res</w>
cc a</w>
categ or
cash- handlers</w>
care ful</w>
car d-
calcul ating</w>
c ycli
c ut</w>
c urator</w>
c tion</w>
c risis</w>
c rime</w>
c aus
caus ed</w>
c asi
casi onal</w>
c are</w>
c ampa
campa igns</w>
bü ros</w>
buil d-up</w>
buch s</w>
broch ures</w>
brid ges</w>
bri ef</w>
bre ak
bish er</w>
bilan ziell</w>
bil det</w>
bil dende</w>
bil anz</w>
biet ern</w>
bezieh ungen</w>
bew ältigen</w>
beträch tliches</w>
beträch tlichen</w>
betro ffen</w>
beteili gten</w>
bet rieb
bet onen</w>
bestimm t</w>
bestimm en</w>
bess ere</w>
beschle unigt</w>
beschle unigen</w>
besch reibt</w>
besch lusses</w>
besch loß</w>
besch lagnahmte</w>
bes ei
berich ten</w>
benö tigt</w>
ben efi
bekannt gegeben</w>
bek leidet
bek annten</w>
beitre ten</w>
beit ru
bei der</w>
begrüß te</w>
begrenz t</w>
begr ünden</w>
begeb ener</w>
beg ünstigen</w>
beg leitet</w>
beg in</w>
beg eist
beg an</w>
beeinträch tigen</w>
bedeutend sten</w>
bedeu tenden</w>
be va</w>
be stellt</w>
be ste</w>
be half</w>
be fasst</w>
be fanden</w>
be enden</w>
be dürfen</w>
be darfs</w>
basi ert</w>
bar oque</w>
b urg</w>
b ronze</w>
b orrow</w>
b or</w>
b ook</w>
b ler</w>
b leme</w>
b islang</w>
b ini</w>
b in</w>
b ills</w>
b and</w>
b am
bam bini</w>
b a</w>
az ilitäten</w>
ay sia</w>
awar eness</w>
avoi ding</w>
avail ability</w>
av es</w>
av ed</w>
av ant-
avant- garde</w>
außer gewöhnlichen</w>
außer bilanziell</w>
automati c</w>
auszu weiten</w>
auszu statten</w>
aussch üttung</w>
aussch usses</w>
aussage kräftige</w>
ausgewähl te</w>
ausgesch üttet</w>
ausge tragen</w>
ausge prä
ausge arbeitet</w>
ausführ licheren</w>
aus wirken</w>
aus weisen</w>
aus wahl</w>
aus stehenden</w>
aus schreibung</w>
aus schließlich</w>
aus ger
aus gehend</w>
aus gefallen</w>
aus drückt</w>
aufsich tlichen</w>
aufge teilt</w>
aufge griffen</w>
auf weist</w>
auf wand</w>
auf tretenden</w>
auf steigender</w>
auf sicht</w>
auf programm</w>
auf nimmt</w>
auf merksam</w>
auf gedeckten</w>
auf einander
audit ors</w>
au taire</w>
au stausch</w>
au m
au ghan</w>
au dit</w>
au ction</w>
attach es</w>
att ended</w>
atri um</w>
ationsp ap
ationspap ier</w>
ations prozess</w>
ation ale</w>
ati ver</w>
ati s</w>
ati n</w>
ater ina</w>
at ur
at tractive</w>
at tend</w>
at ta
at on</w>
at bo
ast elo</w>
assum ing</w>
assum es</w>
ass urance</w>
ass es</w>
ass al</w>
asi um</w>
as signed</w>
as ked</w>
as k</w>
as certain</w>
as cal</w>
arti st</w>
art works</w>
ari ņš</w>
ari an</w>
are house</w>
archit ect</w>
arben frohes</w>
aran touri</w>
ar ó</w>
ar ts</w>
ar m</w>
ar ge</w>
appoin tment</w>
app ell
app e
ap ter</w>
ap set</w>
ap h
ap ge
anzu passen</w>
anz iskus</w>
anticip ated</w>
anti que</w>
anti ke</w>
ant- Ober
ant-Ober schule</w>
ant inou</w>
anspru chs
ans wers</w>
announ ces</w>
ann ähernd</w>
ann ing</w>
angemess ener</w>
angehalten en</w>
angeh t</w>
angebot enen</w>
angebot en</w>
ang or</w>
anfän glicher</w>
anerk annten</w>
anerk annt</w>
ander erseits</w>
and s</w>
and ro</w>
and auern</w>
anc ta</w>
analy sing</w>
an trag</w>
an teile</w>
an satz</w>
an ova</w>
an other</w>
an meldung</w>
an it</w>
an i</w>
an halten
an gesetzt</w>
an genommenen</w>
an gemessenen</w>
an gelegten</w>
an ge</w>
an co</w>
amp us</w>
amp le</w>
am work</w>
am t</w>
am ille</w>
am atis</w>
am anova</w>
alt ungs
alt barkeit</w>
alog museum</w>
alo c</w>
allmäh lichen</w>
allgem eine</w>
all us</w>
alisi erungen</w>
ali stischen</w>
ali smus</w>
ali s</w>
ali gn
al wert</w>
al tszahlungen</w>
al though</w>
al ternative</w>
al ter</w>
al omon</w>
al lowing</w>
al lo
al evsky</w>
al egre</w>
al aysia</w>
akzep tiert</w>
aktualisi erte</w>
aktualisi ert</w>
aktivi ert</w>
ak tions
ak ter</w>
ak i</w>
ak a</w>
air s</w>
ail able-for-
ail -
ai r</w>
ai ba</w>
ahr ungsmittel
ahr t</w>
ahr kartenautomaten</w>
agre ements</w>
aggreg ated</w>
age -
ag o</w>
ag enturen</w>
ag a</w>
aff ecting</w>
af ten</w>
ado a-
adoa- Sch
adoa-Sch ioppa</w>
adequ ately</w>
ad ácia</w>
ad rid</w>
ad mini
acqu a
achiev ing</w>
ach tung</w>
accru al</w>
accor d</w>
accept ance</w>
accept ability</w>
accep ting</w>
acceler ating</w>
acceler ate</w>
ac tu
ac ts</w>
ac aton</w>
abzu halten</w>
abzu bauen</w>
absol ute</w>
ab zielen</w>
ab schließenden</w>
ab ritius</w>
ab o</w>
ab len</w>
ab gerechnet</w>
ab gegeben</w>
ab alevsky</w>
a ëns</w>
a zione</w>
a ware</w>
a w</w>
a vigations
a vier</w>
a version</w>
a side</w>
a iming</w>
a esser</w>
a el</w>
a ediatrics</w>
Zyper n-Pfund</w>
Zwei -
Zusätz lich</w>
Zuständi gkeit</w>
Zusammen künften</w>
Zusammen fügen</w>
Zusammen fassungen</w>
Zul assung</w>
Zu weisung</w>
Zu gelassene</w>
Zu führung</w>
Zins sätzen</w>
Zins beschluss</w>
Zentralbank unabhängigkeit</w>
Zentralbank experten</w>
Zentral staaten</w>
Zeit räume</w>
Zeit rahmen</w>
Zahlungsverkehrsinstrum ente</w>
Zahlungsverkehrs systeme</w>
Zahlungs mitteln</w>
Z üblin</w>
Z solt</w>
Z immermann</w>
Z ariņš</w>
Y iorgis</w>
Y erolympos</w>
Y asse</w>
Y P</w>
X avier</w>
X aloc</w>
Währungsgebi et</w>
Währungs institut</w>
Wor king</w>
Wol f</w>
Woh l
Wirtschafts wachstum</w>
Wirtschafts systems</w>
Wirtschafts raums</w>
Wirtschafts indikatoren</w>
Wirtschafts entwicklung</w>
Willi ams</w>
Will y-Brandt-Platz</w>
Wieder herstellung</w>
Wieder auftreten</w>
Wi ktor</w>
Wi ener</w>
Wh ite</w>
Wettbewerbs runden</w>
Wertpapierabwicklungs systemen</w>
Wertpapier bestände</w>
Wertmin derungen</w>
Wert berich
Wer ken</w>
Wer den</w>
Wel t
Weiß buch</w>
Weit erhin</w>
Weit eren</w>
Weit er
Wechselkurs politik</w>
We ber</w>
Wahr nehmung</w>
W heelit.be</w>
W erke</w>
W arehouse</w>
Vorstands mitglied</w>
Vorsitz ender</w>
Vorsichtsp rinzips</w>
Vor stellungen</w>
Vor stellung</w>
Vor schläge</w>
Vor rang</w>
Vor läufiges</w>
Vor lage</w>
Vor gänger
Vor gaben</w>
Vor anmeldung</w>
Volum en</w>
Volk shilfe</w>
Viol inso
Viel mehr</w>
Vice- Chair</w>
Vi aró</w>
Verst ärkung</w>
Verpflich tungen</w>
Verlu stab
Verkaufs automaten</w>
Verkaufs -</w>
Vergleich t</w>
Verbrauch ern</w>
Verbind ungs
Verbind ungen</w>
Verbind lichkeiten</w>
Verb rechens</w>
Verantwor tlichkeiten</w>
Veranstaltungs reihe</w>
Ver hütung</w>
Ver gütungen</w>
Ver anstaltung</w>
Ven etsia</w>
Vari ous</w>
V er</w>
V aughan</w>
V assal</w>
V an</w>
V al</w>
V AR
VAR M
VARM ON
VARMON IA</w>
V -
Ur teil</w>
Ur sprungs</w>
Unter nehmens
Un vereinbarkeiten</w>
Un sere</w>
Un gewissh
Umwelt amt</w>
Umf angs</w>
Um rüstung</w>
Um gang</w>
UR E</w>
UNG SR
UNGSR A
UNGSRA H
UNGSRAH MEN
UNGSRAHMEN S</w>
UN G</w>
U R</w>
U O
UO VARMONIA</w>
U I
UI DIT
Tre ffen</w>
Trans formation</w>
Trans aktions
Trans actions</w>
Tr ennung</w>
Tr end
To ols</w>
Tit eln</w>
Til gungen</w>
Thir d</w>
Them enland</w>
Th us</w>
Th omas</w>
Th iele</w>
Tex tes</w>
Tex te</w>
Teuerungs raten</w>
Teu erung</w>
Test zwecken</w>
Test zentren</w>
Termin kalender</w>
Teil ergebnisse</w>
Teen age</w>
Tech ni
Te ile</w>
Te am</w>
Tal entierte</w>
Tal ens</w>
TH EA
THEA T
TARGET2-Sec urities-Programm</w>
TARGET -
TARGE T</w>
TAB S
TABS -
TABS- MFI</w>
T ÜV</w>
T own</w>
T ommaso</w>
T ok
T en</w>
T elekonferenz</w>
T ecnico</w>
T aus
T at</w>
T anz
T angible</w>
T O
TO P</w>
T EN
T E
T 0
T0 70</w>
Sü dosteurop
Sz enarios</w>
Supran ationale</w>
Supran ational</w>
Su omalainen</w>
Su che</w>
Stück s</w>
Stück e</w>
Stu fe</w>
Stresstest- Basisszenario</w>
Strafverfolgungs behörden</w>
Strafverfol gung</w>
Str ingS</w>
Sti ftung</w>
Steu erungs
Stellvertre tende</w>
Stef ano</w>
Ste en</w>
Statisti cal</w>
Stand ard
Stad t
Stab ilisierung</w>
Sta d</w>
Sta at
St ärke</w>
St rijkorkest</w>
St reich
St re
St amatis</w>
St age</w>
St .</w>
Sprach fassungen</w>
Spra chen</w>
Sp onsoren</w>
Sp ieler</w>
Sp endengelder</w>
Soli stes</w>
Sol che</w>
Sol bes</w>
So tiropoulos</w>
Sk yline</w>
Sk ride</w>
Sicherheiten rahmens</w>
Sicherheit s
Ser vice</w>
Sel bst</w>
Sel angor</w>
Sek toren</w>
Seignior age</w>
Seignior age-
Seh schwachen</w>
Seh behinderte</w>
Sec undária</w>
Sec ondary</w>
Sec ond</w>
Schwar z</w>
Schwar tz</w>
Schulden stand</w>
Schul jahr</w>
Schirmher ren</w>
Schau spiel
Sch üller</w>
Sch ätzungen</w>
Sch uld</w>
Sch nitt</w>
Sch luss</w>
Sch eme</w>
Sch eller</w>
Saint- Ad
Saint-Ad rien</w>
Saint -S
Saint-S aëns</w>
Sach aufwand</w>
SSM- Aufsichtsgremiums</w>
SM -
SEPA- wide</w>
SEPA- Zahlungsinstrumenten</w>
SEPA- Zahlungen</w>
SEPA- Umsetzung</w>
SEPA- Standards</w>
SEPA- Regeln</w>
S ÜD</w>
S rednja</w>
S portlycée</w>
S ow
S ourlis</w>
S irkka</w>
S int-Lodewijkscholen</w>
S emin
S eite</w>
S echs-Wochen-Zyklus</w>
S atz</w>
S andro</w>
S ancta</w>
S an
S alomon</w>
S ale</w>
S T
S O</w>
S KK</w>
S IT</w>
S F</w>
S A</w>
S .</w>
S .
S. J
S.J .</w>
Ru n</w>
Rotations system</w>
Rotations modell</w>
Rot ation</w>
Roh stoff
Roc k</w>
Ro beva</w>
Risik o</w>
Ris pal</w>
Richtlinienvor schlags</w>
Richt krone</w>
Rich tung</w>
Rhyth mus</w>
Rh ein-Main-Region</w>
Res earch</w>
Rel evant</w>
Rein hold</w>
Rei henfolge</w>
Rei hen</w>
Regierungs präsidium</w>
Regi stry</w>
Regi stri
Regi onal</w>
Reg ina</w>
Refinan zierung</w>
Referenzwer te</w>
Referenz kursen</w>
Referenz kurse</w>
Red aktion
Rechts akt</w>
Rechnungslegungs methode</w>
Rechnungsho fes</w>
Rechn ungen</w>
Rechen schafts
Re verdy</w>
Re produktionen</w>
Re pogeschäfte</w>
Re ligi
Re ference</w>
Re alismus</w>
Re aktionen</w>
Rating agenturen</w>
Rap haèle</w>
Rahmen bedingungen</w>
Radio chor</w>
RO G
ROG RA
ROGRA M
ROGRAM M
R undfunks</w>
R ound
R oth</w>
R inderspacher</w>
R ihards</w>
R est</w>
R entenreform</w>
R enditen</w>
R U
R ES
RES P
RESP EC
RESPEC T</w>
Quart ale</w>
Qu elle</w>
Q UIDIT
Q A</w>
Punk te</w>
Publi cation</w>
Prüf ungen</w>
Prä s
Proz esse</w>
Projek ts</w>
Programm höhepunkte</w>
Prof essor</w>
Produk tionsp
Produk tion</w>
Pro bleme</w>
Privat kundengeschäft</w>
Privat kunden</w>
Pri x</w>
Pri vate</w>
Pri or
Pressekon takt</w>
Preis steiger
Preis niveau</w>
Preis -</w>
Pre ventive</w>
Pre liminary</w>
Potenzial wachstum</w>
Portfolio umschichtungen</w>
Portfolio auswahl</w>
Port alegre</w>
Politi kbereiche</w>
Pol ytechnische</w>
Po p</w>
Po int</w>
Po cket</w>
Plat tform</w>
Pl ätze</w>
Pl enar
Pl anning</w>
Ph otos</w>
Ph ilharmon
Pfandbri efen</w>
Personal be
Perio denabgrenzung</w>
Per centage</w>
Pen sionsbezüge</w>
Pe ace</w>
Partner ship</w>
Particip ants</w>
Parti cular</w>
Par tners</w>
Par tnern</w>
Par t</w>
Pak ts</w>
Pak ets</w>
P öllath</w>
P usker</w>
P sanis</w>
P otential</w>
P lay</w>
P i
P etra</w>
P ertini</w>
P edro</w>
P ascal</w>
P aediatrics</w>
P adoa-Schioppa</w>
P SPP</w>
P ROGRAMM
P OL
POL IT
POLIT ISCHEN</w>
P I
Over all</w>
Outri ght</w>
Outri ght-Käufen</w>
Ost end</w>
Os nab
Os lo</w>
Organis ations
Organis ationen</w>
Or t</w>
Oper nsängerin</w>
Op timierungsphase</w>
Op inion</w>
On lus</w>
On line-
On derwijs</w>
Oc casional</w>
Obergren zen</w>
Oberbürgermei sterin</w>
ON L
ONL US</w>
O wing</w>
O rigin
O ne</w>
O liver</w>
O guzhan</w>
O ffice</w>
O b
O R</w>
O M</w>
Näch ste</w>
Nutz ern</w>
Num bers</w>
Nor wegen</w>
Nor way</w>
Nor bert</w>
Nomin alwert</w>
Nomin al</w>
No yer</w>
No stra</w>
Nicht- MFIs</w>
Neu erungen</w>
Neu er</w>
Nettozinser trägen</w>
Nettogew inns</w>
Netto kreditvergabe</w>
Netto erwerb</w>
Nenn werten</w>
Nenn wert</w>
Neder landsche</w>
Neder lands</w>
Nach folgender</w>
Nach dem</w>
Nach bar
N on-
N eshka</w>
N eben
N avigations
N am
N ahrungsmittel
N adácia</w>
N UOVARMONIA</w>
N FA</w>
N E
Münz fälschungen</w>
Mö dling</w>
Musik geschichte</w>
Mon ey</w>
Mo usonturm</w>
Mo ste</w>
Mo ste-Polje</w>
Mo st</w>
Mo difikationen</w>
Mittel punkt</w>
Mitglied status</w>
Mini ster</w>
Mindestreserv epflicht</w>
Mindest reserve</w>
Min imum</w>
Mil oslava</w>
Mich èle</w>
Mich alis</w>
Mich ael</w>
Mi thilfe</w>
Men udos</w>
Meilen st
Medi um-Term</w>
Medi a</w>
Me likyan</w>
Massenzahlungs verkehr</w>
Massenzahlungs systemen</w>
Markt infrastrukturen</w>
Mari bor</w>
Mari an</w>
Mar tha</w>
Mar k</w>
Mar g</w>
Mar c</w>
Manu al</w>
Malt ese</w>
Mak úch</w>
Mak edonas</w>
Ma inz</w>
Ma erlantlyceum</w>
MUS I
MUS -
MUS- E</w>
MT L</w>
MFI- Zinsstatistiken</w>
M utlangen</w>
M ultip
M oltke</w>
M obilisierung</w>
M int</w>
M illion</w>
M etzler</w>
M et
M ein
M alaysia</w>
M al</w>
M adrid</w>
M B
MB S</w>
M AR
M 3
M 1</w>
Lös ungen</w>
Lös ung</w>
Länder vergleich</w>
Lu cca</w>
Lor d</w>
Lo se</w>
Liter atur</w>
Liter ary</w>
Lit au
Liquiditäts bedarfs</w>
Lin z-Auhof</w>
Li fe</w>
Li echtenstein</w>
Li am</w>
Letz teres</w>
Leit faden</w>
Leist ungs
Lehrkrä ften</w>
Le ššo</w>
Lauf zeit
Lau t</w>
Langfrist zinsen</w>
Land schaftsgestaltung</w>
Land es
LT RO</w>
LT L</w>
L yriques</w>
L usitano</w>
L ouvre</w>
L ourenço</w>
L orier</w>
L ong</w>
L ohn
L ocation</w>
L lobregat</w>
L iszt</w>
L ira</w>
L icht</w>
L icht
L ettische</w>
L ei
L ast</w>
L apset</w>
L acaton</w>
L UNGSRAHMENS</w>
L IT
LIT ER
LITER AT
L I
LI QUIDIT
Künstl erhaus</w>
Künst ler</w>
Kün digungsfrist</w>
Kurz em</w>
Kur ses</w>
Kun st
Kultur tagen</w>
Kreditgewer be</w>
Kredit zinsen</w>
Kredit vertrag</w>
Kredit risiko</w>
Kredit risiken</w>
Kredit en</w>
Kra ounakis</w>
Kor n</w>
Konsultations verfahren</w>
Konsultations dokumenten</w>
Konsult ationspapier</w>
Konjunk tur
Kon version</w>
Kon tonummer</w>
Kon tobezeichnungen</w>
Kon to</w>
Kon text</w>
Kon ten</w>
Kon servatorium</w>
Kon rad</w>
Kon inklijk</w>
Kon ferenz
Kompon istin</w>
Kompon isten</w>
Kommis sar</w>
Ko sten
Ko stas</w>
Ko dály</w>
Klar stellung</w>
Kl assi
Kinder chor</w>
Kinder -K
Kinder-K rebs-Hilfe</w>
Kern kapital</w>
Kateg orisierung</w>
Karten einsatz</w>
Kar amanova</w>
Kapitalinstrum enten</w>
Kapital pläne</w>
Kapital märkten</w>
Kapital betrags</w>
Kapit el</w>
Kandid atin</w>
Kammer orchester</w>
Kalen dern</w>
Kal na</w>
Kais erstraße</w>
Kais erstrasse</w>
Ka tholiek</w>
Ka sterlee</w>
K rzyżanowski</w>
K ordakis</w>
K ohärenz</w>
K ljuč</w>
K ing</w>
K elemen</w>
K aterina</w>
K ant-Oberschule</w>
K abalevsky</w>
K E
Jur a</w>
Jun ior</w>
Jumbo- Pfandbriefe</w>
Jugend liche</w>
Joh n</w>
Jo zefa</w>
Jo zef</w>
Jazz musiker</w>
Jahresabsch lüsse</w>
Jahres vergleich</w>
Jahres bilanz</w>
Jahres bericht</w>
Jahr zehn
Jahr hunder
J úlia</w>
J ill</w>
J ewish</w>
J eugd</w>
Ir ti</w>
Interven tionspunkt</w>
Interess enten</w>
Interess en
Inter pre
Instrum ents</w>
Institu ut</w>
Institu tion</w>
Inn en
Initi ativen</w>
Infra structure</w>
Informationskampag ne</w>
Informations materialien</w>
Inflations ziel</w>
Inflations konvergenz</w>
Infl ation
Indi vidual</w>
In verkehr
In tellectual</w>
In tangible</w>
In st
In halt</w>
In ga</w>
In definite</w>
Ill umination</w>
IT- Dienstleistungen</w>
IT SM-
II I-
III- 90</w>
II .</w>
IG 8</w>
IG 7</w>
IG 4</w>
I- 3</w>
I veta</w>
I van</w>
I skrov</w>
I s
I hnen</w>
I P</w>
I ES</w>
I E</w>
I AS</w>
Höhepunk ten</w>
Hu umeista</w>
Hu erta</w>
Hochhaus gebäude</w>
Hochh aus</w>
Ho using</w>
Ho spitalet</w>
Ho dek</w>
Ho ch</w>
Hinter grund
High er</w>
Hier bei</w>
Her entals</w>
Hel ēna</w>
Haushalts kriterien</w>
Hauptrefinanzierungs satz</w>
Hauptrefinanzierungs geschäfts</w>
Hauptrefinanzierungs geschäften</w>
Haupt gebäude</w>
Harmonisier ung</w>
Handlungs rahmen</w>
Hand buchs</w>
Han speter</w>
Ham burg</w>
Ham ar</w>
Hal pin</w>
HI N
HAN G</w>
HAN D
HAND LUNGSRAHMENS</w>
H éja</w>
H ämäläinen</w>
H älfte</w>
H urbana</w>
H ronca</w>
H olding</w>
H ist
H ils</w>
H elsingin</w>
H e</w>
H ans
H altbarkeit</w>
H all</w>
H EL
HEL P</w>
Gymn asium</w>
Gu thaben</w>
Grün G
GrünG ürtel</w>
Grund stück</w>
Groß en</w>
Gra d</w>
Gr öß
Gr unde</w>
Gr anit</w>
Govern ance</w>
Gonz aga</w>
Gi useppe</w>
Gi rokonten</w>
Gi orgos</w>
Gewinnvoraus zahlungen</w>
Gewinn ver
Gewinn ausschüttung</w>
Gewichts anteile</w>
Gew alt</w>
Gest altungs
Gesell schaft</w>
Geschäfts volumina</w>
Geschäfts -</w>
Geschäft stag</w>
Geschäf ts</w>
Geschäf t</w>
Gesamt wert</w>
Geräte hersteller</w>
Generation Euro</w>
Gen nady</w>
Geldnachfra gefunktion</w>
Geld -</w>
Geh älter</w>
Geh eim
Geh altszahlungen</w>
Gegenwer ts</w>
Gegen über</w>
Gegen wärtig</w>
Gegen satz</w>
Gegen posten</w>
Ge orge</w>
Ge org</w>
Ge fahr</w>
Garanti en</w>
GA A
GAA B-
GAAB- MFI</w>
G- IS</w>
G érard</w>
G ä
G risey</w>
G retta</w>
G ressenbauer</w>
G oogle</w>
G ood</w>
G old</w>
G lobalisierung</w>
G l
G imnazija</w>
G erkan</w>
G ed
G ast
G allus</w>
G aka</w>
G OR
G EL
GEL D
GELD POLITISCHEN</w>
G E</w>
G .</w>
Fälschungs sicherheit</w>
FÜHLEN-SEHEN-KIPP EN
FÜHLEN-SEHEN-KIPPEN -T
FÜHLEN-SEHEN-KIPPEN-T est</w>
Funktion sweise</w>
Funktion ierens</w>
Funktion ieren</w>
Fri is</w>
Fremdwährungs forderungen</w>
Frank reich
Fr ist</w>
Fr auen</w>
Fr anziskus</w>
Fr anco</w>
Fortschritts berichts</w>
Fortschritts bericht</w>
Form aten</w>
For tsetzung</w>
For schung</w>
For de</w>
Fol genden</w>
Finanzmarkt turbulenzen</w>
Finanz stabilitätsfonds</w>
Finanz politik</w>
Finanz märkte</w>
Finanz fragen</w>
Finanz ausschusses</w>
Fil me</w>
Fil m</w>
Fi xed</w>
Fern and</w>
Fehl entscheidungen</w>
Fe lix</w>
Fam ilie</w>
Falschnoten aufkommens</w>
Falschgeldan fall</w>
Falschgeld umlaufs</w>
FIL M</w>
FIL M
F ähigkeit</w>
F undación</w>
F ort
F ondation</w>
F okus</w>
F lexibilität</w>
F lag
F itkids</w>
F iscal</w>
F estival</w>
F eldmann</w>
F azilitäten</w>
F ass
F arbenfrohes</w>
F arantouri</w>
F ani</w>
F ahrkartenautomaten</w>
F ace</w>
F abritius</w>
F SF</w>
F S</w>
Exper tenteams</w>
Exper ten
Exempl are</w>
Exempl ar</w>
Ex ternal</w>
Europ éens</w>
Euro- Zahlungen</w>
Euro- Währungsraums</w>
Euro- Scheine</w>
Euro- Länder</w>
Euro- Gegenwerts</w>
Euro- Bargeld</w>
Euro- Bargeld
Euro-Bargeld umstellung</w>
Euro- Banknotenserie</w>
Euro- Banknotenfälschungen</w>
Euro länder</w>
Euro land</w>
Euro banknoten</w>
Eth ik-Rahmen</w>
Erör terung</w>
Eröff nungsveranstaltung</w>
Eröff nung</w>
Erläu terung</w>
Erfüllungsperio den</w>
Erfol gsermittlung</w>
Ereign issen</w>
Ereign isse</w>
Er werb</w>
Er trag</w>
Er suchen</w>
Er scheinungsbild</w>
Er reichbarkeit</w>
Er mittlung</w>
Er forder
Entwurfs vor
Entwurfs konzepte</w>
Entwurfs konzept</w>
Entscheid ungs
Entsch luss</w>
Entsch lossenheit</w>
Ent fernung</w>
Ent deckung</w>
Ent decken</w>
Ens embles</w>
Eng land</w>
Energie preise</w>
Energi e</w>
En dergebn
En d
En chanting</w>
Empfehl ungen</w>
Empf änger
Emittenten gruppen</w>
Els ässer</w>
Els aesser</w>
Einla gen-</w>
Ein wohner</w>
Ein teilung</w>
Ein leitenden</w>
Ein blick</w>
Ein beziehung</w>
Eigenk apital</w>
Eigen schaften</w>
Echtheit sprüf
EZB-Rats beschluss</w>
EZB- Hauptgebäude</w>
EZB- Direktoriumsmitglied</w>
EZB- Beschluss</w>
EUROPA- KULTURTAGEN</w>
EU- wide</w>
EU- Staaten</w>
EU- Rates</w>
EU- Länder</w>
EU- Kommissar</w>
EU- Ebene</w>
EU V</w>
ESR B-
ESRB- Sekretariat</w>
EM V-
EM S</w>
EM AS</w>
EH EN</w>
EE K</w>
ECOFIN- Rat</w>
EC B
ECB statsApp</w>
EC A
E ven</w>
E t
E scola</w>
E rick</w>
E ing
E ichel</w>
E geraat</w>
E ffek
E dwin</w>
E dith</w>
E d</w>
E co-Management</w>
E GOR
E G</w>
E .
E. T.</w>
Durchschnitts wert</w>
Dur ation</w>
Druck fassungen</w>
Druck ereien</w>
Dru štvo</w>
Dru ot</w>
Dru ck</w>
Drit ter</w>
Drit ten</w>
Dra ma</w>
Dokum enten</w>
Dokum ente</w>
Dob reva</w>
Do monkos</w>
Dis cover</w>
Dis clo
Dis ability</w>
Direktori um</w>
Direk tion</w>
Direc tors</w>
Dif ferenz</w>
Dienstleistungs niveau</w>
Dien stverhältnis</w>
Dien stleister</w>
Di rk</w>
Di alogue</w>
Di alogmuseum</w>
Dez entralisierung</w>
Deutsch es</w>
Dem os</w>
Dem akova</w>
Defizit verfahren</w>
Defizit quote</w>
Defiz its</w>
Dec isions</w>
Deb ussy</w>
Deb t</w>
Deb it
De pository</w>
Dau ghters</w>
Dat abase</w>
Dat a</w>
Dar lehen</w>
Dar in</w>
Dan ubia</w>
Dan marks</w>
Da vid</w>
D ykers</w>
D usapin</w>
D uchesse</w>
D ubra</w>
D on</w>
D ollarbestände</w>
D ohnányi</w>
D essy</w>
D KK</w>
D G-IS</w>
D EN</w>
Curr ently</w>
Counterf eit</w>
Coun try</w>
Coun sel</w>
Const antinou</w>
Concertgebou workest</w>
Con trolling</w>
Con temporary</w>
Con struction</w>
Comm issioner</w>
Colour s</w>
Colour ful</w>
Colle gestraat</w>
Co stis</w>
Clau dio</w>
Christ os</w>
Chr yssanthakopoulou</w>
Chr istian</w>
Chor Ak
ChorAk ademie</w>
Chi zy</w>
Char ts</w>
Char leroi</w>
Cha ir
Ch ildren</w>
Ch ance</w>
Car l-Ludwig</w>
Can onne</w>
Can at</w>
CR R</w>
CET1- Kapitalinstrumenten</w>
CE O</w>
C raig</w>
C orazones</w>
C ollateral</w>
C ertificates</w>
C astelo</w>
C are</w>
C apge
C ampus</w>
C amille</w>
C abo</w>
C YP</w>
C QA</w>
C OM</w>
C HI
C .
C. E.T.</w>
Bü ro
Bundes handelsakademie</w>
Bulg arischen</w>
Buch wert</w>
Bu SO</w>
Brü ssel</w>
Bri ef</w>
Bri an</w>
Bre ak
Bran co</w>
Br âncuş
Bonitäts an
Bo und</w>
Bo ston</w>
Bo sco</w>
Bli ckwinkel</w>
Bli ck</w>
Bilanz ergebnis</w>
Bil gic</w>
Bewertungsabsch läge</w>
Bewer tungsverlusten</w>
Bewer bung</w>
Betru g</w>
Beteili gung</w>
Bet ween</w>
Bet riebskosten</w>
Bet rags</w>
Best ehen</w>
Beschäf tigungswachstum</w>
Besch ränkung</w>
Bes eitigung</w>
Berichts zeitraum</w>
Berichts zeitpunkt</w>
Berichts kreis</w>
Berichts jahr</w>
Berei chen</w>
Berater stab</w>
Ber lin-Steglitz</w>
Beobach ter
Ben aki</w>
Belgi ë</w>
Belgi que</w>
Bel gische</w>
Beitritts ver
Beit räge</w>
Bei m</w>
Beg inns</w>
Beg eisterung</w>
Bed ürfn
Be žigrad</w>
Be züglich</w>
Be weis</w>
Be vor</w>
Be fore</w>
Be achtung</w>
Bau unternehmen</w>
Bau teile</w>
Bau kosten</w>
Bau antrag</w>
Bar uffi</w>
Bar ron</w>
Bar ock
Bar nabás</w>
Bar isons</w>
Banknotenbearbeit ungs-</w>
Bankkon to</w>
Bankensek tors</w>
Bankensek toren</w>
Bank schuldverschreibungen</w>
Bank kunden</w>
Bank identifikationscode</w>
Bank feiertage</w>
BT Bs</w>
B örse</w>
B ystrup</w>
B yrne</w>
B undes</w>
B rotfabrik</w>
B roschüren</w>
B ronze</w>
B ollani</w>
B iston</w>
B indung</w>
B illi
B and
B aiba</w>
B NB</w>
B MTN</w>
Av ailable-for-
Autor ité</w>
Ausschreibungs pakete</w>
Aussch üssen</w>
Aus nahmeregelung</w>
Aus maß</w>
Aus gab
Aus führ
Aus einandersetzung</w>
Aufsichtsgremi um</w>
Aufsichts gespräche</w>
Auf satz</w>
Auf rechnung</w>
Auf nahmen</w>
Auf merksamkeit</w>
Auf führung</w>
Au tom
Associ azione</w>
Associ ation</w>
Aspek ten</w>
As eman</w>
Architektur wettbewerb</w>
Architektur büros</w>
Architek t</w>
Arbeits ver
Arbeits markt</w>
Arbeits beziehungen</w>
Ar kitekter</w>
Ap kalna</w>
Ap eiron</w>
Anteil seigner</w>
Anmerk ung</w>
Anlage posten</w>
Anla gewerte</w>
Ank aufprogramm</w>
Ander e</w>
Analyse ansatz</w>
An y</w>
An toniadis</w>
An ti
An sichten</w>
An s
An other</w>
An ne</w>
An meldeverfahren</w>
An gemessenheit</w>
An gebote</w>
An gebot</w>
An erkennung</w>
An d</w>
An d
An bietern</w>
Amat o</w>
Al twährungen</w>
Al though</w>
Al te</w>
Al so</w>
Aktu alität</w>
Aktiv itäten</w>
Akti en
Ak zeptanz</w>
Aggreg ate</w>
Achiev ement</w>
Accoun ting</w>
Abwei chung</w>
Ab wicklungstag</w>
Ab enden</w>
Ab deckung</w>
AT0 9</w>
AT0 3</w>
AT0 2</w>
AT0 1</w>
AT EGOR
AT 11</w>
AR CHI
AN HANG</w>
A trium</w>
A thénée</w>
A round</w>
A part</w>
A licante</w>
A igars</w>
A G</w>
A FS</w>
A EUV</w>
99 2</w>
98 .0</w>
98 ,0</w>
9 7.
9 7,
9 .2</w>
88 3</w>
82 5,
825, 00
825,00 7,
825,007, 069
825,007,069 .
825,007,069. 61</w>
80 8</w>
8 8</w>
8 7
87 9</w>
8 56</w>
8 50</w>
8 41</w>
8 22</w>
7, 2</w>
7 87</w>
7 69</w>
7 60</w>
7 6
76 0,
760, 65
760,65 2,
760,652, 40
760,652,40 2.
760,652,402. 58</w>
7 4</w>
7 10</w>
7 .</w>
7 .2</w>
69 8</w>
69 3</w>
69 -
69- 1344</w>
65 2</w>
60 9</w>
60 6</w>
6, 5</w>
6 90</w>
6 6</w>
6 5</w>
6 50</w>
6 34</w>
6 2</w>
6 14</w>
6 11</w>
57 55</w>
54 82</w>
50 kB</w>
5. 50</w>
5. 25</w>
5, 1</w>
5 86</w>
5 3</w>
5 30
530 5</w>
5 29</w>
48 .3</w>
44 5</w>
44 5,000</w>
44 2</w>
44 1</w>
40 2</w>
40 2,
402, 58</w>
40 1</w>
40 0
400 1</w>
4. 75</w>
4. 50</w>
4 90</w>
4 74</w>
4 50</w>
4 5
4 3</w>
4 38</w>
4 23</w>
4 22</w>
4 21</w>
4 14</w>
36 7</w>
35 3</w>
35 3,
353, 000</w>
33 8</w>
30 9</w>
30 1</w>
3. 6</w>
3, 6</w>
3, 2</w>
3, 25</w>
3 81</w>
3 80</w>
3 72</w>
3 57</w>
3 51</w>
3 3.2</w>
3 3.1</w>
3 2</w>
3 00</w>
28 6</w>
28 66</w>
27 3</w>
27 0</w>
26 8</w>
26 3</w>
26 .
26. 4</w>
20 9</w>
20 8</w>
20 .00</w>
2, 50</w>
2, 289</w>
2, 2
2, 0</w>
2, 005</w>
2, 000</w>
2 nd</w>
2 98</w>
2 9.</w>
2 9.2</w>
2 60</w>
2 6.</w>
2 57</w>
2 533</w>
2 50</w>
2 42</w>
2 41</w>
2 38</w>
2 36</w>
2 34</w>
2 26</w>
2 22</w>
2 2.</w>
2 19</w>
2 16</w>
2 14</w>
2 1.</w>
2 -
199 7</w>
199 5</w>
19 85</w>
19 1</w>
18 4</w>
17 3</w>
16 5</w>
16 48</w>
16 .</w>
16 .0</w>
16 ,0</w>
1344 7316</w>
13 8</w>
13 6</w>
13 1</w>
13 .
12 8</w>
12 3</w>
12 .</w>
11. 4</w>
11. 00</w>
10, 825,007,069.61</w>
10 93</w>
10 3</w>
10 24</w>
1.en. html.</w>
1. 2</w>
1. 0</w>
1,4 22</w>
1,4 00</w>
1,3 57</w>
1,3 51</w>
1, 999</w>
1, 972</w>
1, 547</w>
1, 536</w>
1, 50</w>
1, 2</w>
1, 25</w>
1, 141</w>
1, 0</w>
1, 082</w>
1 57</w>
1 51</w>
1 50</w>
1 4001</w>
1 22</w>
1 20</w>
1 16</w>
1 14</w>
1 13</w>
1 11</w>
1 1,4</w>
069 ,
069, 61</w>
00 4</w>
00 3</w>
0. 8</w>
0. 75</w>
0. 6</w>
0. 17
0. 15</w>
0, 8</w>
0, 75</w>
0, 6</w>
0, 15</w>
0, 00</w>
0 -
. ..</w>
-0, 10</w>
- verbindlichkeiten</w>
- speaking</w>
- out</w>
- Verzeichnis</w>
- Noten</w>
- Migration</w>
, 5</w>
, 000</w>
& gt;</w>
