<unk>
<s>
</s>
the
,
.
of
der
in
die
to
and
und
)
(
des
The
ECB
€
on
für
den
a
:
be
von
im
for
will
EZB
auf
%
zu
by
Die
werden
with
an
euro
is
mit
/
Eurosystem
’
s
as
wird
from
das
dem
that
ist
Der
European
at
are
sich
Council
“
In
–
aus
area
million
sind
interest
2014
eine
Governing
Mio
1
rate
has
zur
banknotes
als
its
;
which
dass
monetary
this
über
bei
Europäischen
&quot;
new
2
Eurosystems
um
ein
unter
2013
banks
2015
„
was
am
49
+
national
69
sowie
Bank
their
Union
einer
central
1344
EZB-Rat
have
nicht
SEPA
Jahr
reference
”
EU
Central
Zentralbank
nach
Das
value
all
policy
wie
wurden
2012
hat
countries
also
or
nationalen
can
been
wurde
es
bis
auch
This
Euro
assets
other
it
einen
were
income
website
Zentralbanken
zum
first
these
Im
sie
operations
not
2011
basis
&#91;
Rahmen
diese
&#93;
vom
circulation
under
können
er
2010
oder
2007
Member
billion
2009
should
available
today
vor
Frankfurt
NZBen
financial
rates
Banknoten
counterfeits
neuen
dieser
over
capital
2006
information
&apos;s
November
NCBs
instruments
year
2008
Zinssatz
number
Website
veröffentlicht
durch
States
price
ersten
banknote
www.ecb.europa.eu
Europäische
into
Banken
2005
Informationen
M3
market
ihre
It
growth
10
December
-@@
ihrer
two
stability
20
published
heute
einem
so
credit
For
t
main
4
public
securities
facility
April
one
weiterhin
bank
total
geldpolitischen
ten
reserve
net
haben
kann
Mrd
-
2004
half
Höhe
they
Uhr
25
Euro-Banknoten
Referenzwert
50
January
period
­
below
second
banking
Fälschungen
foreign
Euro-Währungsgebiet
refinancing
diesem
decided
Diese
continue
President
2003
well
EZB-Rats
2002
payment
premises
between
assessment
contact
years
Single
out
effect
points
counterfeit
programme
3
eligible
sein
increased
report
account
following
s@@
please
most
richten
http
than
neue
eines
zweiten
media
Mitgliedstaaten
Medienanfragen
Anteil
Preisstabilität
Banknote
found
time
review
May
Januar
Euroraums
Dezember
ing
Board
Entwicklung
October
end
alle
Präsident
Zusammenhang
September
12
Draghi
zwischen
payments
en
Article
convergence
8
einheitlichen
may
As
about
‑
up
drei
economic
re@@
more
General
requirements
These
5
Sie
three
de
starting
March
Ländern
ver@@
Einführung
Länder
Europa
developments
Bewertung
percentage
Mario
part
amounted
markets
genuine
during
share
framework
Hauptrefinanzierungsgeschäfte
SSM
Verfahren
Stückelungen
2016
gegenüber
take
until
Referenzwerts
test
tel
Artikel
zwei
15
using
Mai
Euroraum
Auf
very
institutions
amount
June
Ende
only
Weitere
criteria
decision
Wirkung
ihren
competition
same
inflation
Regulation
EUR
further
Jahren
per
er@@
compared
allen
Commission
due
single
Sicherheiten
annual
II
lending
1998
use
sehr
design
Es
Herrn
keine
average
S@@
AQR
marginal
system
Daten
Kommission
set
legal
einzelnen
te
Umlauf
Sitzungen
addition
Main
e
exchange
i.e.
statistics
meeting
point
February
2001
p.m.
general
made
Oktober
rund
abgerufen
Frau
press
list
order
März
coins
deposit
Zinssätze
calendar
t@@
work
key
sollte
implementation
mehr
Anforderungen
Halbjahr
Treaty
government
respective
-Banknote
Währungsreserven
sector
Further
quality
services
any
remain
Euro-Währungsgebiets
supervisory
an@@
required
denomination
decisions
31
taken
decreased
Bericht
those
Maßnahmen
transferred
war
ein@@
folgenden
20-
Basispunkte
6
operation
maintenance
increase
Kalender
against
damit
diesen
@
11
queries
At
b@@
anderen
comprehensive
Juni
Executive
currency
System
stress
including
CET
July
9
risks
low
Instrumente
Februar
level
Zusammenarbeit
A
risk
f@@
being
insgesamt
include
gen
Bei
müssen
series
hinaus
h@@
½
aller
waren
regard
ensure
would
k@@
T@@
collateral
Wertpapieren
ab@@
months
details
balance
some
MEZ
Einklang
100
Sitzung
Geldpolitik
no
en@@
13
debt
loans
m@@
bereits
said
Beschluss
accordance
dieses
cooperation
aus@@
50-
EZB-Website
Teil
deren
gegen
ed
responsible
both
who
make
adopted
data
ungen
MFIs
place
Statute
procedures
ung
languages
Prüfung
Konvergenz
2017
provide
changes
Anzahl
Mersch
costs
events
beschlossen
Supervisory
beiden
Zahl
liquidity
2000
such
Banka
within
All
Community
gesenkt
wenn
22
Report
long-term
policies
subject
particular
Risiken
F@@
trend
potential
sollten
ESCB
relevant
ge@@
K@@
a.m.
Zeit
Änderungen
jeweiligen
Gemeinschaft
necessary
respect
Milliarden
included
übrigen
settled
each
erhalten
Jahreshälfte
sollen
current
support
Lithuania
Tabelle
Einlagefazilität
arising
professional
st@@
Programms
Europe
money
Mr
1999
NCB
verteilt
conditions
provision
tender
w@@
Verordnung
country
Analyse
Dieser
gemäß
together
000
500
Juli
gefälschte
einheitliche
Spitzenrefinanzierungsfazilität
issued
ge
currently
Amtssprachen
withdrawn
They
d.
Verkehr
be@@
prices
group
Banks
breakdown
7
gesamten
asset
ent@@
EPC
people
progress
given
them
un@@
GDP
Mit
important
ecb.europa.eu
h.
fees
possible
around
future
dazu
analysis
Darüber
monetären
but
France
had
mainly
there
erfüllt
bekannt
Yves
17
Umsetzung
profit
19
embargo
meetings
therefore
leicht
berücksichtigt
process
when
Slovakia
ab
staff
measures
Sperrfrist
Anpassung
used
Unternehmen
Strategie
recent
held
16
nur
Latvia
counterfeiting
Transmission
lag
card
steht
Prinzip
announced
tasks
zugrunde
purchase
past
Litauen
Rückstellung
Um
besteht
2018
in@@
Journal
Convergence
Regelungen
BIP
Verfügung
Official
60
members
umfassenden
need
Governors
takes
member
introduction
Days
p@@
supervision
Securities
insbesondere
Konvergenzbericht
Ver@@
strategy
building
However
Slowakei
periods
Kapital
ation
hinsichtlich
Veröffentlichung
gering
weitere
gains
exhibition
Programm
rules
Cultural
n@@
full
regular
Entwurf
Aufsicht
noch
underlying
30
after
where
sechs
während
Stadt
Beurteilung
high
D@@
Alle
closely
Außerdem
entsprechenden
provided
Latvijas
authorities
Dies
works
international
losses
langfristigen
SMP
term
earned
course
institution
Nach
ungs@@
Mechanism
worden
Bezug
phase
table
ts
Amtsblatt
derzeit
proposed
folgt
recognised
e@@
Verzeichnis
official
Monetary
stellt
Rückgang
Systems
medium
construction
Märkte
18
namely
Aufgaben
six
Betrag
vor@@
Payments
overall
Press
abrufbar
many
how
New
related
Falschgeld
expenses
Aus@@
medium-term
Programme
10.00
date
expected
holdings
ihr
role
Over
-Banknoten
covered
Europol
portfolio
purchased
seiner
Greece
sch@@
equipment
Estonia
öffentliche
see
EBA
minimum
l@@
Markt
next
ern
now
denominations
Grundlage
aufgrund
zuständig
al
Information
accounts
jedoch
remains
voting
untersuchten
August
To
Erweiterten
paid
results
Rats
soll
B@@
aber
Zeitraum
Monaten
counterfeited
muss
apply
conference
features
Economic
beliefen
sp@@
EU-Mitgliedstaaten
Wettbewerb
finden
5555
regarding
technical
Er@@
able
own
Wertpapiere
einschließlich
procedure
ende
Geschäfte
however
State
shares
Miltényi-Torstensson
eingeführt
r@@
continues
On
our
stehen
City
i@@
Mindestreserve-Erfüllungsperioden
cultural-days
way
dies
Meetings
Satzung
Bedingungen
erste
Eszter
Großmarkthalle
belief
L@@
through
easily
while
Echtheit
significant
Lettland
Erstellung
experience
look
d@@
festgelegt
lich
obtained
echten
seit
retail
zusammen
lower
If
unchanged
Abschreibungen
received
8034
become
N@@
Absatz
da
enthält
pro
wobei
Beschlüsse
Durchführung
present
ihres
claims
E@@
tier
Stellungnahme
eligibility
purpose
reduced
Bevölkerung
standing
result
remuneration
proportion
Area
geprüft
start
Annahmen
Ergebnisse
Aufsichtsmechanismus
R@@
bleiben
Pressekonferenz
H@@
means
Euro-Banknotenumlauf
Hinblick
standards
seine
jeweils
Staaten
directly
conducted
enden
Kulturtage
Institutionen
li@@
21
ohne
Forderungen
Estland
29
since
Zentralbankpräsidenten
ecb
erhöht
already
öffentlichen
note
administrative
Jahre
Behörden
machines
exercise
‒
weiter
case
above
gold
Präsidenten
0.25
Anstieg
direct
Kon@@
ERM
receive
Linie
systems
Schuldtitel
opinion
gehaltenen
Währung
Was
M@@
al@@
erster
&apos;
Greek
Eurogebiets
specific
includes
matters
provides
Münzen
Friday
beschloss
areas
ti@@
Ireland
liegen
siehe
somit
durchgeführt
C@@
month
man
gefälschten
participating
g@@
agreed
deutlich
unverändert
An
html
Herr
do
gegeben
various
umfasst
Qualität
police
US
24
Standards
P@@
innerhalb
described
Umfang
taking
sowohl
gezogene
I@@
Wie
Gemäß
Direktoriums
Mitglieder
Euro-@@
Freitag
Geldmenge
commitment
previous
Auch
Rat
consistent
Land
must
Zinserträge
rechtlichen
Stresstest
Vor@@
hatte
goods
1,@@
ar@@
known
method
With
aggregate
integration
recovered
In@@
Dienstleistungen
criterion
based
deficit
verschiedenen
Kriterien
fiscal
Hungary
ESZB
E-Mail
d
before
practice
Fortschritte
devices
fixed
Falschnoten
List
needs
u@@
Änderung
if
security
auf@@
indicators
teil
ch@@
size
exposures
manufacturers
häufigsten
accounted
still
Wirtschafts-
10-
ä@@
Mitglied
ert
gewährleisten
Vertrauen
on@@
third
betrug
world
Rolle
MFI
enthalten
Bereiche
Angaben
geltenden
Veranstaltungen
recorded
Banking
Ankauf
dar
deposits
person
Ein@@
Anwendung
adjusted
Bedeutung
Beginn
context
International
Interpol
final
allem
NZB
private
Er
consolidated
sheet
An@@
line
confidence
ANFA
G@@
einige
every
Annual
Zeitpunkt
ebenfalls
Organisation
200
internationalen
ted
zugelassen
law
sonstige
assumptions
established
Monday
nämlich
mindestens
Kürze
ul@@
i
ob
Tel
Schritt
lagen
vergangenen
transfer
step
conferences
incurred
least
raised
Kartenzahlungen
More
Kandidaten
Arbeit
fully
n
Parliament
simple
Eurogebiet
aim
Einzelheiten
Pressekonferenzen
comment
Allgemeine
parties
Banque
ate
Währungsunion
Rechnungslegungsgrundsätze
households
Geräte
event
stellen
Ziel
betrifft
indicative
concerning
Kunden
industry
I
statements
Eine
revaluation
Montag
CET1
inter@@
efficient
Sicht
erforderlich
Wochen
Referenzzeitraum
um@@
majority
Portugal
Bestände
übernimmt
adjustment
prepared
Kosten
vier
außerhalb
Phase
reporting
privaten
Vertrags
unterstützen
Beschlüssen
bankas
über@@
definition
During
si@@
el@@
across
erstellt
help
ly
statistical
b
considerations
Kategorie
introduced
Constâncio
establishing
cover
geldpolitische
zwölf
transfers
monitor
Gewährleistung
Deutschland
teams
non-financial
ergeben
Jahres
calendars
then
release
organised
Kredit@@
Trichet
machen
infrastructure
weeks
once
tilt
erläutern
Entwürfe
Euro-Zahlungsverkehrsraum
Harnischfeger
cash
candidate
y@@
ent
Bilanz
evidence
higher
Einlagen
Gewinne
WKM
Vítor
ale
operational
websites
Reihe
music
architects
Überlegungen
überprüfen
velocity
Financial
CULTURAL
e-mail
Überprüfung
category
diesbezüglichen
th@@
g
enquiries
sten
Ein
corporations
show
section
four
erfüllen
Kreditinstitute
darüber
Gruppe
transparency
0.50
Uta
consultation
Regeln
Beitrag
gibt
Abschluss
Allerdings
customers
DAYS
economy
his
Following
kommen
prepare
Sinne
Irland
Bundesbank
verglichen
request
1.
Öffentlichkeit
rechtliche
Jean-Claude
europäische
Premises
ratio
Wednesday
Insgesamt
assess
5057
impact
unrealised
Project
Latvian
close
Ernennung
distribution
Duisenberg
rät
issuer
decline
Abweichungen
Transparenz
halten
check
Jury
project
ter
open
Auswirkungen
National
purposes
Award
entfielen
Agency
wirtschaftlichen
folgende
Welt
site
feel
283
heutigen
Reserve
Kapitals
follow
jury
Fragen
developed
Verbindung
alert
Basis
FEEL-LOOK-TILT
management
W@@
nach@@
Grossmarkthalle
United
figure
beim
whether
participants
Riga
80
notes
Spain
students
follows
derived
em
darauf
document
erte
lassen
dann
SEPA-@@
assessed
Integration
davon
figures
increasing
small
ence
Lastschriften
successful
dessen
Anteils
output
either
gezogen
liche
gt
de@@
bezüglich
ahead
eng
detailed
ger
Malta
Ausstellung
lo@@
Architekten
a@@
weit
relationship
Euro-Münzen
When
towards
Krone
erworbenen
l
geben
zurückzuführen
Germany
14
large
deviations
zu@@
00
setzen
ihnen
concept
Einkommensumlaufgeschwindigkeit
einfachen
Überweisungen
institutional
Z@@
liegt
Geldschein
gegebener
monthly
ch
upon
suspect
Übertragung
Frankfurter
migration
Net
c@@
according
Monat
23
öffentlichem
bond
Aufwendungen
Währungs-
positive
verfügbar
genannten
ische
Zahlungen
labour
Österreich
übertragenen
treten
8@@
rights
Framework
you
effective
change
funds
Hersteller
Förderauftrag
ste
echt
beschriebenen
publication
outside
sichergestellt
sonstigen
Ebene
adoption
activities
Bankensektor
Frankreich
unter@@
business
Nouy
Neubau
denominated
nächsten
planning
se
HICP
levels
Slovenia
authentication
tige
ers
Benders
unterstützt
Sachanlagen
non-regulated
Einwände
via
counterparties
RWA
entdeckt
Stefan
2,@@
groups
nehmen
Entscheidung
again
listed
Persönlichkeit
Vor
shown
Stability
durchschnittlich
quarter
terms
charges
allocated
europäischen
y
angehören
Gebäudemieten
Kapitallücken
Experten
Millionen
cost
accounting
sicher
compliance
unterhalb
service
is@@
Ausgleichsposten
griechischen
Poland
nimmt
&amp;
version
among
young
handelt
investment
Rates
perform
Personal
erfahrene
Entwicklungen
6321
bid
Ruhkamp
Parlaments
accession
ischen
Nowodazkij
seinen
issue
Elodie
initial
Be@@
revised
principles
structural
advise
mittlere
3@@
A@@
möglich
down
contribution
mechanism
direkt
nationaler
Europa-Serie
right
entitled
Rolf
we
values
Luxembourg
7390
form
Markets
Bürger
anerkannte
So
vorgeschlagenen
fund
ending
Griechenland
welche
konsolidierten
Cyprus
different
Bankfragen
Bankenaufsicht
Statistiken
elle
Orchestra
remunerated
Ungarn
cross-border
Furthermore
Zwecken
cards
ihrem
issues
Einkünfte
confirmed
distributed
view
rental
Angesichts
Potenzialwachstums
Assets
Governor
maintain
indicator
trendmäßige
or@@
Kreditforderungen
experts
Inflation
12-month
authenticity
Belgien
ak@@
vorgenommen
gelegt
domestic
quarterly
does
contribute
ting
regime
Museum
requirement
Re@@
v@@
Zukunft
amounts
gleichen
doubt
ete
Für
Prozentpunkte
1@@
Schuldverschreibungen
eren
Vermögenswerten
thus
ac@@
Bereich
reports
whole
Unverbindlicher
Sicherheit
gemeinsam
Titel
dis@@
equal
common
publish
ary
Finanz@@
Kapitalgesellschaften
Verpflichtung
gelten
macroeconomic
sending
technischen
zweite
Polizei
seen
dabei
U@@
ausgewiesen
weist
jährlich
Durch
shortfalls
eb@@
Websites
gefälscht
internationale
zugelassenen
St@@
erten
dient
initiative
broadly
Hintergrund
Erwartungen
classified
defined
particularly
statutory
rotation
Kraft
Quartal
erklärte
relating
L
efforts
produced
am@@
currencies
Gründung
Neben
unserer
Austria
development
Vice-President
Italy
Erfüllung
Auf@@
Netherlands
Lithuanian
beobachten
Generation
Tag
good
lässt
mandate
14.30
et
tion
Indicative
Vorjahr
gute
di@@
Großteil
it@@
ally
könnte
Merkmale
Definition
subscribed
Zweifelsfall
agreement
zuständigen
Mehrzahl
scenario
component
remaining
documentation
applied
daher
Sachaufwendungen
resulted
gut
Bestandteil
sustainability
Schülerinnen
z@@
Sprache
Zahlungs@@
ro@@
located
Government
nun
Echtheitsprüfung
Bulgaria
arbeiten
cultural
e-@@
ber@@
hohen
Belgium
to@@
Unterstützung
wirtschaftliche
longer-term
concert
Laufzeit
Romania
entspricht
unverbindliche
gedeckter
winning
Therefore
parts
Pro@@
7416
implications
dance
fall
letzten
We
98
chen
wichtige
examined
wonach
Annahme
fi@@
English
stance
Berechnung
Mindestbietungssatz
existing
working
Ronan
under@@
approved
Gertrude
Tumpel-Gugerell
hotline
special
EUROPEAN
ensuring
banka
ähnliche
art
Kriterium
Eva
Nevertheless
harmonised
entnommen
verwendet
Croatia
EAD
providing
97
regards
released
prize
Faktoren
112
weiß
zusätzliche
kon@@
opening
genau
stakeholders
ise
el
additional
integrated
Anteile
27
Asmussen
Kredite
Mitgliedstaat
immer
Sweden
künftige
Geschäftsjahr
Beteiligten
Slowenien
Vizepräsident
neun
bewertet
submitted
Methodik
Kommunikation
tes
resultieren
unterscheiden
weniger
calling
Allgemeinen
—
6925
debits
andere
William
Gleichwohl
tra@@
ter@@
environmental
Sheridan
owing
Gesamt@@
fulfilled
Hotline
coming
even
Japan
co@@
Weise
Zulassungskriterien
ating
Karten
erkennen
jeder
Neubewertung
responsibilities
erreicht
schen
verabschiedet
environment
range
transactions
Lelieveldt
verschiedene
copies
Abbildung
Abwicklung
School
principle
verwenden
EZB-Präsident
anderem
der@@
Finanzstabilität
came
Ergebnis
quantity
achieved
French
sehen
nahmen
Wertpapiermärkte
o@@
certain
Services
cal
Thursday
festgelegten
Staatsanleihen
individual
wir
notwendigen
suppliers
wachsam
less
denen
Pressemitteilung
allerdings
carried
could
Ableitung
große
Budget
Partner
Functioning
4,@@
erfolgen
Vereinbarung
Erhöhung
Waren
Director
Indikatoren
sustainable
Geldmengenwachstum
approach
revision
Peter
decide
Berücksichtigung
vorgesehen
Sicherheitsmerkmale
objections
ad@@
gewährleistet
Bankensystems
weitgehend
Table
Zeitplan
followed
Italien
Den
pay
Notes
erfasst
Students
prozentual
ens@@
Jahresabschlusses
zufolge
ates
Seit
genaue
mittelfristigen
gel@@
le
k
methodology
amounting
situation
elements
launch
ri@@
ESZB-Satzung
monatlich
umfassende
relation
Form
Bauarbeiten
Nutzung
weekly
Beide
Voraussetzungen
angepasst
continued
scheduled
betrugen
Verluste
steps
notice
zwölfmonatigen
Stückelung
Preise
litas
führen
Verbesserung
city
EC
stand
submit
14.00
leisten
communication
Neubauprojekt
Arbeitsweise
neues
Both
Preisen
ausge@@
portrait
publications
culture
findet
ra@@
purchases
Um@@
exceed
views
material
veröffentlichen
extended
ceremony
arrangements
few
Erfolg
aims
selected
adverse
jährlichen
Risk
lichen
non-euro
gilt
Unter
ated
shows
tr@@
ets
budget
prior
Market
publishes
offset
excessive
Tätigkeiten
FÜHLEN-SEHEN-KIPPEN
settlement
annum
tive
Kapitalschlüssel
beginning
Zinszahlungen
call
Statistik
loan
EZB-@@
9.
ot@@
telefonisch
Geschäftspartner
making
sicherzustellen
conduct
o
documents
without
processes
First
Aufsichtsaufgaben
Nettozinsergebnis
Grand
Bulgarien
per@@
monetäre
ISO
performances
status
diesjährigen
Rumänien
day
schaffen
Finanzmärkten
ati@@
implemented
echter
interim
3,@@
größten
Kapital@@
partners
nationale
arbeitet
sheets
Wirtschaft
cases
Ab@@
benefits
englischer
appropriate
Corporate
geht
verzinst
uro
Growth
teilnehmenden
c
Fühlen-Sehen-Kippen
loss
factors
Asset-Backed
übertragen
indem
realisierten
bzw.
sieben
Infrastruktur
energy
Today
bleibt
Spanien
erst
Under
35
ments
sk@@
Ausgaben
richtet
möchte
broad
Liquidität
technische
Republik
Arbeiten
Tenderoperationen
ur@@
Fall
Republic
always
Stimmrecht
ken
Zypern
consumers
Photography
slightly
V@@
degree
gedeckt
Daher
enforcement
höheren
aufgenommen
draft
bonds
focus
ischer
EU-@@
au@@
Emittenten
Finally
light
sub@@
Lietuvos
preparing
Papademos
Zahlungsinstitute
entsprechend
demand
Vergleich
verfügt
took
categories
Other
Total
notenbankfähigen
planned
Smaghi
hold
Held-to-maturity-Wertpapiere
j@@
Rechtsvorschriften
Porträt
F.
non-@@
ali@@
15.
Zu
volle
hin@@
shocks
as@@
APP
Von
Finland
prominent
Bereitstellung
6.
wichtigsten
ded
latest
Lorenzo
respectively
verpflichtet
earnings
Eurostat
Seiten
phased
paid-up
7455
Ausnahme
Vertrag
bestehenden
schedule
betreffenden
ten@@
throughout
Beziehung
et@@
Veröffentlichungen
Jahreswachstumsrate
Polen
2.30
put
Als
uns
ance
ons
Haushalte
Con@@
complete
abgeschlossen
allgemeinen
Subtotal
aspects
Denmark
vollständige
Instrumenten
sufficient
174
ere
Grundsätze
daily
Washington
ed@@
AU
Über@@
form@@
möglichst
weiteren
Account
Zinsen
Resolution
la@@
75
me@@
con@@
pdf
Authority
Situation
distinguished
significantly
achievement
BICs
Presse
giving
real
product
proposal
outcome
Menschen
us@@
le@@
compare
beurteilt
Rechnung
Bini
ermöglichen
shortly
Dänemark
unsere
Anlage
seinem
adopting
33
du@@
du
Sektors
vereinbar
Verhältnis
joins
vielen
Schulen
shortfall
Finnland
Wir
Honorare
end@@
local
O@@
ations
at@@
parallel
Schuldenquote
IT
7316
Gruppen
external
global
ität
Zwischenergebnis
bringen
Estonian
consequence
College
COOP
major
Korrektur
ready
measure
Maria
statistischen
7162
neuer
4@@
Moreover
decrease
directive
exception
Schüler
aged
Volkswirtschaft
success
architectural
Eesti
Paulskirche
wichtig
limited
nutzen
held-to-maturity
mi@@
Jörg
Tier
fünf
übersteigen
calculation
Position
concerned
sondern
Wachstumsrate
Meldung
return
address
laid
completion
NCAs
che
publishing
tigen
Wachsamkeit
wäre
1.@@
D
pillar
ach@@
considerable
-Schein
Accounts
ens
Rechts@@
Nachhaltigkeit
informiert
erung
Abschnitt
Vereinigten
Erträge
Geräten
6451
Falls
estimated
Szenario
institutionellen
gew@@
Paper
functional
Legal
seven
legt
par@@
kommt
Profit
nachfolgenden
Finanzen
Czech
pre@@
relativ
Wochenausweises
zudem
gebunden
scenarios
erneut
enen
joint
accept
Konsultation
schrittweise
künftig
Payment
Währungen
concepts
Statistics
Verdacht
trägt
Preisentwicklung
consist
Monate
Gebäude
Verzinsung
holding
Willem
nächste
pro@@
Chart
five
Aktiva-Qualität
Ljubljana
seitens
str@@
min@@
Kreditgeschäfte
plan
dauerhafter
lauten
eingerichteten
989
noted
Liste
HIMMELB
Taylor
etwa
mittelfristig
zurück@@
studies
Säule
kommenden
statement
improved
Einheitlichen
wishes
access
create
Bekanntgabe
steigenden
wider
geführt
performed
safe
es@@
improve
smooth
Abteilung
relatively
consideration
beitretenden
veröffentlichten
5,@@
falls
stable
examination
requested
performance
After
erfolgt
1,3@@
remainder
concluded
Maß
Sicherheitenverzeichnisses
competent
automatisch
ger@@
Kommentare
field
González
primarily
attention
enhance
Möglichkeit
dieselben
kam
pan-European
Deshalb
Verbraucher
Stabilität
expense
recognise
stützt
eter
nen
Kategorie-2-Sicherheiten
award
far
Kroatien
außerdem
play
all@@
Zweck
stiegen
-Münzen
differences
baseline
force
beispielsweise
ges
gesch@@
allowed
IBANs
Verteilung
Wachstum
annually
Initiative
Königreich
fest
C
Lucas
Schuldner
asset-backed
assumption
give
Zinsaufwendungen
equivalent
understanding
Leiter
scher
Art
machten
Supervision
corresponding
ABS
comprising
marketable
comp@@
Heute
write-downs
Division
Zinsänderungs-
verringert
darin
Personalaufwendungen
inquiries
Auftrag
berücksichtigen
ellen
lediglich
existence
oben
Vorschlag
Some
reviewed
Mittel
Wertpapier@@
catching-up
Defizit
anhand
hauptsächlich
würde
belassen
Mitarbeiter
jüngsten
businesses
presented
EU-Rat
ig@@
legacy
tragen
alen
Festlegung
Aufgabe
Bedenken
act
setting
hosted
concerts
bedeutet
Lieferanten
amendments
HVPI
gefasst
vi@@
Au@@
veröffentlichte
Aufsichtsgebühren
expectations
Mo@@
0
objectives
wenden
erscheint
verdächtige
entweder
aimed
ck@@
EG-Vertrag
early
Weg
Liquiditätsbedarf
assessing
unterliegen
iert
Goldbestände
Zahlungsverkehrs@@
derzeitigen
Anstrengungen
house
Anyone
opportunity
Hinweis
exhibitions
functioning
weighted
sobald
ationen
Förderung
Fassung
gleiche
geb@@
ier@@
90
handling
Jahres@@
requires
jedes
Slovak
legislation
Decision
vending
EEA
Schauspiel
Kingdom
Projekt
types
Dieses
geregelten
hierzu
ant
Each
for@@
angehörenden
wel@@
Bilanz@@
Dementsprechend
annex
adjust
eingereichten
leistete
dollar
begrüßt
principal
users
soon
au
valuation
tiert
allocation
Deutschen
Schweden
Banknotenfälschungen
erungs@@
ermöglicht
treated
Such
maturity
Vorbereitung
history
angefordert
meisten
having
th
ex@@
There
EZB-Neubaus
reflects
Jahresüberschuss
Goldpreisrisiken
Gleichzeitig
depending
improvement
Anschaffungskosten
MoU
Finanzgeschäften
short
reserves
hohe
detected
declared
Bulgarian
Schocks
Dienstag
proposals
issuers
derivation
best
reduziert
enter
nichtfinanziellen
überarbeiteten
gegenwärtig
Haushalten
seminar
similar
evaluation
No
representatives
along
conjunction
ine
erhöhen
hin
dialogue
Publications
Dokument
strong
OTC-Markt
Am
comparison
Verbesserungen
verantwortlich
Secretariat
Musik@@
Konvergenzkriterien
eg@@
high-rise
lists
reflected
ges@@
activity
positions
Gelände
ve
fort@@
il@@
voll
nine
Nettozinsertrag
schemes
identify
zehn
ene
Zu@@
bestätigen
ones
gezeichnete
selbst
plans
Rocío
OTC
ei@@
Mindest@@
essential
bulk
he
Zahlungsmittel
bietet
äußerst
While
teilgenommen
künftigen
clear
Cœuré
ins
angesichts
short-term
union
Mitgliedstaats
standard
Arten
receiving
background
co-operation
Teams
längerfristigen
structure
tliche
Zins@@
Interest
beinhaltet
Wechselkurs-
eigens
intended
fest@@
Anteilen
prohibition
themselves
IEC
durch@@
Kultur
Once
Preis
beginnt
Litas
je
Niederlande
Common
unten
vast
Rotationssystems
Deputy
charge
bet@@
Ausdruck
children
accepted
zusammen@@
Aufgrund
Management
jazz
designed
allows
57
excluding
3.@@
citizens
governments
eight
Internationale
einführen
Comp@@
Zwei
erzielt
Produkte
last
Gewinnvorauszahlung
betreffende
Verwirklichung
designs
Lafitte
Somit
2@@
contemporary
kl@@
schließlich
Falschgeldbekämpfung
owners
Pursuant
tionen
By
surplus
rose
financing
möglichen
Inter@@
establishment
0,@@
invited
gab
ment
musical
gleich
Kunst
Pank
Qu@@
130
Pact
332
27.2
ferner
Equity
ol@@
eben
angefallenen
committed
Fälschungs@@
gen@@
deemed
governance
selection
em@@
zero
126
verbunden
Verlust
kroon
Gütermärkten
resilience
Aussichten
easy
Jürgen
72
11.
ster
lettischen
Wenn
täglicher
kur@@
accessed
0,25
aktuellen
Niels
eln
ties
office
finanzielle
Hard
zuvor
aufgeführt
composition
fer@@
Ziele
quantitativen
Aktiva
carefully
Konzept
Gebiet
control
grenzüberschreitenden
limit
Schaffung
Verlusten
adaptation
Sch@@
Al@@
duties
Netto-Finanzanlagen
Geldmengenaggregats
8.
commercial
deutlichen
großen
ß
Marketable
calculated
86
excluded
joined
debtors
Ferner
widely
Zuteilung
remained
tions
Migration
Beziehungen
nichtfinanzielle
verdächtig
met
ass
maintained
Distribution
Teilnehmer
Sicherheitenverzeichnis
gestellt
Notwendigkeit
tet
marks
Auffassung
Stelle
Institute
Leitung
Audit
allotment
Abschlag
compiling
Gestalt
bau@@
amended
ender
ht
kB
analyses
forms
tion@@
González-Páramo
37
Konvergenzberichte
geringen
E
Verwaltung
185
Leitlinie
121
p
jede
Kippen
visible
zi@@
Wettbewerbs
bestehen
Anhörung
facilitate
13.
bare
Card
TLTROs
tischen
festgestellt
Centre
come
Danièle
Preis@@
comply
uss@@
Národná
uses
führte
Polizeibehörden
beschrieben
verb@@
marginalen
Group
Kurs
foreseen
Geschäftstätigkeit
Haushaltsdefizit
supports
Zeichnung
high-level
gradually
100-
Nähere
subscription
Wettbewerbs@@
Kreditinstituten
welcomes
eingehalten
men
needed
Regierungschefs
teilung
satzungsgemäßen
Banknotenbearbeitung
Schritte
trigger
Teilnahme
adding
Guideline
dritten
fundamental
buchmäßigen
action
realised
Slovenska
Realised
zen
erwartet
Manuel
kosten
annexed
Ges@@
ec@@
voraus
introduce
protection
ci@@
especially
Zahlen
Eigentümer
fl@@
Together
acht
13@@
resources
eten
5.@@
mark@@
winner
besser
962
whereas
vote
mythology
ends
Deutsche
217
unverzinsten
Lauf
gebracht
geeignete
0.@@
3.75
Balance
erneute
depreciation
Mr.
op@@
concerns
newpremises
Tuesday
ag@@
406
contributed
Herkunft
mo@@
Notenbankfähigkeit
Stark
forces
position
Beitrittsländer
aten
Our
zurück
20000
rise
TARGET2-Securities
sets
eingezahlten
Prozess
school
530
Head
Vorteile
gemeinsame
Da
Absicherung
MTS
yet
adversen
notwendig
Rahmenverordnung
certification
y-@@
Anhang
Bau@@
enthaltenen
Antrag
Bestimmungen
Reservefonds
ff@@
Grund@@
fallen
exp@@
ented
entwickelt
könnten
coll@@
großes
res@@
struktur
Einrichtungen
fragen
lange
Eurotower
bevor
Beitritt
erwarteten
Veränderungen
Benoît
dürfen
Gemessen
fulfil
launched
realen
umfasste
Während
allow
former
Dr.
abzüglich
balances
Elemente
unterzogen
Stimmrechte
outstanding
classical
verified
40
Umfeld
partially
ü@@
highlights
Zinsertrag
Depreciation
substantially
hingegen
Runde
enger
0.5
schließen
17.00
Erweiterung
reform
Italia
Marktwert
aufgefordert
ser@@
applicable
4.@@
Accordingly
notenbankfähige
sale
Kenntnis
elten
Wechselkursmechanismus
ity
äußerte
none
728
Verbot
valued
mittelfristige
José
because
po@@
substantial
Gewinner
SRM
adopt
vornehmen
Pfandbriefe-style
operating
complies
Marktteilnehmer
thereby
hearing
wodurch
ob@@
effizient
dürfte
vorliegenden
Fühlen
ap@@
reforms
herausragende
Heads
zugeführt
discussions
und@@
Karten@@
Publikation
nis
abgeleitet
fraud
Given
eingezahlt
Sektor
Slovenije
entgegengenommen
Gepflogenheiten
Nettogewinn
Zusammensetzung
erheblich
gross
urban
ausgerichtet
Wer
Wirtschafts@@
Recht
Y@@
Zuge
umgesetzt
niedriger
Jahreswachstumsraten
erfolgte
geändert
genommenen
three-month
Staats-
Two
bereit
sec@@
quantitative
Herausforderung
est@@
Euro-Ländern
prüfen
Markt@@
joining
Finanzierung
generally
composed
sources
liberalisation
Revision
stands
Generation-
longer
weil
informed
S
Sehen
sion
Administration
Bünemann
ds
Euro-Fälschungen
latter
better
Regierungen
364
compliant
beigefügt
Review
befindlichen
Kur@@
Ausschreibungsverfahren
beurteilen
gerecht
Bearbeitung
af@@
page
ue
gehört
Zinsbindung
575
SMP-Portfolio
Runden
bestätigt
adjustments
Geldmengenwachstums
efficiency
Musik
genutzt
tigt
reduction
gehaltene
milestone
Eligible
non-performing
Errichtung
440
Strukturreformen
unverbindlichen
-S@@
reibungslosen
erhebliche
replace
stärken
gefasste
led
EN
thoroughly
Obergrenze
buildings
fördern
ts@@
Since
undertake
Volks@@
elektronischen
culturaldays
su@@
Feststellung
26
country-specific
Seminar
implementing
fulfils
kulturellen
geschaffen
geplanten
17@@
Saarbrücken
amending
ben
entr@@
festzustellen
Gebühren
meet
dafür
ISH
freiwillig
realisation
acc@@
derives
Arbeitsplätze
Buchmäßige
week
Bargeldtransaktionen
packages
adapting
pay@@
employment
manual
Video
Zahlungsinstrumente
independence
represents
führt
De@@
Only
ative
receives
Effizienz
recall
T
Zum
Bank@@
out@@
no@@
Gesamtumfang
Institut
reflecting
teilt
Methode
rech@@
zahlen
From
dargestellt
Widerstandsfähigkeit
70
prudential
Relations
Derzeit
erhärtet
erreichen
ineligible
se@@
sche
Communications
round
deep@@
gem@@
gesehen
Vorschriften
Ressourcen
EUROPA-KULTURTAGE
connection
gleich@@
half-yearly
Court
Überwachung
feststeht
Vertreter
Gewinn-
ably
Neu@@
Unterschiede
Rechtsdienste
Documentation
comments
integraler
aggregates
accompanied
initiatives
crucial
Standort
Rückstellungen
transition
Adresse
rule
Vorfeld
ful
entscheidender
korrigieren
f
programm
www.@@
Zwecke
kurzfristigen
ecb.europa.eu.
Constitution
imbalances
ziehen
Portfolios
307
bisherigen
ar
durchschnittliche
memorial
pillars
einigen
prudence
stell@@
strongly
ganz
Geldmengenaggregat
täglich
billions
MEP
ranking
Friedrich
population
ade
base
verzeichnet
Mitteln
combating
gezahlt
claim
German
Stand
Gegenzug
Führungen
Möglichkeiten
participate
Treaties
normalen
announcing
Sheet
langfristige
det
Zahlungsinstituten
weisen
Einschätzung
Protocol
numbers
Nutzer
än@@
fight
zwar
171
Umstellung
Loss
mehrere
board
gezeichneten
ef@@
debt-to-GDP
operators
mögliche
7,@@
Ungarns
Geschäftsjahres
tig
Einkünften
Chair
anzu@@
Voraus
supervisor
social
offer
ars
symbol
resolution
Language
ausüben
eh@@
quoted
gemeinsamen
Informations@@
Monthly
holidays
solche
EWR
Mrs.
EZB-Neubau
ents
EMU
erfolgreichen
Nr.
Eurogroup
Refinanzierungsgeschäfte
Landes
Anfang
m
stammen
Mindestreserve-Erfüllungsperiode
gene
lose
Wasserzeichen
tor@@
widerspiegeln
IBAN
EZB-Publikation
bestimmte
Dabei
anfänglichen
rating
blieb
innovative
erworben
programms
erweiterten
affected
electronic
gehören
Inflationsrate
ecb.int
direkten
ass@@
Komponenten
Leitkurs
estnische
maintaining
Auswahl
Besuch@@
Gesellschaftshaus
lettische
beziehen
einstimmig
advance
Werte
betreffen
einzureichen
reflect
updates
companies
portfolios
Mit@@
Europas
17.
Gedenkstätte
correct
15.00
According
AN@@
Russia
leaflet
Banknotenbearbeitungsgeräten
Bekämpfung
aufzu@@
calls
stood
charities
w
Planung
gesamte
ess
vollständig
Wert
transferring
Commercial
location
Resources
isches
EZB-Bilanz
confirmation
Treasury
Against
besonders
euro-denominated
bieten
ung@@
Bis
glich
devalued
wei@@
markt@@
envisaged
landscape
zeigen
Forderung
Empfehlung
Pēteris
Staats@@
entsprechen
bedeutende
ma@@
politischen
training
einzige
innen
Erfahrung
adequate
Note
Glaubwürdigkeit
ABSPP
Vertretung
166
0,7
weit@@
Remuneration
diesbezügliche
Stichting
regulären
Rubrik
beaufsichtigten
Emittentengruppe
satisfied
Verfassung
Dialog
treffen
mittleren
Bargeld@@
tors
den@@
item
Jahresende
entscheiden
darstellen
separate
Personen
properties
developing
Arbeits-
ous
berechnet
Vienna
vis@@
grounds
Zeit@@
Ansicht
blind
several
Unrealised
signed
strategic
consists
achieve
beitragen
provisions
SEPA-Instrumente
intervention
yesterday
te@@
what
ausgegeben
verbessert
ure
bes@@
agencies
Zahlungsinstrumenten
treatment
sel@@
Vereinigte
enten
critical
processing
Memorandum
Betreiber
questions
outlook
0.7
ess@@
Sp@@
dedicated
entered
Stresstests
get@@
Hologramm
ECOFIN
exhibited
two-@@
abgewertet
Sekretariat
weise
Regel
hand
Palmengarten
Buchstabe
319
erzielte
fixation
downloaded
Verglichen
6.2
Banknotes
Nur
adapt
befindlicher
überwiegende
declined
Aus
fac@@
voluntarily
Verlustrechnung
2.75
ausgeglichen
Zielen
bilden
ing@@
verbundenen
transitional
gesamtwirtschaftlicher
identified
Sitz
ir@@
Deckung
akzeptieren
Theater
bereitstellen
expenditure
stock
we@@
Vertretern
Banken@@
Tschechischen
klar
dated
sorgfältig
Prägeanstalten
totalled
zurzeit
free
längerfristige
Richtlinie
watermark
Concert
Nettozinserträge
difficult
Umwelt@@
harmon@@
3.25
geringfügig
Le
secondary
fee
beizubehalten
ESRB
Federal
imperative
1.3
integral
bestehende
Directive
selben
Bilanzen
verzinsliche
Mythologie
erforderlichenfalls
nachdrücklich
E-@@
opportunities
Number
Geld@@
sofern
Credit
prevent
Massenzahlungen
Despite
Human
betrachtet
umfassen
undertaken
www.new-euro-banknotes.eu.
gende
lu@@
elte
auszu@@
Recommendation
fre@@
Augenmerk
chosen
Zahlungsdienstleistungen
mid-range
tours
candidates
dra@@
whenever
Meilenstein
ages
OLAF
Leistungen
sation
impairment
J@@
cooperates
checking
suspicions
stage
Kapitallücke
spezifische
vorzulegen
GLRGs
capacity
Quality
monitored
Teilen
sting
Zur
elt
Euro-Geldscheine
287
Geschäftspartnern
Protokolle
konsolidierte
1,5
44
begeben
materials
welcome
verbessern
unterschiedliche
issen
appreciation
Rund
hologram
Ex@@
considered
tur@@
28
transparent
diversity
jetzt
protocols
approximately
contain
leading
1.5
nachhaltige
he@@
unabhängig
addressed
So@@
aktuelle
Taking
Gemeinschafts@@
tä@@
Grundsatz
Neue
Vorbereitungen
kit
musicians
tenders
*
5,5
ters
serves
Schutz
Eurogruppe
lich@@
Geldpolitische
continuation
representative
reg@@
0,50
independent
capitalised
relate
soweit
eri@@
decken
red
50@@
Charity
Insbesondere
lautende
Price
comm@@
Datenbank
Liberalisierung
enti@@
readings
Ergebnissen
ebenso
lauf
Aufsichtsgremiums
zeit
entail
benefit
expanded
h
5.5
sts
23.
Saint-Joseph
ans@@
integrierten
UK
0,05
übermäßiges
vierteljährlichen
flächen
BIC
Gesamtrechnungen
K.
ad
207
architecture
WWU
largely
Stimmen
Eigenmittelportfolio
vacancy
gn@@
wor@@
effektive
memorandum
issuance
Feier
Betrugsbekämpfung
472
sions
besch@@
-0,20
französischen
Aspekte
keinen
av@@
risiken
gradual
ör@@
Georgas
715
einheitlicher
sor@@
suspects
48
417
temporary
Blinden
Schatzanweisungen
ordnung
Tage
bar
quanti@@
abgewickelt
Ausgabe
Spiele
erfolgreiche
herangezogen
gefassten
gives
6594
Ungleichgewichte
ings
barriers
Prometheus
hoher
ergebniswirksam
Geschäfts@@
Ausstellungen
Interne
obigen
54f
Stärkung
Sobald
ativen
Polens
liqui@@
Refinanzierungsgeschäften
berichtenden
sing
Ilmārs
ks
entwickeln
443
folgen
genießen
errichtet
8320
Portfolio
Publikum
ansässigen
origin
Nationale
eigenen
Steu@@
dienstleistungen
Ciney
teilen
krone
Faktor
angekündigt
Wunsch
showing
land
nieder@@
Vorsichtsprinzip
gender
unconditional
einfach
possibility
administrations
fulfilment
regelmäßig
flexible
tete
junge
Stabilitäts-
market-@@
Ton
Haushalts@@
wirksam
soloist
Gesamtindikators
Radio
3.5
Berlin
difference
Leben
fördert
bedingungen
vergleichen
Über
G10
ving
erläutert
horizons
fact
unk@@
Politik
British
Capital
Bruttoinlandsprodukt
Breakdown
42
addresses
acknowledged
Und
anfallen
DC
itSMF
hervor@@
Ms
KULTURTAGE
vorzunehmen
Schweger
name
Banknotenumlauf
eingereicht
ums
orchester
376
Compagnie
Bankenaufsichtsbehörde
71
towers
Hamzah
Bulletin
amortised
jährigen
Aufsichts@@
tim@@
7457
Hierzu
reached
0.05
115
RE@@
Istituto
Oper
Einfluss
practices
examines
jährliche
upward
Anmerkungen
Risikokontrolle
dar@@
verhindern
u
ensemble
fell
application
pages
290
besondere
agen
64
tools
verringerte
testing
Instituten
Les
us
Vielfalt
Zveza
3.00
residents
49.3
Groundscraper
trat
Hochhauses
Leistung
handeln
Zahlungsverkehr
Permanent
verabschiedeten
display
cre@@
Ä@@
announce
achtprozentigen
Ludmil
Sicherheitenrahmen
Assoziierte
Internal
assigns
lan@@
Durchschnitt
reason
wichtigen
3,5
Ehrlich
Coop
vorgelegt
Zertifizierung
communities
334
Sabine
Plan@@
nahe
setzt
instrument
Fälschung
consumer
negative
cl@@
modern
sighted
adapted
Kunden@@
führ@@
completed
437
häufig
ard
tz@@
findings
EBU
earlier
Freiverkehr
4.5
beeinflussen
abzugeben
ect
D.C.
statt
expenditures
Infolge
653
variety
added
Nachstehend
strukturelle
Verwaltungsaufwendungen
Beträge
previously
366
closing
Einhaltung
erforderlichen
jener
impaired
hoch@@
Trésor
gu@@
Entwürfen
extremely
rä@@
Gelegenheit
clearly
Reg@@
0,5
lä@@
applications
bedarf
Zudem
side
-Geldschein
Banca
finanz@@
organisiert
grenzüberschreitende
Committee
eszter.miltenyi
Proz@@
yen
involved
theatre
annehmen
rück@@
Zwölfmonatsdurchschnitt
weiter@@
unless
litauische
add
eingerichtet
aggregierten
participation
ich@@
auses
aufweisen
attached
Geldscheine
tun
lichkeit
positionen
ght
Mittel-
Voraussetzung
bil@@
applying
Anfrage
erfassten
isse
Beitritts
Test
ECJ
Aufbau
entire
spielen
biggest
Barcelona
wi@@
informieren
besten
late
analysed
communicated
400
Danish
almost
wiesen
components
434
sieht
speeches
Fax
Gebäudes
exact
Regarding
sodass
Ch@@
1,6
85
Kategorien
beinhalten
Kalenders
7404
klar@@
1344-@@
Until
prudent
Untersuchungen
nahm
Her@@
models
tions@@
showed
stay
refinanzierungsfähige
hohes
4.25
reich@@
modernen
keines
normal
gewöhnlichen
ICH@@
zeich
Dank
M
sen@@
SSM-Rahmenverordnung
presents
ELA
19@@
bestimmten
Verträgen
-up
ves
griechische
Made
genommen
wichtigste
Parlament
dit@@
composite
mechanistically
geregelter
nische
sed
kept
Inflationsentwicklung
stehenden
arithmetic
letz@@
photographs
Übergang
Solidität
applies
externen
ierung
Verwaltungen
modalities
offen@@
Nettozinseinkünfte
übersteigt
helfen
klassifiziert
Colegio
Darmstadt
EuGH
approval
run
collection
unweighted
oberhalb
Direktor
acceding
wieder
Bau
codes
größ@@
6@@
800
mat@@
Beschränkungen
äch@@
995
Ausstellungs@@
Year
vali@@
angemessen
Engagement
objective
sicheres
340
ord@@
kamen
Several
teachers
633
supervise
Thema
wesentliche
gestellten
age
www.generationeuro.eu
277
beyond
Damit
Behandlung
Rahmenwerk
Arbeitsgruppe
trust
-0.20
collected
58
Rimšēvičs
path
ulation
Banco
hierbei
tigkeit
Konvergenz@@
finances
Einrichtung
gemacht
workplaces
Zunahme
getroffen
responsibility
herrühren
Funktion
Euro-Zahlungsverkehrsraums
zunahm
volumes
Welteke
gre@@
everyone
-Scheins
Donnerstag
Gymnázium
Mehrheit
stark
Swedbank
ability
pr
11.30
Consumer
har@@
keep
credibility
isch@@
Details
supplementary
her@@
ante
game
Risikomanagement
erkennt
Serie
protect
delivery
projections
Analysen
templates
Grundstein
conc@@
ER
ES@@
Falschgeldaufkommen
zeit@@
theme
becomes
sees
fes@@
Referenzjahr
awarded
reconfirm
229
audited
organisations
groundscraper
Stellen
Book
werk
emphasise
Write-downs
example
alität
find
161
Verwendung
uncovered
beobachtet
signal
ely
Infrastrukturen
centrale
patronage
Catherine
unique
ö@@
fe
welcomed
Klaus
bewer@@
Garanten
gemessen
EZB-Mitarbeiter
Unter@@
prijateljev
films
plus
Gemeinden
kosten@@
EZB-Direktoriums
Bürgerinnen
limits
B.
CP
beitritt
rich@@
ile
uli@@
tritt
ank@@
Absch@@
ang@@
Erreichung
est
Herausforderungen
60311
lage
IG3
Aufsichtsgebühr
bt
qualitativ
sound
geprüften
effektiven
partly
model
95
strength
closer
ausgewählt
forderung
US-Dollar
en-@@
Himmelb
gingen
Einzelhändler
ru@@
Alvis
Marktfähige
liabilities
dec@@
gkeit
192
vorhergehenden
retailers
TARGET2
verzeichnen
wirtschaft
starken
linked
emerging
detaillierte
regulated
Verbreitung
om@@
go
ening
permanent
announcement
renewed
pass@@
vorgesehenen
Differenzen
immediately
challenging
ry
dien@@
van
photography
anbelangt
anschließend
Inn@@
eit
Angelov
thorough
Finanzinstitute
seines
gh@@
R.
non-monetary
enhanced
non-credit
hal@@
68
Umwel@@
scheme
preparatory
Konvergenzprüfung
verfolgt
deli@@
XY
Gebäude@@
Groß@@
2.5
wesentlichen
Zuteilungsbetrags
ich
geschlossen
obligations
miteinander
ants
conducive
fied
Sprachendienst
vorläufi@@
Aufholprozesses
pl@@
Vergangenheit
Restbetrag
Athen
Erläuterungen
BTF
wer@@
Schlüssel
considers
Long-term
audience
G-10-Ländern
1.00
safety
prizewinners
Richtlinienvorschlag
gerne
Fremdwährungsbestände
beginnen
CBPP3
weiten
zieren
beibehalten
Maße
52
team
profession@@
Dadurch
IV
zentrale
erscheinende
Koordinierung
ausdrücklich
ASP
32.5
Positionen
expects
Understanding
ITSM
Preisträger
lines
Trans@@
Representation
Radoeva
Dublin
Ge@@
316
interpre@@
HRGs
soprano
Ernst
ational
tre@@
zulässigen
Säulen
Praxis
Ausrichtung
nahme
voll@@
T.
Finanzmarkt@@
firms
2,5
trésorerie
unanimously
Bestätigung
Praktiken
erwiesen
Bartók
gte
sin@@
Wettbewerbsphase
Dennoch
erk@@
Choir
SEB
Neubewertungsgewinne
pressures
festen
Start
überprüft
mladine
Verbraucher@@
harmonisierte
ation@@
laufende
allein
old
ell
event@@
US-Dollar-Portfolio
wirtschaftlicher
wo
3.50
Ankäufe
.5
ze
Aufnahme
architekten
fir@@
bereitgestellt
Russland
Gravity
elf
aufzunehmen
Handbuch
amendment
Genuine
entering
experi@@
MROs
gauges
trusted
Inflations@@
legen
ek@@
gründlich
verbesserte
965
pp@@
ological
package
phasing-out
_
Detailed
increases
stri@@
teil@@
besonderes
Verkaufsautomatenindustrie
geldpolitischer
Short@@
tigung
guidance
Bons
Abstimmung
ehemaligen
Agreement
Reinis
Anbieter
2.@@
definiert
element
Looking
desire
type
generationeuro
Erfüllungsperiode
Sonderstatus
Jürges
things
Kinder
Andrea
Schatzwechsel
Philippe
keinem
lasting
ses
broad@@
bel@@
Charity-Konzert
8334
window
potenziellen
Prin@@
zeichn@@
signalisieren
teilnehmen
marktfähigen
!
Kartensysteme
sta@@
höhere
ierten
lang
hält
reducing
greift
beträgt
video
Vorsitzende
recognition
liegenden
ceiling
359
Mints
mine
sti@@
Eröffnungskonzert
language
timeline
Luxemburg
billets
reported
Gewichtsanteil
Grund
654
Nationalbank
hatten
sichergestellten
Rückzahlung
essi@@
assi@@
555
guided
Protokolls
counterfeiters
breit
je@@
fällig
ited
Nadia
346
Palikarov
extent
ausgegebenen
begonnen
tiger
fil@@
Praet
scale
Tetris
re-@@
pieces
Gewinnen
elektronische
bezogen
improvements
erh@@
tigten
ungewichteten
litauischen
beabsichtigt
Gewinnerteams
Tanz
organisation
ente
ho@@
finalisation
ill@@
Grigor
415
fordern
Roos
Rahmens
31.
Jazz
bedeutender
Asset
Lautenschläger
That
Honoraren
gewinnen
preliminary
140
option
81
Yen
Vagelis
verlieren
tieren
Kultur@@
regulation
index.de.html
interested
Trotz
tig@@
Schließlich
games
enlargement
187
Yeang
Berichts
größere
Inflationsraten
Informationsmaterial
arrangement
develop
europäischer
Aufwertung
z
perspective
ran@@
artists
Abschlusskonzert
ously
verteilten
entities
posed
foster
Falschgeld-Analysezentrum
dre@@
analysiert
1,3
Or@@
Fotografie-@@
productivity
Athens
symboli@@
DNB
Beispiel
arithmetischen
importance
I-29
trends
intends
ermittelt
orientation
stieg
Ständige
Umständen
positiv
Bislang
Kategorie-1-Sicherheiten
overwhelming
posted
hegt
ft
Fotografien
halbjährlichen
ange@@
endet
ach
r
erhaltene
obwohl
advanced
anten
BTAN
Hans
ver
Studien
ow@@
CDCR
state
inform
Liquiditätskategorie
Nach@@
ESZB-@@
your
programmes
Mandats
Komponente
internal
Nun
36
träge
oper@@
technological
lie@@
stellung
products
Japanese
sicht
Speira
dritthäufigsten
conducting
Stellenausschreibung
trendmäßigen
Hermanis
intention
Große
tool
Informationssysteme
movements
hall
ür@@
entsprechender
onen
Faltblatt
Stand@@
Nachfrage
facts
kun@@
Un@@
later
voraussichtlich
Organ@@
verti@@
mess@@
Abständen
resulting
redemptions
raums
unterschieden
summer
co-ordination
challenge
Gesamtheit
Anleihen
befürwortet
Produk@@
ev@@
Leit@@
ben@@
atic
tur
Aufwärtsdruck
gesamteuropäischen
einzigar@@
ensured
ging
direction
Background
jedem
Jumbo
gten
begrenzen
priority
occasion
writing
itä@@
hum@@
integrity
exposure
meistern
zusammenarbeiten
1,220
ersetzen
Ansatz
begrenzten
haircuts
präsentieren
letztlich
ened
Netto@@
www.new-ecb-premises.com.
whom
circumstances
verage
extensive
erhält
begebene
acquired
Marktzinsen
me
organis@@
community
.3
regi@@
well-made
specifications
Basisszenario
niveau
eng@@
Liquiditätskategorien
Banknotenumlaufs
Dutch
Chamber
viel@@
schreibt
appointed
0.4
le-@@
Ober@@
fewer
tor
vorhanden
threshold
insp@@
quickly
Mehr
qu@@
d-@@
enabling
befristeten
3,8
funktionieren
conventions
Verbraucherpreisindex
spiel
institutionelle
?
Verfahrens
alia
ish
pace
tere
überwacht
angen
331,000
Zusammenfassung
gehalten
days
uncertainty
34
18.
starts
automatically
Stellungnahmen
Vorlaufeigenschaften
Accession
flexibility
Vasks
Now
entscheidet
kraft@@
DER
contains
Ben@@
Mayor
Harmonisierten
stattfinden
zuzuführen
prizes
ari@@
1,108
initially
supervised
stattfand
mittel-
Members
standardi@@
fourth
Policy
Ensemble
Zinsstatistik
erhoben
nature
Zahlungsverkehrsinstrum@@
1.25
bereit@@
anti@@
gehabt
pre-booked
Listen
consolidation
regul@@
database
Erste
dat@@
sorgen
proved
Samm@@
eingesetzt
Index
beigefügten
halt
zusammenhän@@
empfehl@@
fostering
Standardi@@
going
gegebenenfalls
Unterzeichnung
nah@@
disclosed
decisive
allotted
verk@@
bulgarischen
ascending
inc@@
Nettoeinkünfte
geführte
heading
Schwellenwert
offi@@
aufge@@
vollständigen
Räumlichkeiten
rahmens
tn@@
verbesserten
erstreck@@
umlaufenden
gain
Energie-
Eigenkapitals
entation
planmäßig
adequacy
erreichten
59
DT@@
deputy
chan@@
Hinweise
reibungslose
indicates
ungsmaßnahmen
España
Sicherheitsm@@
zusammensetzen
Hrvatska
besonderer
Berichte
grows
echte
serious
ECAF
Marktes
Operations
aufnehmen
associated
Erhebung
kleinere
Every
Kern@@
Sinfonietta
nung
avoid
Entgegennahme
Arbeits@@
laufenden
Tolar
living
schwieri@@
aktiv
qualify
daß
Pen@@
cally
bu@@
Its
Spezi@@
zustehen
tlich@@
Kreditvergabe
orous
bri@@
dennoch
6,2
Vari@@
connecting
Migr@@
Bemühungen
in-depth
A-@@
bring
Finanzmarktoperationen
13,@@
Modelle
objection
Unabhängigkeit
response
besonderen
Kanada
year-end
grat@@
Baum
tax
japanischen
opp@@
Additional
erhobenen
ches
Alter
Abwicklungs@@
core
comparable
violin
früheren
Auszeichnung
Niederlanden
HRG
optimal
Key
zentralen
tätigen
IT@@
customer
Fertigstellung
welchem
Wachstumspakt
heiten
einge@@
internationally
effort
revalued
dritte
qui@@
Schweiz
Artikels
Architektur
Wettbewerbsfähigkeit
Unlike
gestiegenen
14.
room
anschließt
leaving
aktion
200@@
funding
Werts
Ohne
zustellen
803
sichergestellter
erfahren
12,@@
ähnlichen
accrues
define
benchmark
Dobrinka
Summen
Kreditoperationen
well-@@
aktiv@@
spiegelte
Element
Regi@@
3,75
Vizepräsidenten
zugänglich
331
Blin@@
year-on-year
expansion
understand
mittel@@
wirk@@
EZB-Leitzinsen
space
klassische
help@@
leichter
source
sichtlich
cope
respon@@
oren
gung
bre@@
Dat@@
sustained
ensembles
considering
möchten
ko@@
Einsatz
ph@@
verlängert
traditional
gewichtet
despite
Rhine-Main
migrate
dem@@
unveiling
Konsumentenkredite
eu@@
Hinsicht
Partner@@
tern
Euro-W
Zusätzliche
Jahresüberschusses
beachtet
Massenzahlungssysteme
Reden
disclosure
shall
Tatsache
statt@@
favourable
enge
resp@@
formal
-Geldscheinen
multi@@
MRO
getragen
bridge
Folklore
geknüpft
finalise
zugelassene
inclusion
safeguards
genügend
fer
bo@@
dienste
Ausschusses
4,3
CSPP
Litauens
send
Fakten
entsprechende
Symphony
Ausschreibungsverfahrens
Tschechische
Wertminderung
positiven
kriterium
execution
implement
bility
tak@@
os
study
dollar-denominated
vereinbart
pension
Gesamtbevölkerung
a.
Erster
Luminale
Ö@@
neubau
compatible
Barrieren
dadurch
klassischen
sei
Fil@@
do@@
vollem
them@@
Entstehung
parameters
opens
dänische
ausgewählten
gebü@@
6.5
Feiertage
UNGEN
viele
Ešenvalds
Bubills
prä@@
sich@@
hr
ors
Modalitäten
Fest@@
Nationalen
ining
solcher
4.
Informationspaket
10.2
checked
iting
prämierten
well-known
informationen
größte
voller
beschließen
vollen
function
Jede
6,000
done
unseres
sh@@
recht
built
systemen
vergrößerte
Maßnahme
neu
1,00
Nicht-Kreditinstitute
Unterscheidung
recommendations
überarbeitet
useful
moving
markt
Ter@@
OMTs
0,30
competitive
Erfüllungs
Lesungen
Richard
lack
4,1
begins
7,000
Devisen@@
auszuschütten
Exposures
empfiehlt
breiten
handl@@
erter
Bratislava
Voll@@
verläuft
Schlüssel@@
näher
schafts@@
Bankbilanzen
ris@@
beschränkt
Ausschreibung
strategies
coin
Interesse
promote
ying
ently
ck
ensures
credible
trotz
tation
eiten
successfully
Mendelssohn
providers
Ausschüsse
werte
identi@@
relative
manner
ces
topping
ober@@
index.en.html.
Koordination
ständige
Imp@@
political
liches
7.@@
.0
94
10@@
niedrig
Bonitätsbeurteilungen
mittelfristiges
nächstes
presence
geprägten
charity
oversight
0.00
M-@@
geringer
angesehen
groß@@
Opening
Lage
darf
Euro-
Zahlungssystemen
citizen
ausreichend
sofortiger
VER@@
vorzugsweise
lang@@
Schuldenquoten
Märkten
sen
stellte
depth
bringt
Three
700
Ad-hoc-Operationen
establishes
5-
implies
spra@@
Teuerungsrate
schnell
profitieren
ort
referred
Wirtschaf@@
Sim@@
Verantwortung
vis-à-vis
solchen
fortschrit@@
ory
Analysis
Fotografie
associations
gemessenen
hear@@
1.50
unterschiedlichen
Fund
1,440
offenen
-Day
guarantors
timely
Leitlinien
anwend@@
EZB-Ratssitzungen
testen
untersucht
Materialien
fies
Kapitalinstrumente
EG-Vertrags
Zuteilungsvolumen
vorgeschlagen
precise
etwas
https
Rechnungsstellung
centre
erstmals
bearing
bereiche
mission
prevailing
corporate
Eigenmittelportfolios
expensed
Bach
mm@@
itäten
duction
sucht
Wechselkurs@@
Dynamik
det@@
great
konkre@@
Identifier
stem
2,75
ungs-
koruna
historical
invoicing
Mindestbetrag
heit
texts
Environmental
Wirtschaftsstatistiken
judgement
befindliche
Finanzsektors
scope
wholesale
Mess@@
likely
ite
projected
wirtschaftspolitischen
webcast
ss@@
Tabellen
placed
eindeutig
verkauft
zeigt
begrüßen
effizient@@
IMF
ersch@@
beigetragen
umfassender
Regierung
Bedarf
fass@@
classification
diesjährige
zone
weiterführender
bekann@@
ihm
Streichung
engen
Vereinbarungen
cross-checking
beträchtliche
hoc
entnehmen
played
ätze
states
acquires
Studie
reguläre
Qualitätssicherung
Nutzen
ures
connected
beschriebene
heben
kontaktiert
overview
zieh@@
changeover
cycle
assistance
presentations
actors
Unsicherheit
percent
near
monatlichen
Anlagen
singer
meas@@
vorliegt
essen
verschiedener
jeweilige
Eigenkapital@@
Schlussfolgerungen
Markts
corporates
asing
Aktien
verbleibenden
angegeben
jeden
Men@@
Liquiditätsausstattung
Anzeichen
explanation
strategische
niedrigere
Wagner
Direktoriumsmitglieder
Verabschiedung
live
declines
geblieben
Wien
bau
Slovenian
interne
Ausstellungskatalog
Harmonised
emp@@
alisiert
voraussichtliche
divided
erleichtern
ne
separ@@
ergibt
Secretary
combination
promot@@
mindestreservepflichtigen
Closing
sc@@
Struktur
ergriffen
Beobachter
Beratungen
15.@@
Folglich
Anspruch
ergreifen
AT@@
obligatorischen
frequency
betrachteten
Reich@@
observed
so@@
Relation
sch
invol@@
moderate
wechsel@@
erwirtschaftet
Konzerte
orated
basic
Innovationen
ei
24.
behält
correc@@
ause
Zuständigkeiten
‘
uncertain
Dance
Parteien
ven@@
beide
Bulgariens
tal@@
inflationary
Based
buchmäßige
permission
discussed
satis@@
arische
unable
Currency-Board-Regelung
Überarbeitungsphase
provisioning
12.@@
Release
grundle@@
soundness
Schirmherrschaft
utz
represent
advantage
zugewiesen
wachstum
niedrigeren
Business
typically
Prices
änden
preferably
Musterbanknoten
contrac@@
long
simulation
lem@@
Wechselkurse
tendering
ators
Lats
-based
equities
monitoring
preise
sam@@
hervor
establish
Landschaft
Comm@@
gewisse
zeitgenössische
trags
genen
ausgesetzt
Canada
Risikos
confident
sorgfältige
stück@@
Wachstumspotenzial
DES
externe
etz@@
user
Sa@@
enhancing
verbleibende
vorab
explains
hierfür
tenden
ausgeschrieben
Anschließend
Höhepunkte
20.
Punkten
Ausführung
2.1
proceeding
reply
prize-@@
IWF
featuring
margins
starke
Erweiterte
-0.10
visit
endgül@@
Committees
End
tangible
alth
introductory
Kapitalverkehrs
join
dauerhafte
volati@@
-K@@
1,166
somewhat
continuing
erlaubt
Ausschüttung
ing-@@
KT@@
vereinbarter
Verfügbarkeit
öffentlich
observer
Kooperation
flow
En@@
angegebenen
alongside
Starting
dern
Su@@
half-year
offered
notenbankfähig
neben
9,@@
Fälschern
deutet
committees
often
ecting
arose
nunmehr
Ziels
coordination
Schülern
10,@@
darunter
etablierten
ing-up
resident
befinden
gaben
know
bewusst
reibungslos
gruppe
Banken-
4.1
höher
debit
abgehalten
Sonsti@@
ites
brings
Finanzsektor
Brussels
changed
narodna
CTs
bereiten
umfangreichen
2.50
Stellvertreter
ungs
stabil
frameworks
Reformen
Belgian
bewertung
behoben
bem@@
goal
sign@@
auffordern
manoeuvre
Te@@
man@@
reiche
aren
Verlustzuweisung
Management@@
entscheidend
Marktpreisen
recently
verfügen
strengthen
Symbol
Design
myth@@
Statistikpakets
Nettozinseinkünften
Indikator
Themen
alles
heutige
lectures
kein
update
Str@@
Servi@@
life
Rīga
targets
read
lats
emphasised
220
Schwedens
revealed
highest
schaft
fields
lining
tiv
Wechselkursstrategien
1st
front
des@@
Prudential
erklärt
Tabakova
store
eur@@
spezifischer
gefälschter
slowakischen
kategorien
Zentralbank@@
wichtiges
Wertpapierabwicklungssysteme
30@@
track
heruntergeladen
employed
D.
confirms
eingestuft
mini@@
int@@
Entscheidungen
Aufgliederung
Maximalbetrag
empirical
Einige
num@@
Sicher
contract
Produktivitätswachstums
bisherige
ECOFIN-Rats
Engagements
108
conferred
Generalsekretärin
sted
Category
Kennziffern
participated
sur@@
assen
Fäl@@
Liter@@
durchschnittlichen
fizierung
stehender
periode
Falschgeldanteil
uro-Schülerwettbewerb
Dokuments
unabhängi@@
determined
Code
ish@@
ock@@
ste@@
host
Ich
1.75
Emissions@@
Vertrauens
alised
dummy
economies
innovation
itz@@
univer@@
Pass@@
beläuft
Übergangszeit
lech@@
empfangen
brought
marktfähige
Expenditure
anschließender
Zugang
unmittelbar
supervisors
combat
Monatsbericht
ON@@
Ab
2.25
preparation
deu@@
Krasteva
men@@
enth@@
Compared
workshop
CAC
übermäßigen
Transaktionen
Französischer
belegen
gabe
matter
rounding
Ēriks
notified
sum
enced
Generaldirektor
visits
IR@@
fortgeführten
Fehlbetrag
koordiniert
just
lies
sichtbar
Geld
alled
Easy
cent@@
prevention
notleiden@@
Antworten
But
geleistet
normally
licher
vierte
behandelt
10.@@
gestern
HVPI-Inflationsraten
conversion
Kredit-
Dritt@@
Niveau
aff@@
Lettlands
Counterfeits
tables
sämtliche
Entwurfs
sold
expla@@
sicherstellen
West@@
boo@@
ani@@
0,000
obser@@
contributions
reality
wiederherzustellen
Umweltmanagement@@
Rechtsrahmen
governors
enz@@
fern
tolar
K
Handlungsspielraums
pursuit
entwicklung
ty
sters
Si@@
creating
turn
richtlinie
Geldmengen-
detail
einzel@@
rü@@
tree
determin@@
sensitive
instead
geh@@
erheb@@
above-mentioned
solide
gehend
comprises
Oversight
gestiegen
easing
Status
Pfandbriefe
Wohnungsbaukredite
ined
Alles
region
gleitenden
Jeder
1.6
Papadopoulos
invest@@
commence
nachgelesen
seite
transparenten
gesteigert
Arbeit@@
advises
mod@@
like
Systemic
LRGs
upside
Anpassungen
reduce
capita
salaries
traded
0@@
Zugrundelegung
ection
Anleger
Mittwoch
fication
Haupt@@
Systeme
indikatoren
gehenden
ater
compulsory
ernannt
Abschreibung
2.0
Aufholprozess
splan
zus@@
dung
Webcast
www.neue-euro-banknoten.eu
Kroatiens
Ro@@
Jedes
0.30
expect
mar@@
Next
teile
ausgewiesene
Myrto
einf@@
maßnahmen
tiges
umzusetzen
zwec@@
People
18@@
annt
architekton@@
Tradition
non-standard
Veranstaltungs@@
Nice
secure
Angeliki
incompatibilities
Kommunikations@@
erb@@
effects
inter
isation
sicherer
Übernahme
cs
Perio@@
gestützt
Projektionen
Leitkurse
ding
overnight
deal
mach@@
Bartholdy
gedeckte
Herstellern
Best@@
accountability
Meter
dynamics
verbrief@@
exc@@
family
Bankenunion
Mehrere
Moderne
ander@@
Formblätter
Überarbeitung
originated
Communities
zeichnet
einzelne
Op@@
Estlands
bericht
Ebenfalls
0,4
-Rating
geschäft
ie
CD
hochrangigen
Geschichte
wide
notiert
Nizza
catalogue
ener
gr@@
eingesch@@
eingehende
Rechte
venues
umf@@
Euro-Leitkurse
behörden
illuminated
Szenarien
Dreimonatsdurchschnitts
academic
wichtiger
teilzunehmen
phas@@
restrictions
determines
vierteljährlich
2.
nachfolgende
Orientierungshilfen
Balls
actions
Vorab@@
producing
All@@
ations@@
unveil
DDs
frequently
incorporate
Preisstabilitätskriterium
drei@@
Genehmigung
dauert
freuen
Interventionskurse
zwingend
fen
choose
Tests
ück@@
Staff
Referenzzeitraums
erörtern
fore@@
gleichzeitig
Strukturen
Termin@@
ehr@@
Den@@
eden
Rather
dienen
4,5
st
Auswahl@@
mehreren
verfügbare
Schlüssels
3.8
kenn@@
verstärkt
robust
Führungspositionen
Beitrittsländern
hinzuaddiert
constant
reliable
Normalfall
Bills
cannot
Umfelds
ha@@
Aktu@@
ii
erfolgreich
meist@@
Verringerung
bestätigte
ats
Unterschied
dedication
ency
Vorbereitungsarbeiten
gewissen
werke
sicherungs@@
Risiko@@
offers
00@@
SSM-Verordnung
Gemeinschaften
Handlungsrahmens
ige
tlich
Bewerbungen
reproductions
x
7@@
Mitgliedern
2,1
Jahresabschluss
rec@@
ects
isti@@
Erzielung
stre@@
met@@
Abstimmungs@@
nearer
volume
Theatre
Excluding
others
16@@
anf@@
gesetzlichen
ide@@
Finance
funktion
carry
III
Approximately
9.@@
index.en.html
Dauer
ordered
ausreichende
achievements
Sondermaßnahmen
geplant
uro-Schülerwettbewerbs
improving
oil
Economics
task
lays
wertung
Hinsichtlich
Bürotürmen
gegenwärtigen
vorgestellt
started
einmal
ün@@
cing
Bes@@
itself
Switzerland
Fortschritten
folgendermaßen
4.3
over@@
festlegen
Realität
Zinssatzes
zulässig
spiegelt
counterparty
belaufen
origin@@
simpli@@
Risikoabsicherung
eröff@@
Abwicklungsmechanismus
enable
wert
ven
Kategorie-1-
ured
competitiveness
decision-making
geschäften
immediate
delay
Vorsitzenden
THE
Among
einerseits
verstehen
Kooperations@@
angewandten
schützen
ungsphase
trägen
Rechnungslegungs@@
tag
Wachstums
Gesetz@@
Unser
Abschlussveranstaltung
EU-Rats
ätzen
ment@@
Tenderkalender
unveiled
pop
consultations
N
Pakete
Exekutiv@@
Bemerkungen
Katerina
Stadt@@
uring
slight
Nettokreditvergabe
lic@@
999
of@@
Konto
vereinbarung
FILM
kriterien
prev@@
spei@@
3.6
emergenze
politische
deadline
Stärke
europaweit
occupy
cir@@
oring
Noyer
Angebot
unilateral
Aufsichtsgremium
schätzen
fol@@
ausdrückt
bedeutenden
encour@@
Rispal
stei@@
Infrastructure
excellent
FSF
add@@
spätestens
dargelegt
gro@@
enters
tw@@
druck
lia
mu@@
Moltke
Planning
wherewithal
verteilen
options
Frankreich@@
ables
margin@@
länderspezifische
schluss
Konrad
Gel@@
Mint
13.@@
Terminkalender
Robeva
helps
bestimmt
Anh@@
rapi@@
volles
611
ior
Erwerb
ARCHI@@
constitutional
supervising
polygonal
Handlungsrahmen
Selbst
Concertgebouworkest
erti@@
Gymnasium
Krediten
judges
87
securiti@@
ethics
etwaiger
S.J.
Seigniorage-@@
tri@@
Schuld@@
Gesellschaft
634
beträchtlichen
gestärkt
vergleich@@
coherence
stabili@@
alisierungen
Vassal
fasste
ergaben
Prozesse
0.15
IS
antique
verlu@@
arbeitung
mindert
bew@@
looked
dienstleistungs@@
268
atz@@
Kategorie-1@@
and@@
jüngeren
Münz@@
perspectives
angelegten
renowned
Dienstleister
org@@
Ermittlung
Associazione
specify
Öffnung
zeitig
Jazzmusiker
wh@@
publicly
Barron
feedback
Tran@@
Portalegre
notleidende
Paediatrics
enaus@@
returns
Are@@
Kalna
Multip@@
itable
ahl
beschleunigen
138
airs
diff@@
Leitfaden
contributes
Pakets
prozess
whose
Min@@
invitations
prerequis@@
tural
extrac@@
0,15
eld-for-@@
vorigen
Gennady
variabler
Malaysia
angemessener
beteiligten
Geschäft
spezielle
aph@@
enhancements
Unvereinbarkeiten
hinweisen
stätigkeit
Country
Bek@@
benö@@
Überschuss
Schwartz
372
cht
absol@@
educational
SS@@
avant-garde
mals
tests
urement
dliche
alternative
surrounding
209
aufnimmt
Aufsatz
aktu@@
Beachtung
0.8
ested
convinc@@
shops
artworks
Grunde
1,536
Stad
cross-@@
aufgeteilt
ationsprozess
Kapitel
Interessenten
four@@
arts
schlossen
teilte
Analyseansatz
bildende
ITSM-@@
Mithilfe
oll@@
mehr@@
retain
smoke
ECBstatsApp
donate
Stücks
empfunden@@
gren@@
fizieren
anz
erhielt
Euroland
Erscheinungsbild
Collateral
Bankschuldverschreibungen
423
gezeigt
Res@@
unternimmt
ganze
gestalten
face
Čadca
empfohlen
Sportlycée
visualisations
vertr@@
Ungleichgewich@@
tigate
Thus
französische
terte
Office
antwor@@
Trend@@
omm@@
vorzu@@
prog@@
Junior
occur
operation@@
Belgische
710
Nutzern
makers
brief
gend
ler
voran
Pascal
food
Leistungs@@
selections
teilweise
Coun@@
zusätzlichen
Prä@@
2866
accrual
48.3
race
Egeraat
2,000
otherwise
Euro-Banknotenserie
aktiviert
ted.europa.eu
heran@@
normali@@
verlaufen
Architektur@@
profits
ergab
audit@@
Around
nebst
Anmerkung
frei@@
Last
inform@@
Energie@@
alistischen
expand
consequently
aw
AFS
Staat@@
oh@@
222
IS@@
planungs@@
aum@@
fte
wa@@
ichten
predic@@
ChorAkademie
attractive
hoben
ats@@
lechter@@
Am@@
weak
record
nutzer
adequately
Constantinou
air
Mousonturm
LITERAT@@
weis@@
geänderten
portation
aufsteigender
shareholders
Defizitverfahren
Wiederherstellung
Entfernung
Williams
ever@@
Ed
gewähren
Referenz@@
DKK
Life
-verbindlichkeiten
ang
sank
propose
exceptional
beider
Oslo
journey
hervorheben
vonnöten
Before
ziehung
Frauen
withhold
fundi@@
terror@@
ascertain
NE@@
generation
MAR@@
www.boj.or.jp
durable
bes
kul@@
bessere
Erick
98.0
illiqui@@
441
Politikbereiche
a-@@
fünf@@
commem@@
Realismus
Hospitalet
Mindestreserve
173
Kapitalbetrags
characteristics
UN@@
ausgewählte
opranistin
schätz@@
untersu@@
Steen
Szenarios
tische
verfahren
ected
Finanzfragen
ährungsgebiet
Ausmaß
jet@@
Landschaftsgestaltung
Friis
Hintergrund@@
keiner
Supranationale
fügte
stes
jekte
erweist
warrant
predefined
pr060504
demonstr@@
pre-@@
unterschiedlich
ins@@
donations
Lourenço
begleitet
Rechnungen
schten
arm
parameter
architect
353
fassen
Teile
ordn@@
karten@@
DA@@
techniques
Brief
dri@@
elementen
-out
begebener
401
Pedro
ebene
ergruppen
cut
Arbeitsmarkt
Selangor
Fri@@
funktion@@
Gewinnver@@
Südosteurop@@
entscheidenden
Guthaben
2nd
verfassungsrechtlichen
entrance
imposed
verfügbaren
G.
Fehlentscheidungen
haltung
negoti@@
formally
sli@@
ases
erhöhten
bewältigen
irgendeiner
Preventive
zentraler
Percentage
Satz
народна
überarbeiten
Maerlantlyceum
stu@@
eding
Overall
Zuführung
mentioned
zuverlässi@@
Aufwärts@@
Der@@
Fondation
egt
reminds
aves
automati@@
spending
zt
syn@@
weighting
Eichel
players
dazugehöri@@
zunimmt
empirischen
Nettoerwerb
plenary
zielt
Rechtsakt
employees
proce@@
Verhütung
Non-@@
variable
unternehmen
methoden
guarantee
ragen
esische
concrete
elev@@
97.@@
Helēna
sides
annte
inden
schutz
assumes
input
0,00
atives
eig@@
chance
208
Volkshilfe
niedrige
Commissioner
zahl@@
IAS
ingenieure
faktoren
gangen
spann@@
111
suchen
Lorier
-speaking
Preissteiger@@
annähernd
stabil@@
gefordert
Sü@@
facilitating
bei@@
erfahrenen
AEUV
Chryssanthakopoulou
ÄNDERUNGEN
availability
Sourlis
Haltbarkeit
Basis@@
Iveta
wen@@
Minister
ack@@
219
Neuerungen
facades
bald
850
vertrauen
1.2
ersetzt
Veranstaltungsreihe
Zahlungsverkehrsinstrumente
post-@@
positioning
eldorf
Nominalwert
predecessor
counter@@
EU-Staaten
Flexibilität
policy-related
sämtlichen
räge
EZB-Hauptgebäude
Héja
formelle
Werden
Vienn@@
contained
zusammengefasst
vital
rieg@@
risikobasierten
acts
60@@
SEPA-wide
unterziehen
®
103
ressing
Corazones
performing
gesetzt
Lehrkräften
Gesam@@
geprä@@
Pakts
Dykers
Jozefa
Michael
Durchschnittswert
harmonisierter
leave
131
powerful
Zwei-@@
erfolg@@
234
Produktionsp@@
Byrne
dan@@
preisen
konstanten
zunehmen
Sicherheitenver@@
EU-Rates
kontinuierlich
stin
drit@@
ausschließlich
shifts
Liszt
cul@@
Periodenabgrenzung
verantwortlichen
Bosco
aktualisiert
eti@@
derung
search
skyline
Weiter@@
etwai@@
191
underscore
interpretations
transparente
la
observers
ausgeprä@@
Preliminary
worfenen
solutions
makroökonomischen
250
dissemination
Unternehmens@@
enthusiasm
kräf@@
ved
www.federalreserve.gov
infolge
Transaktions@@
Gra@@
befanden
kräftigen
Franziskus
ute
Koninklijk
Mobilisierung
Marktinfrastrukturen
Geschäfts
ieren
Wirtschaftsraums
Ausschüssen
noten
system@@
except
,@@
fers
Fass@@
ems
Kapitalmärkten
Dialogmuseum
Wiener
äre
vorliegender
5755
787
Literatur
bisher
reach@@
gebn@@
Probleme
Andere
NFA
Integr@@
Schuldenstand
pose
Semin@@
eim@@
Veröffentlich@@
Gefahr
word
keiten
unofficial
ools
permit
gedacht
Higher
MUS-E
Strafverfolgung
Hämäläinen
Rundfunks
zent@@
difficul@@
statement.greenecb
telecon@@
Fe@@
Funktionsweise
erinnen
interactive
erzi@@
aware
Geschäfts-
erfolgten
reli@@
gestattet
hochbaulichen
Richtung
Dritter
Überschrift
withdrawal
Inflation@@
learn
require
Location
wesentlicher
Nicht-MFIs
ature
utz@@
closed
Currently
ze@@
Ethik-Rahmen
Αγκαλιά
tief
nahen
841
Gehaltszahlungen
headquarters
generated
120
dreimonatige
43
encies
fortsetzen
Kernkapital
SSM-Aufsichtsgremiums
socialist
gest@@
benefi@@
Nachbar@@
commodity
ländischen
Anne
Ass@@
Exemplare
1,357
zierten
ussion
3,25
ST@@
Dusapin
ländern
Hälfte
tag@@
rali@@
Dienstverhältnis
koordin@@
Titeln
fundamentale
Umgang
Rotationsmodell
Erläuterung
funktionalen
liter@@
26.4
Empfehlungen
HVPI-@@
Long
ünf@@
begrenzt
geodetska
Vi@@
wand@@
actu@@
bler
ee
Boston
recovery
finalised
Rhythmus
konzepts
cher
Radiochor
fine
W
bedürfen
fragile
Berichtszeitraum
972
gern
zzo@@
jobsproc
EEK
Weiteren
SEPA-Regeln
dankte
Ten
vereinfacht
Aktiv@@
Band@@
Viol@@
Makedonas
Geschäftsvolumina
Canonne
langfristiger
raum
Ihnen
satz
greifbares
Mitarbeit@@
Psanis
sent
konzent@@
BuSO
viewed
los
Bankensektoren
Spendengelder
Konsultationspapier
eingeräumt
weshalb
indeed
Grad
pub
schi@@
Texte
education
22.
Pensionsbezüge
folgend
auditors
müssten
ausgetragen
erfordern
angs
örtlichen
Vergleicht
GenerationEuro
wahrnehmen
immateri@@
two-thirds
ately
maßgeblichen
analysing
hergestellt
gelöst
urate
optimisation
disseminates
länderspezifischen
cash-handlers
Partners
inside
Sicherheiten@@
laws
Demakova
legte
Nettozinserträgen
fortgeführt
opera
Jahresabschlüsse
umlaufende
netting
doub@@
factor
items
erheblicher
Sprachen
Although
confidential
entfiel
einzuzahlen
niveaus
zunächst
invoices
attend
Effek@@
split
Falschnotenaufkommens
Char@@
Zusammenkünften
toward
cons@@
anspruchs@@
haircut
Architekturwettbewerb
Verbrauchern
write-@@
indicate
smärkten
sprüfung
Par@@
strik@@
Richtlinienvorschlags
Stre@@
übung
TARGET-@@
struktur@@
Rahmenbedingungen
Gegenwärtig
rüstung
projekts
sponsors
grundlegenden
setzungs@@
trak@@
essay
ur
gefunden
Database
Dirk
itäts@@
Währungsinstitut
Musikgeschichte
Jura
Größ@@
Farbenfrohes
Zusammenfassungen
gerufen
Various
fand
ume
28@@
stimm@@
Gimnazija
facing
join-up
aktualisierte
conveys
Näch@@
Weißbuch
Escola
Barisons
Vorrang
Krzyżanowski
Organisationen
Gleich@@
gesell@@
Helsingin
top@@
1,141
finance
Aggregate
214
focused
Anerkennung
Privatkundengeschäft
exter@@
CYP
del
nachfolgend
Pfandbriefen
formulated
Richtkrone
home
challenges
zi
technolog@@
recognising
schrif@@
esen
opinions
SKK
glaubwürdi@@
Lapset
Folgenden
einzu@@
1.0
Indefinite
auftretenden
Taus@@
Stücke
Bewertungsverlusten
mär@@
ce-@@
97,@@
SEPA-Standards
Volumen
dentiel
post@@
registered
begeist@@
Onlus
80@@
awareness
Potenzialwachstum
Canat
submission
Produktion
Don
erfordert
0,75
zurückzufordern
GrünGürtel
...
uniformly
Yasse
Plenar@@
winners
zufri@@
aften
benötigt
Run
iration
AT09
MFI-Zinsstatistiken
Anlage@@
erwar@@
ften
Angebote
übernommen
appell@@
beeinträchtigen
ample
Association
evenings
abschließenden
beitru@@
neu@@
null
Danmarks
Zariņš
ausger@@
Jahrzehn@@
Konz@@
Programmhöhepunkte
EU-Ebene
Gestaltungs@@
Stage
Y
zuständige
zugenommen
Kinder-Krebs-Hilfe
Zahlungsverkehr@@
Inflationskonvergenz
Ansichten
formats
Defizitquote
globalisation
Team
Regional
Literary
ago
Fahrkartenautomaten
ays
Wechselkur@@
Debussy
Wi@@
1,2
Vice-Chair
signifik@@
fin@@
Festival
Zahlungsmitteln
minus
Intangible
reinforce
fähigen
com@@
diver@@
Particip@@
357
Tommaso
Bollani
sprachiges
debtor
sales
e-money
1985
Referenzwerte
recipient
efficiently
Giuseppe
hl@@
aufeinander@@
760
184
feasible
.00
Treffen
durchgeführten
stimulates
Dokumenten
herabgesetzt
PSPP
pursu@@
Gl@@
fo@@
deutschen
298
Warehouse
prozesse
intr@@
ausgeschüttet
program-schedule
tretenen
Euro-Scheine
ums@@
é
RESPECT
reaches
Chizy
imm@@
schlüss@@
End@@
realisierte
kennen
US@@
auszustatten
Padoa-Schioppa
vers
formuliert
editors
Rotationssystem
Kosten@@
genauer
Participants
deutlicher
erweit@@
asses
dw@@
Schluss
Reproduktionen
festgesetzt
necessarily
1,547
Teenage
effizienter
Voranmeldung
stets
fabulous
nomin@@
IE
verlei@@
repräsent@@
condition
Prior@@
rather
Farantouri
granite
Kreditgewerbe
Reinhold
Initi@@
seh@@
1,50
tlicher
klassifizierte
Defizits
saf@@
Point
Bindung
Inverkehr@@
Lose
invite
Barnabás
33.1
ancy
12.
pa@@
1093
neg@@
Wahrnehmung
Miloslava
open@@
weg
Domonkos
logische
Euro-Bargeldumstellung
timmung
fähige
Júlia
Pöllath
angehaltenen
reali@@
Construction
ig
OT@@
exactly
General@@
asked
Ersuchen
Children
gender@@
clari@@
tional
Alte
viol@@
Branco
Meilenst@@
Aktivitäten
pensions
ave
ausweisen
Direktorium
Wachstumsp@@
viel
John
abzielen
dep@@
Bežigrad
450
olo@@
three-round
choreogra@@
zeu@@
Sachaufwand
severe
mistakes
Transactions
Geheim@@
Verb@@
extend
rotier@@
Kraounakis
Erreichbarkeit
ekonomska
alisierung
lig@@
gefaß@@
Verpflichtungen
Projek@@
242
stützte
Schnitt
Ac@@
distinc@@
Daten@@
fashion
Zul@@
HANDLUNGSRAHMENS
Moste
Katholiek
Einteilung
perceptions
Telekonferenz
tran@@
co-ordinate
652
erschwert
trast
Bud@@
vision
Rat@@
gewichteten
co-ordin@@
stadt
spirit@@
choral
antike
systeme
Tok@@
riert
stric@@
EU-wide
überreichte
Verkaufs-
Wheelit.be
air@@
T070
contracts
mas@@
arbeit
identifiers
requests
Eröffnung
Rotation
kommuni@@
inves@@
Gallus
produce
Wohl@@
vary
Portfolioauswahl
Google
barer
Outright
Darin
veranstaltet
assuming
Holding
Begeisterung
beschleunigt
Emittenten@@
Währungsgebiet
influ@@
show@@
ledi@@
encourage
Rück@@
intensify
guide
Mutlangen
380
re
sequ@@
fristig
Lin@@
zulässige
Rech@@
tiv@@
Ereignisse
rep@@
Abweichung
drama
Schauspiel@@
logical
women
Hauptrefinanzierungs@@
cultdays
Verst@@
umbenannt
gradbena
erör@@
Beg@@
www.new-euro-banknotes.eu
konsist@@
Baruffi
Hauptrefinanzierungsgeschäften
Ho@@
entrusted
ertes
Deutsches
Bewerbung
Ausschreibungspakete
manually
plangemäß
reagi@@
spezifischen
sichtigen
Chi@@
verein@@
wertete
Cabo
prämiert
hinterlegten
mig@@
Bauteile
Kodály
gefährdet
Viaró
physi@@
empf@@
Peace
Druckfassungen
2533
crisis
Gold
lau@@
Finn@@
tert
erachtet
overcome
münzen
Durch@@
ols
Hier@@
isch
repair
Chance
schwachen
270
Privatkunden
Informationsmaterialien
Tools
Fort@@
ingly
For@@
Beiträge
438
And
günstige
Norwegen
Bilgic
top
Solistes
BMTN
commit@@
Européens
prolonged
begründen
pattern
14001
hervorgeht
on-going
ia
spruch
sim@@
stabilität
Verbindlichkeiten
Nachfolgender
unterstreichen
achieving
hängt
andererseits
mis@@
Saint-Saëns
4.75
Lucca
Alicante
spek@@
tagt
21.
unterstreicht
räume
vermeiden
13447316
Lösungen
Euro-Zahlungen
EMS
encomp@@
trieben
Granit
stats
acceptance
Rentenreform
O
wahr@@
jungen
keits@@
onal
Any
Owing
gesamt@@
Bauunternehmen
tungszeitraum
erwähnt
reise
Welt@@
Moste-Polje
Reihenfolge
früh@@
provider
IT-Dienstleistungen
installation
Entscheidungs@@
minimise
oration
0,8
absolute
sal
sal@@
mit@@
Governance
beitreten
happen
end-users
regelmäßigen
Anmeldeverfahren
Schirmherren
festzusetzen
terung
zertifizier@@
Falschgeldumlaufs
jüngste
Face
122
reiß@@
partial
Nachdem
discussion
Sektoren
Präs@@
Haup@@
eingeflossen
recovers
betrieb@@
atrium
abzubauen
gereg@@
wishing
legung
anlagen
Me@@
sgewinne
Anlageposten
cluster
eping
353,000
Berichtskreis
diert
frühere
charitable
CR@@
veranstaltungen
tigte
icht@@
impro@@
Referenzkurse
bestellt
Verkaufsautomaten
dest@@
visitors
ship
I-3
123
Christian
günstig
445
gimnazija
eby
Huumeista
there@@
planung
Falt@@
timeliness
Rig@@
pe@@
enster
Blickwinkel
arischen
Million
examine
Onderwijs
mean@@
beste
inaug@@
Relevant
Chor@@
rigorous
Überblick
Hist@@
Sale
ahrt
comprised
centres
Aseman
Sechs-Wochen-Zyklus
www.euro.ecb.int.
ve-yearly
rechnungs@@
baroque
totals
hei
614
crime
umin@@
wettbewerbs@@
categor@@
547
CEO
imply
Zahlungsverkehrssysteme
Zentral@@
druck@@
Konsultationsdokumenten
nicht@@
Differenz
opf-BIP
Frist
allgemeine
Lyriques
widerspiegelt
Maribor
ag
Disclo@@
0.6
C.E.T.
grown
5.50
Wertminderungen
Zulassung
unterzeichnet
inländischen
kurz-
Entwurfskonzept
rele@@
Baukosten
ligence
ai@@
Licht
adop@@
nützliche
nearest
286
EZB-Beschluss
ame
Liquiditätsbedarfs
withdraw
rechtzeitig
genutzte
geeigneten
vereinbarten
Rinderspacher
ard@@
harmonisierten
ference
Verk@@
aussagekräftige
EZB-R@@
zurückge@@
Konzert
48@@
begünstigen
Ans@@
sist@@
nden
Rechnungshofes
760,652,402.58
anerkannt
Bil@@
try
pediatriche
indications
Bel@@
Mitgliedstatus
vorstellen
Hig@@
šola
Sitz@@
greifen
Beim
Salomon
hrt
deciding
einvernehmlich
Fälschungssicherheit
dringend
sens@@
Colours
langen
unde
vo@@
0-@@
Beraterstab
ist@@
trading
Supranational
akzeptiert
Fixed
822
Druckereien
ech@@
33@@
Beteiligung
Rest
IES
platzierten
unbedingt
Druot
Red@@
simulated
Rest@@
Venetsia
managerial
kurz@@
im@@
808
ily
ferendum
bin
rig@@
einzi@@
dn@@
0,6
san@@
gewährt
manuell
Bewertungsabschläge
Flag@@
Sint-Lodewijkscholen
fit@@
Polytechnische
vorwiegend
Gewichtsanteile
Auth@@
ie@@
geliefert
Brüssel
1.en.html.
Nächste
50kB
fall@@
Weiterhin
Vaughan
erst@@
5482
Steuerungs@@
Michèle
off@@
Endergebn@@
discuss
posi@@
vely
relevanten
appointment
Finanzmarktturbulenzen
finalists
Suomalainen
Talentierte
größe
aufgegriffen
orrowing
ebasis
Martha
11.@@
Arbeitsbeziehungen
structures
Eigenschaften
untermauern
Euro-Bargeld
städ@@
Lei@@
529
gebilli@@
Österreichische
genden
careful
Oliver
vorgaben
rest
sendet
Eröffnungsveranstaltung
Solche
preciated
Colourful
Beobachter@@
Aufführung
Iskrov
Jugendliche
Schuld
macht
Ak@@
Mittel@@
Plattform
apter
gehen
Optimierungsphase
fizierungs@@
polygonalen
zugeteilten
StringS
tnis
inv@@
t-
Tilgungen
1,25
speci@@
roman@@
headings
hoffe
Inga
Informationskampagne
iger
prüfgeräten
keitsberei@@
dokum@@
Jahrhunder@@
Anpass@@
austausch
rest@@
brochures
Private
forderten
zeiten
Gesamtwert
beit@@
856
Beitritts@@
optim@@
wer
niedri@@
tively
Photos
inwieweit
Einleitenden
off
deckt
Emittentengruppen
3,6
chen@@
off-balance-sheet
Research
Scheine
famili@@
wid@@
gesellschaft
wech@@
app@@
Zuständig@@
exercising
investor
Contemporary
regeln
Testzwecken
grundsätzlich
IT-@@
Rihards
betro@@
hinter@@
abzuhalten
4.50
bekleidet@@
Good
valu@@
uch@@
gesp@@
300
pr040628
Dar@@
Antoniadis
detailli@@
338
wöch@@
curator
readily
fristige
vibrant
defining
ellow
sible
assigned
hinreichend
festgelegte
plan@@
diversifizierte
Bulgarischen
Gä@@
Portfolioumschichtungen
Punkte
rachte
879
unbesicherte
Hauptrefinanzierungsgeschäfts
Bonitätsan@@
Ländervergleich
hypothek@@
16.0
correspond
struc@@
Potential
standen
chose
stability-oriented
Schul@@
allowing
siegreichen
Themenland
vering
prin@@
ONLUS
daraufhin
glass
protracted
1,082
Kohärenz
5@@
Billi@@
RG@@
einzuführen
ömungen
Benaki
Jozef
uts
445,000
elab@@
Experten@@
fundamentalen
Aufsichtsgespräche
Zinsbeschluss
kurse
stellvertretende
Halpin
währungspolitischen
Obergrenzen
gerade
mon@@
strengthens
Ausnahmeregelung
unprecedented
ask
Baiba
worth
pressure
Lauf@@
ged
folgender
komp@@
Ph@@
evaluated
Korn
wirtschaf@@
zurückging
690
003
005
registering
Projekts
phasing-in
Inst@@
Charleroi
263
photoaward
sinn@@
stimmberech@@
ziert
nehmen@@
Mainz
Beseitigung
explanatory
ANHANG
David
prudenzielle
lit@@
tl@@
Marg
rising
Konferenz@@
LTL
gezielten
unverzinsliche
sicht@@
cated
zahlung
erläu@@
7.
beauf@@
dauerhaftes
Kreditrisiko
company
Numbers
shared
Züblin
statisti@@
short-run
AT02
appe@@
formell
Großen
Globalisierung
moved
Verbrechens
rechte
jahren
Jewish
Ratingagenturen
Huerta
end-June
full-@@
stattfindenden
zurückgehen
episodes
outright
Bankkonto
leg@@
,5
wachstums
kurze
bi@@
Lacaton
rau@@
586
20.00
Betriebskosten
outlines
Vorgänger@@
marktfähiger
Dienstleistungsniveau
rotate
LTROs
,0
nachdem
sovereign
2-@@
Zentralbankexperten
evolution
536
default
confidentiality
606
urs@@
Geld-
wo@@
vel@@
trag@@
einheitlich
verstärken
Broschüren
GELDPOLITISCHEN
Eigenkapital
609
Berat@@
Gewinnausschüttung
nachhal@@
Jumbo-Pfandbriefe
bridges
viet
Elsaesser
oc@@
museum
Intellectual
vigilant
card-@@
refinanzierungsfähigen
turelle
pat@@
automatic
fra@@
upgrade
einzubinden
consider
angeht
Reverdy
Entwurfsvor@@
decentralisation
Linz-Auhof
bekanntgegeben
sofort
kateg@@
EMV-@@
länderübergreif@@
river
devised
Pop
ausstehenden
en-System
ländi@@
zielle
Liechtenstein
wick@@
Brotfabrik
auswirken
aiming
Registri@@
Trennung
Tanz@@
Edith
Teilergebnisse
eingeleiteten
gänz@@
Castelo
negotiating
Statistical
Counsel
Hamburg
alter
Organis@@
limitations
summary
eigen@@
Bystrup
LTRO
Inflationsziel
11.4
Eurobanknoten
gutachten
particip@@
Tangible
fälsch@@
Nennwert
replaced
inn@@
care
förderliches
sight
301
DEN
photos
composers
finan@@
69-1344
Ver
Stufe
forecast
cates
resses
ail-@@
in-@@
Mödling
beschlusses
Atrium
ultaneously
votes
Vorschläge
reihe
abgerechnet
Ged@@
Disability
generell
äußert
filming
läu@@
persistent
Organisations@@
Europä@@
België
atbo@@
measured
Geldscheinen
effiziente
dend
Zusammen@@
eterogen@@
sufficiently
alitäten
Dialogue
Partnern
designer
136
gewidmet
Wertpapierbestände
King
les
co-ordinates
1,4@@
grad
tau@@
Fazilitäten
bills
städtebaulichen
unterscheidet
SEPA-Zahlungsinstrumenten
stabile
märkten
Fernand
außergewöhnlichen
acro@@
Leššo
082
oft
ph
medi@@
relations
Tat
Norway
seeking
Zus@@
kar@@
guarantees
co-@@
Beitrittsver@@
Opinion
gef@@
ratification
identification
Einbeziehung
datum
Einblick
hinzuzufügen
entiert
geschi@@
ombin@@
erfolgswirksamen
beispiel@@
Michalis
mobilisation
ändern
116
scolaire
cap@@
26.
Rhein-Main-Region
equally
16,0
1995
aktualisi@@
operationen
z-@@
Mein@@
checks
114
borrow
hteiskoulu
309
ausgearbeitet
Dezentralisierung
seitige
configuration
Stefano
Društvo
M3@@
explicitly
teten
performers
ablen
elungen
leben
Kreditvertrag
Eco-Management
Kurses
addiert
Campus
globalen
SEPA-Zahlungen
Apeiron
Discover
dynam@@
Reihen
strength@@
ex
initi@@
Lira
bronze
aufsichtlichen
AN
Funktion@@
ong
381
beschloß
Vorsitzender
rounded
index.php
communal
eht
Craig
5,000
Met@@
1,351
992
Übergangs@@
recognises
Pertini
Institution
Navigations@@
IG4
gebenen
fa@@
verzeichnete
risk-based
songs
Vergütungen
lok@@
Wirtschaftsindikatoren
Kreditzinsen
ursprünglich
auszuweiten
subsequ@@
Pusker
HIN@@
0.17@@
Entdecken
abgegeben
Rock
answers
sozialen
Arbeitsver@@
era
pianist
45@@
ness
vergleichbarer
kung
Repogeschäfte
europe.childfinanceinternational.org
Talens
Urteil
announces
Registry
rises
liquid@@
mass
Quelle
ga@@
Wolf
frage
finanzi@@
069,61
Komponistin
Play
angenommenen
Blick
agreements
end-2010
reasoning
Vorlage
equ@@
genügen
weg@@
instal@@
Charts
harmonise
evaluate
EUROPA-KULTURTAGEN
tle
zwölften
erneu@@
she
BTBs
www.euro.ecb.eu
Aktualität
satz@@
www.neue-euro-banknoten.eu.
Kreditrisiken
Geräte@@
Verbindungen
sive
imagin@@
buch@@
490
romanticism
began
Ber@@
electri@@
GA@@
Suche
rit@@
Opernsängerin
Edwin
1997
invoiced
beenden
Regina
ality
Berichtsjahr
Pi@@
insuffi@@
accelerating
orangefarben@@
much
schlägt
Quartale
obil@@
schauspielfrankfurt
gehandelt
gelangt
bekannten
Wirtschaftssystems
toon
clarity
Drama
oversee
SÜD
affecting
vertraut
wn
kontrolle
5.25
Ost@@
gedeckten
Herentals
align@@
Schätzungen
heutigem
accord
logisti@@
Hal@@
Erforder@@
dungen
Gemein@@
Dritten
fluctuated
relates
gedruckt
ering
Renditen
AT11
wort
igr@@
tru@@
grand
einhergehen
257
ésolution
Formaten
urs
Kategorisierung
sections
bür@@
Erfolgsermittlung
UR
dy
bene
Petra
expressed
faces
functions
wiederum
confirm
Menudos
Lord
iTunes
grunds@@
113
shape
ticketing
eller
Energiepreise
neighbouring
herr@@
Übergangsregel@@
Teuerung
Kelemen
Transpar@@
ECA@@
Hanspeter
tern@@
session
Camille
Collegestraat
uniform
laufend
stabilitätsorientierten
Mitglied@@
ail@@
ständi@@
29.2
verfolgen
Wirtschaftsentwicklung
isses
Gerkan
Rohstoff@@
GE
senden
Achievement
ta@@
-Verzeichnis
set-up
LIQUIDIT@@
ratios
auen
ulated
resul@@
serve
references
Bankidentifikationscode
IG7
Harmon@@
are@@
Wert@@
Gérard
St.
Barock@@
gmp
Mak@@
HELP
Grundstück
ählen
Feldmann
Per@@
running
Sow@@
jen@@
realism
cycli@@
Ar@@
erkm@@
detaillier@@
Aktien@@
Val
Schwarz
ase
verkäufen
Hodek
fy
Wiktor
Strijkorkest
minister
Berichtszeitpunkt
schiedene
Housing
Counterfeit
SA
uncertainties
analy@@
NZ@@
Gewinnvorauszahlungen
Marian
non-MFI
Funktionieren
Mindestreserv@@
weightings
Teuerungsraten
ironic
Professor
wers
observes
Grisey
wirkten
integri@@
Service
soli@@
ised
11,4
bambini
769
clarification
mithilfe
itte
Ad@@
multiple
äu@@
exten@@
Finanzmärkte
Reaktionen
handing
metres
ances
pick@@
Illumination
Fabritius
EZB-Direktoriumsmitglied
drastischen
sionen
Wertpapierabwicklungssystemen
fläche
Athénée
Konjunk@@
Bezüglich
stärk@@
mittelt
auction
Bundeshandelsakademie
resistant
vorantreiben
erlauben
Litau@@
Scheller
durchaus
Höhepunkten
Demos
gewer@@
caused
Saint-Adrien
complying
Grün@@
governing
Plätze
Bereichen
er-
operate
6,5
Massenzahlungssystemen
Verstärkung
Inhalt
gebung
build-up
He
Vorstellungen
Fitkids
.eu.
Zimmermann
Vorgaben
generieren
motto
Exemplar
begin
004
ests
Maltese
Finanzausschusses
Norbert
Jahresbilanz
Jill
Gaka
Büro@@
Gehälter
Nederlands
hochrangi@@
Filme
incorporated
Nam@@
veran@@
1,422
investitionen
Laut
zweiwöchiger
smärkte
mäßig
Klassi@@
ATEGOR@@
Geschäftstag
distributions
Direktoriumsmitglied
Between
Mindestreservepflicht
vertrauens@@
Debt
kits
Bankfeiertage
Oberbürgermeisterin
konzept
pronounced
Mon@@
consistency
juncture
Berlin-Steglitz
besei@@
ke
62
sia
opran
ausgefallen
Personalbe@@
San@@
fe@@
acceptability
Danubia
effizienten
piano
quar@@
1,999
calculating
impressive
Even
erhältlich
erhebliches
supran@@
bildet
bedeutendsten
genheiten
ativer
Bound
Entschluss
IG8
setzung
infra@@
identifies
ebnen
Osnab@@
Van
anfänglicher
Wir@@
MTN
reach
Mittelpunkt
charac@@
lös@@
internet
decentralised
teure
Stad@@
cient
amwork
floating
konzentrieren
Konservatorium
dly
interac@@
ve-@@
10,825,007,069.61
65
zü@@
non-marketable
fehl@@
iti@@
inzwischen
Sek@@
lautender
Lohn@@
char@@
FILM@@
Langfristzinsen
ange
tierten
PROGRAMM@@
Sich@@
instrumenten
integrate
Stellvertretende
trendmäßig
Mün@@
deviation
platform
On@@
omino
Refinanzierung
Pressekontakt
Euro-Banknotenfälschungen
deriv@@
end-@@
wish
Manual
Interpre@@
historischer
merk@@
1,972
Vorstandsmitglied
Bedürfn@@
Spieler
hochwer@@
Gegenposten
EZB-Ratsbeschluss
notierte
assess@@
Also
expor@@
üh@@
OR@@
Reference
tend
content
gebot@@
Direktion
resol@@
betonen
Irti
Innen@@
eden@@
differing
verfahrens
messen
yth@@
registriert
Zeitrahmen
Fokus
442
imed
rebuild
reveals
883
Duration
Zusammenfügen
vierten
erweitert
images
Griech@@
THEAT@@
11.00
refl@@
533
650
One
Harmonisierung
EU-Länder
Ni@@
geld@@
anz@@
Entschlossenheit
optimale
Accounting
längere
lierte
Aufrechnung
Christos
Marc
Fr@@
Kontext
keit@@
ther
Arkitekter
Handbuchs
deliver
ähl@@
varied
Neshka
extra
verringern
einzubehalten
geringerem
ak
Bed@@
Gressenbauer
ssm
cel@@
consult@@
Streich@@
Zeiträume
Dokumente
Wachst@@
ast
Tecnico
game-20.new-euro-banknotes.eu
241
Zypern-Pfund
Kapitalpläne
Llobregat
7.2
Is@@
registri@@
Raphaèle
FÜHLEN-SEHEN-KIPPEN-Test
nungs@@
Online-@@
panel
zahlreiche
GAAB-MFI
Dienstleistungs@@
Zuweisung
heb@@
cas@@
ign
Dessy
Hils
admini@@
Thiele
enh@@
Wertberich@@
Künstlerhaus
www.sepa@@
Aspekten
mid-@@
Erörterung
schloss
vereinbarte
fth
modi@@
www.neuesgesichtdeseuro.eu
financed
Rom@@
alling
Umrüstung
CRR
außerbilanziell
Druck
Empfänger@@
transmission
IP
gg@@
conduc@@
circus
install@@
Chair@@
PI@@
ritt
attaches
gefesselte
Hochhausgebäude
underline
Kalendern
Kant-Oberschule
versch@@
fs
anhalten@@
Nostra
redeemable
Publication
regional
angesetzt
7,2
151
repräsentiert
422
plat@@
Ankaufprogramm
urged
UNG
eingefügt
einnehmen
Oguzhan
sozi@@
Textes
Finanzstabilitätsfonds
stammte
CQA
Abdeckung
Seite
dien
150
anischen
onn@@
schwank@@
virtu@@
Philharmon@@
ular
aggregated
entschied
demateri@@
Controlling
währung
hervorge@@
mand@@
fügt
exceeds
Stresstest@@
fordert
abhän@@
producers
-T@@
lots
AT01
späteren
Sotiropoulos
Available-for-@@
ans
External
zuge@@
technologischer
altet
spiel@@
repres@@
enz
wann
residential
tungs@@
unterschiedlicher
altung
Yerolympos
beträchtliches
geräte
autaire
zöger@@
intro@@
hr@@
verstärkten
Euro-Währungsraums
leich@@
street
S.
anzupassen
entirety
innovatives
zählt
Funktionierens
tradition
Zi@@
knap@@
renamed
gründliche
acqua@@
wing
orate
distinguish
Enchanting
Nennwerten
on-balance-sheet
MBS
And@@
schutz@@
B
BI@@
depend
eingestellt
opened
Giorgos
mel@@
indicated
Kammerorchester
Nadácia
seizure
-Migration
funktioniert
Zentralbankunabhängigkeit
ruling
pra@@
did
Erfüllungsperioden
ump@@
Anlagewerte
URE
Jahresvergleich
foun@@
Stiftung
Carl-Ludwig
Weber
schedules
Violinso@@
fällige
anst@@
Prix
ausgehend
forderungen
Ölpreis@@
Ent@@
1,0
artist
gesetz@@
2,2@@
constitute
basiert
week@@
inländische
einander
,000
ners
gän@@
läne
angeboten
opt
Lettische
Ech@@
Fortschrittsbericht
Kandidatin
high-quality
renomm@@
behalf
securitised
Angemessenheit
politi@@
Българска
res
un
Anbietern
stip@@
wirken
ausführlicheren
Expertenteams
Gonzaga
Testzentren
bislang
bin@@
TOP
hope
concludes
specified
ement
gel
rän@@
Kontonummer
Aufmerksamkeit
Preisniveau
six-week
Makúch
llen
blat@@
Ivan
Amato
another
tradi@@
Zinssätzen
www.euro-area-statistics@@
öffentlich@@
33.2
gs
Überweisung
eit@@
Gast@@
0.75
Kontobezeichnungen
removed
höchsten
andauern
SIT
260
Eing@@
forder@@
Bevor
2,50
TARGET
Banknotenbearbeitungs-
Dobreva
hren
einheitlicheren
monatliche
vertraulich
minim@@
SEPA-Umsetzung
-term
&gt;
anticipated
ß@@
Interessen@@
unverzüglich
reiches
Secundária
Depository
Münzfälschungen
online
RU@@
Brâncuş@@
Fähigkeit
Licht@@
Rechenschafts@@
enlarged
risk@@
gemein@@
betrag
att@@
pound
Nicht@@
Sandro
angemessenen
Skyline
break@@
produziert
gigen
Gewalt
entwick@@
weiterer
EHEN
Religi@@
ical
5.
nam@@
letzte
aufweist
networks
führung
lossenen
restric@@
regina.schuller
geworden
zusehen
conferring
thin
ulierung
geführter
assurance
Bankkunden
TEN@@
combined
proc
gelassen
relevance
Sicherheits@@
Lehr@@
komplex@@
Ensembles
berei@@
Fin@@
-Noten
regularly
Regierungspräsidium
mortgage-backed
likation
drive
Certificates
Fundación
Zsolt
supported
staatlichen
zumindest
bek@@
Vorstellung
Kündigungsfrist
sm@@
counterparts
Dollarbestände
Verlustab@@
prim@@
Bauantrag
Data
einhalten
Kabalevsky
Jahresbericht
Duchesse
responses
16.
dro@@
einstimm@@
CET1-Kapitalinstrumenten
kin@@
organisierten
prospective
402,58
south-eastern
EB@@
Ereignissen
atta@@
Film
Hochhaus
ghted
aufgedeckten
Modifikationen
recommended
Xavier
kennenzulernen
printing
atur@@
gelder
ingredients
theater
überzeu@@
Entwurfskonzepte
üdi@@
Klarstellung
Künstler
Stabilisierung
hohem
Zentralstaaten
definieren
cations
Occasional
Verbindungs@@
nachzuweisen
Zuständigkeit
Neben@@
pflich@@
thanked
Dies@@
dynamic
Aufnahmen
finanziert
Ausführ@@
sitz@@
Louvre
betroffen
doch
strengthening
forward
DIT@@
quir@@
inhabitant
ections
Konversion
Ključ
128
zigen
fristiger
Umfangs
trôle
Beweis
condolences
Energie
getan
kal@@
book
aufsicht
stärkere
conclusions
ESRB-Sekretariat
Belgique
exclusively
Georg
56
Scheme
cle
Sirkka
Euro-Länder
auth@@
cash-@@
TE@@
TÜV
text
367
Kurzem
band
Stich@@
deteri@@
Seigniorage
kurzfristige
Veranstaltung
157
Architekt
audit
risiko@@
Minimum
estim@@
Stamatis
sou@@
ECOFIN-Rat
eff@@
Initiativen
prospects
einseitigen
tries
Hronca
reas@@
Landes@@
Ausgab@@
England
ism
Vorläufiges
Pocket
402
chern
Nahrungsmittel@@
AG
margin
Massenzahlungsverkehr
eleg@@
mechanisms
isier@@
origins
NUOVARMONIA
enting
arian
uni@@
weite
hre
Xaloc
lug@@
Costis
wesentlich
continuous
fäl@@
Redaktion@@
wohl
Empf@@
ves@@
351
thy
anerkannten
wering
Prüfungen
indirek@@
53
ordin@@
sanken
Wiederauftreten
93
Gerätehersteller
Architekturbüros
unser
Ur@@
Finanzpolitik
Geschäft@@
Kaiserstrasse
mir@@
©
tsch@@
daraus
auss@@
Hierbei
executive
zusammenge@@
~
steu@@
remembering
2,0
zusammensetzt
abzu@@
Round@@
zul@@
Ob@@
Altwährungen
Franco
solch
eastern
get
Willy-Brandt-Platz
praktiken
To@@
rounds
stop
Auseinandersetzung
NC@@
6,@@
Sicherheitenrahmens
zeitgenöss@@
Brian
Bundes
verlänger@@
Verantwortlichkeiten
beschreibt
Zusätzlich
stages
stän@@
Europe@@
Apart
EMAS
Second
Sprachfassungen
ließ@@
Letzteres
Skride
Aigars
fast
icht
Wechselkurspolitik
emb@@
eight-@@
erörtert
printed
Konten
enkt
Break@@
akter
Neuer
Sponsoren
-0,10
¾
M1
Fir@@
dürften
Schrit@@
musik@@
Strafverfolgungsbehörden
fluctu@@
diversified
paper
Hoch
Town
unterliegt
änger
compli@@
gutes
Srednja
ehemali@@
Falschgeldanfall
Bestehen
prob@@
Co@@
accelerate
gers
lek@@
Bankensektors
CH@@
schreiten
MUSI@@
Hurbana
Secondary
string
lira
navig@@
human
Richt@@
wohltätigen
anist
Bargeld
beschlagnahmte
describes
largest
car@@
Karteneinsatz
zugestimmt
ual
gewich@@
ürmen
contributing
entwicklungen
lesser
3,2
schuldung
Wettbewerbsrunden
III-90
pres@@
George
Börse
Working
playing
henceforth
yields
allo@@
low@@
direkter
war@@
Soli@@
Partnership
gige
Zugelassene
stelle
Gegensatz
wreath
Ertrag
vorbereit@@
gerichtet
Betrags
folglich
Bas@@
rely
TABS-MFI
2,005
Echtheitsprüf@@
Konjunktur@@
Care
yearly
Madrid
Ü@@
Elsässer
Umweltamt
Fiscal
Debit@@
geeinigt
ziele
foc@@
stat@@
Qualitäts@@
atory
gestaltet
levy
obtain
esses
long-run
Nominal
zins
u.
Schw@@
1024
Exp@@
1,400
allmählichen
32
KE@@
Felix
erciali
hand@@
Thomas
Hamar
ff
daten
differentials
Unsere
Euro-Gegenwerts
Fortsetzung
ständigen
kapit@@
maxim@@
leitet
Betrug
Ostend
freundlichen
Liam
216
dical
ut
greens
Abenden
woh@@
aufkommen
Buchwert
detailing
Decisions
ausschreibung
schlagen
query
38
AT03
rach
z.
three-@@
wettbewerb
Einlagen-
explicit
verwend@@
verli@@
newfaceofthe@@
anc@@
zeigte
jüngster
methods
äl@@
Ort
substance
Money
städte-
tums
üll@@
schaf@@
wicklungsverfahren
Vielmehr
ffene
Liefer@@
Girokonten
staatliche
undheits@@
arge
duc@@
directed
Kostas
Most
handlers
Particular
ands
reit@@
Strafverfolgungs@@
ordnete
Directors
ail
Vorsichtsprinzips
resultierten
88
Familie
land@@
ms
Kasterlee
begrüßte
ann@@
klärung
befasst
Entdeckung
COM
DG-IS
Man@@
ette
Origin@@
lässlich
5,1
Forde
edition
Hauptrefinanzierungssatz
vorübergehender
Lösung
ron@@
Third
Mal
Nettogewinns
II.
Schuljahr
rasch
certified
aved
alten
Abwicklungstag
Instruments
mp@@
erarbeitet
software
selten
Tra@@
por@@
ologischen
modern@@
Dubra
Haushaltskriterien
accepting
bar@@
schwer@@
Fani
Fortschrittsberichts
e.g.
Gegenüber
etc
Kaiserstraße
gestrigen
Media
Roh@@
wes@@
match
Kinderchor
474
demonstrated
Ανοιχτή
postpone
folgten
SSM-@@
Frei@@
Solbes
zusätz@@
Th@@
289
indirect
arti@@
geschätzt
Hall
Ursprungs
pre-scheduled
zierungs@@
quelle
tungsgemäß
wären
suggests
Tal@@
vorangegangenen
Referenzkursen
Nederlandsche
detecting
Stresstest-@@
Melikyan
rotating
Einwohner
Medium-Term
ocks
distinction
translate
Sehschwachen
HI@@
erinnern
distribute
interessi@@
although
stärkt
europä@@
flows
693
aversion
Karamanova
MTL
Bronze
zumeist
rückläufig
berichten
414
verlassen
gefördert
formen
141
Risiko
ou@@
gerin@@
Claudio
fizier@@
Programm@@
Forschung
communicating
angebotenen
EG
folk
elek@@
els
anteil
outflows
Dohnányi
Überschusses
trapiantati
Ungewissh@@
ränk@@
Geldnachfragefunktion
techn@@
geared
BNB
aside
Beginns
tory
Individual
Apkalna
Sehbehinderte
Polje
strikt
273
Roth
Konsultationsverfahren
Jeugd
drucks@@
Kulturtagen
ast@@
ungewissen
entstandenen
Werken
summar@@
Darlehen
Kunst@@
Part
Daughters
bestimmen
Outright-Käufen
slowenischen
tro@@
Euroländer
ator@@
Capge@@
üt@@
signs
regulations
recommends
pers
ced
bank@@
Bilanzergebnis
flexi@@
enbezo@@
vent@@
gängige
Beschränkung
Stresstest-Basisszenario
Laufzeit@@
Hans@@
commission@@
derogation
hoch
98,0
auftreten
Preis-
White
Har@@
Fei@@
Kordakis
Autorité
rachten
complex
ultimately
EU-Kommissar
theit
fälschungssicherer
Et@@
lin@@
human@@
replaces
Jazz@@
Fremdwährungsforderungen
ausführ@@
29.
55@@
Jugend@@
x@@
guiding
Akzeptanz
safely
aufmerksam
weltweiten
G
Standard@@
appro@@
avoiding
eite
Anteilseigner
unveränderte
Rechnungslegungsmethode
www.snb.ch
Instituut
Transformation
campaigns
236
on-site
indivi@@
Wirtschaftswachstum
gebeten
orisch
stücke
tlichen
alt
Lusitano
5305
ah@@
Schüller
membership
Biston
Anti@@
1648
Tr@@
Unterstütz@@
hinzu
Werke
attended
3.2
col@@
Another
hier
considerably
deficits
TARGET2-Securities-Programm
698
sitzungen
möglicherweise
wicklungsplans
mitglieder
st-@@
gan@@
problemlos
Sancta
Komponisten
musik
usage
sches
durchgeführte
www.facebook.com
Beschäftigungswachstum
2,289
darstellt
relocation
Öffent@@
OR
Autom@@
238
Metzler
Garantien
421
choice
Techni@@
gutgeschrieben
denomin@@
ut@@
банка
dits
reassessed
verlie@@
Yiorgis
notenbankfähiger
Mark
tagen
Interventionspunkt
165
not@@
statistiken
nern
226
trä@@
Gretta
nil
identifi@@
head@@
Di@@
-to-@@
lüss@@
gewinne
portra@@
Öl@@
dur@@
umsp@@
sierung
Leitzinsen
kündi@@
Le@@
diesbezü@@
docum@@
Refinanzierungs@@
erwor@@
Ausgleich@@
ke@@
t-@@
environ@@
ities
Joh@@
Form@@
tigungs@@
val
unser@@
potenzi@@
Beteili@@
alisation
FEE@@
international@@
Hel@@
spe@@
37@@
direc@@
leit@@
materialien
kredit@@
Vorstands@@
System@@
isk@@
57@@
aufs@@
beträch@@
Gru@@
mmt
stleister
iness
fu@@
run@@
ünden
zeichnen
plann@@
transi@@
stattet
unver@@
work@@
ator
ermöglich@@
broch@@
migr@@
jahr
mechanismus
Rating@@
Pur@@
Car@@
änderte
comparis@@
ements
läuft
accel@@
ion
gegeb@@
cip@@
prec@@
bezieh@@
ehen
Währungsgebi@@
Hilfe
drück@@
laufs
build
sit@@
raß@@
vol@@
ran
acknowled@@
ologi@@
conclu@@
Port@@
Verbrauch@@
ennen
risik@@
Übersch@@
consoli@@
stry
noti@@
rifft
scra@@
wöchiger
mechanisti@@
klass@@
exerc@@
ons@@
BT@@
enditen
ger-term
uld
Schüler@@
shed
mechan@@
lusses
antly
schätzung
tra
aul@@
fenen
54@@
rien
ful@@
teach@@
Währungs@@
eignior@@
Neubaus
dreimonati@@
é@@
Dän@@
schrift
commun@@
OMT@@
illion
ker
halten@@
fik@@
sichts@@
adap@@
holders
norm@@
Referenzwer@@
Kategori@@
alsch@@
xim@@
step@@
io
Informationskampag@@
mail
Vol@@
Zwei@@
chi@@
ER@@
effek@@
expan@@
Tit@@
ult@@
werten
Teil@@
sures
effici@@
advan@@
scheidung
förder@@
verkauf@@
soci@@
Jur@@
gebäude
fri@@
endation
zur@@
ight
tas@@
unbesich@@
ursprün@@
kbereiche
ling
häufi@@
Rap@@
städte@@
Einheit@@
id
mort@@
erfüll@@
ahmen
Wor@@
wend@@
ming
abwicklungs@@
aud
punk@@
big@@
korrigi@@
Volum@@
nation@@
otograph@@
Anla@@
xed
fonds
flation
targe@@
mark
Autor@@
asi@@
gremi@@
Gegen@@
steiger@@
selkur@@
continu@@
55
rein@@
durchschnit@@
upd@@
incre@@
Berater@@
entgegen@@
tower
Kammer@@
Deu@@
aly@@
maß
greif@@
kurs
pläne
ließen
ftw@@
Not@@
82@@
üren
.eu
euro@@
ISCHEN
Anteil@@
tz
liers
ohär@@
Radio@@
beit
Öff@@
tner
gestell@@
Stell@@
offer@@
reicht
problem@@
stütz@@
Politi@@
erfolgs@@
duced
differ@@
bedeutend@@
zuführen
erungen
Bankenauf@@
et-Backed
Stellvertre@@
Maß@@
national@@
dist@@
int
bilan@@
though
account@@
Pra@@
Hin@@
ority
Ei@@
typ@@
Effizi@@
ungsverfahren
disc@@
missions@@
photograph@@
begr@@
lities
baren
stab@@
einfach@@
upgra@@
widmet
französ@@
Sk@@
statistik
sech@@
umän@@
appropri@@
nor@@
Korrek@@
blätter
kredite
abo@@
Künstl@@
ehmen
flo@@
gangs@@
teren
associ@@
umsraten
=
Gedenk@@
ady
contro@@
lows
stehende
Mar@@
html.
ält
thaben
otos
king
ķ@@
tice
ext@@
riti@@
ead
erwähn@@
gungs@@
urities
Leg@@
Indic@@
with@@
ationsp@@
frü@@
Volk@@
overeign
volumen
wür@@
recipi@@
ure@@
Jah@@
Bundes@@
Stu@@
geleit@@
Eligi@@
richt
Aufsich@@
proc@@
ended
conom@@
EW@@
fassungs@@
geleist@@
griech@@
happ@@
ardi@@
inn
grundsätze
Lit@@
iled
Verwaltungs@@
edb@@
ierte
geld
zeichnung
betrags
avail@@
ong@@
ländische
visu@@
Euro@@
hen@@
geschäfte
Woh@@
genu@@
ell@@
Verbess@@
Eröffnungs@@
geschri@@
oto@@
Brand@@
usi@@
lob@@
ähn@@
sm
Posi@@
Einkommensumlauf@@
eins
SE@@
ub@@
26@@
defin@@
pft
erinn@@
ori@@
gungen
ery
ﬂ@@
Pf@@
zuver@@
trig@@
Kl@@
bro@@
cial
Qual@@
aum
Jo@@
rahmen
els@@
enber@@
institution@@
Region
appoin@@
erc@@
leihen
wach@@
Gonz@@
vered
3.
Aggreg@@
Zyklus
etent
rechnung
Beschäf@@
hab@@
urr@@
Summ@@
makro@@
orisier@@
deri@@
bindung
compos@@
ising
elben
Europa@@
He@@
üssen
aussage@@
Beit@@
strateg@@
verblei@@
ers@@
aden
Geldmengen@@
Zei@@
racht
smus
maten@@
Durchschnit@@
Komment@@
bess@@
Cul@@
eth@@
ährungsgebi@@
Mech@@
communi@@
völ@@
umfang@@
stehend
econom@@
rag
ragende
main@@
Bar@@
sco@@
issu@@
schieden
kre@@
9@@
TA@@
Ven@@
requ@@
tonumm@@
Mass@@
ust@@
ahl@@
länder
Tradi@@
kro@@
regel@@
ght-@@
method@@
Distribu@@
Ris@@
fähiger
ausstattung
Bewer@@
usted
Augen@@
Fehl@@
Gui@@
esse
Entwurf@@
moder@@
Zwöl@@
Kurz@@
dings
elen
fassung
feren@@
vis-@@
funk@@
fore
tsächlich
tives
ada
beobach@@
klassi@@
orities
Bulg@@
ese
ou
EC@@
herence
aktionen
realisi@@
sion@@
rechtzei@@
orrow
reco@@
onom@@
Nachhal@@
tival
level@@
read@@
Av@@
advis@@
enges
liefer@@
Zun@@
tiveness
auszusch@@
aran@@
wär@@
che@@
sicherheit
harmonisier@@
fr@@
wegen
Achiev@@
histor@@
redit
öm@@
gs@@
Ill@@
konz@@
Kapitalverkehr@@
erreich@@
differenti@@
macro@@
-b@@
entschei@@
enarien
ture@@
Länder@@
full@@
Erör@@
ook
asse
responding
Halb@@
gerechnet
wahl
ducing
fälli@@
mittelbar
U
airment
hnen
Monats@@
EE@@
IG@@
Sta@@
europ@@
otenzi@@
ieten
Mindestreserve-@@
Banknoten@@
new@@
bud@@
DER@@
poli@@
terungen
staat@@
FÜHL@@
stätte
obj@@
ury
signific@@
leistet
grenzüberschreit@@
Sub@@
ext
resi@@
tigem
Einzelhänd@@
G-10-@@
ber
Da@@
akt
ots
sermittlung
kontinuier@@
Bran@@
We@@
ps
ribed
practi@@
3.1
shment
conditional
pop@@
ārs
sphase
allel
tier@@
teilungs@@
gliederung
tori@@
ards
barkeit
communic@@
tour@@
titionen
turbul@@
aler
ire
mäß@@
ond
Musi@@
EZ@@
fälschungs@@
enheit
to-@@
rea@@
leav@@
emer@@
inst@@
Ger@@
sek@@
Vereinig@@
ective
tin
omin@@
verordnung
ennung
Einzel@@
wur@@
zusetzen
lease
titel
jo@@
EL@@
Protokol@@
tungen
Viel@@
.org
dually
Sol@@
Bet@@
Möglich@@
ont
gical
Prof@@
lar@@
entral@@
Instrum@@
ills
unanim@@
accept@@
timmt
ble
onds
Inform@@
bedeu@@
chn@@
banknot@@
Kün@@
ME@@
Fam@@
isl@@
MFI-@@
CB@@
hilfen
gi@@
ficates
sst
auß@@
our@@
exhib@@
effizi@@
ül@@
20@@
oun@@
cultur@@
sz@@
conta@@
sure
apit@@
ufen
WK@@
ring@@
ah
clu@@
High@@
ellectual
wind@@
rin@@
Fi@@
cru@@
reichung
proper@@
gement
behinderte
Besch@@
sensi@@
Syst@@
ternative
ot
Rating
Honor@@
cluding
mittel
logenheiten
zugel@@
SMP-@@
27@@
Mindestbietungs@@
estions
Prüf@@
tente@@
disclo@@
ymp@@
Wol@@
sätze
distinguish@@
gran@@
RA@@
thank@@
cat@@
cor@@
anfän@@
prozent@@
schließ@@
suppor@@
pen@@
gezi@@
MEN@@
denti@@
Fren@@
eili@@
bed@@
fab@@
sterin
Haushal@@
wher@@
würdi@@
vig@@
zeitraums
tations
il
thre@@
zurückzu@@
bü@@
Komp@@
indi@@
lt
takt
14.@@
ogra@@
�
star@@
country-@@
Höhepunk@@
Currency-Board-@@
zep@@
gil@@
Lang@@
weder
Arti@@
tained
geladen
jährige
plying
announ@@
Lo@@
bildung
confirm@@
group@@
enn@@
wir@@
nachgel@@
absch@@
becom@@
Oper@@
Jaz@@
nu@@
pru@@
cast
wirkungen
stück
fasst
Rub@@
König@@
zy@@
kontak@@
cements
gangenen
Regierungs@@
chte
ES
geprüf@@
ub
shing
lag@@
atur
alisi@@
gehand@@
Dau@@
behörde
ren
P
Stab@@
Slowak@@
Neubewer@@
erweise
Banknotenserie
Rus@@
legisl@@
schla@@
vergabe
Währungsraums
Generaldirek@@
elung
läge
aufkommens
Fortschrit@@
Pfandbrief@@
ders
adt
welt@@
Amtsspra@@
succ@@
Schwar@@
zentrum
ectively
etting
tel@@
ciently
kreis
candi@@
ier
EURO@@
präsentiert
Aussch@@
speaking
bli@@
posit
Stat@@
übersch@@
ues
prolong@@
Muster@@
xis
erleich@@
1-@@
Engli@@
Zinsstatistiken
safegu@@
Jumbo-@@
gener@@
IA
Eas@@
dent
stausch
Schau@@
Schatzwech@@
Dien@@
achst@@
tin@@
lät@@
Geldnachfra@@
Dreimon@@
EU@@
agen@@
spi@@
emit@@
Zinsänder@@
Ressourc@@
201@@
Woch@@
ilfe
Porträ@@
rüst@@
schau@@
Kapitalsch@@
Pal@@
behalten
jähri@@
recomm@@
Noten
verwen@@
getro@@
premises.@@
glie@@
Ziel@@
angehalten@@
preis@@
trol@@
ams
nehmer
Entsch@@
ener@@
ark@@
anspru@@
Zw@@
Personal@@
son@@
atorischen
Star@@
fün@@
politik
konsolidi@@
dissemin@@
de.@@
sonsti@@
schläge
ies
ek
proz@@
Meet@@
dic@@
ÄNDER@@
liefert
Kommis@@
-D@@
pf@@
ränkungen
egu@@
Mod@@
inflation@@
Mand@@
incorpor@@
adily
Schwellen@@
ys
strä@@
onstr@@
beziehung
ien
reichend
dauerhaf@@
Bal@@
enfor@@
access@@
umb@@
gegenwär@@
übertra@@
Sicherh@@
etable
purch@@
ziell
enter@@
provisi@@
Tab@@
promin@@
illions
erhi@@
irgend@@
six@@
summ@@
eign@@
Nov@@
ety
reiten
ster@@
favour@@
tic
geräten
markth@@
Pre@@
Pri@@
mer@@
umination
tly
fier
konten
Eben@@
prüf@@
exper@@
gehende
gebäu@@
mental
Mö@@
Verbind@@
recast
ymph@@
Klar@@
beteili@@
professi@@
län@@
agre@@
Col@@
müs@@
larg@@
Concertgebou@@
Antwor@@
smo@@
bung
nal
Quart@@
dex
pos@@
eindeu@@
ous@@
h-@@
abilities
Dokum@@
beaufsichtig@@
respond
allow@@
na
Cho@@
veys
mann
empir@@
Liquid@@
tner@@
benen
aufsich@@
verd@@
direk@@
func@@
ferenz
na@@
ner
ology
ption
contin@@
unds
erschein@@
plac@@
pi@@
makroökonom@@
Wh@@
ISCH@@
beh@@
änger@@
aggregi@@
limin@@
außer@@
EN@@
quot@@
schaff@@
Verkaufs@@
FI@@
wil@@
öst
zer@@
rah@@
ym@@
Ra@@
Schaff@@
vorgeseh@@
hol@@
anian
ook@@
Rich@@
wieder@@
berech@@
da@@
ressed
decre@@
wiegende
avoi@@
Seh@@
oriz@@
.2
Z
jub@@
policy-@@
Beh@@
high-@@
Direc@@
befrist@@
Bri@@
hälfte
R
CET1-@@
RO@@
stag
extre@@
Slowen@@
gemäß@@
Held-to-mat@@
wendung
Schwei@@
veranstaltung
ple
go@@
stil@@
B-@@
milest@@
ärk@@
ktiken
Rechnungsho@@
Ann@@
bert
essive
Gele@@
X
Nieder@@
Rumän@@
fix@@
Hung@@
baulichen
Ye@@
Plat@@
cont@@
Ts
inty
aggreg@@
öß@@
zept@@
exce@@
zogen
otenzial
berichts
intensi@@
mus
präsent@@
Geldsch@@
perio@@
preci@@
blei@@
Bestand@@
kalender
a.@@
sions@@
applic@@
Gewinn@@
hil@@
solidi@@
rach@@
Dem@@
projekt
o-@@
ne@@
vorher@@
fah@@
künf@@
Ne@@
acceler@@
proj@@
ichteten
schlä@@
Malt@@
schriften
bulg@@
episo@@
dies@@
glichen
sam
south@@
Russ@@
sol@@
NZB@@
down@@
el-@@
institut
gliche
Bürger@@
beträ@@
fundament@@
aktion@@
ativ
ear@@
eger
Direk@@
dation
schein@@
ples
Entscheid@@
Druck@@
reser@@
up@@
ep@@
wicklung@@
Gu@@
Fotogra@@
tioning
befin@@
unterstütz@@
Bekannt@@
Tech@@
II@@
order@@
nown
geeign@@
mot@@
kunden
dende
Kor@@
dual
Fälsch@@
Eng@@
IPP@@
prizew@@
etzt
ima@@
12@@
völk@@
loaded
ßen
Langfrist@@
Weiß@@
teln
largement
launch@@
Gest@@
Fortschritts@@
Counter@@
beg@@
vorüber@@
Ther@@
atz
ern@@
reformen
eingerei@@
br@@
erkmale
Eigenk@@
acqui@@
Bestimm@@
junk@@
Sonder@@
gewöhn@@
Kompon@@
beeinfl@@
SR@@
ress
Zinser@@
global@@
kräftige
lätter
ässi@@
dau@@
verpflich@@
phy@@
kator
Pl@@
annten
einsatz
EM@@
able-for-@@
impai@@
zentren
gezahl@@
gements
Bonitätsbeur@@
geren
zum@@
Zwec@@
automatenindustrie
ichts
Wo@@
orie
Geldnach@@
Teen@@
aled
Oberbürgermei@@
Neubau@@
schritt@@
Defiz@@
Förder@@
Outri@@
Kommuni@@
com
ymphony
Güter@@
biet@@
vereinbar@@
ja
index.de.@@
od@@
Frankfur@@
ebsit@@
Pak@@
örderung
feat@@
onor@@
Bereit@@
inso@@
excell@@
erts
halb
alien
Rh@@
häl@@
äß@@
ungsver@@
lig
comb@@
raten
Bankenaufsichts@@
gebot
bilität
ventive
züglich
specifi@@
faceb@@
klär@@
rangi@@
geschä@@
solution
projek@@
Ok@@
är@@
..
import@@
üss@@
fts
verhältnis
reb@@
tnern
Eig@@
Himm@@
quali@@
Europ@@
Wider@@
tment
tie@@
ängerin
Konsult@@
ulates
reich
defi@@
evalu@@
sively
ald
c-@@
consist@@
va
erw@@
Rechen@@
automaten
Thir@@
allgem@@
dert
leafl@@
chungen
tick@@
Wer@@
folge
wohl@@
Brü@@
asst
envor@@
Überwach@@
Hand@@
hi@@
Produktivitäts@@
seek@@
ort@@
style
cal@@
Nettogew@@
weiterführ@@
Rec@@
ns
adj@@
gestie@@
schuldverschreibungen
lung
Massenzahlungs@@
kün@@
Stimm@@
cust@@
ill
complet@@
Mil@@
sicher@@
einkünfte
rehensive
Rhyth@@
Tätig@@
olog@@
wohner
ore
amp@@
ampa@@
Bewertungs@@
year-@@
Sprachen@@
ture
ren@@
om
gem
Gesch@@
X@@
leitenden
atis@@
gra@@
tom@@
leist@@
tungsgewinne
Anf@@
Latvij@@
äss@@
lüsse
Ergebn@@
AS
National@@
Fol@@
art@@
soun@@
ro
ache
dank@@
lev@@
lauf@@
eld@@
organ@@
ermin@@
ächst
kunft
geleitet
rags
1,4
son
medium@@
wendungen
zugän@@
ades
fon@@
lined
…
ras@@
reichen
sank@@
ränkt
Energi@@
renam@@
glob@@
relev@@
fähi@@
sations
TAB@@
ih@@
konzert
slowak@@
curr@@
näh@@
Finanzsek@@
dium
Nomin@@
geführten
Risik@@
stim@@
Bewertungsabsch@@
emen
beinhal@@
excep@@
tensi@@
ausgew@@
thir@@
Mr@@
geschwindigkeit
Eth@@
oth@@
optimis@@
-run
deb@@
rückläufi@@
ov@@
gründ@@
deckung
vis
überarbeit@@
besich@@
belie@@
anticip@@
währ@@
dacht
cio
fam@@
lights
abli@@
0-
monetär@@
Zwischen@@
ounced
ausreich@@
acqu@@
resili@@
dequ@@
länder@@
Gi@@
peri@@
Han@@
et-backed
represent@@
angewand@@
zahl
consi@@
tu@@
inning
sity
bankfähi@@
seitigen
zentral@@
remov@@
operates
geringer@@
expec@@
vari@@
rel@@
val@@
downs
OO@@
maßgeb@@
bench@@
riterium
verkehr@@
fikationen
gh
ILT
ises
chest@@
Kön@@
Pru@@
akzep@@
üben
sug@@
erhöh@@
itt
ased
Wahr@@
rieren
Geb@@
Bo@@
ewed
Gegenwer@@
Letz@@
Angel@@
behinder@@
Institu@@
69@@
cement
Gebäu@@
withdraw@@
sprüf@@
ressive
Erhöh@@
trans@@
trolle
ologie
ain
ann
Hochh@@
länger@@
veau
wirtschafts@@
landsc@@
öl@@
Dok@@
theat@@
punkt
Ste@@
schnit@@
sieg@@
begrü@@
oblig@@
ferred
solo@@
Stück@@
PP
kation
Mark@@
Beobach@@
govern@@
bestimm@@
orienti@@
Sw@@
Ċ@@
dige
AR@@
incompati@@
amber
verfol@@
urity
Consum@@
institu@@
Zahl@@
eas@@
Ausschreibungs@@
leiden@@
Lan@@
Asm@@
üsse
88@@
entsp@@
günsti@@
gri@@
mal
verkehr
Falschgeld@@
1.en.@@
stie@@
Curr@@
Zulassungs@@
irk@@
zahlungen
nutz@@
struk@@
turm
empl@@
angemess@@
europa@@
lands
instrum@@
sweise
Est@@
beizu@@
ads
stamm@@
ahme
EZB-Rats@@
fahren
Falschnoten@@
zulegen
Til@@
ic
gegen@@
folgen@@
.@@
ßer@@
vertrag
Durchschnitts@@
erseits
ehmig@@
ergebnis
setz@@
eiß@@
Nutz@@
port
ually
andi@@
visi@@
beein@@
nungsbaukredite
onitäts@@
öh@@
gering@@
Banknot@@
-week
punkte
ringen
Stru@@
beralisierung
sten@@
schuld@@
gruppen
n-@@
Hochhaus@@
writ@@
eingestu@@
Dra@@
Indi@@
Garanti@@
party
erforder@@
anish
umfass@@
ertifizierung
kators
zug
Eins@@
opping
KULTURTAGEN
Berichts@@
empor@@
Claude
desig@@
zeitraum
Ma@@
enarios
etzen
roati@@
Cs
Marktteilnehm@@
Eink@@
nowled@@
anis@@
weis
erie
Kreditgewer@@
adver@@
cert@@
bring@@
Prozent@@
vorgeschla@@
Geschäf@@
dalities
Einkommens@@
grund@@
turns
Do@@
assum@@
ta
Struk@@
läss@@
test@@
ungsverlu@@
rati@@
tend@@
legungen
certi@@
ök@@
long@@
It@@
Exper@@
Amat@@
Bankkon@@
brücken
ilität
aktivi@@
Kategorie-2@@
Mini@@
tende
Erwar@@
staaten
maß@@
uss
k-@@
Dis@@
assten
erklär@@
follow@@
angew@@
onder@@
Christ@@
Addi@@
gefähr@@
verbindlicher
Beschl@@
Wertmin@@
ok@@
alt@@
toren
mäßige
Än@@
Sicherheit@@
ank
gm@@
Prägeanst@@
höch@@
ciples
Ehr@@
zierung
basi@@
sky
nommen
Regelung
tinu@@
ust
I-@@
Under@@
ert@@
tent@@
erhalb
‚
lei@@
fü@@
hinzu@@
stabilitätsorienti@@
runn@@
allmäh@@
bauen
aß@@
Fü@@
bekannt@@
vereinf@@
reserven
beige@@
stered
short@@
schlag
reiben
H
lär@@
let@@
ther@@
Ander@@
laufen
verfüg@@
loss@@
-vis
Basissz@@
len
Staatsan@@
Verlust@@
forese@@
crete
einigt
schließenden
gar@@
Finan@@
ffi@@
defic@@
ausgesch@@
sis
Medien@@
zun@@
Bei@@
Held-to-maturity-@@
CBPP@@
vorange@@
betrach@@
fanden
zins@@
Publik@@
pan@@
riff@@
ände
tho@@
achiev@@
fähigkeit
Interess@@
vorh@@
zugelass@@
Beis@@
-to-GDP
log@@
occa@@
jap@@
Bu@@
eration
mali@@
vigil@@
Falschgeld-Analyse@@
angehör@@
ked
supp@@
Lehrkrä@@
zwei@@
äh@@
Platz
troll@@
fluss
glicher
schied
port@@
Liquiditäts@@
mits
Falschgeldan@@
ics
def@@
Vergleich@@
Analy@@
Mi@@
RG
ichts@@
lungs@@
wards
compar@@
kum@@
grenz@@
d-up
ässigen
bilanzen
Kar@@
ant@@
Zusamm@@
sat@@
gang
mitted
lik@@
cy
rib@@
beeinträch@@
jek@@
relati@@
Ausschreib@@
drückt
priv@@
stellungen
halb@@
wachen
teristi@@
Mär@@
Tex@@
steva
ring
ils
Fra@@
gru@@
mei@@
F
berücksichtig@@
risiko
usst
tee
Vertr@@
