#version: 0.2
e n</w>
i n
e r
e n
t i
c h
e r</w>
a n
u n
r e
t h
o n</w>
o n
d i
i t
i n</w>
s t
a l
a ti
a r
o r
s i
e d</w>
a t
d er</w>
e l
r o
b e
a c
e i
l i
th e</w>
m i
e s</w>
en t
o f</w>
a s
o r</w>
e in
un g</w>
s ch
u r
a b
g e
o l
d en</w>
a u
i e</w>
s e</w>
di e</w>
e t
un d</w>
a l</w>
an d</w>
i r
u l
in g</w>
o m
e c
i s</w>
t o</w>
c h</w>
t en</w>
i s
mi t</w>
ati ent
g en</w>
d o
a s</w>
e h
v on</w>
i l
ti on</w>
v er
u s
a n</w>
d e
r i
l e
ati on</w>
w it
a p
wit h</w>
m g</w>
d e</w>
a t</w>
w er
en t</w>
i ch
a m
e s
an d
l o
t e</w>
t e
c on
u r</w>
s p
m a
in i
h o
I n
l e</w>
m p
T h
m e
w en
a g
a d
f f
p ro
P atient
t er
s e
be i</w>
o der</w>
h r
f or</w>
a v
n o
u m
y o
A n
f ü
p o
in e</w>
S ie</w>
s u
l u
t re
t r
f or
b e</w>
ein e</w>
ti on
w ir
g en
e b
Patient en</w>
a k
d er
a ch
d u
un gen</w>
t er</w>
A r
z u</w>
v i
m it
is t</w>
ich t</w>
u m</w>
c om
l y</w>
S t
m ent</w>
c e</w>
a f
p er
p atient
patient s</w>
wer den</w>
ch en</w>
0 0</w>
e p
at ed</w>
Ar z
o p
ein er</w>
e k
at e</w>
me di
i c
i g
w e
ac h</w>
l ung</w>
b er
ei t</w>
s ol
ti v
t s</w>
p re
V er
w ur
e x
au f</w>
D ie</w>
s ho
ar e</w>
no t</w>
d es</w>
Th e</w>
li ch</w>
l et
n icht</w>
fü r</w>
u t
B eh
un g
si s</w>
D o
e m
Beh and
i er
u di
m en</w>
w h
con t
al s</w>
c o
a r</w>
l as
B e
g i
g r
ul d</w>
ab let
g e</w>
ati on
as e</w>
i e
n e
u s</w>
yo u</w>
do se</w>
n ei
in f
h al
sch en</w>
a h
sho uld</w>
nei mit
medi c
el l
p h
i m
e m</w>
du c
b o
ec tion</w>
wir d</w>
at ment</w>
s y
m l</w>
i m</w>
r an
d a
q u
e v
d ur
er ap
Behand lung</w>
t o
as s
k an
I n</w>
S ch
ch e</w>
si on</w>
t en
ä l
A b
w ei
d ung</w>
s in
g l
tre atment</w>
ung s
r u
m on
Arz neimit
s ti
z ur</w>
e it
o b
ag e</w>
ä n
in c
a in
l ini
er e</w>
mp f
h y
E r
ff ec
o th
te l</w>
a z
k ungen</w>
k eit</w>
for m
d as</w>
f i
b er</w>
n ach</w>
m e</w>
z u
s en</w>
t ed</w>
tion s</w>
m en
w as</w>
yo ur</w>
. .
n en</w>
s t</w>
it y</w>
e in</w>
sol l
1 0</w>
4 .
th at</w>
de m</w>
al l
ur e</w>
t or</w>
m o
g er
t el
f ol
i d
h av
ma y</w>
t ak
p l
wur de</w>
an ge
en d</w>
w i
g n
p a
on e</w>
t ablet
au f
s ul
u se</w>
b in
An wen
hav e</w>
hr en</w>
h i
b is</w>
d r
s er
ö r
st er
v e</w>
s o
z ei
st r
d ed</w>
e ffec
o c
m ini
re d</w>
z en</w>
5 0</w>
si er
p r
wer e</w>
i d</w>
ac k
W ir
be en</w>
an t</w>
o d</w>
Anwen dung</w>
tiv e</w>
ü ber</w>
su b
A l
ti g
t ;</w>
st o
b y</w>
sch e</w>
sin d</w>
us ed</w>
o h
E in
d y</w>
kan n</w>
R e
u f
de t</w>
p p
n it
c k
s el
er en</w>
R i
0 .
wur den</w>
in j
s en
ad mini
do c
eb en
P ro
e ti
p i
u t</w>
st udi
0 ,
as s</w>
ar m
d ro
I h
d ing</w>
s am
h and
st e
B lu
x i
au s
ti s</w>
p ar
g t</w>
v ed</w>
ab le</w>
Wir k
Arzneimit tel</w>
d ass</w>
ent s</w>
cont ain
er h
v er</w>
Do sis</w>
v or</w>
l en</w>
ent r
an ce</w>
a st
d en
Arz t</w>
In f
wen det</w>
c al</w>
sch nit
medic in
ein em</w>
z i
doc tor</w>
pro duc
re c
li ch
St udi
wir kungen</w>
te t</w>
di es
E n
lo w
b lo
f er
un k
si ch</w>
n ah
a m</w>
m al
w ie</w>
b en
oth er</w>
h as</w>
t ro
en th
si eh
ö h
se e</w>
s or
r a
e u
ö s
li e
e ar
m us
i o
In j
g el
f ro
t om
Ab schnit
r in
af ter</w>
y l
gl ei
w ä
ein en</w>
p or
ar y</w>
m in
tion s
si ch
an ti
be hand
u tion</w>
e se</w>
ac eb
ol o
0 0
sieh e</w>
f o
fro m</w>
ar t
h at</w>
ac c
i t</w>
mp tom
i mp
al ly</w>
I f</w>
v or
an g
an c
Be i</w>
th erap
ange wendet</w>
f il
N eben
P h
1 00</w>
li chen</w>
k g</w>
Inj ek
k on
tablet s</w>
m er
e l</w>
H y
W en
m al</w>
k o
el y</w>
D i
wen n</w>
t ei
pre s
b it
soll te</w>
ö n
p en
2 0</w>
re as
ge b
Blu t
e mpf
g re
Studi en</w>
al l</w>
le v
Abschnit t</w>
1 2</w>
p ri
at en</w>
o l</w>
s on
or e</w>
it ä
u b
r is
p e
E s</w>
k eine</w>
ab o
ä r
s o</w>
s ection</w>
c lini
y c
u p</w>
äl t</w>
a d</w>
Wen n</w>
i f</w>
medic ine</w>
th is</w>
ation en</w>
eh men</w>
m et
i r</w>
k ön
U n
h ab
th o
un ter</w>
un den</w>
W o
en z
Neben wirkungen</w>
g h
re ac
studi es</w>
for e</w>
k in
on i
un ter
it e</w>
re com
m m
.. ..
enth ält</w>
blo od</w>
bin ation</w>
M on
T ablet
g lich</w>
ü ber
l t;</w>
& lt;</w>
behand el
st u
S y
3 0</w>
in ter
th an</w>
hr end</w>
St u
si gn
si on
r it
al e</w>
z ier
an y</w>
a x
re por
st en</w>
re sp
f l
ös ung</w>
inj ection</w>
d ar
recom men
an t
en ce</w>
ge s
arm ac
w n</w>
li che</w>
v ir
k ran
effec ts</w>
le t</w>
1 ,
per i
H er
el le</w>
1 .
itä t</w>
inc lu
w ar
a mi
0 00</w>
ma b</w>
a hr
Arzneimit tel
re qu
ü n
contain s</w>
t es</w>
o x
o t
m a</w>
v ol
D ur
k lini
w ach
eh r</w>
es s</w>
hab en</w>
a g</w>
aceb o</w>
tion en</w>
Ri si
ation s</w>
A c
clini cal</w>
au s</w>
y s</w>
ch t</w>
v en</w>
t ri
kön nen</w>
us am
str ation</w>
dur ch</w>
C Y
u sion</w>
K on
P A
s ure</w>
sol ution</w>
re ich
fü hr
a il
nah me</w>
al i
5 .
th er</w>
K in
wä hrend</w>
dur ing</w>
s es</w>
recommen ded</w>
c an</w>
wir k
l or
H o
i ch</w>
s ed</w>
M e
l in
fol low
A us
ell en</w>
j e
s k
ob ach
tre ated</w>
tr an
ti c</w>
ar k
s s</w>
u ro
i a</w>
f e
Stu die</w>
el l</w>
in u
H au
b re
stu dy</w>
th ro
n o</w>
admini stration</w>
sp re
E U</w>
en z</w>
y p
c ar
V or
mi l
b i
& #
&# 9
av ir</w>
form ation</w>
g ro
soll ten</w>
ge sch
ph armac
l ei
h ig
e mi
l ed</w>
in di
t ä
P l
CY P
C H
2 5</w>
n ehmen</w>
wen den</w>
reac tions</w>
r en
o us</w>
ti k
be obach
in tr
I N
ep ati
L eb
wh o</w>
R E
P ack
ris k</w>
Dur ch
p ack
K om
f unk
C h
in g
at ri
r au
empf oh
f en</w>
ti c
z um</w>
gh t</w>
ear s</w>
h e
v acc
w or
rec ei
a hren</w>
t h</w>
tak e</w>
z e</w>
m at
re l
di se
wh ich</w>
c or
Ü ber
Risi k
G e
Injek tions
medicin es</w>
Sch w
er hal
da y</w>
en c
erap ie</w>
reas ed</w>
kin eti
D er</w>
con c
si b
si de</w>
n or
ati ent</w>
w ie
glei ch
ver se</w>
s af
f f</w>
u g
p er</w>
z entr
m ore</w>
2 4</w>
vi r</w>
t s
y ears</w>
we ek
h ä
A U
W hat</w>
ch lor
om men</w>
i de</w>
resp on
ff ic
d ec
w ar</w>
ap pro
e t</w>
w il
be fore</w>
il y</w>
n is
F il
t z
hi bit
ob ser
h er
A T
e g
c i
and eren</w>
al y
repor ted</w>
gi ven</w>
Tablet ten</w>
re duc
al so</w>
N ier
erh öh
d at
Leb er
produc t</w>
se ver
admini ster
au ch</w>
E R
dise ase</w>
lie ß
c au
ac k</w>
it s</w>
in formation</w>
at ely</w>
er i
v en
H ä
re s</w>
b el
medicin al</w>
hy dro
T ev
sch wer
z y
we it
di s
ch il
6 0</w>
wil l</w>
sign i
b le
las che</w>
ber ich
wei se</w>
l en
m on</w>
klini schen</w>
Tev a</w>
I mpf
n e</w>
m ö
1 5</w>
therap y</w>
4. 4</w>
j u
week s</w>
ini b</w>
sch ließ
ör per
ur s</w>
tr ä
a gen</w>
sy mptom
obser ved</w>
er t</w>
oc c
A uf
unter su
tre ten</w>
a be
wh en</w>
en s</w>
al en</w>
beobach tet</w>
der n</w>
sier ung</w>
Wo chen</w>
administer ed</w>
or y</w>
E x
ti n</w>
ti gen</w>
k e</w>
et y</w>
mer zen</w>
I hren</w>
x im
uf ig
tro l
av ir
E ine</w>
A N
l ungs
h um
f ic
v al
ul ation</w>
te st
ar ma
re ase</w>
W ie</w>
ac t
e d
da ily</w>
s h
4 0</w>
pre gn
sto ff
tä glich</w>
f ir
e -
t w
follow ing</w>
d ri
ar d</w>
l on
b r
ar z
si st
k ung</w>
tak ing</w>
mon th
ge w
es s
el ten</w>
eh r
ac tive</w>
I I
ap p
b as
s ä
et z
im m
c ap
Th is</w>
in n
in al</w>
ad verse</w>
du k
ver y</w>
z o
inclu ding</w>
gr am
ä mi
po si
sto ff</w>
ste ch
l us
F er
ti g</w>
sti t
all s</w>
1 0
ge h
Ein nahme</w>
bo dy</w>
th ese</w>
I t</w>
l an
g ung</w>
A R
pa red</w>
M en
el s</w>
com p
Nier en
G en
ec tions</w>
Fil m
Durch stech
s sen</w>
pp e</w>
ul ar</w>
sy rin
cont inu
M et
las ma</w>
si s
ol y
av en
li p
S T
Durchstech f
Ih r</w>
re m</w>
po ten
E uro
o s
lo w</w>
war en</w>
m bo
t ab
d ru
si e</w>
ec i
form ationen</w>
d y
conc entr
mus t</w>
F or</w>
usam men
ho sp
month s</w>
da ys</w>
sul in</w>
ge m
Wirk sam
m -
k no
g lich
ass ung</w>
Film tablet
inf usion</w>
i l</w>
st ör
imp a
com bination</w>
a emi
re g
co ated</w>
Sy mptom
2 ,
n ur</w>
do mi
ri b
g in
gen ommen</w>
8 0</w>
A u
m in</w>
2 .
st eh
se in</w>
e k</w>
Inf ek
ti al</w>
at er</w>
vi al</w>
un c
a b</w>
1 8</w>
pa in</w>
es t</w>
sch er</w>
il e</w>
dur ch
Un ter
hy per
T ag</w>
A L
1 4</w>
in d
in -
ar i
ma x</w>
l ösung</w>
e f
do ses</w>
cont ro
2 -
or al</w>
h öh
d et
com pared</w>
saf ety</w>
ein es</w>
ec ted</w>
V ir
do sis</w>
h epati
ge gen</w>
ac t</w>
I V
s ite</w>
m ul
T ier
v o
ren al</w>
le ss</w>
st ell
r ate</w>
p atient</w>
v ing</w>
t t
or t
re sul
sever e</w>
s om
7 5</w>
inc reased</w>
pl acebo</w>
sch w
dat a</w>
Y o
2 00</w>
ab e</w>
tiv ity</w>
tab let</w>
v as
sib le</w>
k en</w>
er s</w>
as es</w>
sub st
schließ lich</w>
c le
In formationen</w>
ä h
tak en</w>
h in
D aten</w>
oc i
v it
M i
t or
av ail
a -
.... ....
cap sul
ti me</w>
ü ck
re icht</w>
l y
v el
st er</w>
D E
intr aven
fil m-
St unden</w>
ol e
abo li
ti ge</w>
m an
Z usammen
D o</w>
symptom s</w>
c ro
s ur
g an
film- coated</w>
com mon</w>
gleich zei
P er
untersu cht</w>
h ad</w>
ge l</w>
g s</w>
behandel t</w>
Ho w</w>
wach sen
u sion
olo g
n t</w>
g t;</w>
U N
& gt;</w>
ol e</w>
j ec
empfoh len</w>
ab reich
syrin ge</w>
ex po
A d
ic k
E N
o xi
ah l</w>
I mm
il ity</w>
ho urs</w>
Th erapie</w>
st än
lev els</w>
h er</w>
führ t</w>
Wirksam keit</w>
en den</w>
D as</w>
sy st
b ar</w>
Risik o</w>
Ih rem</w>
k eit
E PA
for der
el lung</w>
ä ß
ati ve</w>
dies er</w>
en de</w>
ass oci
mit tel
be t
I hr
1 1</w>
dar f</w>
at ten</w>
as t</w>
dr en</w>
Er kran
H um
us ing</w>
u p
m ehr</w>
Kom bination</w>
u te</w>
on -
ein schließlich</w>
di um</w>
m s</w>
c k</w>
effec t</w>
S ich
s c
imm un
ad ul
er gi
An ti
impa ir
g keit</w>
dies es</w>
a in</w>
fir st</w>
Behand lungs
impair ment</w>
ation s
a ffec
c a
ug h</w>
be kan
P ar
ü r
ämi e</w>
sk in</w>
ex peri
en en</w>
al f
9 5</w>
Patient s</w>
pre -
än der
wi th
su ch</w>
ac id</w>
J ahren</w>
h a
aemi a</w>
Pack ungs
li f
S p
Durchstechf lasche</w>
EPA R</w>
T ab
in hibit
inc rease</w>
ex c
e ding</w>
Sich erh
2 8</w>
z el
m ary</w>
spre ch
avail able</w>
Imm un
us pen
L ösung</w>
L i
ic ity</w>
al le</w>
yp e</w>
to x
Me di
a th
mi s
m es</w>
ge gen
AU C</w>
oth erap
n dro
un d
associ ated</w>
i gen</w>
den en</w>
ad ju
arma ko
ffic ac
In ter
sub jec
gen den</w>
f re
i c</w>
is ed</w>
f in
E ach</w>
and ere</w>
z eit</w>
p lasma</w>
op en
n ach
m ark
n ess</w>
w o
fficac y</w>
ak tionen</w>
gro up</w>
funk tion</w>
de vel
f unc
C om
z we
chil dren</w>
a y</w>
T I
S ub
Pl acebo</w>
ut an
st and
on ly</w>
mus s</w>
abo ut</w>
1 ;</w>
&#9 1;</w>
ein mal</w>
In hal
A S
1 6</w>
N ach</w>
ti l
Symptom e</w>
tw o</w>
zier t</w>
glei ch</w>
fü hren</w>
Filmtablet ten</w>
CYP 3
uspen sion</w>
Hy per
A C
Th ere</w>
S er
Kin dern</w>
zu mab</w>
li er
in ation</w>
Arzneimittel n</w>
cau se</w>
con si
f requ
berich tet</w>
oni c</w>
gegen über</w>
b en</w>
is ch</w>
ig er</w>
Fer tig
3 ;</w>
&#9 3;</w>
o -
at ing</w>
produc ts</w>
er hi
J e
mon it
behandel ten</w>
af let</w>
di ese</w>
c lo
W h
vacc ine</w>
geb en</w>
on ce</w>
g er</w>
1 7
G ru
sä ure</w>
Ih nen</w>
be s
tran s
fil led</w>
a si
N e
Her z
re du
C on
A po
sel n</w>
K örper
1 -
li k
k l
erhi elten</w>
der s</w>
o gen
li ver</w>
re at
in to</w>
f äl
erhal ten</w>
d -
sp rit
indi c
contain ing</w>
. e
di sor
ver sch
er forder
li c</w>
h eit</w>
etz t</w>
G r
th or
in es</w>
or s</w>
M P</w>
an ger
u fi
Do sis
P r
1 50</w>
st ens</w>
b ro
Kon zentr
pharmac o
en e</w>
ar ance</w>
5 -
v e
sch af
ar r
ran domi
zei gt</w>
y el
so wie</w>
di o
ch an
op h
es en</w>
func tion</w>
ti s
ff er
b il
ufi g</w>
nah men</w>
ax el</w>
sch merzen</w>
g lu
4 -
u e</w>
subjec ts</w>
k ro
Ver gleich</w>
st ellung</w>
ge führt</w>
be il
9 0</w>
ter i
er e
em o
ö ß
po s
ab ol
F äl
wi schen</w>
le aflet</w>
inf ection</w>
Packungs beil
G abe</w>
syst em</w>
p hosp
k om
4. 2</w>
nis se</w>
eu ro
eh en</w>
d ine</w>
zwe i</w>
oh ne</w>
m ü
t ung</w>
N ut
Arzneimittel s</w>
s si
Packungsbeil age</w>
hum an</w>
d el
arz neimit
ar m</w>
2 0
respon se</w>
enc y</w>
consi der
Injek tion</w>
sp eci
li c
ig e</w>
expo sure</w>
er weise</w>
N o</w>
J u
k ul
k s</w>
N atri
wei ght</w>
th e
t lich</w>
st ab
gen d
ach t</w>
armako kineti
Hy po
he al
el ine</w>
ein nehmen</w>
e fficacy</w>
lus s</w>
spre chen</w>
lu s</w>
auf treten</w>
me as
at s</w>
kon trol
W e
o fo
gen er
P ul
En t
4. 8</w>
l ä
O N
wachsen en</w>
ut ro
signi fic
sho wn</w>
ein genommen</w>
anc er</w>
tho ut</w>
sin g
f ul
Wirk ung</w>
p ack</w>
m b
h ear
Al ter</w>
pro t
l es</w>
er g
P las
m äß
o ver
f alls</w>
b li
wi thout</w>
we ek</w>
m u
ent ly</w>
ac et
W as</w>
Tab elle</w>
O N</w>
A B
im medi
i li
R es
C max</w>
sti mm
nor mal
it ab
zei g
z wischen</w>
x ed</w>
ie gel</w>
ec t</w>
do p
d re
al u
om en</w>
Ver abreich
Gru ppe</w>
th ek
mul ti
Apo thek
r o</w>
lie gen</w>
D ie
usam men</w>
um ini
mi cro
contro l
re lev
3 00</w>
un de</w>
met aboli
g -
b ar
Inf usion
z usammen</w>
ste mi
requ i
CYP3 A
c ell
c ally</w>
1 3</w>
pre- filled</w>
et en</w>
ac to
P o
pr o</w>
erhal b</w>
ap seln</w>
T age</w>
s ing</w>
ber eit
6 .
gr u
de stens</w>
Die se</w>
ver ab
pe an</w>
gin n</w>
a de
Euro pean</w>
y k
G es
Apothek er</w>
verab reicht</w>
mü ssen</w>
m 2</w>
p tion</w>
ati n</w>
Vor sich
po p
ne ed
m us</w>
lip tin</w>
ic al</w>
form in</w>
st ru
at es</w>
ma in
b io
pack age</w>
o ver</w>
min destens</w>
er at
be tr
art an</w>
stän di
e th
pharmac ist</w>
p en</w>
nor mal</w>
E N</w>
l am
v al</w>
st op
h an
c al
az ole</w>
u re
pregn ant</w>
olo gi
le ast</w>
kno wn</w>
e ach</w>
con di
all ergi
with in</w>
so dium</w>
cor d</w>
s ec
adju st
pharmaco kineti
ne ed</w>
Do sen</w>
wi esen</w>
er n</w>
capsul es</w>
le ase</w>
er sten</w>
di es</w>
c ancer</w>
Ihr e</w>
v ent</w>
f ac
erforder lich</w>
hepati c</w>
d a</w>
am p
Mon ate</w>
t a</w>
recei ving</w>
r än
stell t</w>
Wo che</w>
tox icity</w>
d om
posi tion</w>
c y
we en</w>
et axel</w>
devel op
Schw anger
to xi
in sulin</w>
ak ti
A D
avir in</w>
an s</w>
z w
y l</w>
P -
subst ance</w>
II I</w>
z ap
sy stemi
o li
mo der
is ation</w>
bet ween</w>
ab ility</w>
st ar
pro vi
H C
mo st</w>
O R
Je de</w>
1 8
ur r
O r
Mi kro
Ac cord</w>
g lichen</w>
f all</w>
t al</w>
pro ble
gr öß
Z eit
Verabreich ung</w>
A k
3 .
w der</w>
t ing</w>
h eit
fi kan
V i
reat in
l än
hy dr
control led</w>
te mp
t ol
enz y
ran k
ie dri
bekan nt</w>
ahr e</w>
ma xim
F ü
anc y</w>
re i
hä ufig
f r
dis continu
Nut zen</w>
d ing
3 ,
t ype</w>
sing le</w>
Hä ufig
ä ch
affec t</w>
em m
do ch</w>
F ach
weit ere</w>
signi fikan
las s</w>
l ständi
h än
ä tz
trä gt</w>
ast ro
CH MP</w>
2 1</w>
gram m</w>
consider ed</w>
arm a</w>
abe tes</w>
E re
po st
ent sprech
S pr
Infusion s
ör per</w>
in hal
immedi ately</w>
et zen</w>
be stimm
T re
t -
af il</w>
J ahre</w>
m ar
inn erhalb</w>
heal th
c ases</w>
vol lständi
sam e</w>
n ec
et re
e di
c ep
E L
o w</w>
n ten</w>
m L</w>
ges etzt</w>
in su
alf a</w>
d an
pa th
n iedri
bre chen</w>
P re
d s</w>
t u
funk tions
z ahl</w>
mö glich
medi z
hear t</w>
e y
Pul ver</w>
az ol</w>
f lu
cell s</w>
L ev
fer on</w>
ere fore</w>
be ein
aly sis</w>
Ju gend
tran sp
ster o
rin ger
mit tel</w>
Tablet te</w>
Ph arma</w>
z ität</w>
empfoh len
Ein zel
3 -
in test
i schen</w>
at ory</w>
5 00</w>
sen si
ge f
e z
di ffer
ch sel
be steh
I S
Ges am
re b
phosp h
ole dr
mil ar</w>
vir us</w>
ch en
be son
Th ro
G ra
B re
ri tis</w>
n um
ev ents</w>
der e</w>
T able</w>
pi do
o se</w>
ei r</w>
adul ts</w>
U m
P R
dop a</w>
Pack ung</w>
Hau t
F or
ff en</w>
r a</w>
pido gre
m ei
pri or</w>
m el
ge stellt</w>
ge sam
al er</w>
Schwanger schaf
L y
Fertig sprit
pro te
ent lich</w>
ch r
ang s
I U</w>
H IV
G el
w ich
gl yc
ex p
do gs</w>
T r
E R</w>
B li
p ä
I V</w>
C lo
ini ti
i es</w>
bas eline</w>
as ch
6 5</w>
4 8</w>
tre at</w>
th eir</w>
st e</w>
rau en</w>
moder ate</w>
F rauen</w>
C I</w>
poten tial</w>
Injektions lösung</w>
CYP 2
0 -
un der</w>
s w
ess ment</w>
betr u
C O
tei l
recei ved</w>
ev alu
durch geführt</w>
bas ed</w>
al in</w>
K rank
qu i
er kran
e a</w>
arzneimit tel</w>
pidogre l</w>
ami v
5. 1</w>
po wder</w>
o mi
vit ro</w>
p t
ge t</w>
ff i
f t</w>
e very</w>
be trägt</w>
Ere ig
A s
ß nahmen</w>
bel ow</w>
au thor
a sis</w>
. E
z eit
vol um
tion al</w>
c an
ar n
W ass
5. 2</w>
4 00</w>
stör ungen</w>
schwer er</w>
an im
ag liptin</w>
ad di
st elle</w>
re e</w>
l ag</w>
gr und</w>
es c
HIV -
studi ed</w>
io us</w>
hä ufig</w>
ab or
Do c
Blu t</w>
pri ate</w>
p unk
in s
di sp
al o
z un
xim ately</w>
tho se</w>
si milar</w>
hig her</w>
be sch
a di
stand tei
k ehr
fol genden</w>
em etre
las t</w>
kon zentr
dies en</w>
cont act</w>
M ut
Hau t</w>
C -
art on</w>
U L
B et
therap ie</w>
rel ated</w>
pop ulation</w>
n on-
inf lam
g lo
duk tion</w>
ach e</w>
Wirk stoff</w>
R ep
K no
D y
pregn ancy</w>
op le</w>
n te</w>
je doch</w>
du e</w>
c ul
au er</w>
stru c
reduc tion</w>
n i
su pp
experi ence</w>
at or</w>
un t</w>
an wenden</w>
Yo u</w>
Re aktionen</w>
1 7</w>
w ater</w>
stit ution</w>
r on
for mi
ass en</w>
Z u
7 0</w>
reduc ed</w>
lei ch
i st
for t</w>
ch tig
el t</w>
disor ders</w>
bo tt
T ran
vi du
con tr
Her stellung</w>
Do sierung</w>
u mab</w>
need le</w>
mediz ini
Be standtei
2 2</w>
si ve</w>
mit ed</w>
com it
betru g</w>
Ex position</w>
ü h
s ehr</w>
re gi
o us
en ti
Körper gew
B er
i g</w>
empf ind
ben ö
thro mbo
P V
zei chen</w>
ph y
f assung</w>
W el
T H
O ther</w>
I C
occ ur</w>
ne t</w>
gl it
er te</w>
c ell</w>
b ut</w>
at o
an e</w>
ac tivity</w>
ö ch
v ar
utro pen
som e</w>
ous ly</w>
appro priate</w>
Spr it
hy po
emetre xed</w>
am et
Infek tionen</w>
Er wachsenen</w>
sign s</w>
peri od</w>
otherap y</w>
h ol
glit az
fe st
abol it
T -
F l
th ere</w>
st ellen</w>
pe ople</w>
han g</w>
we ver</w>
s uspension</w>
i b</w>
hydro chlor
fl us
et ing</w>
H epati
w omen</w>
t l
s um
eti n</w>
c are</w>
appro ximately</w>
ach ten</w>
ach en</w>
F i
über wach
ffi zi
eb en</w>
ag no
5 6</w>
ur s
pos sible</w>
mal e</w>
ha em
h atten</w>
fü g
Sch merzen</w>
O n
ier t</w>
F ol
Do sier
äh n
stör ung</w>
re sist
ge zeigt</w>
Thro mbo
Infek tion</w>
z wei
tri als</w>
te m
f ail
et w
effec tive</w>
do es</w>
concentr ations</w>
ble eding</w>
b t</w>
sti e
o ut</w>
keit s
gre s
M yl
4 5</w>
d ür
to tal</w>
me an</w>
c yc
S I
Inf usion</w>
therap eu
t on
lich keit</w>
bo th</w>
ag ed</w>
ac ep
Sicherh eit</w>
Myl an</w>
M us
u al</w>
k el
be w
Yo ur</w>
S il
Di es</w>
sier t</w>
a c</w>
lan zap
et e</w>
ati c</w>
O lanzap
su s</w>
se -
inf ections</w>
at t
al ten</w>
Zusammen fassung</w>
gen de</w>
ver urs
requi red</w>
etw a</w>
ch ang
An zeichen</w>
Al l
4 ,
.E .</w>
ent w
ah er</w>
ac tion</w>
vas tig
ho w</w>
f ar
G l
ver b
formi eren</w>
entw ick
c ular</w>
c s</w>
ain st</w>
acto se</w>
Mikro gramm</w>
no ch</w>
f ahr
ag ainst</w>
Men schen</w>
th ree</w>
po in
indi vidu
hig h</w>
Erkran kungen</w>
u dine</w>
ti l</w>
om a</w>
er fol
dür fen</w>
c in
be im</w>
ati o</w>
H art
3 5</w>
utan e
ter n
oth erapie</w>
m ents</w>
e ar</w>
arr ho
ac ro
Wass er</w>
Natri um
0 1</w>
t an
sy ndro
pres c
li st
Inhal t</w>
. euro
är e</w>
tic s</w>
or d
l ant
h or
T ei
Fü r</w>
in ary</w>
er ung</w>
be i
Hart k
C ar
.euro pa
z ep
un til</w>
möglich erweise</w>
as ti
R A
c aus
CYP3A 4</w>
A pp
A f
k lin
an den</w>
ad ol
C o
1 9</w>
y p</w>
ti es</w>
te m</w>
su g
c utane
Wir kungen</w>
udi n</w>
t um
phy si
lo z
lif loz
i az
ag lifloz
Zusammen hang</w>
sp e
ma .europa
An tik
4. 5</w>
2 6</w>
sch ein
or en</w>
ain ed</w>
ac kungen</w>
ab alin</w>
P oly
av o
I .E.</w>
tiv ität</w>
är en</w>
th ritis</w>
t ur
hal er</w>
h el
astro intest
Ver änder
pack ung</w>
et er
Schwangerschaf t</w>
.e u</w>
per son
ge geben</w>
bit te</w>
af en
Erkran kung</w>
Doc etaxel</w>
s al
meas u
kontrol lier
E X
tol er
ti sche</w>
t wi
sec on
po t
a re
Jugend lichen</w>
A g
on avir</w>
num ber</w>
ne uro
ffizi enz</w>
ch o
ant ly</w>
Th ese</w>
0, 5</w>
o m</w>
hi st
b rin
Z oledr
P atient</w>
N S
N A</w>
M a
0. 5</w>
........ ........
sp ro
L ös
Körpergew icht</w>
wh ite</w>
tik a</w>
reac tion</w>
fü h
ak tion</w>
Clo pidogrel</w>
ver s
ur se</w>
ungs mittel</w>
I m</w>
2 00
se l</w>
di st
d o</w>
am in
mit tl
ma.europa .eu</w>
e p</w>
aglifloz in</w>
ac ter
Al umini
studi en</w>
signific ant</w>
l ag
gr asti
er k
Fertigsprit ze</w>
- T
ver ringer
s etzen</w>
pres sure</w>
anc es</w>
Vorsich t</w>
Hy dro
sor b
re con
qui val
prote in</w>
c y</w>
N o
Mon aten</w>
Hum an</w>
Bli ster
z us
um ar
hal ten</w>
ass essment</w>
ver füg
me th
ho l</w>
Wirk stoff
Aus sch
7 .
i en</w>
grasti m</w>
az ep
twi ce</w>
m ut
h ard</w>
gram s</w>
S i
In hibit
5 ,
2 50</w>
imp ro
b u
an p
aly se</w>
a w
In sulin</w>
1 6
vo m</w>
par tic
es p
ben e
Er höh
B as
r are</w>
intraven ö
in duc
condi tions</w>
Ver sch
Ri b
Plas ma
H B
ü t
wirk ung</w>
tei l</w>
resul ts</w>
proble ms</w>
inf lu
in en</w>
ang er</w>
a ge
Wh en</w>
wirk t</w>
t eten</w>
U r
T agen</w>
R atten</w>
zwei mal</w>
z a</w>
w oh
v ari
si a</w>
insu ffizienz</w>
fail ure</w>
c itab
ab hän
U R
Ph armakokineti
I R
DE R</w>
le it
inter feron</w>
f all
ell ing</w>
de f
ti schen</w>
temp erat
p in</w>
aceb o-
P reg
E T
Bre ez
4. 3</w>
ser ious</w>
gr enz
er w
b lin
a x</w>
a sier
Preg abalin</w>
Medi c
Häufig keit</w>
wer te</w>
wei ß
o ff
it us</w>
anti -
Tre atment</w>
Impf stoff</w>
n is</w>
low er</w>
li sh
bes ser
T oxi
T en
T el
L -
E p
Be ginn</w>
ne um
mil d</w>
er n
cle arance</w>
H in
2 3</w>
pres sion</w>
om it
in de
id ne
eg entlich</w>
con comit
adjust ment</w>
S -
Pro t
K op
F lu
spe zi
r as
for t
fi t</w>
behand lung</w>
be ing</w>
adol esc
Per son
Ho wever</w>
An zahl</w>
gru ppe</w>
gen an
entsprech end</w>
B L
su p
stie g</w>
län ger
lish ed</w>
gi o
ch ar
bott le</w>
Q u
Bestandtei le</w>
Af ter</w>
tiv a</w>
p oly
glu co
den afil</w>
avir enz</w>
Z eit</w>
T o
7 ,
6 -
ver sus</w>
v es
t open
schw anger</w>
o b</w>
klin isch</w>
c er
Risik en</w>
Rib avirin</w>
E mpf
v is
sensi tivity</w>
gleichzei tige</w>
atri c</w>
M it
ge ei
ful l</w>
eb site</w>
Nieren funktion</w>
sti l
mark eting</w>
fo od</w>
en -
ei ther</w>
do sing</w>
Er fahr
y -
wen iger</w>
pre vi
pp en</w>
l it
bene fit</w>
Ri vastig
wh ile</w>
o red</w>
intraven ous</w>
ain di
O R</w>
A tem
wer t</w>
ti mes</w>
t y</w>
ofo vir</w>
monit ored</w>
las chen</w>
el im
c all
blo ck
ben ef
auf ge
N or
H IV</w>
9 8</w>
ä hig
ver wendet</w>
test s</w>
qu o
pr ä
er ten</w>
der en</w>
Pro b
Ph ase</w>
2, 5</w>
olog ical</w>
min der
clini cally</w>
be vor</w>
b in</w>
a ir</w>
Sprit ze</w>
Sicherh eit
rän k
er al</w>
D a</w>
ü ssi
v o</w>
inhibit ors</w>
S u
M ark
E l
st s</w>
st ati
schwer wie
quo t;</w>
p on
micro grams</w>
hy l
ev er</w>
call ed</w>
b or
Gesam t
G eb
Er geb
C le
B u
& quot;</w>
st at
ser um</w>
quival ent</w>
k idne
b lu
allergi c</w>
O L
Men ge</w>
A -
ün sch
fi ed</w>
b one</w>
ation al</w>
arrho ea</w>
adolesc ents</w>
S te
Prob anden</w>
M il
A m
tiv en</w>
gre ater</w>
g es</w>
V -
R ev
D is
zo mi
k ein</w>
indic ated</w>
dre i</w>
a ys</w>
Impf stoff
E m
än n
zu ck
ris ks</w>
re ad</w>
ma ch
m ent
fl un
el n</w>
am o
acet am</w>
W ar
G lu
F alls</w>
E ff
Dosis anp
6 00</w>
v a</w>
sor i
p ub
o f
frequ ency</w>
W eit
H al
2. 5</w>
sub k
U se</w>
Fäl le</w>
z ü
vacc ination</w>
se en</w>
m ation</w>
funktions störung</w>
experi enc
c olo
ar d
UN G</w>
Sy ndro
Breez haler</w>
1 9
we der</w>
w el
ur red</w>
u ally</w>
provi ded</w>
peri ph
li mited</w>
at inib</w>
M ag
Kno chen
mö glich</w>
empfohlen e</w>
co -
aus gesch
Pharmakokineti k</w>
Fäl len</w>
A M
o dopa</w>
gen cy</w>
for m</w>
fo und</w>
auf grund</w>
S e
H emm
wie der
su ch
st and</w>
sp iegel</w>
sho w
re s
ran ge</w>
pri mary</w>
or r
k al
g liche</w>
cutane ous</w>
as e-
Hartk apseln</w>
H u
B o
tri citab
sp or
so fort</w>
o hydr
n at
klini sche</w>
ein gesch
dec reased</w>
benö tigen</w>
Z i
T ri
Ly mp
ut es</w>
punk t</w>
li ke</w>
id s</w>
ei ch</w>
Person en</w>
P E
äl t
vi ce</w>
ter m</w>
b zw
L e
Er brechen</w>
2 8
v es</w>
person al</w>
p lus</w>
be g
S om
Kon trol
K an
3 2</w>
tum o
sto p</w>
sp r
l ar
flun omi
di agno
de mon
bzw .</w>
au se
Hau pt
D I
C I
An sprechen</w>
A L</w>
über geh
zomi b</w>
mo l</w>
in k</w>
de x
T um
w w
st ro
repor ts</w>
i zier
c ol
av is</w>
anim als</w>
y ear</w>
xi mab</w>
ver änder
son sti
redu ce</w>
ra di
pro lon
enth alten</w>
be ding
We chsel
P emetrexed</w>
N icht</w>
L amiv
K reb
F -
zü glich</w>
w ell</w>
re lease</w>
p le</w>
le ch
h au
enz a</w>
e stab
demon str
ause a</w>
ah l
abo ve</w>
Ereig nisse</w>
Ü bel
zu gel
zeig te</w>
u k
r ats</w>
oth iaz
ma in</w>
k e
den ce</w>
Euro pä
überwach t</w>
s on</w>
s in</w>
nec ess
met formin</w>
kontrollier ten</w>
eben falls</w>
contro l</w>
ar ly</w>
Kin der</w>
Aus g
zo gen</w>
wei s
sum mary</w>
omit ing</w>
ma j
lif e</w>
em bo
com par
Th erap
E inf
ähig keit</w>
Übel keit</w>
zeig ten</w>
re k
m ehr
ar di
abe l</w>
Thrombo zy
C T
xi l</w>
so pro
op ath
k einen</w>
in ess</w>
form ed</w>
f ri
chan ge</w>
v eter
tz ün
m ine</w>
is o
inf ek
health y</w>
e gr
d ün
benef its</w>
a de</w>
T el</w>
S U
Injektions stelle</w>
F in
µ g</w>
y n
or ing</w>
lo g
inc id
il l
er er</w>
dru ck</w>
c ase</w>
T e
S an
En tzün
or t</w>
erw ünsch
en der</w>
di enen</w>
ad y</w>
D es
Über empfind
ver glichen</w>
relev ant</w>
pharmacokineti cs</w>
lich er</w>
di sopro
E V
An stieg</w>
5 2</w>
st ü
m m</w>
ly mp
hydro x
eh l
A s</w>
A I
3 6</w>
- K
woh l</w>
te zomib</w>
ra gen</w>
le ben
in ten
com e</w>
un der
tig er</w>
the y</w>
io glitaz
edi atric</w>
brin gen</w>
ade l</w>
P ioglitaz
P en</w>
Lös ungsmittel</w>
syndro me</w>
ph ase</w>
b l
Impf ung</w>
E M
tor en</w>
ten en</w>
rib ed</w>
necess ary</w>
c ir
ap hyl
S o
M asch
o sis</w>
estab lished</w>
chang es</w>
adul t</w>
z er
reas es</w>
par t</w>
ort ant</w>
ho h
dru g</w>
author isation</w>
Risi ko
Masch inen</w>
F lasche</w>
E L</w>
Cle arance</w>
1 4
ur ther</w>
ul ox
sp h
s m</w>
or ti
hyper ten
ge wiesen</w>
erhöh te</w>
erhöh t</w>
e vi
e de
de pen
b ri
Unter such
P eg
ton ie</w>
do sierung</w>
bew ahren</w>
art ing</w>
M I
Fach personal</w>
B es
t al
stu die</w>
hepati tis</w>
gres sion</w>
fi c</w>
f umar
dur ation</w>
di d</w>
beein flus
ac ute</w>
z ur
lev el</w>
füh l</w>
comp let
sol vent</w>
pl at
lo ssen</w>
gel mäß
g lass</w>
en sure</w>
di arrhoea</w>
be grenz
ami de</w>
age ment</w>
ad v
Ser um
Met formin</w>
un erwünsch
se t</w>
r acetam</w>
lo ss</w>
i on</w>
g ue</w>
eti racetam</w>
en d
dies em</w>
be achten</w>
af er
O F</w>
I -
Einf luss</w>
D ar
Ausg angs
A gency</w>
ut ed</w>
bli ster</w>
ab er</w>
Z ur</w>
w öch
st ri
p ul
n ung</w>
mis artan</w>
le -
las sen</w>
chan is
bre ast
an ts</w>
all en</w>
L un
E in</w>
zus ätz
zun ehmen</w>
ti de</w>
te gr
se qu
re gelmäß
post -
pl an</w>
ne g
ge ben
ffic i
con azole</w>
beson dere</w>
Mus kel
M o
K at
Auf treten</w>
00 1</w>
0 5</w>
volum e</w>
ver gleich
tre x
systemi c</w>
st arting</w>
sch es</w>
pharmacokineti c</w>
incid ence</w>
follow ed</w>
eh mi
d .</w>
appro ved</w>
Z en
W ei
v omiting</w>
tr aten</w>
stati sti
n ich
inhibit or</w>
dec rease</w>
d ate</w>
T ru
En d
E f
E 17
5. 3</w>
y to
or der</w>
exc re
discontinu ed</w>
San do
PA C
M inu
z z
ven tion</w>
st är
st an
medic al</w>
inflam mation</w>
ca p</w>
au ch
Sando z</w>
S uspension</w>
O p
M el
Dosisanp assung</w>
Di es
yc in</w>
us s</w>
tis su
t in
hor mon
gi g</w>
f es
chil d</w>
Th erefore</w>
pri m
or gan
mo di
in vol
gl y
g ri
et al</w>
ent ur</w>
Pr ä
Infusions lösung</w>
wie der</w>
t ain</w>
st ate</w>
s ch</w>
medi an</w>
k örper
in struc
g astrointest
evalu ated</w>
el ing</w>
d ungs
capsul e</w>
al le
M an
Ein nehmen</w>
wor k</w>
pr ü
pi pr
mal l</w>
l abel</w>
inclu ded</w>
il ep
et o
b and
R o
L o
L eu
Ag entur</w>
8 4</w>
4 2</w>
2 9</w>
schwer en</w>
recei ve</w>
mon th</w>
in nen</w>
ic in</w>
gro up
geei gn
es sen
el ev
bei den</w>
be tre
ati tis</w>
B ru
äl tlich</w>
ä u
ver wenden</w>
un e</w>
el i
eingesch ränk
ab r
R -
I L
H unden</w>
D ex
wh e
rau m</w>
h t</w>
h at
erh ältlich</w>
di n</w>
concentr ation</w>
arma k
R it
K ap
In ver
Di abetes</w>
D -
pl ac
i sche</w>
gleichzei tig</w>
fe eding</w>
en g
at h</w>
an alysis</w>
Weit ere</w>
R ap
P an
N ach
I I</w>
t able</w>
occ urred</w>
kidne y</w>
di lu
ag oni
u ten</w>
over dose</w>
inj ections</w>
i v
glich keit</w>
fin den</w>
experienc ed</w>
con duc
T al
B ri
A G
1 5
t ar
sonsti gen</w>
s us
ra dio
mus c
mach ines</w>
li zumab</w>
imp ortant</w>
gl yk
exp ected</w>
ede ma</w>
di abetes</w>
car di
al one</w>
Tei l</w>
K örper</w>
I S</w>
Gen ehmi
Europä ischen</w>
D e
1 0,
0 9</w>
ä di
si l
s ections</w>
pe g
kehr bringen</w>
Inver kehrbringen</w>
Ac t
verb unden</w>
s -
reatin ine</w>
gre di
en k
can not</w>
an zu
ac ap
Fl üssi
3 3</w>
1 0.
z id
ur tei
til ity</w>
sp ir
sor ption</w>
rec ep
k ommen</w>
inclu de</w>
gluco se</w>
g ed</w>
demonstr ated</w>
bar keit</w>
Eff ek
6 ,
0 2</w>
stit u
s mall</w>
r acht</w>
pub lic</w>
h ei
f urther</w>
f -
S eit
Genehmi gung</w>
1, 000</w>
Über dosierung</w>
veter inary</w>
u l</w>
sw elling</w>
sch n
otherap eu
monit oring</w>
lan g</w>
je wei
in hi
g o
am e</w>
Act avis</w>
Abschnit te</w>
ä ß</w>
z ellen</w>
vir al</w>
tiv ely</w>
thro ugh</w>
p sy
orr h
l s</w>
keit en</w>
heit en</w>
fol d</w>
dar auf</w>
arz in
Toxi zität</w>
S tr
Ne utropen
M ahl
B or
Ak tivität</w>
wirk sam
ri x</w>
on säure</w>
it t</w>
fi l</w>
ey e</w>
en ess</w>
ec k</w>
e ma.europa.eu</w>
cor ti
chlor ide</w>
K apseln</w>
vi val</w>
ur ine</w>
show ed</w>
s li
s ei
prot ein
mat eri
l ine</w>
ir en</w>
em a</w>
ch em
ar g
ami d</w>
ach ie
T ro
P ri
CYP2 C
tel l</w>
teil t</w>
sel ten</w>
maxim um</w>
m mol</w>
dan n</w>
co uld</w>
aus sch
M em
Kin d</w>
Hydro chlor
B en
Aus wirkungen</w>
tw ick
t est</w>
st ore</w>
pres ent
l au
hy th
ges unden</w>
ful ly</w>
fac tor</w>
f er</w>
chr oni
cau tion</w>
an other</w>
a k</w>
F Ü
En twick
D auer</w>
A t
1. 000</w>
zi ehen</w>
wh ere</w>
gen e</w>
g u
dri ve</w>
abolit en</w>
PV C</w>
Kop f
Ihr er</w>
FÜ R</w>
C A
B io
wen di
wei sen</w>
vi a</w>
ter ol</w>
pro c
n urse</w>
lei cht</w>
lant ation</w>
konzentr ationen</w>
gen d</w>
er reicht</w>
do ub
besteh t</w>
aus ge
an ten</w>
am in</w>
alf a-
H unde</w>
Er y
Blut zuck
zugel assen</w>
z ul
trä chtig
s at
re tro
re mo
ol d</w>
lon g</w>
gi bt</w>
cle ar</w>
c reatinine</w>
bo dies</w>
Pro duc
Minu ten</w>
M A
L abor
Gra d</w>
B E
Über wach
reas t</w>
olog y</w>
n ausea</w>
m or
li tis</w>
ig n
gesam t</w>
ent weder</w>
ak teri
afen ib</w>
ä hrend</w>
ut z
subst ances</w>
randomi sed</w>
mil k</w>
m er</w>
l ung
es sed</w>
e quivalent</w>
develop ment</w>
ch es</w>
ac tiv
S ehr</w>
Ef avirenz</w>
2 7</w>
wh at</w>
ver ges
resul t</w>
pa ediatric</w>
nach gewiesen</w>
ma ßnahmen</w>
lo di
concomit ant</w>
W ährend</w>
S el
I mat
Fi eb
AR T
z olo
zolo mi
o ut
ne u
mis sion</w>
let z
le sen</w>
ier ten</w>
con azol</w>
be ginn</w>
ass essed</w>
ac ti
a y
Seit e</w>
R ück
R et
Fin d</w>
7 2</w>
ri ch
re vir</w>
m yel
d l</w>
co hol</w>
ast atin</w>
app e</w>
N eu
Hepati tis</w>
zei ch
ve ment</w>
ul f
sion s</w>
met ast
in avir</w>
ein zel
ec tive</w>
ec itab
be cause</w>
Syndro m</w>
Sy st
Studi en
Patient en
K r
Ergeb nisse</w>
App lik
1 000</w>
Ö ff
t ly</w>
in gredi
fes sion
eth as
concentr ate</w>
bin dung</w>
bestimm t</w>
bar en</w>
aus reich
am ethas
alfa- 2
Zoledr onsäure</w>
Sub stan
B M
- W
ver minder
sich er</w>
sch ie
om men
o ber
n ing</w>
is pl
fe eling</w>
et r
breast -
b ru
am une</w>
Ph armac
Met aboli
Filmtablet te</w>
8 .
tr itt</w>
th erefore</w>
t ained</w>
sor g
s am</w>
ri eben</w>
p at
ole ster
der ung</w>
bil dung</w>
betre ffen</w>
amo unt</w>
ahr schein
ah r</w>
U T
Olanzap in</w>
N ehmen</w>
N adel</w>
Ma ßnahmen</w>
I mp
Com mon</w>
4 4</w>
th em</w>
sur vival</w>
subk utan
sub cutaneous</w>
signifikan t</w>
redu zier
ras h</w>
pre vent</w>
pack s</w>
mittl ere</w>
min utes</w>
immun e</w>
ger in
en o
conduc ted</w>
a qu
M ul
C L
ver abreich
lik ely</w>
group s</w>
führ te</w>
bereit s</w>
au ß
anti bodies</w>
Zeit raum</w>
O ne</w>
Krank heit</w>
Ch em
Überwach ung</w>
list ed</w>
li qu
ge fühl</w>
f at
ein zunehmen</w>
b ut
aceb o
Vir us</w>
T R
3 1</w>
ti m
st ei
secon d</w>
pro fession
po etin</w>
l at
ir e</w>
di zz
bi tion</w>
al umini
acter is
Kom bin
Antik örper</w>
8 00</w>
äl ter
stit uted</w>
ster s</w>
speci fic</w>
sorg fäl
sch i
pul mon
per formed</w>
ins besondere</w>
am ine</w>
Zen tiva</w>
T emo
Hum alo
C R
Blut ungen</w>
B on
A C</w>
sol l</w>
ox id</w>
measu res</w>
j e</w>
ie der
hist ory</w>
ak e</w>
Ver besser
P D</w>
Leber funktion</w>
I r
über wie
tri al</w>
tablet ten</w>
sup pres
star t</w>
mar k</w>
heit s
Veränder ungen</w>
Lev etiracetam</w>
Humalo g</w>
H arn
H ER
Fieb er</w>
3 9</w>
th ma</w>
ol der</w>
lo o
fre e</w>
evi dence</w>
ein igen</w>
dy s
du zier
caus ed</w>
al cohol</w>
F ähigkeit</w>
D ulox
D NA</w>
Ch il
Alumini um
sier ten</w>
sch were</w>
over all</w>
man agement</w>
ispl atin</w>
f em
enzy mes</w>
ec tively</w>
addi tion</w>
ac tions</w>
UN G
Temo zolomi
Mut ter
Mon otherapie</w>
4 9</w>
w ays</w>
vi als</w>
v ent
sist ent</w>
sich er
k ing</w>
der ly</w>
b reast</w>
ag ents</w>
Tier en</w>
TH E</w>
T yp</w>
Re zep
O ber
ü b
wor den</w>
untersu ch
tr agen</w>
ter n</w>
t ungs
sich tlich</w>
oxi de</w>
ne w</w>
n er
differ ent</w>
de s
d au
chr onic</w>
acteris tics</w>
S E
R A</w>
Imat inib</w>
3 4</w>
zu stellen</w>
tiv eness</w>
signific antly</w>
immun o
ich te</w>
fac e</w>
do v
dio vas
b ul
ade qu
abhän gig</w>
Be urtei
re ver
pi ro
ofo vir
lu ded</w>
it inib</w>
in ated</w>
enzy me</w>
d aher</w>
auf zu
ali domi
ac af
V ER
R as
F S</w>
1 A
us ually</w>
tig t</w>
poin t</w>
multi ple</w>
li mus</w>
leben s
ini ert</w>
ig ht</w>
ho se</w>
h in</w>
fer tility</w>
de mi
co stero
bi li
S S</w>
Rit onavir</w>
All gem
AL T</w>
y r
wieder hol
ten ofovir</w>
t liche</w>
st ark
on g</w>
ologi schen</w>
li ed</w>
kno w</w>
id enti
gem äß</w>
er y
c arton</w>
O AT
M ehr
C ap
Bor tezomib</w>
te e</w>
si um</w>
or o
mei den</w>
li st</w>
it te</w>
health care</w>
ha emo
gru ppen</w>
erfol gen</w>
contr acep
ca re
ar thritis</w>
an aphyl
Ver wen
R ek
R ec
Medic inal</w>
En zy
B -
whe ther</w>
tre at
sur ger
surger y</w>
s it
produc tion</w>
plat el
p ackungen</w>
musc le</w>
mit tee</w>
ma ke</w>
fic i
Ver h
Tier arzneimittel</w>
Ten ofovir
S ol
Lun gen
B r
9 6</w>
5 1</w>
1 80</w>
sy n
physi ci
me tho
low ing</w>
ingredi ents</w>
fäl le</w>
ant wor
abol ite</w>
Z yk
Vorsich ts
P lasma</w>
Com mittee</w>
AC T
8 ,
z eu
w th</w>
ph armakokineti
lich keits
ing s</w>
glei chen</w>
effec tiveness</w>
chem otherapy</w>
berich teten</w>
ad ache</w>
a u</w>
Z ellen</w>
V III</w>
Natri um</w>
N ahr
L ang
I T
7 3</w>
ul e</w>
st om
l age</w>
ir atory</w>
glyc aemia</w>
führ ung</w>
f ak
erkran kung</w>
embo li
ec ke</w>
disor der</w>
co unt</w>
ch ro
ac on
P E</w>
Konzentr at</w>
In formieren</w>
Erhöh ung</w>
A t</w>
ält nis</w>
vor übergeh
trans fer
neum oni
n ami
kön nte</w>
k or
erkran kungen</w>
do pp
alumini um</w>
P- g
K reatin
Gra de</w>
5 5</w>
verges sen</w>
th er
re pe
ph yl
o zi
dy nami
disopro xil</w>
cont ents</w>
ci um</w>
acaf tor</w>
Patient innen</w>
L in
H a
Geb rau
F ak
ART ON</w>
vi sion</w>
toxi c</w>
tissu e</w>
th en</w>
re co
n äch
k ali
je der</w>
he um
fer ence</w>
ent an
PAC K
Kopf schmerzen</w>
Con t
6 4</w>
ut h</w>
therapeu tic</w>
rib avirin</w>
previ ously</w>
in formieren</w>
es sen</w>
dru ck
do x
alfa-2 b</w>
T ell</w>
Plas m
Em tricitab
D at
ähn lich</w>
tegr avir</w>
t yp
pro fil
p ass
l t</w>
l act
inter val</w>
id -
Wechsel wirkungen</w>
Un ion</w>
Lamiv udin</w>
Fer til
C ro
Be sch
B itte</w>
ß e</w>
wen det
wel che</w>
steh en</w>
r ati
no t
inf ected</w>
et ine</w>
acc or
V .</w>
S en
Konzentr ation</w>
In c
Hu mi
Do se</w>
lo cal</w>
ier te</w>
ent e</w>
dom inal</w>
afer on</w>
Stu dy</w>
St and
Par kin
I ON</w>
Be dienen</w>
x a</w>
un ver
t ein
presc ri
ob en</w>
asier end</w>
an a
Pro duk
Le flunomi
J oh
zw ecke</w>
wo für</w>
u pp
ter min
n eh
lo spor
konzentr ation</w>
k a</w>
er war
ep h
d ent</w>
app lic
ab sorption</w>
T a
P C
Haut aussch
D aher</w>
A ri
9 9</w>
v astatin</w>
posi tive</w>
pl acebo-
ho ur</w>
genan nten</w>
ge bo
erhöh ten</w>
d am
anti retro
Sch wer
Met aboliten</w>
H 5
Erfahr ungen</w>
ves tig
t ö
pi o
mei sten</w>
medizini sche</w>
lus t</w>
hum ans</w>
fest gestellt</w>
f ever</w>
en ing</w>
ec an</w>
e ded</w>
d auer</w>
chtig keit</w>
V el
V E
S piro
Re aktion</w>
G 3</w>
B auch
Ab setzen</w>
stat us</w>
r ap
pre cau
m ycin</w>
li ert</w>
l abor
k ation</w>
hyper sensitivity</w>
ent an</w>
discontinu ation</w>
am us
al ity</w>
ad vice</w>
ab en</w>
Neutropen ie</w>
L D
In sul
Humi ra</w>
H5 N
F all</w>
Ari pipr
AI D
z ed</w>
vi er
ver meiden</w>
ung er</w>
u zumab</w>
resp ectively</w>
o p</w>
l actose</w>
il d
häufig sten</w>
ger ing
eh y
eb r
di ffic
det er
ass ozi
We ek</w>
Vorsichts maßnahmen</w>
Tel misartan</w>
Spiro max</w>
Pro te
HC T</w>
B ei
An t
y ro
recon stitution</w>
r al
lon g-
lo gi
i hr
hum an
hal b</w>
glo bin</w>
ge zogen</w>
di alysis</w>
b al
ac i
O b
L E
Injektions zwecke</w>
Inhibit oren</w>
Hydrochlor othiaz
9 .
zei gen</w>
yel low</w>
v an
unk no
unkno wn</w>
on stitution</w>
mer n</w>
lei den</w>
id ed</w>
f e</w>
et a</w>
er b
ep ilep
dizz iness</w>
disp er
di rec
d nis
b ra
Hum an
Gl as</w>
Dies es</w>
A 1
vi vo</w>
sen ce</w>
per for
ox ic
ol u
ne utropen
mo uth</w>
me chanis
b is
abolit es</w>
V al
Lev odopa</w>
F OR</w>
we chsel
s age</w>
regi men</w>
ologi sche</w>
m ell
mell itus</w>
k t</w>
inde l</w>
gro wth</w>
f ahren</w>
co un
auf genommen</w>
au se</w>
as p
ak t
Ver y</w>
Re sist
O T
Hä ufig</w>
Entwick lung</w>
Durchstechf laschen</w>
B lo
An teil</w>
vergleich bar</w>
temperat ure</w>
sk el
pro por
o per
met abolites</w>
m g-
li s</w>
in vestig
i um</w>
i tis</w>
höh er</w>
gio ten
g ut</w>
f ul</w>
ev ent</w>
erhöh en</w>
ent lichen</w>
aufzu bewahren</w>
anzu wenden</w>
Wirkstoff e</w>
W ach
I band
Ch ar
Bru st
Bas ed</w>
verurs acht</w>
urr ent</w>
ul arly</w>
ph en
mon ly</w>
fol gt</w>
esp eci
especi ally</w>
er wachsenen</w>
do sis
de x</w>
car cin
N i
Lang zeit
Kombin ations
J ahr</w>
Ge wich
Ad verse</w>
we g
tumo ur</w>
spir a</w>
rati oph
ratioph arm</w>
not wendi
individu al</w>
f ung</w>
em s</w>
de ut
az ard</w>
addi tional</w>
U l
Sy n
Mul ti
Hin weise</w>
Ent acap
zur ück
zid enz</w>
z ün
proc e
poten ti
i h
gel egentlich</w>
ent zün
de fin
condi tion</w>
avo id</w>
S on
K o
B .
An sprech
An alyse</w>
3 8</w>
0 8</w>
0 7</w>
us ual</w>
tr at</w>
tiv ir
tho ugh</w>
precau tions</w>
pi vir
mi ght</w>
k am
inc reases</w>
il pivir
ie gel
g an</w>
f le
com monly</w>
car b
b are</w>
accor ding</w>
Wach st
V or</w>
U M
Schw indel</w>
Rivastig min</w>
N euro
Leb er</w>
H b
0 3</w>
z ol
y a</w>
x y
sp on
resist ance</w>
re aktionen</w>
p an
nich t-
li d
it en</w>
instruc tions</w>
er ol</w>
ep i
el derly</w>
comp on
be mer
b le</w>
N ex
Mon at</w>
las se</w>
l ing</w>
gr ap
e ch
develop ed</w>
d ungen</w>
ch ing</w>
b wer
b ung</w>
W ieder
Ver länger
E is
B i
Aussch uss</w>
9 ,
w ay</w>
val u
mon otherapy</w>
mon ohydr
bereit ung</w>
ast uzumab</w>
amet er</w>
ad y-
W erte</w>
Un common</w>
Sch luss</w>
R en
Hb A1
Gr und
G er
Dy s
Ar thritis</w>
A Z</w>
1. 5</w>
älter en</w>
ti d</w>
sug ar</w>
sub str
repor t</w>
profil e</w>
p et
o ff</w>
n a
materi al</w>
l auf</w>
l ang
itä ts
it r
inter action</w>
ie den</w>
hig h
ex t</w>
eingeschränk ter</w>
e x</w>
ch s</w>
breast- feeding</w>
be come</w>
an ge</w>
Z ul
Wh y</w>
War um</w>
Sub str
St at
IN G</w>
I O
HB V</w>
G eh
Einzel dosis</w>
Blutzuck er
Au gen
A li
5 9</w>
0. 9</w>
stop p
spezi fi
sion en</w>
p ation</w>
on s</w>
metaboli sm</w>
lo se</w>
labor atory</w>
in s</w>
i ties</w>
ex er
enc es</w>
ei l
d ap
colo ur
bes artan</w>
b ab
az an
ax is</w>
al tern
aindi c
ab normal</w>
Ver bindung</w>
M ö
Kat zen</w>
Hypo glyk
E i
B el
Ar m</w>
verurs achen</w>
uf act
stom ach</w>
re ference</w>
presc ribed</w>
o in
lie gt</w>
ier en</w>
hyperten sion</w>
excre ted</w>
e w
dist rib
as vir</w>
Vor i
Verbesser ung</w>
Ur in</w>
St ör
S c
S al
P ra
P ackungen</w>
Me tho
D ep
AN D</w>
x 1</w>
w ebsite</w>
ne eded</w>
maj or</w>
le ad</w>
k ur
k re
jewei ls</w>
gen der</w>
führ ten</w>
f- life</w>
er dem</w>
empfohlen en</w>
ec tr
dopp el
al is
ab an</w>
Therap ie
T N
Mahl zeit</w>
Konzentr ationen</w>
I ST
Ho spira</w>
Fertil ität</w>
C D
är er</w>
z ent
x u
w ahrschein
vi er</w>
u z
t op
ru b
re main
or ity</w>
met abolite</w>
f ach
ex ten
doc etaxel</w>
are a</w>
ag on
ac tic</w>
W ebsite</w>
Sil denafil</w>
R O
Pioglitaz on</w>
M änn
L u
L actose</w>
Ih res</w>
I G
Gewich ts
Entzün dung</w>
B R
Ausgangs wert</w>
4 6</w>
4 1</w>
1, 5</w>
z weit
wirksam en</w>
vollständi ge</w>
un less</w>
sti pation</w>
r atio</w>
per io
monohydr ate</w>
mil ch</w>
k ar
ir y</w>
inj ect</w>
hat te</w>
gr am</w>
gleichzei tiger</w>
ge ther</w>
f an
et t</w>
diffic ul
di abe
ati gue</w>
at ro
alle in</w>
ad al
Z on
Z al
Sp iegel</w>
Rek onstitution</w>
Leber funktionsstörung</w>
Gel egentlich</w>
E li
C lini
Ber eich</w>
An ämie</w>
An g
speci al</w>
sal ic
re ady</w>
present ed</w>
n ext</w>
li m
impro vement</w>
he adache</w>
h .</w>
de si
de fici
corti costero
ch emi
ausgesch ieden</w>
ag lu
af t</w>
Wel che</w>
R an
Mutter milch</w>
H ep
Grund lage</w>
G F
DI E</w>
ur itus</w>
to gether</w>
s .</w>
rit onavir</w>
profession als</w>
pro duk
letz ten</w>
le ben</w>
l -
hydrochlor ide</w>
ger inn
gener ally</w>
fil grastim</w>
fat al</w>
far in</w>
f ung
ent al</w>
elim ination</w>
ein gesetzt</w>
devel op</w>
defin ed</w>
cy to
continu e</w>
com bin
bemer ken</w>
ak tiven</w>
V ol
Hautaussch lag</w>
H and
Chem otherapie</w>
B. V.</w>
B ec
AT ION</w>
z er</w>
with dr
wachsen e</w>
vollständi g</w>
versch ie
u mp
tor s</w>
ten ance</w>
s un
on i</w>
occ urr
nis sen</w>
le uk
l amiv
k arzin
inhi bition</w>
inflam mat
ic ist
her vor
ge st
et s</w>
ent nehmen</w>
cal cium</w>
c ats</w>
bi dopa</w>
as en</w>
anc ed</w>
UL N</w>
Kontrol le</w>
F ragen</w>
Durch fall</w>
CO PD</w>
Blut druck</w>
wich tig</w>
sori asis</w>
sel tenen</w>
recon stituted</w>
pen s</w>
n ational</w>
imm er</w>
hel p</w>
gastrointest inal</w>
ei mpf
e gt</w>
d in
ang te</w>
an te</w>
ab normal
Z Y
Re duktion</w>
P i
M ü
Antik örper
An weis
thro mycin</w>
sch ei
ri c</w>
phosph ate</w>
notwendi g</w>
neuro path
intr amus
initi ation</w>
gel angte</w>
fir m
dr ück
d ness</w>
c r
c lass</w>
azan avir</w>
Po ten
Neben wirkung</w>
M er
In zidenz</w>
Ge sch
E -
Dosier ungen</w>
Anwen dungs
10, 000</w>
1 25</w>
1 20</w>
ö sen</w>
äh r</w>
wo bei</w>
wei gh
v ul
u ter</w>
u tel</w>
stand ard</w>
saf e</w>
s ation</w>
pr acti
p ig
or i
lech ter
hin sichtlich</w>
h ep
gef ähr</w>
geben en</w>
et an
de u
contr aindic
arzneimit tel
ac teri
a p</w>
Veränder ung</w>
Ver fall
UN D</w>
Pl acebo-
P op
Mü di
Medi an</w>
M erk
Her cep
F r
En de</w>
Cap ecitab
C al
AU C
A V
überwie gt</w>
Ä n
zweit en</w>
z ell
wirk sam</w>
sorgfäl tig</w>
sor gen</w>
resp iratory</w>
pro p
periph eral</w>
neutropen ia</w>
measu red</w>
i ziert</w>
et t
ell er</w>
cont ain</w>
cardi ac</w>
bli sters</w>
achie ved</w>
O P
M L</w>
Lymp ho
Leu k
Hercep tin</w>
For m</w>
F re
6. 6</w>
0 4</w>
är z
wä hr
us t</w>
tr aindi
topen ie</w>
tis -
temperat ur</w>
sier te</w>
influ enza</w>
icist at</w>
ich t
f en
ex tr
du ce</w>
do sage</w>
bre ath
Um k
T S
Olanzap ine</w>
Natrium chlor
Gen ot
zu res</w>
utro ph
stü chtigkeit</w>
stän den</w>
p fen</w>
p al
orti ko
li ximab</w>
kran kung</w>
geb or
g o</w>
f act
de pression</w>
da zu</w>
cor rec
blin d</w>
author ised</w>
ausreich end</w>
ar teri
acep t</w>
ac in</w>
ab gesetzt</w>
Vir amune</w>
S til
Nieren insuffizienz</w>
I m
HC V</w>
H D
zu g</w>
verfüg bar</w>
to o</w>
lospor in</w>
kehr stüchtigkeit</w>
inter v
inten ded</w>
hormon e</w>
ehl ungen</w>
di rek
de sc
ci pi
at -
an tivir
Ver kehrstüchtigkeit</w>
Q T
O S</w>
Müdi gkeit</w>
Me th
M R
Inf lu
Er hal
Blut gerinn
zu vor</w>
um in</w>
ul es</w>
trä glichkeit</w>
physici an</w>
on nen</w>
no ti
lo x
it z
hal ten
fol gende</w>
exp iry</w>
c entr
be ur
M or
I M
Hä mo
B ron
B .</w>
10. 000</w>
yl salic
yl ene</w>
t lichen</w>
r heum
pulmon ary</w>
m änn
lamiv udine</w>
ins gesamt</w>
im al</w>
id al</w>
haem orrh
en h
do wn</w>
dat um</w>
aw ay</w>
anim al</w>
Ta ges
P-g p</w>
Or gan
L eben
Ein heiten</w>
D u
Blister packung</w>
ö ff
ww w
upp er</w>
unver züglich</w>
un i
ri t</w>
r ä
pro gression</w>
p s</w>
ol an
leich ter</w>
las tic</w>
continu ed</w>
bra in</w>
X -
Res pon
Produc ts</w>
P os
N ad
As s
Ac et
Überempfind lichkeits
vor her
tr act</w>
se par
re ch
r z
r ates</w>
pot ecan</w>
platel et</w>
k reb
je den</w>
inter actions</w>
größ ere</w>
g ation</w>
er reich
defici ency</w>
complet e</w>
ck en</w>
b i</w>
ap os
ah me</w>
adjust ed</w>
ac avir</w>
Tum or
P FS</w>
O ste
Nor mal
M E
Hemm ung</w>
Fertig pen</w>
D 6</w>
& apos
öh n
y le
www .e
wei st</w>
wei s</w>
v is</w>
transfer ase</w>
soll en</w>
so wohl</w>
recep tor</w>
n g</w>
medizini schen</w>
leit ung</w>
initi ated</w>
hy poten
etr on</w>
en n
do sen</w>
da c</w>
care fully</w>
as k</w>
as ep
an aemia</w>
Schwer egr
S ev
P fl
P RE
Merk male</w>
Lymp h
In di
H5N 1</w>
Dy sp
C au
Blister packungen</w>
Al l</w>
9 3</w>
5 8</w>
Ä rz
zy k
vit ro
un gefähr</w>
u gh
se p
pro pi
per c
mo d
mittel s</w>
main tenance</w>
li ght</w>
k ür
gebo ten</w>
entwick elt</w>
ent en</w>
em br
c ur
c op
ar yn
an z
al es</w>
aemi c</w>
abr afenib</w>
Zeit punkt</w>
R are</w>
O per
I g
I CH
C min</w>
Ar t</w>
Allgem einen</w>
4 50</w>
0 6</w>
u ber
si ent</w>
sc ore</w>
p lease</w>
o und</w>
o edema</w>
ma de</w>
long- term</w>
inf izier
indic ate</w>
hyth mi
hypo glycaemia</w>
gew öhn
fo ur</w>
en ia</w>
dy sp
de ath</w>
ch olester
blu t
be st
ax agliptin</w>
ach tet</w>
Vir us
Umk arton</w>
K ol
I X</w>
Emtricitab in</w>
Alumini um</w>
valu es</w>
unerwünsch ten</w>
toxi zität</w>
ten tion</w>
sich tigen</w>
sch re
sat z</w>
pl acebo
lon ger</w>
liqu id</w>
insu ffici
hal f-life</w>
gr an
frequ ently</w>
es tim
bili ru
ange gebenen</w>
an z</w>
Zi dov
L en
Hyper tonie</w>
E17 2</w>
D en</w>
Behand elten</w>
3 7</w>
0, 00
................ ................
äl ter</w>
wahrschein lich</w>
vollständi gen</w>
ur al</w>
topen ia</w>
tei len</w>
syrin ges</w>
sicher zustellen</w>
sch ed
s s
recommen d
provi de</w>
ph ili
l auf
it al</w>
inflammat ory</w>
gly co
fi bro
cyc le</w>
bwer ts
bru ch</w>
bin ant</w>
begrenz te</w>
all erg
al ität</w>
ad ing</w>
St unde</w>
Re fer
In -
Eli min
C E</w>
Ali sk
8 5</w>
0. 00
zu g
y re
w hose</w>
sel y</w>
redu ziert</w>
myel o
l af
k appe</w>
influ ence</w>
h and</w>
gen s</w>
fumar ate</w>
entwick eln</w>
ber eich</w>
bekan n
beein trächtig
al b
ag lini
Rivastig mine</w>
Refer enz
P or
Nieren funktionsstörung</w>
In tr
I v
EX P</w>
C an
7. 5</w>
zeich net</w>
ver stär
un di
ter s</w>
requi re
p neumoni
n er</w>
ear ly</w>
ad ine</w>
Verfall datum</w>
S äu
S eh
Mark tein
HIV- 1</w>
Ab nahme</w>
A n</w>
ß en</w>
yo phili
ung e</w>
sus cep
stil len</w>
si ze</w>
sei zures</w>
pharmakokineti schen</w>
on e
om er
mer z
haem at
gi tis</w>
er st</w>
co ag
char acteristics</w>
c a</w>
b ack</w>
b -
ati v</w>
at or
agon ist</w>
adequ ate</w>
T yp
R ei
R ate</w>
Marktein führung</w>
Kom p
In d
F L
ä hr
z ö
we ge</w>
ve x</w>
t sch
placebo- controlled</w>
pl an
or alen</w>
m t</w>
lo k
kran k
g abe</w>
ange l</w>
ab dominal</w>
Vol um
Ver dün
Untersuch ung</w>
O X</w>
N ame</w>
N R
N E
Inter feron</w>
Flüssi gkeit</w>
B il
Al le</w>
ö ri
zö ger
währ lei
weit eren</w>
vi ro
trans der
sich t</w>
repe ated</w>
ot ype</w>
op hi
on at</w>
ogen icity</w>
ini tial</w>
g ing</w>
g il
fl ä
fem ale</w>
diagno sti
da zol
ast er</w>
and erer</w>
akti vi
ah men</w>
ab u
ab -
R at</w>
O ri
N er
H e
1 2
tal k</w>
rub ber</w>
r ab
protein s</w>
ord ance</w>
or ub
noti ce</w>
mal ign
in -</w>
ig ni
i red</w>
gr ad
gin nen</w>
geh öri
gan g</w>
fr act
eti c</w>
er ne
av i</w>
ap revir</w>
anc re
allergi sche</w>
ain s</w>
activ ated</w>
acc ordance</w>
a ver
a rel
T y
T o</w>
T it
R asi
N as
Kap sel</w>
K I</w>
G -
Er wachsene</w>
Clini cal</w>
Bet racht</w>
Besch werden</w>
Auf grund</w>
8 3</w>
10 -
z al
vacc ines</w>
v s.</w>
tö d
tt p</w>
tro ck
tre ten
tr ation</w>
ti er
sho w</w>
ri f
resist ant</w>
re -
previ ous</w>
oxic am</w>
ox id
occ urs</w>
häufig er</w>
h ttp</w>
fer nen</w>
etz ung</w>
doub le-
de pres
ch eck</w>
c art
Verlänger ung</w>
T L
St am
K eto
Empf ehlungen</w>
0, 9</w>
v em
un its</w>
trä ch
tor -
st able</w>
sieh t</w>
sich eren</w>
si gkeit</w>
re duktion</w>
produc ed</w>
orub icin</w>
n ation
lechter ung</w>
l ast
k um</w>
hau p
geh ör
combin ed</w>
co de</w>
ch ol
cer tain</w>
bwerts zeit</w>
beur teilt</w>
beeinflus sen</w>
affec ted</w>
Z er
U S
Sch utz
S it
S igni
R el
Ph ase-
Mon ohydr
Mag en
M yel
C T</w>
Am lodi
A min
Überempfind lichkeit</w>
zy ten</w>
v ein</w>
ts äch
tiv er</w>
systemi sche</w>
str a
sen ing</w>
regelmäß ig</w>
psy cho
poin ts</w>
or aler</w>
ob ut
men sch
lymp ho
hin aus</w>
glitaz one</w>
en ati
e w</w>
e mp
durch schnit
anti body</w>
adv ised</w>
a ec
Zoledr onic</w>
V it
Untersuch ungen</w>
S ulf
R ahmen</w>
Prot ein
P e
NS AID
Monohydr at</w>
Me d
Kombinations therapie</w>
K üh
Dep res
7 -
6 3</w>
1 2-
wei b
vol umab</w>
ufact ur
therapeu tischen</w>
te ch
syst ems</w>
sam in
lox acin</w>
i .e
i.e .</w>
gre ssi
ge m</w>
fäl len</w>
fri ger
ek ro
contain er</w>
compar able</w>
ch i
bo x</w>
ausgesch lossen</w>
Wel chen</w>
T w
Som e</w>
NSAID s</w>
Inter v
Hypo tonie</w>
H or
Fol lowing</w>
Erfahr ung</w>
A X
9 7</w>
5 4</w>
5 3</w>
we be</w>
ver dün
transp lantation</w>
traindi ziert</w>
sion s
sin ce</w>
schi ed</w>
resul ted</w>
relev anten</w>
re friger
re dness</w>
pre par
path ie</w>
p ine</w>
p e</w>
ob tained</w>
medi ane</w>
me al</w>
kür z
ko hol</w>
haup tsäch
f usion</w>
ep iso
dr ü
co urse</w>
br on
bab y</w>
az i
ap par
acro limus</w>
ach ed</w>
V is
Schw ellung</w>
Risik om
R NA</w>
Ph en
P a
M al
Kon tak
Ir besartan</w>
D arm
B I
Alisk iren</w>
symptom ati
sur face</w>
supp lied</w>
sp ri
spri cht</w>
r onic</w>
pres ent</w>
per id
niedri g
me m
kul äre</w>
k um
gesch rit
fü gung</w>
for get</w>
ergi c</w>
disper sible</w>
den n</w>
def iniert</w>
beeinflus st</w>
be züglich</w>
b acteri
aus sieht</w>
ange m
ag in
acc id
Wo für</w>
Versch lechterung</w>
Ver fügung</w>
Plasma konzentrationen</w>
M D
Hydrochlorothiaz id</w>
A P
8 -
5 0-
4 7</w>
üt tel
ut z</w>
um f
star k</w>
st ated</w>
signifikan te</w>
s le
p ur
p ex
or ph
on ate</w>
o ste
mi d</w>
maj ority</w>
lev odopa</w>
kon traindiziert</w>
infek tionen</w>
inf usion
gesam ten</w>
fact ors</w>
erhöh tes</w>
end point</w>
empf ahl</w>
distrib ution</w>
d ary</w>
be ginnen</w>
amet inib</w>
al low</w>
V ot
U p
U m</w>
T O</w>
RE S
R au
M y
L on
L akt
E tik
Dur ing</w>
Dulox etin</w>
C o-
Blut ungs
Bec ause</w>
A S</w>
9 1</w>
7, 5</w>
zap ine</w>
we ak
st ung</w>
s y</w>
require ments</w>
prü fen</w>
olog ie</w>
mi xed</w>
loo ks</w>
li d</w>
invol ving</w>
intravenö se</w>
inj ected</w>
induc tion</w>
ic losporin</w>
i den</w>
hauptsäch lich</w>
h emm
fort geschrit
ei ch
da von</w>
comp lic
c c
beg onnen</w>
as thma</w>
altern ative</w>
adal afil</w>
ad en
Verwen dung</w>
V I
V EL
Syst em</w>
Stand ard
Ser ot
S imp
P L
O -
No t</w>
IS T</w>
Her stell
G al
G EN
Fil grastim</w>
Blut ung</w>
ü ch
vor ges
volum en</w>
verringer t</w>
tei lung</w>
ster ile</w>
statisti sch</w>
st -
reg ular</w>
re p
p emetrexed</w>
ox in</w>
m asch
l and</w>
k oh
geeign ete</w>
f et
entan yl</w>
eng masch
ein ig
dom in
differ ence</w>
da mit</w>
be ab
as sium</w>
and er
al an
adv anced</w>
ab sol
Z y
Wachst um
U G
P hosp
N u
Medic ines</w>
II I-
H R</w>
C yc
Au gen</w>
An f
5 7</w>
1 B
0. 0
we gen</w>
vers agen</w>
ver hin
to co
the sia</w>
sul ph
ste ar
so on</w>
requ ire</w>
re ach</w>
randomi sierten</w>
pr akti
olan zapine</w>
mi sch
mb H</w>
m l-
häufig e</w>
ex per
ep t</w>
breath ing</w>
be h
ap ter</w>
ant ine</w>
ak tu
agoni sts</w>
Ver ringer
T i
Symptom en</w>
ST EL
R atio</w>
Inhibit or</w>
In duk
HC V-
GF R</w>
C in
B in
Applik ations
AD E</w>
6 2</w>
- up</w>
wor sening</w>
suscep ti
stop per</w>
som n
pr en
pio glitazone</w>
m y
l agen</w>
hoh en</w>
h ü
far blo
en do
einzel nen</w>
dys function</w>
colour less</w>
cipi ents</w>
c it
be den
b lei
ati ven</w>
alo g
al low
X arel
S ti
S ek
R emo
OAT P
Glu co
F unk
E17 1</w>
B akteri
Anf angs
yl -
www.e ma.europa.eu</w>
ver sion</w>
un common</w>
träch tigen</w>
treat ments</w>
sub sequ
statisti cally</w>
skel etal</w>
sever ity</w>
plac e</w>
ortiko stero
op ti
ob ili
m yo
län ger</w>
lä ssi
kreb s</w>
kom mt</w>
k el</w>
j ug
izier en</w>
intravenö s</w>
gel eit
ex a</w>
estim ated</w>
el d</w>
dr y</w>
bul in</w>
bew ahr
ac il</w>
a e</w>
Y AT
YAT AZ</w>
U nit
Ten ofovir</w>
Se e</w>
RE YATAZ</w>
R in
Li mited</w>
L il
H i
C ARTON</w>
Be fore</w>
Aripipr azol</w>
An dere</w>
y ing</w>
un ten</w>
u red</w>
s weise</w>
ro w</w>
rel or</w>
re ich</w>
practi cal</w>
op or
ogen ic</w>
mittel bar</w>
list ung</w>
li e</w>
l ant</w>
hä mat
geh en</w>
g .</w>
esp o</w>
eri c</w>
er wiesen</w>
ectr a</w>
de son
besch rieben</w>
b ur
ad ren
Thrombozy topenie</w>
T T
R al
Peg interferon</w>
P le
N ot
N espo</w>
Inhal ation</w>
Geh ir
G ran
Effek t</w>
Dex amethas
CYP3A 4-
Auf listung</w>
Arz tes</w>
7 6</w>
tik el</w>
s artan</w>
recom binant</w>
meas ure</w>
li gen</w>
kom bin
j oin
impa ired</w>
f är
f at</w>
et er</w>
ec ti
double- blind</w>
deter min
depen dent</w>
dam age</w>
d one</w>
cy topenia</w>
cep t</w>
c l
at acept</w>
ak uten</w>
agoni sten</w>
Xarel to</w>
Sch rit
Kr amp
Insul in
Ge w
G mbH</w>
F laschen</w>
Chil d-
CYP2 D6</w>
6. 1</w>
1 00
z es</w>
wer tung</w>
um -
tumo urs</w>
tu ber
ti scher</w>
sph ase</w>
sch rän
s ehen</w>
rheum ato
prot ect</w>
ober en</w>
mö glichen</w>
mu mab</w>
lag an
il ität</w>
größ e</w>
gn is
gi ve</w>
gem ent
geleit et</w>
g eimpf
fic ation</w>
exc e
ex ist
ent er
el ec
e .
doppel blin
dazol am</w>
d on</w>
contraindic ated</w>
contracep tion</w>
att le</w>
ar ound</w>
alis k
Zu bereitung</w>
U R</w>
T I</w>
Simp oni</w>
Sen kung</w>
Sch lagan
Rep aglini
R C
Ph armak
PR O
Mit tel</w>
Kan in
J J
G astrointest
F ort
F EV
D r
D et
Co de</w>
C S
Blut körper
AS T</w>
8 9</w>
8 8</w>
6 9</w>
6 8</w>
4. 6</w>
ü f
vitro -
veränder t</w>
ver lust</w>
ver ed</w>
uf e</w>
u ximab</w>
u ter
tran sient</w>
sä ure
su per
si x</w>
schn ell</w>
s bu
s a</w>
re kon
pop ul
p ol
p es</w>
or gan</w>
m any</w>
lymp h
lan ge</w>
kön nten</w>
ir rit
ir on</w>
inf ants</w>
in toler
hydrochlor id</w>
go ing</w>
glo bin
fumar at</w>
er -
ell ed</w>
ein mal
demi c</w>
bin ding</w>
ar ing</w>
ap ro
Temozolomi de</w>
Referenz arzneimittel</w>
N on-
N -
Lil ly</w>
Kreb s
K e
IC H</w>
Gebrau ch</w>
G ly
Fak tor</w>
D ru
Child- P
Blutkörper chen</w>
1A 2</w>
verringer n</w>
un abhängig</w>
s the
re aktion</w>
produc tive</w>
pro per
po ol
p ancre
o gen</w>
lid ini
lau t</w>
l zeit</w>
l sch
infek tion</w>
fl ur
coun ts</w>
auf tritt</w>
arr hythmi
amp icin</w>
acro g
Z ell
Wen den</w>
W i
W E
Verringer ung</w>
Tran sp
Säu gl
Ri f
Res or
M und
K ur
Etik ett</w>
B asierend</w>
Au f</w>
Amin o
A sp
3 0
xi a</w>
weit er</w>
urr ently</w>
untersuch ungen</w>
tic as
ti eren</w>
star ted</w>
st a</w>
ran k</w>
r is</w>
le z</w>
las e</w>
l ten</w>
kon nte</w>
hypoten sion</w>
geh end</w>
fr üh
ex pl
ehy dr
ebr ile</w>
di oxid</w>
car ri
c at
berich ts</w>
az y
ana gement
Z us
Z u</w>
Vori conazol</w>
Tran s
Schw ell
Rasi lez</w>
Leflunomi d</w>
Kreatin in-
Herz insuffizienz</w>
Hemm er</w>
G A</w>
E mp
C .</w>
Be zug</w>
Anti bio
6 7</w>
6 6</w>
1 3
wä che</w>
vers eh
unter schie
ti v</w>
sp ä
sever al</w>
rekon stitu
randomi siert</w>
pro gres
mat ern
lich es</w>
li a</w>
k ed</w>
inhal er</w>
in dem</w>
f atigue</w>
desc ribed</w>
clo sely</w>
ass ay</w>
applic ation</w>
al ised</w>
V IC
Risikom anagement
Jugend liche</w>
Injek tionen</w>
Hepati tis-
HbA1 c</w>
G li
G en</w>
F al
End punkt</w>
Di agno
C ob
Beurtei lungs
A eri
1 a</w>
zu führen</w>
ver länger
vacc inated</w>
ul ose</w>
sel b
se k
reas ing</w>
r e</w>
proce dur
mö gliche</w>
lo sigkeit</w>
inf ark
haemorrh age</w>
funktions störungen</w>
flä che</w>
e. g.</w>
e -</w>
chang ed</w>
ca de</w>
bestimm te</w>
aw al</w>
arz t</w>
anti bio
ange zeigt</w>
alisk iren</w>
acrog ol</w>
W ort
U F
P lus</w>
Oper ation</w>
Kramp fan
Kanin chen</w>
K ortikostero
K ali
Human arzneimittel</w>
G ro
Erhal tungs
Dat um</w>
Car bidopa</w>
Bil dung</w>
Beurteilungs berichts</w>
Ad mini
Acet ylsalic
4 3</w>
0, 0
überwach en</w>
z oledr
test ed</w>
t ete</w>
stri c
sti m
signifikan ten</w>
ri d
respon ding</w>
otherapeu tic</w>
mu ch</w>
metaboli sed</w>
kul ären</w>
geb racht</w>
em tricitab
diovas cular</w>
difficul ty</w>
aver age</w>
acon azole</w>
ach tel</w>
Wort laut</w>
Tal k</w>
S in
S Y
S S
Pfl aster</w>
P neum
M yc
Küh lsch
Gen u
For mo
Det ail
D op
Blut druck
Behand lung
Anweis ungen</w>
Ab bildung</w>
A N</w>
Öff entlichen</w>
zoledr onic</w>
vol un
ver ord
uber kul
sup pression</w>
ste t</w>
st age</w>
sp as
sbu vir</w>
re sol
re a</w>
par amet
p it
ox y
on set</w>
neg ative</w>
maxim al</w>
le sions</w>
höh eren</w>
hand elt</w>
fü l
exper im
emtricitab ine</w>
ein ige</w>
concomit antly</w>
con sistent</w>
bo und</w>
bestimm ten</w>
ast e</w>
arzneimittel s</w>
ap pe
am po
al ready</w>
ab sorb
W ert</w>
UNG EN</w>
Schweregr ad</w>
S im
Re produk
Pioglitaz one</w>
P lease</w>
P DE
M T
Flüssi g
Eis en</w>
Dexamethas on</w>
CYP3 A</w>
C R</w>
As th
Anfangs dosis</w>
AT C
A R</w>
wä gung</w>
wiederhol ter</w>
verabreich en</w>
us h
un mittelbar</w>
tuber cul
t ure</w>
spro fil</w>
sch ädi
sch em</w>
pä di
pädi atri
pre sence</w>
on en</w>
om e</w>
mittl eren</w>
inj iziert</w>
hab er</w>
fo etal</w>
f ind
ec ken</w>
dise ases</w>
dilu tion</w>
di ure
ch ung</w>
aqu e</w>
an halten
ag il
Vir aferon</w>
Stör ungen</w>
PA H</w>
P al
Mi x
M it</w>
Iband ron
IV O</w>
I E</w>
H ex
H P
Fertigsprit zen</w>
Cau tion</w>
C isplatin</w>
Bio verfüg
A mp
9 -
7 50</w>
ö tung</w>
zy to
yophili s
y st
um m
typ es</w>
st or
se chs</w>
ri si
re li
pot assium</w>
pos sib
othiaz ide</w>
open ing</w>
niedri ger</w>
lor at
inter ru
g ab</w>
frequ ent</w>
es thesia</w>
erwar ten</w>
dex amethas
cro se</w>
com es</w>
ben zo
beding ungen</w>
amin o
ak tivität</w>
ab i</w>
Tit an
St off
Sch were</w>
Sch laf
R ilpivir
L ä
Ju ck
AT E</w>
1 2.5</w>
Öff nen</w>
zeit en</w>
volun te
ver antwor
ur inary</w>
th ir
t z</w>
sus p
su res</w>
sp er
ro om</w>
re st</w>
prolon ged</w>
prescri ption</w>
pass t</w>
p -
or ale</w>
o v
n al
lar ge</w>
in a</w>
il an
ie l</w>
hydrox y
haemo globin</w>
gi a</w>
gen en</w>
gel an
f ach</w>
exc luded</w>
ei dung</w>
dexamethas one</w>
dar über</w>
corticostero ids</w>
c isplatin</w>
b it</w>
atro pin</w>
ab ge
X A</w>
Typ -
Thrombozy ten
Substan zen</w>
S ep
OATP 1B
Fal tsch
FEV 1</w>
Bli ster</w>
Amlodi pin</w>
8 6</w>
10 9</w>
ähn liche</w>
zusätz lich</w>
week ly</w>
vir us
tä gliche</w>
tox ic
systemi schen</w>
sti mul
st am
spro chen</w>
se i</w>
s qu
rever sible</w>
rel ap
re kombin
partic ularly</w>
p le
n u
mel z
l ar</w>
kontrol liert</w>
identi fied</w>
h r</w>
h e</w>
ey es</w>
dilu ted</w>
de sign
beden k
b at
ar t</w>
adju v
absol ute</w>
V ari
T ake</w>
Substan z</w>
Sch lä
S .
Kon tr
Hä m
H -
Genu air</w>
G ri
Bioverfüg barkeit</w>
At azanavir</w>
9 2</w>
7 8</w>
y x</w>
xi de</w>
volunte ers</w>
vent ri
ur b
tre ating</w>
th ema</w>
ten e</w>
son -
qu es
peg interferon</w>
par t
p f
m ung</w>
intravenö sen</w>
ilan terol</w>
h azard</w>
gen o
follow -up</w>
ent spricht</w>
ef avirenz</w>
c m</w>
c -
beson ders</w>
auf geführt</w>
am ination</w>
alidomi de</w>
ak tive</w>
abnormal ities</w>
W in
Tier e</w>
Sch melz
Rau m
R ot
R I
O ver
Nut z
Männ ern</w>
M AN
L uf
Kreb s</w>
K al
Gen er
F OL
EN T
E pi
E ffec
Car b
Atem wege</w>
Ass essment</w>
An gehöri
9 4</w>
7 7</w>
0 1
z usammen
val ue</w>
transp or
sprit ze</w>
sol che</w>
secon dary</w>
schließ en</w>
procedur e</w>
pro mel
mäß ig</w>
mer z</w>
me dac</w>
mb op
l ungen</w>
kom b
koh ol
ke ep</w>
k am</w>
ju x
höh ere</w>
hydrochlor othiazide</w>
gh tly</w>
gesch ichte</w>
emi a</w>
ein geleitet</w>
dro h
dr ink</w>
d- release</w>
biliru bin</w>
am azep
akti v</w>
acto se-
Ver wenden</w>
U RE
T M
Sulf on
St ate</w>
Schwell ungen</w>
Schlagan fall</w>
S pe
Pro ble
Parkin son</w>
Kreatinin- Clearance</w>
Juck rei
E th
Bauch schmerzen</w>
1 2,5</w>
üt zen</w>
ö l
wöch igen</w>
vor sich
unterschie d
um umab</w>
th al
t an</w>
stro ke</w>
sp iegel
sli ghtly</w>
schwerwie genden</w>
schwerwie gende</w>
promel lose</w>
pl unger</w>
par ti
oxi b</w>
otherapeu tische</w>
on os
metaboli siert</w>
ma g
klini scher</w>
ger en</w>
gem essen</w>
flu id</w>
firm ed</w>
f ä
deu tet</w>
de vice</w>
c .
arr h
al ter
ah n
Unter schied</w>
T uberkul
S V
Pharmak otherapeutische</w>
P at
M S</w>
Ibandron säure</w>
G u
Dosier ungs
Co- administration</w>
Anti -
ä t</w>
wh ole</w>
vi ew</w>
v ely</w>
um mi
ul t
uk le
tubercul osis</w>
ter at
t ent</w>
sp o
selb st</w>
rel ative</w>
re tion</w>
re productive</w>
r aten</w>
or ig
oni um</w>
mi pex
karzin om</w>
ig keiten</w>
hervor ru
hemm t</w>
h em
gastrointest in
en nen</w>
differ ences</w>
d bar</w>
co- administered</w>
caus es</w>
best ä
be droh
az ol
an aly
Unter schie
Tier arzneimittels</w>
T V
Stil lzeit</w>
So dium</w>
Sicherheit s
Se ver
STEL L
Resor ption</w>
Raum temperatur</w>
Pra mipex
On ce</w>
No vo
M ä
Kontrol l
HER STELL
Gl yc
Gesamt über
F U</w>
F OR
Ery thro
Di arrh
BL IST
1 40</w>
0, 6</w>
ö se</w>
Ärz te</w>
um s</w>
stü tz
sil denafil</w>
sensi tive</w>
sen k
s ach
poten zi
on c
olu tegravir</w>
ment -
je de</w>
investig ated</w>
inhal ation</w>
hav ing</w>
gener al</w>
g al
fi zer</w>
erg ri
en di
dist urb
c urrent</w>
b asis</w>
avail ability</w>
am ma
ali en</w>
aec es</w>
ab geb
Ver träglichkeit</w>
Un bedenk
Signi for</w>
R eb
Plasm asp
P fizer</w>
ON S</w>
Nier en</w>
Kühlsch rank</w>
Kontak t</w>
K re
K lini
G E
Ein gri
C im
C er
Bes on
Be utel</w>
6 1</w>
2 C
00 4</w>
ös er</w>
Überempfindlichkeits reaktionen</w>
vorsich tig</w>
vem ents</w>
v ac</w>
tt ing</w>
tr ag
temp or
substr ate</w>
su chen</w>
propor tion</w>
paramet ers</w>
opath y</w>
on y
o si
o k
monit or</w>
me ans</w>
lich em</w>
leich te</w>
lag ern</w>
k o</w>
induc ed</w>
in duzier
f est</w>
ev en</w>
ergri ffen</w>
ding s</w>
dan ach</w>
conc luded</w>
compon ents</w>
com po
co- administration</w>
cart rid
bott les</w>
bekann ter</w>
b acter
ar ding</w>
Z in
W arn
Verdün nung</w>
T od</w>
St ore</w>
Sp eci
Pop ulation</w>
Pharmac otherapeutic</w>
P ack</w>
P T
Nahr ung</w>
Mag ne
M yo
M -
Hämo globin
Ge f
Formo terol</w>
Diarrh ö</w>
C V
Bu deson
Beurtei lung</w>
Be ein
2 4-
0. 6</w>
- Dosis</w>
w le
versch rei
ver mu
tur n
t y
supp or
sug ge
stil l</w>
schaf ten</w>
rei bung</w>
recommend ations</w>
phyl ax
p el
ogen ität</w>
n as
mi a</w>
medic ation</w>
m or</w>
lodi pine</w>
lik ationen</w>
ier igkeiten</w>
gen otype</w>
ci um
car diovascular</w>
bor n</w>
bis her</w>
antiretro vir
am lodipine</w>
allerg isch</w>
all ine</w>
al d</w>
ad j
Z o
Y Y
Vor geschichte</w>
Vor be
UF ACT
To potecan</w>
S h
S PR
Pre ven
N al
Mehr fach
MAN UFACT
Juckrei z</w>
H än
E s
E 4
C or
Behandlungs beginn</w>
An gioten
AT C</w>
A F</w>
-W ert</w>
μ g</w>
weiß en</w>
ver zöger
tr y</w>
toler ated</w>
tol d</w>
ti fi
t ub
s wit
s ity</w>
s eine</w>
resul ting</w>
respon sible</w>
respon ses</w>
pi li
pili mumab</w>
pat ch</w>
onos etron</w>
neuropath y</w>
mittel schwerer</w>
main ly</w>
lo wer
ier ung</w>
ie fer
glich er</w>
gef äß
geb rau
fä hi
fi br
exist ing</w>
excre tion</w>
embr yo
e ment</w>
ding ungen</w>
di oxide</w>
ch est</w>
bet a-
ber ück
beab sichtigen</w>
auß erdem</w>
ar in</w>
ali sier
ali perid
al c
Ver minder
U B
Temozolomi d</w>
Ser um</w>
P il
Metho trex
M at
L t
Kur z
IV E</w>
F e
F ac
Dosis reduktion</w>
Be dingungen</w>
BR IN
Au ß
Ant agonisten</w>
A de
8 7</w>
0. 3</w>
wle d
wirk same</w>
w as
ver wendet
ver besser
ug ung</w>
tis ch</w>
ti mm
ten den</w>
sh ort
se ek</w>
r in</w>
r ho
prim äre</w>
pre vention</w>
pre fer
p H</w>
oro dispersible</w>
open -
oc y
ob ald</w>
men s</w>
men op
lo phosph
len e</w>
lebens bedroh
je dem</w>
ho to
g ast
f achen</w>
expo sures</w>
er dings</w>
di g
con firmed</w>
car d</w>
c attle</w>
bit s</w>
be zeichnet</w>
auf nahme</w>
aryn gitis</w>
ar ia</w>
angem essen
allow ed</w>
all en
alidomi d</w>
Z ahl</w>
Vorbe ugung</w>
Unterschie de</w>
Studien beginn</w>
Resist enz</w>
Re mi
Preven ar</w>
LD L-
K ET
Injektions suspension</w>
I N</w>
Hu sten</w>
Gel enk
G AB
F ahr
E fficacy</w>
Depres sion</w>
D ap
Be obach
Au ff
Arzneimittel -
Al kohol
5 5
0, 1</w>
ä r</w>
x il
withdr awal</w>
verschie denen</w>
ur ch</w>
th ral
th ink</w>
th i
subsequ ent</w>
stor age</w>
schei den</w>
ri l</w>
ph armak
ot al</w>
mo de
mm 3</w>
mis sed</w>
invol ved</w>
ini tis</w>
ig keit</w>
ic ally</w>
i di
hand s</w>
h n</w>
fak toren</w>
ent sorgen</w>
de me</w>
cir c
chroni scher</w>
beeinträchtig t</w>
auf bewahren</w>
arm s</w>
antiretro viral</w>
ange passt</w>
al ph
ak ing</w>
ag es</w>
ad urch</w>
ab elled</w>
Tru dex
Substr at</w>
Ste ady-
S um
Res p</w>
Poly sorb
Ke ep</w>
Influ enza</w>
Hypoglyk ämie</w>
Flüssig keits
E poetin</w>
C yto
AR T</w>
8 2</w>
7 9</w>
1 60</w>
&apos ;
wä h
viro logi
utroph il
ur en</w>
unerwünsch te</w>
tar get</w>
stop fen</w>
so ur
sin -
respon ded</w>
r ac
pren orph
pre dnis
post- marketing</w>
on es</w>
n eb
li on</w>
le gen</w>
l ac
kar diovas
ir ur
interv als</w>
ihr e</w>
hydro xide</w>
hoh e</w>
ho ut</w>
h en</w>
gel egt</w>
g te</w>
expo sed</w>
dr in
comit ant</w>
clo pidogrel</w>
chroni schen</w>
b us</w>
b ility</w>
assozi iert</w>
all er</w>
ac alc
absorb ed</w>
ab brechen</w>
Zul assung</w>
W EN
Stat us</w>
Pre dnis
P ol
O S
Nad el
K -
G il
Entacap one</w>
E D
Cro hn</w>
Con comitant</w>
Cob icistat</w>
Ad ju
8 1</w>
00 7</w>
0, 3</w>
yl säure</w>
yl h
y lo
w is
w in
vi el</w>
v asi
ut an</w>
us ulf
ub ia</w>
u ell</w>
tro ph
sch ä
re t
radi ol
prü ft</w>
pig s</w>
partic les</w>
ko k
ir gend
inj ek
infizier ten</w>
infark t</w>
ihr er</w>
hervorru fen</w>
her gestellt</w>
gressi ve</w>
gesam te</w>
gen schaften</w>
ge folgt</w>
forder ungen</w>
ff t</w>
erne ut</w>
eph ro
el am
ein ge
e qu
dru gs</w>
dec ided</w>
da bei</w>
bo s
behandel te</w>
be aring</w>
av i
au t</w>
au en</w>
ar b
an hand</w>
al ge
a ff
Vot ubia</w>
V acc
ST AN
S elten</w>
R is
Nahr ungs
Mem antine</w>
Effek te</w>
Cont ents</w>
Capecitab in</w>
C i
C ases</w>
Bas eline</w>
Amp ul
00 3</w>
zusätz liche</w>
yto in</w>
xi ety</w>
wor ks</w>
var o</w>
un it</w>
tig keit</w>
th yro
symptom atic</w>
subk utan</w>
str ong</w>
sto xi
sthe sie</w>
sh or
ser ot
sel s</w>
sel ek
saf ely</w>
relev ante</w>
rap id</w>
rab bits</w>
proble me</w>
pr y
open- label</w>
männ lichen</w>
mi d
ment al</w>
li eren</w>
jux ta</w>
ig ure</w>
i ved</w>
hydrox id</w>
her edi
ges tion</w>
fre i</w>
f ene</w>
entzün dung</w>
do se-
do g</w>
clo se</w>
ch ten</w>
ch er</w>
azy varo</w>
app li
ap sel</w>
al afen
ag relor</w>
ag ent</w>
a sis
a do
Zyk lus</w>
Zidov udin</w>
V en
Tr astuzumab</w>
To u
Studi es</w>
P u
P T</w>
Ni volumab</w>
Mö glichkeit</w>
Med D
Lo juxta</w>
L it
In s
Genot yp</w>
G las
G azyvaro</w>
Des lorat
C ML</w>
As thma</w>
0. 1</w>
- dose</w>
zi a</w>
z .</w>
weiß e</w>
vi el
ti vi
str eng
stopp ed</w>
schrän kung</w>
rit eri
reduc tions</w>
reduc ing</w>
ra x
pi c</w>
on ie</w>
oc rit</w>
näch sten</w>
man ufactur
len mark</w>
inclu des</w>
ig h</w>
i ti
funk tion
fri gkeit</w>
fe el</w>
ep ar
disopro xil
dec ide</w>
con stipation</w>
c lu
ber ufe</w>
ay er</w>
auf weist</w>
an schließ
acalc et</w>
abhän g
a w</w>
Verh ältnis</w>
Un ter</w>
Th e
Tenofovir disoproxil
T est</w>
T E
T A</w>
SU N</w>
S pri
Prä gung</w>
Peg as
O l
O C
Mit tel
M und</w>
In haber</w>
Impfstoff es</w>
H A
G lenmark</w>
El lip
D ig
CYP 1A2</w>
Be g
B is
An forderungen</w>
Al though</w>
ö tz
zul etzt</w>
wo uld</w>
wirk en</w>
vit egr
versch rieben</w>
un likely</w>
tro mbop
thrombo cytopenia</w>
stra ight</w>
sto red</w>
speci es</w>
sch ema</w>
prä klinischen</w>
partic ular</w>
p ir
ole st
n et
mut ation</w>
mechanis m</w>
me o</w>
me det
maxim ale</w>
mal es</w>
main tained</w>
m ol
l in</w>
l ack</w>
gri dy</w>
gr ade</w>
ge misch
exer c
en heit</w>
determin ed</w>
cyc les</w>
com fort</w>
bron cho
bo dy
bio availability</w>
besch werden</w>
b akteri
aci dosis</w>
ac char
ab gesch
Zyk len</w>
Z om
Wi th
Trudex a</w>
TI ONS</w>
Spri meo</w>
S CH
Re gi
Q T</w>
Pr uritus</w>
Ple gridy</w>
Per j
P unk
N S</w>
Mel oxicam</w>
Me chanis
MI T</w>
L op
Dar über</w>
D M
D ER
C ON
Blo ck
Beein trächtig
BM S</w>
App eti
ärz tliche</w>
Än derung</w>
ylh arn
wi k
vorübergeh end</w>
vi o</w>
ves sels</w>
ver schw
u x
toco g</w>
subkutan en</w>
subjec t</w>
si ck</w>
s hal
s er</w>
remo ve</w>
refriger ator</w>
recep tors</w>
reat ening</w>
r y</w>
r hyth
propi on</w>
prepar ation</w>
per z
op en</w>
on in</w>
occurr ence</w>
neu en</w>
ne w
mar row</w>
ma ß</w>
lier ung</w>
k eto
im atinib</w>
i z
heredi t
hand ling</w>
gen au</w>
f ragen</w>
experim ent
enth al
engmasch ig</w>
duc ational</w>
bo o
be it
ay ed</w>
act ing</w>
V ic
Schlä frigkeit</w>
S O
O CT
N epar
N O
Mor bus</w>
Medi kam
K wik
Inhal ator</w>
In- vitro-
Hau tre
HB V-
F IR
Ein mal
Ei genschaften</w>
D ay</w>
D ate</w>
C r
Al kohol</w>
Ab stand</w>
zyk lus</w>
weak ness</w>
vitegr avir</w>
um gehend</w>
trol y
thir d</w>
th reatening</w>
t us
subkutan e</w>
str ain</w>
re ve
pro phyl
pre chen</w>
placebo kontrollierten</w>
pi v
op ini
ner v
need les</w>
mi last</w>
lidini um</w>
l a</w>
it ching</w>
insuffici ency</w>
inj izieren</w>
indi k
il fe</w>
i sch
hydr ate</w>
gesch w
geb är
g ie</w>
g a</w>
fi zier
fi eld</w>
f al
ex cipients</w>
er mittel
empfind lich</w>
doub le</w>
direk t</w>
der ived</w>
beobach teten</w>
appar ent</w>
ange wendet
ad a</w>
acc um
ac erb
ZY PRE
Sum mary</w>
Sulfon ylharn
S oli
S B
Ret ard
Remi cade</w>
Prote in</w>
Plasm apro
Perj eta</w>
Pegas ys</w>
Mark eting</w>
K l
In hi
Hyper sensitivity</w>
Hal bwertszeit</w>
Gew icht</w>
G leich
Ellip ta</w>
E yle
D E</w>
Bet aferon</w>
Beson dere</w>
Al u</w>
Al ter
1. 0</w>
00 2</w>
yc ardi
y lic</w>
währlei stung</w>
weib lichen</w>
vi va</w>
usulf an</w>
us en</w>
u res</w>
tig ung</w>
th eit</w>
tel misartan</w>
si e
schre iten</w>
s we
ro und</w>
remo ved</w>
reg arding</w>
r at</w>
po ie
ony lu
obut yl</w>
o vari
nec ro
mi ce</w>
meth yl
medet omi
l er
kom p
kl är
itä ten</w>
inter sti
inj ec
individu als</w>
human en</w>
hear t
größ en</w>
f lasche</w>
f ache</w>
exerc ised</w>
episo des</w>
do m</w>
di pi
del i
con sist
comp any</w>
co b
cal cul
bat ch</w>
bacteri al</w>
avo ided</w>
an th
an gioten
ZYPRE XA</w>
Wel ches</w>
War farin</w>
W OR
VEL C
VELC ADE</w>
Tru v
Titan dioxid</w>
R em
Q T-
PACK UNG</w>
M I</w>
Lop inavir</w>
Haupt indik
Gran ul
Ge währleistung</w>
F alle</w>
E ini
Des halb</w>
Ch lor
Bon viva</w>
Blut gefäß
Bes timm
Au ge</w>
An sch
An gio
Admini stration</w>
Ac id</w>
-K I</w>
- Studie</w>
zi di
wer ten</w>
verfüg baren</w>
us ness</w>
us h</w>
ul ts</w>
tr astuzumab</w>
t inib</w>
stoff e</w>
stark en</w>
si va</w>
sek und
regi mens</w>
re tention</w>
re ached</w>
pri mar
primar ily</w>
pre pared</w>
phylax e</w>
op yr
nach weis
month ly</w>
meth od</w>
l ösen</w>
ind lichkeit</w>
i .
h öch
ges etz
genan nt</w>
gebor enen</w>
ge d-release</w>
fähi gen</w>
fung al</w>
fr ü
fort gesetzt</w>
find ings</w>
fer n</w>
f avo
et ri
erh in</w>
elim inated</w>
el ar
dre imal</w>
diabe tic</w>
cholester ol</w>
begrenz t</w>
be dienen</w>
b ir
az op
al ev
administer ing</w>
admini ster</w>
adi n</w>
ab ly</w>
W IR
Ver stop
Toxi z
T er
T adalafil</w>
Säugl in
Stu h
ST O
Ras agil
Pro met
Plasma konzentration</w>
Neuro pathie</w>
N um
L eg
Immun system</w>
ICH T</w>
Ha em
Eyle a</w>
Entacap on</w>
C l</w>
C G</w>
Bo su
Blo od</w>
Bei sp
B RA
B OX</w>
7 4</w>
- M
&apos; s</w>
ö dem</w>
z .
var ox
tur en</w>
trombop ag</w>
tan e
sel f</w>
risi ko</w>
ran i
pädiatri schen</w>
pro duce</w>
potenti ally</w>
p soriasis</w>
or ally</w>
opini on</w>
opath ie</w>
of ten</w>
o sin
normal ly</w>
no ted</w>
m atitis</w>
lu cken</w>
k in</w>
it ze</w>
is ing</w>
in te
in e
i se</w>
hal f</w>
gi gen</w>
fü n
form ulation</w>
ev ir
ery thro
erk ennen</w>
eh e</w>
e st
di c
depen ding</w>
complic ations</w>
bre chung</w>
bre ath</w>
body weight</w>
bo x
ber ech
beding te</w>
be deutet</w>
bal ance</w>
bacter ia</w>
b al</w>
att ack</w>
at e
ass t</w>
anti gen</w>
alev o</w>
ad apter</w>
X el
Wirksam keit
Truv ada</w>
Tablet ten
Sit agliptin</w>
Sever e</w>
Ren al</w>
Remo ve</w>
Re gel</w>
Re duzier
Par ameter</w>
Op ti
O UT
M AT
Kwik Pen</w>
Kan ü
In n
Herz sch
Hartk apsel</w>
HERSTELL ER</w>
Gil en
Faltsch achtel</w>
Eini ge</w>
E vi
D ue</w>
D ac
Cim zia</w>
C ol
B CR
Aussch eidung</w>
Au thor
A p
00 6</w>
ü tz
ï ve</w>
zu bereit
x ate</w>
we be
vis ual</w>
verantwor tlich</w>
transp lant</w>
tik um</w>
ti dine</w>
tei lungs
sugge st</w>
stän de</w>
stei ger
steh t</w>
shal l</w>
s al</w>
ro chen</w>
rec ently</w>
rap id
rapid ly</w>
opyr r
metho trex
mark ed</w>
l te</w>
it able</w>
ini b-
in er
ho wever</w>
flunomi de</w>
f usion
f te</w>
f ebrile</w>
ev ent
er ste</w>
eli xate</w>
elev ations</w>
dynami c</w>
doppelblin den</w>
cor responding</w>
co ugh</w>
cal c
block ing</w>
bio equivalent</w>
be inhal
be hav
at ten
as y
appe ar</w>
app eti
Vi read</w>
Ver teilungs
V as
Tou je
Tenofovirdisoproxil fumarat</w>
Tages dosis</w>
TH OR
Stam m</w>
Speci al</w>
S axagliptin</w>
S C</w>
Rep or
Promet ax</w>
Pri m
P sori
P eri
P C</w>
Ob wohl</w>
OUT ER</w>
Nepar vis</w>
MANUFACT URE
Komp likationen</w>
Kin zal
Hor mon
Herstell er</w>
H elixate</w>
H ar
G ummi
Detail ed</w>
Child-P ugh</w>
Ch olester
CYP2C 9</w>
CS F</w>
Aus maß</w>
Auf nahme</w>
Al ways</w>
äh ri
ä quivalent</w>
zwe ite</w>
war farin</w>
ver mittel
v ation</w>
v ag
ur ia</w>
ult oph
ultoph y</w>
u v
ti car
th eli
str adi
st ained</w>
s eit</w>
ro limus</w>
re plac
physi cal</w>
normal erweise</w>
no ea</w>
nach dem</w>
mi kro
methotrex ate</w>
m ess
intr av
inf ol
hydro gen
gerin gen</w>
gem el
fe w</w>
fak tor</w>
f ör
f ast</w>
f ast
f ami
exce ed</w>
ep ti
entsprech ende</w>
dis comfort</w>
co res</w>
aufge treten</w>
ar ko
ar c
appeti te</w>
an n
aktu ali
ad dre
ab ilität</w>
Z A</w>
X ultophy</w>
Verwen dbar</w>
Ver lauf</w>
TN F-
Ste ven
Sicherheit sprofil</w>
S prechen</w>
S af
Prot op
P soriasis</w>
Over all</w>
O B
Nex Gen</w>
Mä usen</w>
Methotrex at</w>
Lä sionen</w>
IN C
I L-
Hä mat
H eil
Gr öß
Gilen ya</w>
F lä
Erhöh te</w>
Ep iso
Dap agliflozin</w>
D er
D a
CYP2C 19</w>
Aus wirkung</w>
Acetylsalic ylsäure</w>
Ab acavir</w>
AU THOR
AR Z
9 0
10 4</w>
00 5</w>
Über leben</w>
z. B.</w>
yk ar
ycardi a</w>
w ass
vor liegen</w>
ug hout</w>
tro pin</w>
susp ected</w>
suppor tive</w>
su ffici
su cht</w>
sing le-
sel ben</w>
sched ule</w>
rit er
riter ia</w>
pro st</w>
prim ären</w>
p lastic</w>
ol ence</w>
mäß iger</w>
micro gram</w>
li x
li fer
infol ge</w>
ill ness</w>
high ly</w>
gener krankung</w>
f ähigkeit</w>
ey sun
er cept</w>
endi gung</w>
en des</w>
ein nahmen</w>
ec k
e ducational</w>
con sul
ch s
bor tezomib</w>
beson deren</w>
behav io
beg inn
b asier
b a
Z un
UG T
T eysun
Si ehe</w>
Sc ore</w>
S D</w>
Poly eth
Pl acebo
Me an</w>
K ARTON</w>
Joh n
In formation</w>
Gen o
F requ
Er wägung</w>
Enzy me</w>
E k
Dulox etine</w>
Do si
Dies er</w>
D abrafenib</w>
Char gen
Bestandtei l</w>
Bel gi
Angehöri ge</w>
An y</w>
AUTHOR IS
3 0-
1, 2</w>
- 1</w>
ück en</w>
ö t
z hei
y comp
ycomp a</w>
varox aban</w>
us -
ur ie</w>
u litis</w>
tiv es</w>
ticar ia</w>
thro ughout</w>
sub cutane
subcutane ously</w>
sch ützen</w>
s einen</w>
randomi zed</w>
prolon ged-release</w>
phosp hat</w>
onylu rea</w>
of ig
menop aus
lich erweise</w>
le ss
kürz lich</w>
krank heit</w>
komb ini
kin ase</w>
ke y</w>
is ol
ir ing</w>
in vasi
in form</w>
i ap
iap ex</w>
hau t</w>
gl arg
gen heit</w>
ge k
fe ed</w>
f lich
f aeces</w>
ex tent</w>
en -</w>
e ver
dr onat</w>
diagno sed</w>
desi r
dap agliflozin</w>
correc t</w>
bre ak
besteh enden</w>
b asierend</w>
b ag</w>
auß er</w>
auf treten
ange sprochen</w>
anc ies</w>
an i
an gi
all gem
acon azol</w>
acet ate</w>
Zus ätz
Zu stand</w>
X ofig
X iapex</w>
Win thro
Ver gleich
Tuberkul ose</w>
Touje o</w>
Syst em
St alevo</w>
Sch üttel
Sch utz</w>
Sch ul
S ter
RE N</w>
Produc t</w>
Plasmasp iegel</w>
Pl az
PA R
O m
N A
L V
Iv acaftor</w>
I so
I F
Hypoglyk ämi
Hand hab
H em
G L
F ycompa</w>
F T
F S
E S</w>
E 1
C y
C ef
Beeinträchtig ung</w>
Be f
Be endigung</w>
B ro
Arzneimittel- Agentur</w>
Al zhei
AUTHORIS ATION</w>
7 1</w>
1, 0</w>
ün del
ün d
ver tragen</w>
ver mi
uf en</w>
stradi ol</w>
spr achen</w>
schw anger
sch ätz
ri st
requ iring</w>
prot ective</w>
pr uritus</w>
pl ötz
pl er
per son</w>
om o
occurr ing</w>
na ïve</w>
mpf ung</w>
mon at
lo p
lact ation</w>
intoler ance</w>
immuno suppres
gewöhn lich</w>
gew ich
geei g
geeig net</w>
gebär fähigen</w>
f ris
ex acerb
eti mes</w>
emboli sm</w>
e den</w>
di et</w>
det ected</w>
cul o
compon ent</w>
chil d
beding ten</w>
auf weisen</w>
armako dynami
ange geben</w>
anaphyl akti
al though</w>
Winthro p</w>
Volum en</w>
Vir en</w>
Verstop fung</w>
Ver k
V on</w>
Teysun o</w>
Pan kre
Packungs größen</w>
Mut ationen</w>
Mahl zeiten</w>
L unge</w>
Ins gesamt</w>
Immun e</w>
INC IVO</w>
I ON
H M
Fahr zeu
F igure</w>
Ep ilep
Di ffer
D em
D U
CO M
CH AR
Ber ichte</w>
B ündel
B 6</w>
A us</w>
ö st</w>
zent ri
ykar die</w>
wei ß</w>
verringer te</w>
vermu ten</w>
ver mehr
ung sp
um ab-
treat ment-
ti p</w>
stoxi zität</w>
stark e</w>
si tis</w>
ser o
ques tions</w>
qu ality</w>
punk te</w>
pneumoni a</w>
phosph at
nation alen</w>
mut ations</w>
mittel n</w>
min or</w>
mi de</w>
mag ne
li mit</w>
le k
k ardi
j ün
it one
irrit ation</w>
il d</w>
idi opath
i sierung</w>
hi p</w>
gro ße</w>
grap h
glyc aemic</w>
gl omer
fortgeschrit ten
fin avir</w>
fe -
f uro
f loxacin</w>
er teilen</w>
ent liche</w>
ent age</w>
en ro
en falls</w>
elev ated</w>
el finavir</w>
eg or
dis c
dau erh
coag ulation</w>
ch irur
centr al</w>
cardi al</w>
bit ol</w>
bio äquivalent</w>
benö tig
bel on
az o</w>
az e
ati ves</w>
ant agonists</w>
an gio
ac at
Zi el
Z ur
X y
Wh ite</w>
WIR K
U rin
U E</w>
T ol
St är
Schw ierigkeiten</w>
Rilpivir in</w>
Reduzier ung</w>
Re production</w>
R a
Po d
P K</w>
Ori on</w>
O x
Met ac
M M</w>
Keto conazol</w>
Im ly
Heil berufe</w>
Hauptindik ator</w>
Handhab ung</w>
HIV- 1-
H D</w>
G ut
G ar
Fach information</w>
FL AS
FLAS CH
Einzel dosen</w>
Do x
Br ad
Beg leit
Be w
B enz
AN T
A .</w>
5 0
1 12</w>
üt ungs
ü ck</w>
zu reich
yo unger</w>
x ie</w>
v in
v ax</w>
ung sphase</w>
un changed</w>
tr avi</w>
tem ra</w>
t barkeit</w>
sle ep
si um
separ ate</w>
s ant</w>
ri eben
reduzier te</w>
prot ection</w>
pr azo</w>
par tial</w>
p fl
o Bri
no wled
nis ses</w>
nec k</w>
n s</w>
mensch lichen</w>
mehr ere</w>
ma k
m an</w>
lei m
intraven ously</w>
ig u
hydro us</w>
ho ch
ges tive</w>
gering er</w>
gen eti
gef unden</w>
frequ enz</w>
fi ziert</w>
ep hal
ent er</w>
el te</w>
ei chen</w>
e ff
di c</w>
der t</w>
dec reases</w>
colo ured</w>
bl ack</w>
be kommen</w>
app lied</w>
am ol</w>
al ter</w>
al ed</w>
ag gre
ack nowled
acat erol</w>
Z ahn
Xofig o</w>
X ig
Up travi</w>
Unit ed</w>
Um ständen</w>
Sch merz
Ro Ac
RoAc temra</w>
Risiko faktoren</w>
Ri prazo</w>
Repor ts</w>
Rem si
Pro gression</w>
Pr üf
P R</w>
Nex oBri
NR TI
Mut ation</w>
Mo st</w>
Mil li
M acrogol</w>
Leflunomi de</w>
L ei
Inf l
H azard</w>
Gru ppen</w>
Geb ur
Ge webe</w>
G S-
Er teilung</w>
Entzün dungen</w>
Elimin ation</w>
E UR
Dur ch</w>
Diagno se</w>
D as
Cyto chro
Char acteristics</w>
Blutzucker spiegel</w>
Behand lungen</w>
Be weg
BCR P</w>
B ind
4, 5</w>
4 50-
2 000</w>
Über lebens
zi al</w>
y n</w>
vor i
vi d</w>
vermi eden</w>
v ap
ut ri
up on</w>
unter stütz
um a</w>
u me
su itable</w>
stär k
ste ady-
sour ce</w>
sh ort</w>
s agen</w>
s -</w>
ro ute</w>
qu e</w>
psy chi
prolon gation</w>
per man
näch ste</w>
mor ning</w>
mi e</w>
mehr eren</w>
medi kation</w>
me a</w>
lympho cy
le ft</w>
lang sam
is etzung</w>
io usness</w>
il o
hyperten sive</w>
hydr at</w>
heal th</w>
gen eric</w>
gehör t</w>
geh t</w>
g astro
farblo se</w>
einig tes</w>
e sis</w>
drück en</w>
diagno sis</w>
desir able</w>
den e</w>
cro s
con ven
bro chen</w>
beg leit
ausge prä
auf traten</w>
ast a</w>
ari pipr
ag en
adequ ately</w>
ab zu
Zun ahme</w>
Vir afer
Ver lust</w>
T E</w>
Som atropin</w>
Soli ris</w>
Risikomanagement plan</w>
Rec ommen
Rap amune</w>
PE T</w>
P ub
P D-
O H
Nutz en-
Ner ven
Natriumchlor id</w>
MT X</w>
Lamiv udine</w>
Klini sche</w>
K au
Inj ection</w>
In iti
Iband ronic</w>
I F</w>
Hy promellose</w>
H ier
Gen eri
Cr Cl</w>
Ch eck</w>
Bron ch
B ili
Auß erdem</w>
An gin
Al b
Ab hän
- related</w>
äu ß
yp en</w>
y len</w>
weit erhin</w>
vori conazole</w>
verdün nt</w>
v atinib</w>
thro at</w>
syndro m</w>
suscepti bility</w>
substr ates</w>
stru k
steady- state</w>
sp ra
som etimes</w>
se x
s mo
riteri en</w>
ri ft</w>
reg ularly</w>
reduzier en</w>
reco vered</w>
prakti sche</w>
p hal
orrh ag
opyrr onium</w>
oli tis</w>
no e</w>
nit ol</w>
metast atic</w>
metaboli c</w>
m ort
lung s</w>
l er</w>
kl eine</w>
kl are</w>
j ähri
iv acaftor</w>
inte dan
in take</w>
immun ity</w>
im umab</w>
grap hi
ger ing</w>
gast ric</w>
fär bung</w>
ery thema</w>
ent acap
entacap one</w>
enati de</w>
ehydr ation</w>
durch führen</w>
do sier
de gre
com a</w>
cir rho
ci se</w>
c ri
br acht</w>
b rau
asy mptom
am ne
alb umin</w>
a dium</w>
V ene</w>
UM KARTON</w>
Tum oren</w>
Tri ume
TM Z</w>
T A
Sev o
Ser o
Sch ein
S R
S C
Risiko -
Rezep toren</w>
Respon se</w>
Reb if</w>
Pro phylaxe</w>
Pharmac o
Par tikel</w>
P fer
P en
P ON
NS CL
NSCL C</w>
M ax
Lin agliptin</w>
Leber erkrankung</w>
Krank heits
K lasse</w>
Intr aven
IN E</w>
I a
He al
HD PE</w>
Gastrointest in
F RO
F RE
EN T</w>
CHAR GEN
C EL</w>
Bu sil
Bon den
B ar
Ab rax
AS E</w>
1. 2</w>
1, 3</w>
zun ahme</w>
zo gene</w>
y et</w>
we ch
war ds</w>
vorübergeh ende</w>
v ised</w>
umm y</w>
u li
u ch</w>
to m</w>
ti tr
ti ert</w>
tei li
tablet te</w>
t un
t am
su d
stab ili
si ven</w>
schein t</w>
s hi
re st
pi el
phen yl
off enen</w>
niedri gen</w>
n ers</w>
mi th
me pre
mal ig
lower ing</w>
join t</w>
initi ating</w>
indi ziert</w>
in e-
gelan gen</w>
ge ts</w>
g li
evalu ate</w>
erg ab</w>
erfol gt</w>
ep s</w>
ent fer
ell a</w>
eich el
e ase</w>
direc tly</w>
del ayed</w>
d ummy</w>
clo ts</w>
ci lis</w>
child bearing</w>
bri et</w>
br y
bi ological</w>
au e</w>
app ly</w>
an ol</w>
an hydrous</w>
amp le</w>
ali zumab</w>
ak t</w>
aglu tide</w>
abu vir</w>
abgeb rochen</w>
ab sence</w>
ab acavir</w>
Wir d</w>
V ent
Ur tik
Tran spor
Tei l
Te sts</w>
T ic
T af
Por cilis</w>
Polysorb at</w>
Phase- III-
P 450</w>
Nach beobach
N ich
Mi dazolam</w>
MA H</w>
M angel</w>
L AB
Krampfan fälle</w>
Kin g
Inter national</w>
Inf liximab</w>
Impfstoff s</w>
Evi pler
Es briet</w>
Ereig nissen</w>
Ent fernen</w>
ER A</w>
C iclosporin</w>
Busil vex</w>
Bonden za</w>
Bili ru
B ATC
BATC H</w>
Applik ation</w>
3. 5</w>
00 9</w>
zi eh
we g</w>
vorges ehen</w>
verhin dern</w>
ven tion
vastig mine</w>
ure vax</w>
ung lo
um in
transder mal</w>
th el
termin al</w>
t on</w>
t le</w>
supp le
sul f
struc tions</w>
stopp ing</w>
somn olence</w>
sich t
sach et</w>
ri vastigmine</w>
ri ght</w>
ri g
respon d</w>
r one</w>
r ilpivir
rilpivir ine</w>
pl es</w>
pfl anz
p ran
p om
ot h</w>
oc ular</w>
myo cardial</w>
mu co
mi x
metast asier
lier te</w>
li po
kin e
kidne ys</w>
kali ämie</w>
k rä
k lasse</w>
jewei ligen</w>
inhi bit</w>
inf arc
il en</w>
i x</w>
i x
i ce</w>
geimpf t</w>
ge geben
form ance</w>
fol low</w>
ermittel t</w>
er zi
du ziert</w>
direc t</w>
develop ing</w>
d abrafenib</w>
culo skeletal</w>
comp le
ch ew
carri ed</w>
bit al</w>
azi dose</w>
av u
auf gel
at a</w>
antiretrovir alen</w>
ant agonist</w>
amino transferase</w>
al ways</w>
actose- Monohydrat</w>
ac ts</w>
ac lit
ab er
Virafer on
Verminder ung</w>
V ar
Tr äch
Tr ametinib</w>
St rib
Son sti
Sin ce</w>
SI BL
SIBL E</w>
S tre
S PE
Retard tabletten</w>
Remsi ma</w>
R T
Poten tial</w>
Plasma -
P urevax</w>
P S</w>
Or al</w>
O G
N ukle
Men gen</w>
MedD RA</w>
Leber funktionsstörungen</w>
L actose-Monohydrat</w>
Krank enh
King dom</w>
Je der</w>
Infl ectra</w>
In structions</w>
In duktion</w>
Immun antwor
Ia sib
I A</w>
Generi kum</w>
Gar da
F entanyl</w>
Ex posi
Einzel dosis
Du o
Di abe
Bin ocrit</w>
Bei m</w>
Be darf</w>
Angin a</w>
Ang aben</w>
Abrax ane</w>
AL L</w>
3 3
18 4</w>
00 8</w>
0. 001</w>
0, 001</w>
än dern</w>
zi dov
wir r
wi es</w>
w es
vorher ige</w>
verminder te</w>
ur afenib</w>
unter brochen</w>
un wahrscheinlich</w>
ul äre</w>
ul cer
ti um</w>
ti ox
ti din</w>
ti a</w>
test ing</w>
tech ni
sch em
s einem</w>
ri pt
reduc es</w>
re sorb
re fer</w>
randomi sierte</w>
post nat
ph an</w>
perc ent</w>
on dap
ondap ar
ondapar inu
om s</w>
ol s</w>
mäß igen</w>
lim mer
li fe-
las si
kran kungen</w>
kal z
j unc
itäts studien</w>
it ten</w>
it al
intramus cular</w>
intedan ib</w>
infarc tion</w>
inc reasing</w>
ild drü
gi c</w>
fibro sis</w>
favo ur</w>
ex tre
er lä
ek ir
di lat
deter mine</w>
det en</w>
d aten</w>
cartrid ge</w>
carcin oma</w>
c urrently</w>
bil ta</w>
aripipr azole</w>
al t</w>
abu tin</w>
Wechsel wirkung</w>
Vi ekir
Verteilungs volumen</w>
V o
Triume q</w>
T acrolimus</w>
Strib ild</w>
Sev elam
Sel b
SI FRO
SIFRO L</w>
S or
S ofo
S ehen</w>
Re ad</w>
Proble me</w>
Pr alu
Po wder</w>
Pil z
NexoBri d</w>
Neu po
Nach weis</w>
N CI
Max im
MI G
L at
K or
J ak
Imm unglo
Imly gic</w>
Iasib on</w>
I B
Hepati c</w>
Haupt studien</w>
H alten</w>
H 2
G R
Evipler a</w>
E 1</w>
Dox orubicin</w>
Dig oxin</w>
D IN
Beh ältnis</w>
Bakteri en</w>
B l
B TV
AT C-
AD A</w>
. .</w>
Ü ber</w>
º C</w>
zur ück</w>
yl en
x is</w>
wöch entlich</w>
virus es</w>
ut sch
un zureich
tran samin
toxi schen</w>
sulph onylurea</w>
su ic
ste ady</w>
spä ter</w>
spr ache</w>
si zes</w>
si l</w>
sh ap
schw er</w>
sch rit
sch merz
re o
re ly</w>
pry mea</w>
plan ning</w>
ologi c</w>
o uter</w>
nerv ous</w>
nat ür
n on
n es
maxim alen</w>
kal aemia</w>
k er
ju ven
intraven öser</w>
inj ur
inf liximab</w>
in duce</w>
in activated</w>
imp act</w>
hosp ital</w>
han e</w>
gu id
gerin ge</w>
fol gen</w>
f inal</w>
erreich ten</w>
eno ugh</w>
enc ies</w>
durchschnit tliche</w>
design ed</w>
d ated</w>
d adurch</w>
d acht</w>
cop ies</w>
cont ent</w>
col l
co ver</w>
chro mo
chirur gi
ch ed</w>
calcul ated</w>
besteh en</w>
bekan nten</w>
aus gesetzt</w>
aufge führten</w>
ap hane</w>
anschließ end</w>
angs am</w>
angio edema</w>
Wei se</w>
Viekir ax</w>
V imp
Urtik aria</w>
Tr ä
T EN</w>
Sel inc
Rei z
Pub lic</w>
Pro ven
Pralu ent</w>
Pi pet
Pack age</w>
O prymea</w>
Natriumchlor id
N ICHT</w>
MANUFACTURE R</w>
M UL
M IN
M AC
Luf t
LE ASE</w>
L yophilis
L E</w>
Kno chen</w>
Kali um
Injektions n
Hän de</w>
Ha ar
H T
Gewichts zunahme</w>
Ge gen
Garda sil</w>
G allen
Flu ticas
Er st
Dr ücken</w>
D ec
Brust krebs</w>
Beisp iel</w>
BL IN
Antikörper n</w>
An aphyl
Ab b
A ug
A log
1. 3</w>
- 1
über prüfen</w>
üb licherweise</w>
zidov udine</w>
wor se</w>
vor zug
vi gil
ver hü
undi mm
undimm uni
ul ed</w>
tifi b
tifib ati
thro mb
tern a</w>
stero id
so ft</w>
sel ective</w>
sch utz
sat z
s obald</w>
s low
s axagliptin</w>
ro mbo
reich ungs
radi ation</w>
pro gram
pot ent</w>
pi pet
pharmac ology</w>
p ass</w>
op al
oli br
olibr is</w>
ol ade</w>
nit ro
neh mer</w>
mer k
mel an
mat ter</w>
ke ys</w>
j en
impro ved</w>
ild agliptin</w>
i scher</w>
h af
g ently</w>
fre ien</w>
fre ie</w>
fi ve</w>
fem ales</w>
f u
ent fernen</w>
enro l
end points</w>
en ie</w>
ein her
eh lung</w>
ed ge</w>
ec tor
disp os
di vi
det ail
der ungen</w>
de uten</w>
de ssen</w>
coag ul
calc aemia</w>
bil dungen</w>
bewahr t</w>
ben e</w>
beein trächtigen</w>
aus zu
auf bewahrt</w>
ar ter
ar te</w>
antivir al</w>
an -
amne se</w>
alle m</w>
al k
ag ul
a esthesia</w>
WOR TL
W omen</w>
Vimp at</w>
VER ANT
VERANT WORTL
V olibris</w>
UGT 1A
System organ
Schwanger en</w>
Schmelz tabletten</w>
Sal z
S kin</w>
Ris k</w>
Ral oxi
RES PON
RESPON SIBLE</w>
RE LEASE</w>
R T</w>
O pio
Natrium hydroxid</w>
Magne sium
M ess
K oh
Immun o
IG AB
IGAB E</w>
Hin weis</w>
Herz frequenz</w>
H ist
H A</w>
FRE IGABE</w>
F el
F EN
F E</w>
F AL
Elimin ations
Dysp ep
DE S</w>
D el
D ef
Chil dren</w>
CA P</w>
Alter s
Ab gabe</w>
ATC- Code</w>
ARZ NE
-T est</w>
ütungs metho
ü l
ä sthesie</w>
weigh ing</w>
w ho
vor behandelten</w>
verord net</w>
ver s</w>
vas cular</w>
tä glichen</w>
tur n</w>
tri glyc
tion ed</w>
st o</w>
sor gung</w>
sich tigt</w>
sel tene</w>
s mus</w>
relev ance</w>
re stric
radio aktiv</w>
r hose</w>
pro lifer
phosp ho
p yre
p assung</w>
os ent
osent yx</w>
orig inal</w>
opor osis</w>
oc igu
nich t
myel oma</w>
mini mi
mepre vir</w>
me t</w>
mal en</w>
lip -
li ve</w>
le ading</w>
las chen
l ater</w>
l angsam</w>
keto conazole</w>
kalz ämie</w>
kali sche</w>
it aprevir</w>
ir rhose</w>
instruc ted</w>
hal tigen</w>
haemat ological</w>
gr aft</w>
gleichzei tigen</w>
gel eg
geeign eten</w>
evalu ation</w>
eth ylene</w>
ent scheiden</w>
cob icistat</w>
clo sed</w>
at oren</w>
at e-
app ears</w>
angioten sin</w>
an alyse</w>
an alo
ak uter</w>
ah y
aglu tid</w>
affec ting</w>
a ir
a -</w>
Z ev
Val sartan</w>
VERANTWORTL ICH</w>
VE G
V TE</w>
Unter brechung</w>
To des
The y</w>
T ype</w>
Spe zi
Sil ap
Sch ilddrü
Rev olade</w>
Produk t</w>
N ausea</w>
M ak
M agen</w>
Leu ko
Kop ien</w>
Kontr azep
In t
Imp lant
H2 O</w>
Gr undimmuni
Gehir n</w>
Cin acalcet</w>
CHARGEN FREIGABE</w>
C osentyx</w>
C L</w>
Behandlungs dauer</w>
BLIN CY
Antibio tika</w>
An passung</w>
Aluminium -
AL T
7 4
6 00
16 8</w>
0, 8</w>
- Arm</w>
üb liche</w>
ä m
z ant
wo gen</w>
wei l</w>
veränder ungen</w>
ver k
utsch land</w>
ur asi
up dated</w>
un used</w>
tissu es</w>
ti tan
titan ium</w>
ti cal</w>
thrombo sis</w>
t ami
t acrolimus</w>
su stained</w>
sin formationen</w>
si g
se al</w>
ri p
rheumato id</w>
ren nen</w>
reco very</w>
prop ylene</w>
pro gressive</w>
po st</w>
piv otal</w>
p as
os in</w>
ol one</w>
neuro logi
mort ality</w>
manufactur er</w>
mak es</w>
log ical</w>
le cht</w>
l a
injek tion</w>
inhibit s</w>
ig abe</w>
i de
hep ato
geeign eter</w>
g ten</w>
füh len</w>
ex ample</w>
es sive</w>
er wogen</w>
er es</w>
entfer nt</w>
en schmerzen</w>
emp ty</w>
de p
d ulox
conc ern
con vex</w>
chlor id</w>
bit asvir</w>
be tro
be ide</w>
at ors</w>
at mi
associ ation</w>
ass ungen</w>
as po
arm el
ari thromycin</w>
ap ine</w>
ang ina</w>
an xiety</w>
al em</w>
al dosis</w>
act am</w>
aclit axel</w>
accum ulation</w>
ac oxib</w>
abo zant
Viraferon Pe
ViraferonPe g</w>
Unbedenk lichkeit</w>
Tran samin
Steven s-
Sp on
S A</w>
Rif ampicin</w>
Re mission</w>
Ra dio
R ötung</w>
Psori asis
Pod haler</w>
Pat rone</w>
OL OG
Metaboli sierung</w>
MI TT
M ain
Li ste</w>
L ag
L EM
Kal zi
Jak avi</w>
Immun ität</w>
ION SY
Grundimmuni sierung</w>
G em
EX UB
E lek
Dosier ung
De utschland</w>
Cor bilta</w>
C lass</w>
C l
BLIST ER
Ap pro
Angioten sin-
Am y
A z
A D</w>
5- FU</w>
3, 5</w>
200 9</w>
2 4
0. 8</w>
zy ten
zus etzen</w>
zugel ass
y on
weg s
we ak</w>
w and
ver lässi
v .</w>
und s</w>
un ts</w>
um p</w>
toxi sche</w>
to br
thyro id</w>
st eps</w>
spiegel s</w>
sph armakokineti
spezifi schen</w>
sib an</w>
schwanger en</w>
ren ale</w>
remain ing</w>
re sum
ran ged</w>
proper ties</w>
per sistent</w>
or a</w>
oph aryngitis</w>
oc k</w>
ob ar
obar bital</w>
ne ue</w>
n ep
main tain</w>
lymph oma</w>
lini en</w>
lim mern</w>
life- threatening</w>
it ant</w>
injur y</w>
ing er</w>
i zid
führ liche</w>
fi den
fiden z
erg aben</w>
epi der
ent a</w>
embo lic</w>
ecitab ine</w>
e stro
dru g-
di hydrate</w>
d .
cr yst
con vul
cirrho sis</w>
ch te</w>
cap ecitabine</w>
c lus
c es</w>
belon gs</w>
be teili
be deut
b las
av anc
ation spharmakokineti
anti n</w>
aly dec
Z UL
Vic tre
T RE
St op
Selinc ro</w>
Schrit t</w>
S am
QT c</w>
Proven ge</w>
Pneum onie</w>
Meth yl
Metac am</w>
Mem antin</w>
L A
Kon fidenz
K ön
K alydec
IN R</w>
II -
HP V</w>
H IN
Gr und</w>
Ges und
Gebrau ch
Ep clus
Empf än
Empf indlichkeit</w>
D C</w>
Carb amazep
Can agliflozin</w>
Bon dronat</w>
BL UE</w>
B y</w>
B y
Author isation</w>
Ad di
AS S</w>
AS S
AN T</w>
A CH
200 1</w>
0, 4</w>
ä tt
Än derungen</w>
zei tige</w>
we l</w>
ur ticaria</w>
ul ate</w>
u d
ti redness</w>
tel lic</w>
t es
spon tane
so l</w>
se x</w>
ro ut
resol ved</w>
reich en</w>
re zep
re tin
pan rix</w>
p f</w>
oph ag
ondaparinu x</w>
oli mus</w>
ocigu at</w>
n ete</w>
mon ati
medi ated</w>
ma ßen</w>
kor rek
inhal ed</w>
ic s</w>
i p
gr adi
glo bulin</w>
gen ital</w>
gemisch t</w>
ge u
ge tting</w>
ge cyc
g än
fung in</w>
fo vir</w>
fi x
exer cise</w>
exc ept</w>
entsprech enden</w>
einmal igen</w>
e at</w>
dox orubicin</w>
do w</w>
der iv
dat es</w>
d on
d as
con version</w>
co litis</w>
ax el
aspo fungin</w>
asep tic</w>
ar beit
anti psycho
anaphyl actic</w>
an rix</w>
an a</w>
amo unts</w>
am ong</w>
ag re
acro ss</w>
accid ental</w>
Ver wirr
Unter nehmen</w>
U S-
Träch tigkeit</w>
T ec
Stevens- John
Sofo sbuvir</w>
Silap o</w>
Sch ädi
Risiko s</w>
Rev atio</w>
Rap tiva</w>
Ran domi
R u
Punk te</w>
Parkin son-
Pal onosetron</w>
P neumoni
P I
N A-
Mil ch</w>
Lakt at
LEM TR
LAB EL</w>
L V</w>
Ind inavir</w>
Hautre aktionen</w>
Flu enz</w>
Epilep sie</w>
En zep
Ein schränkung</w>
EXUB ERA</w>
Di arrho
D re
D en
Co tellic</w>
Capecitab ine</w>
Behandlungs gruppen</w>
B q</w>
Au ch</w>
An imal</w>
An fälle</w>
2 -</w>
0. 4</w>
0. 2</w>
- Gruppe</w>
yo ung</w>
y ri
wirksam er</w>
who m</w>
wendi gkeit</w>
vit amin</w>
uter t</w>
ur ic</w>
tr ametinib</w>
tiv arg
sie gel
sex ual</w>
sel tami
sec u
schre it
sch merz</w>
sch -
s et
reg on</w>
r und</w>
pre dic
phal an</w>
periph ere</w>
p hoto
p H
out come</w>
os a</w>
or ange</w>
op io
op hr
ologi scher</w>
ol len</w>
ober fläche</w>
neu tr
nep o</w>
meth yl</w>
men de</w>
lu ck
li x</w>
leuk aemia</w>
kontrollier te</w>
k lo
insuffici ent</w>
indic ation</w>
indi gkeit</w>
inde pen
ho her</w>
haemo dialysis</w>
h initis</w>
gegeben enfalls</w>
gan gen</w>
fün f</w>
för mi
fl üssi
ff er</w>
f el
erlä utert</w>
ent ally</w>
em bro
eg al
dop amin
conven tional</w>
care ful</w>
car ry</w>
c cal</w>
bo wel</w>
bi v
behandel n</w>
be utel</w>
atmi gkeit</w>
at ul
ahrschein lichkeit</w>
adjuv ant</w>
ad ded</w>
Y el
X ol
Wachstum s
W und
W AR
Tru lic
Therap ien</w>
Stoff wechsel
St ellen</w>
Sicherheit sinformationen</w>
Selb st
S w
S tivarg
Repaglini d</w>
Pu regon</w>
Po st-
P ML</w>
Op tr
Not wendigkeit</w>
Ne ur
Myel o
Lympho zyten</w>
Lt d</w>
Leuk ämie</w>
Leg an
Leber insuffizienz</w>
Kurz atmigkeit</w>
JJ J
JJJ J</w>
Inhi bition</w>
Häufig keiten</w>
Hä modi
Hepatitis- B-
Hal tbarkeit</w>
H g</w>
Gummi stopfen</w>
Größ e</w>
Ge sich
G et
F lix
Ereig nis</w>
Episo den</w>
Epclus a</w>
Emp agliflozin</w>
Ein stellung</w>
Dy nepo</w>
Di hydrat</w>
Dar reichungs
CV MP</w>
C V</w>
Budeson id</w>
Bo x</w>
Blutgefäß e</w>
Aripipr azole</w>
Ansprech rate</w>
Ansprech ens</w>
Ang st
Ab ständen</w>
AU F</w>
A ut
A X</w>
A T</w>
1, 8</w>
0, 000</w>
Ö deme</w>
wer tet</w>
w aste</w>
verstär ken</w>
versch lossen</w>
ver stehen</w>
vap tan</w>
under go</w>
un treated</w>
te x</w>
t ment</w>
super vision</w>
stear at</w>
st at</w>
si an</w>
sen kt</w>
sel ected</w>
se mpf
rec or
ra rely</w>
r ing</w>
qu anti
propor tional</w>
progres sions
profession al</w>
proble men</w>
posi tiv</w>
poly ethylene</w>
pharmac ological</w>
pe ak</w>
or o</w>
ophi lia</w>
ob struc
ne u</w>
n ame</w>
mus kul
mp tom</w>
mm Hg</w>
m um</w>
less ness</w>
leich ten</w>
le gs</w>
kontrol lieren</w>
kon vention
kl einen</w>
kan am
interru ption</w>
i band
hü l
h arm
gel iefer
geb unden</w>
ge stell
ge pl
g ard</w>
form e</w>
fo et
fi der
erwar tet</w>
erreich en</w>
epilep sy</w>
ent ran
ek in
eh len
dy litis</w>
def ini
dar unter</w>
d- on</w>
consider ation</w>
bro mide</w>
bro mid</w>
bel egt</w>
behandel n
be l</w>
be en
b ub
avanc in</w>
as th
ap in</w>
ander es</w>
ag ing</w>
addre ss</w>
ac u
Zon is
Zev alin</w>
Z it
Z av
Xol air</w>
W ahrscheinlichkeit</w>
W H
Versch reibung</w>
Versch luss</w>
U S</w>
Tec fider
T OB
Stör ung</w>
Stär ke</w>
Sep sis</w>
STO F
SPE CI
S un
Plaz eb
Phosp hat
Peri ph
Pan demic</w>
PAC K</w>
P ap
P H
Ober sch
Nieren versagen</w>
L icht</w>
L U
Körpergew ich
Kom pon
Kalydec o</w>
Joh n</w>
Impfstoff en</w>
Immunantwor t</w>
IS CH
I MITT
H Be
Gri pp
Get rän
Gebrauch sin
Fol ge</w>
F ut
F ir
Euro pe</w>
Erhaltungs dosis</w>
Ein geben</w>
Dys funktion</w>
Diarrho e</w>
D olutegravir</w>
Chargen fre
C orti
BI OLOG
Alog liptin</w>
ARZNE IMITT
1. 8</w>
0, 7</w>
- treated</w>
- oxid</w>
über prüft</w>
zu ge
w a
vorges eh
vi se</w>
ul t</w>
tro ugh</w>
sur g
suffici ent</w>
st ances</w>
sli ght</w>
si can</w>
sen i
seni us</w>
schädi gung</w>
schwerwie gend</w>
sc re
reve al</w>
regelmäß ige</w>
rech ter
ran ce</w>
radiol abelled</w>
prophyl axis</w>
prescri be</w>
pre domin
possib ly</w>
posi tiven</w>
pool ed</w>
platel ets</w>
pharmaco dynamic</w>
periph eren</w>
perc entage</w>
p sori
oste oporosis</w>
on id
om yo
off -
oc tocog</w>
o re
nis k
multi zentri
mpf e</w>
mechanis mus</w>
lin za</w>
lin ear</w>
le u
kl ein
k rist
intest inal</w>
in sul
ig reich</w>
ig n</w>
iband ronic</w>
hyper sensitive</w>
ho li
hel ps</w>
h ing</w>
h ed</w>
gi ble</w>
geno toxicity</w>
gener alised</w>
gem ein
ge fül
g igkeit</w>
g ent
g ain</w>
en dem</w>
embro lizumab</w>
ekin ist</w>
ef ru
e GFR</w>
doc um
dis car
dig oxin</w>
cont rib
complet ely</w>
complet ed</w>
clu si
c iclosporin</w>
block ers</w>
bli ck</w>
bes itz
be is
be at</w>
au b
att ack
arteri al</w>
ar s</w>
ar p</w>
an nisk
alog liptin</w>
allergi schen</w>
ak tiver</w>
ak linza</w>
agin ase</w>
affec ts</w>
adjust ments</w>
acet at</w>
accid entally</w>
abhäng ige</w>
a red</w>
Zusätz lich</w>
Zu ck
Zo ely</w>
Xy rem</w>
Wass er
WIRK STOF
WAR N
Ver sican</w>
Tier arzt</w>
Su crose</w>
Stivarg a</w>
Saf ety</w>
S ing
Re g
Re Fac
ReFac to</w>
Psoriasis -
Ori gin
Optr uma</w>
O DER</w>
Nutzen- Risiko-
Nich t-
Natriumchlorid lösung</w>
Nal ox
Nad eln</w>
N im
N evir
Myo k
Man agement</w>
MAC I</w>
M u
M ekinist</w>
L esen</w>
Kön igreich</w>
Konfidenz interv
Kol ben</w>
Joh annisk
Influ enz
In dex</w>
I s
I clusi
Hypoglykämi en</w>
Herzsch lag</w>
H itz
Gl ax
Gesch lech
Gesamtüber leben</w>
Ger inn
Gen vo
Gebrauchsin formation</w>
Fre senius</w>
Fr ak
Fach e</w>
FOL FIR
F rance</w>
F ehl
E perz
Di ure
Dat a</w>
D il
D aklinza</w>
D UNG</w>
Chargenfre igabe</w>
C ep
Blut zellen</w>
Bi Resp</w>
Behandlungs wo
B asis</w>
Aussch lag</w>
Auf bewahr
Ar thral
Aeri vio</w>
8 50</w>
4. 0</w>
2. 0</w>
2 40</w>
1. 4</w>
0. 7</w>
0,00 01</w>
0, 2</w>
- free</w>
- Therapie</w>
zu verlässi
z t</w>
woh l
vor han
vorhan den</w>
vo xil</w>
v oc
ung spro
un desirable</w>
u ght</w>
tä glicher</w>
streng th</w>
stear ate</w>
sp i
sol chen</w>
s ine</w>
rieben en</w>
rel ations
rau t</w>
r il
oth ers</w>
orr ho
open ie</w>
om e
ol us</w>
occ a
oc ep
o g
niedrig ere</w>
mor ph
matern al</w>
lo ad</w>
lie d
lev etiracetam</w>
l and
kon nten</w>
in ser
impro vements</w>
i. v.</w>
gr av
glyco l</w>
glu de
glude c</w>
gemel det</w>
ge webe</w>
g ungen</w>
fo il</w>
fi dence</w>
f entanyl</w>
ere after</w>
er gen</w>
er achtet</w>
entwick elten</w>
en er</w>
ein deu
ei tis</w>
dulox etine</w>
du res</w>
dri ving</w>
discar ded</w>
dis sol
dipi voxil</w>
di e
de gludec</w>
cell ulose</w>
c ef
blu e</w>
bi xa</w>
besitz t</w>
beis piel
ari x</w>
antibio tics</w>
anti- inflammatory</w>
ant ing</w>
an n</w>
ak ute</w>
Wirk ungs
Warn hin
W as
Verh ütungsmetho
Ver halten</w>
V 600
Un wohl
Tenofovir disoproxil</w>
Tecfider a</w>
T ra
T in
Sil gard</w>
S kl
S ON
Rev li
Reproduk tion
RE NCI
R icht
Pop ul
Patienten gruppe</w>
P h</w>
P ens</w>
OATP1B 1</w>
O RENCI
Myok ard
Metaboli smus</w>
Legan to</w>
K abi</w>
Johannisk raut</w>
Inter net
Haupt studie</w>
H ir
Gef äß
G astro
Fr üh
Ergeb nissen</w>
E bixa</w>
E IN
Durch schnit
CI AL
CIAL IS</w>
C ell
Blutdruck s</w>
Bestimm ung</w>
BLINCY TO</w>
As k</w>
Applikations spritze</w>
Ansch rift</w>
Aeri us</w>
Abhän gigkeit</w>
Ab dominal</w>
AN C</w>
AC E
A l</w>
3 000</w>
2- Diabetes</w>
2 25</w>
10 8</w>
1 2,
. co
&apos ;</w>
z war</w>
y ra</w>
wo und</w>
wer tes</w>
weiß es</w>
vor her</w>
v ents</w>
untersu chen</w>
uf t</w>
tro tz</w>
trans fer</w>
ti tration</w>
ti erte</w>
ter e</w>
t up
su ffer
spra y</w>
sp len
shap ed</w>
sec retion</w>
s low</w>
qu ali
proce dures</w>
popul ations</w>
ph armakodynami
p asvir</w>
or ation</w>
oph en
open ia</w>
op las
op l
o sed</w>
normal er</w>
nal trex
multi forme</w>
mul tic
mon keys</w>
mit y</w>
mini mal</w>
mi schen</w>
men ge</w>
medizini sches</w>
ma chen</w>
m angel</w>
li gible</w>
le x
le p
ko agul
kanam et</w>
it ri
it ol</w>
it h</w>
ins air</w>
ing oli
infusion s
ind el
in sp
il st</w>
il er</w>
heredit ary</w>
h arm</w>
glu cur
gil t</w>
fü r
fe v</w>
f ehl
ex amination</w>
er tes</w>
er st
ent ora</w>
ent eral</w>
en rix</w>
ein iger</w>
ec F
dr itten</w>
den sity</w>
de bos
debos sed</w>
cit rate</w>
ch t
br ad
bil den</w>
beispiel sweise</w>
ati sche</w>
at tention</w>
at azanavir</w>
are as</w>
ap id</w>
angemessen e</w>
an k
amp an
amp ;</w>
alter ed</w>
aktivi ert</w>
ain ing</w>
adju van
abozant inib</w>
ab ine</w>
Zon egr
Zin bry
X ep
W ith</w>
Vo kanamet</w>
Ver einigtes</w>
UNG S
Tw o</w>
Trulic ity</w>
Th iaz
Stuh l</w>
Ro ad</w>
Ret ac
Reproduk tions
Rep ath
Rasagil in</w>
Ras itri
RA S</w>
R s</w>
R I</w>
Qu insair</w>
Prä par
Pro lia</w>
Pramipex ol</w>
Poten zial</w>
P rit
P ecF
P ain</w>
P D
ON IV
ONIV Y
O fev</w>
Nim enrix</w>
N ur</w>
Magnesium stearat</w>
M is
Lin derung</w>
LEMTR ADA</w>
K R
Interv all</w>
Infusion en</w>
Iclusi g</w>
H ol
H PV
Gr ad
Genvo ya</w>
Geno toxizität</w>
Fü hren</w>
Eperz an</w>
Eff entora</w>
Dis ease</w>
Cep lene</w>
C are</w>
Bron cho
Ben ommen
Be wertung</w>
B usulfan</w>
Aus führliche</w>
An amnese</w>
Ac tiv
AN WEN
A 4</w>
20 -
1. 7</w>
1 -</w>
0.00 01</w>
- Behandlung</w>
& amp;</w>
über empfindlich</w>
yl ated</w>
wich tig
vi act</w>
ver nach
vernach lässi
ur .</w>
ungs störungen</w>
under going</w>
ul ären</w>
ul c
ul ative</w>
ul ated</w>
toxic ities</w>
ti br
tibr o</w>
thrombo embolic</w>
ten sion</w>
supp ort</w>
su mp
ste sts</w>
st est</w>
spezifi sche</w>
sor gt</w>
sit es</w>
show s</w>
se xu
ris entan</w>
rif ampicin</w>
ri ca</w>
rel and</w>
regelmäß igen</w>
r unde</w>
po se</w>
ophi lie</w>
om egal
o co
neg ligible</w>
mäß ige</w>
met erol</w>
mem ber</w>
me mb
memb ran
mal i
magne sium</w>
m c
lie genden</w>
le flunomide</w>
lact ating</w>
kul ärer</w>
kor rig
k r
it or</w>
is on</w>
invasi ve</w>
ingoli mo
ho ch</w>
hep at
gl au
gew oh
gebor ene</w>
ge währlei
g ot
fro st</w>
experiment elle</w>
ex act
exact ly</w>
event uell</w>
erat ur</w>
ent eil
enati d</w>
ein zu
ec ts</w>
eb ro
e me
dop amine</w>
di l
d ul
corticostero id</w>
con junc
con jug
cle arly</w>
bl urred</w>
bi convex</w>
bet ter</w>
behand lungs
be poetin</w>
an ne</w>
an ib</w>
am pic</w>
al lowing</w>
al gia</w>
activ ation</w>
ac e</w>
ac count</w>
a sto
Zur ampic</w>
Zinbry ta</w>
X o
V T</w>
Unwohl sein</w>
Um stellung</w>
Ul tibro</w>
U E
TI KET
Studi enteil
Ste ady</w>
Schilddrü sen
Sch wit
SU B
R elev
Pro zent
Placebo- Gruppe</w>
Pl ans</w>
Per son</w>
Pankre atitis</w>
P art
O n</w>
Nas en
M ic
M al</w>
Ly xu
Lun generkrankung</w>
Knochen mark
K iv
Inn erhalb</w>
IV A</w>
IONSY S</w>
I reland</w>
I pilimumab</w>
Hem mern</w>
Ge sicht</w>
Ge fühl</w>
GAB EN</w>
Fl öh
Ep tifibati
En tre
El vitegravir</w>
Ein leitung</w>
E K
Dysp noe</w>
Dop pel
Deslorat adine</w>
Dem enz</w>
Cell ulose</w>
Cal cium
Bündel packung</w>
Bri viact</w>
Ben ly
Behandlungs zyklus</w>
Apo tex</w>
Anwendungs bedingungen</w>
Ag oni
AG E</w>
A ST
6. 3</w>
2 9
1, 7</w>
übergeh t</w>
über zogene</w>
zusätz lichen</w>
zusammen gef
z ure</w>
xu v
win dow</w>
wel ches</w>
verminder t</w>
verabreich ten</w>
v ilanterol</w>
uz e
uze on</w>
un verändert</w>
um bromid</w>
um acaftor</w>
tro pfen</w>
to -
th s</w>
ter ms</w>
te en</w>
t olo
sud den</w>
su m</w>
str on
stit ute</w>
sti ch
stero idal</w>
ster one</w>
slow ly</w>
si t</w>
sch wäche</w>
replac ement</w>
rau ms</w>
proper ly</w>
pre- existing</w>
pre vent
post menopaus
por tal</w>
physici ans</w>
pharmakokineti sche</w>
per formance</w>
peg filgrastim</w>
pancre as</w>
pan demic</w>
ot inib</w>
opor ose</w>
ophen ol
op r
on ol
ogen e</w>
o wn</w>
o k</w>
nation ale</w>
n ephro
meas ur
mc g</w>
ly ing</w>
lus s
lo c
li f</w>
len g
len alidomide</w>
k utan
k ept</w>
jen igen</w>
itr at</w>
induc ers</w>
immedi ate</w>
ha ir</w>
h il
gr anting</w>
gen ic</w>
geb nisse</w>
fract ures</w>
follow s</w>
expl ains</w>
exc ess</w>
ex pres
essen ti
er ungs
enrol led</w>
elim iniert</w>
ek tive</w>
ein gestellt</w>
ector is</w>
e poetin</w>
duc tion</w>
disp osed</w>
d bo
dbo ard</w>
cir cul
chew able</w>
carcin ogenicity</w>
bi op
berück sichtigt</w>
be enden</w>
az erb
auf ein
atri um
app en</w>
anti coagul
Zon tivity</w>
Wirkstoff en</w>
Wachstum shor
V ilanterol</w>
V A</w>
Ur s
Ul tr
Tre mor</w>
TOB I</w>
TIKET T</w>
T D
Säuglin gen</w>
Sulfonylharn stoff</w>
Sprit z
Schwangerschaf ts
Revli mid</w>
Rasitri o</w>
Q via</w>
Pi xuv
Ph .E
P aliperid
P SU
Oste oporose</w>
ONIVY DE</w>
OH SS</w>
Num ber</w>
Ne utrophil
NS 5
NRTI s</w>
Mechanis mus</w>
Li xi
Len alidomid</w>
Leber -</w>
L L
Kiv exa</w>
Kin des</w>
Kap sel
K appe</w>
Je doch</w>
Induk toren</w>
Inc reased</w>
Immunglo bulin</w>
IO A</w>
Hy Qvia</w>
HIN WE
H EX
Gro up</w>
Gebur t</w>
Ge schw
Flix abi</w>
F uzeon</w>
F atigue</w>
Er k
Entre sto</w>
End punkte</w>
E 2
Dosisanp assungen</w>
Di ät</w>
D in
D P
Com p
C ir
Bosu lif</w>
Blutzuck er</w>
Benly sta</w>
BM D</w>
B C
B A</w>
Agoni sten</w>
Ab bruch</w>
AS A</w>
A no
5 4
4. 1</w>
2 6
1. 1</w>
1, 4</w>
0 10</w>
- Syndrom</w>
üch tern
Ä l
z utri
zutri fft</w>
vor zu
ventri cular</w>
val try</w>
un st
triglyc eri
thrombo emboli
tempor ary</w>
tech n
te stet</w>
t ase</w>
syn th
suscepti ble</w>
surg ical</w>
sump tion</w>
suffer ing</w>
su crose</w>
stoff wechsel
stim men</w>
steh enden</w>
ste mp
st ed</w>
speci fic
sp ro</w>
sle ep</w>
sit agliptin</w>
sen sation</w>
s einer</w>
resorb iert</w>
relations hip</w>
re main</w>
r y
r i</w>
r am
prote ase</w>
prefer ably</w>
prakti scher</w>
possib ility</w>
por tun
p are</w>
ovari an</w>
op portun
onol act
normal en</w>
n en
mol ec
men tioned</w>
melan oma</w>
m as
m ac
lä s
lu de</w>
li spro</w>
li g</w>
ler osis</w>
l ös
kl ar</w>
infusion s</w>
hydro ly
high est</w>
hervor ger
hab dom
gn i
gel be</w>
geb il
ge öff
ge testet</w>
ge pool
g -</w>
eu tic
erw art
erhöh ter</w>
ent ro
ell s</w>
el en</w>
eh len</w>
dro p</w>
discontinu e</w>
di aly
der matitis</w>
co ur
clo u
ck en
blei ben</w>
be u
be st</w>
be für
azop anib</w>
av a</w>
ati schen</w>
at er
ad d-on</w>
abr adine</w>
ab in</w>
a f</w>
Zal mo
Y S
Xo terna</w>
Wachst um</w>
Un ver
Tri zi
T max</w>
Sonsti ge</w>
Som n
Skl er
Sil o
Schüttel frost</w>
Schwit zen</w>
Schw indel
Sch leim
S. A.</w>
S kel
Repaglini de</w>
Ral tegravir</w>
QT c-
Pro z
Phen ytoin</w>
Ph.E ur.</w>
PV C-
OT AZ</w>
ORENCI A</w>
N üchtern
N em
Men ve
Lyxu mia</w>
Körper s</w>
Körper oberfläche</w>
Konfidenzinterv all</w>
Ko valtry</w>
Kanü le</w>
J IA</w>
Inter fer
Hydrochlorothiaz ide</w>
Hin blick</w>
HIV- Infektion</w>
HBe A
H und</w>
Gut achten</w>
Gel b
G el</w>
Funk tions
Funk tion</w>
Fertig pens</w>
FOLFIR I</w>
EV OTAZ</w>
ER V
E C</w>
Carbamazep in</w>
CYP2C 8</w>
C ush
Benommen heit</w>
An bruch</w>
A ffen</w>
2 5
18 F</w>
1, 1</w>
1 b</w>
1 3.
0. 000</w>
ähn lichen</w>
zurück zuführen</w>
zo de
zode g</w>
zeich nung</w>
z in
y zodeg</w>
y pro
wor tenden</w>
wo durch</w>
wie gend</w>
wh ilst</w>
ven ous</w>
unter ziehen</w>
u tions</w>
u ation</w>
to potecan</w>
thrombo tic</w>
therap ies</w>
sub stitu
sp ite</w>
so fo
sofo sbuvir</w>
si m
seltami vir</w>
se d
sch war
s acchar
ri d</w>
reli ev
re zidi
re mission</w>
re ag
radio activity</w>
program me</w>
pro sp
pre xa</w>
pl ätt
per sist
patient en</w>
p ump</w>
op aque</w>
on ado
obili s</w>
ne utroph
nah me
medi an
malign ancies</w>
lin ie</w>
lic it
li xa</w>
leng th</w>
kom pen
klär t</w>
join ts</w>
interru p
ingolimo d</w>
indepen dent</w>
in- use</w>
ili s</w>
i fen</w>
hy si
habdom y
h ält</w>
h n
gi b</w>
gesch ätz
gen etic</w>
geleg ten</w>
g h</w>
fol a</w>
ez ing</w>
exten sion</w>
ex enatide</w>
et ra</w>
er enden</w>
eph ritis</w>
enthal tenen</w>
en zen</w>
ed s</w>
e o</w>
divi ded</w>
disturb ances</w>
depen ds</w>
degre e</w>
cryst alline</w>
col i</w>
car bidopa</w>
c re
bre ak</w>
blut ungen</w>
befür wortenden</w>
been det</w>
be din
ati vely</w>
ar ist</w>
and etan
ampo ule</w>
al tr
ag ain</w>
acro li
ab zusetzen</w>
Zy prexa</w>
Zonegr an</w>
Zom arist</w>
Zal asta</w>
Z irrhose</w>
Z eichen</w>
Z UR</w>
Wei ch
Victre lis</w>
Vergleich s
V FEN
Trizi vir</w>
Tier experimentelle</w>
Taf in
T ach
Sub stitu
Schein behandlung</w>
Sch wäche</w>
Salz säure</w>
SUB STAN
SI CH
S ur
S m
S ign
Rin der</w>
Rezep tor-
Retac rit</w>
Relev anz</w>
Recommen d
Re ver
Rap lixa</w>
R yzodeg</w>
Prot aphane</w>
Pr av
Po vi
Pixuv ri</w>
PecF ent</w>
P CT
Or gan</w>
Opti mark</w>
On ly</w>
Ne o
NR TI</w>
N obilis</w>
N ekro
Mö glich
Mi sch
Menve o</w>
Lixi ana</w>
LDL- C</w>
Kreb ser
K ypro
K E
Injektionsn adel</w>
I D
I C</w>
Hex al</w>
Her pes</w>
H üh
Gal af
G IO
FLASCH E</w>
Er n
Epi vir</w>
Effec ts</w>
E X</w>
Dru ck
Cyc lophosph
Bu prenorph
Bin dung</w>
B ut
Atem not</w>
Asp art
Anweis ung</w>
Anti koagul
Al tern
Ab sch
ANWEN DUNG</w>
ACT IVE</w>
A B</w>
8 0
2 3
17 2</w>
1 N
1 2.
1 1
- -
zugelass enen</w>
yp es</w>
wä ch
wor king</w>
w eit</w>
vorzug sweise</w>
viel e</w>
verseh entlich</w>
vergleich bare</w>
v ar</w>
uni v</w>
ul l</w>
trag ung</w>
tr in
tig es</w>
ticas one</w>
techni que</w>
te p
t eine</w>
sw allowed</w>
subkutan er</w>
stoff en</w>
stab il</w>
st re
sorb ate</w>
sol og
solog y</w>
so fern</w>
single- dose</w>
secu tive</w>
se ite</w>
se -</w>
schätz bar</w>
sch utz</w>
sc lerosis</w>
s etz
ri se</w>
ri m
rac yc
pub lished</w>
ph oro</w>
perio ds</w>
perfor ated</w>
partic ulate</w>
p ump
p epti
p ale</w>
open ed</w>
onc ent
oncent o</w>
nu cle
niedri g</w>
neh men
neg ativ</w>
nat ural</w>
modi f
mi dazolam</w>
met aboliten</w>
me ster</w>
ma x
m obutyl</w>
lif y</w>
kok k
k ationen</w>
ju ice</w>
is tika</w>
intr a
immuno globulin</w>
ig lu
i lify</w>
he ad</w>
hal bwertszeit</w>
habdomy oly
ge al</w>
gan genheit</w>
fü gt</w>
form s</w>
flu ticasone</w>
flu oro
flu milast</w>
fl u</w>
fast ing</w>
epilep tic</w>
enz ahl</w>
entr e</w>
enti re</w>
emm er</w>
em fola</w>
durch zuführen</w>
drück t</w>
dro w
dro ps</w>
del ay</w>
de -
dar gestellt</w>
da für</w>
d ehydration</w>
cyto chro
cytochro me</w>
consul t</w>
co v
clou dy</w>
ch ick
ch druck</w>
carcin ogenic</w>
c riteria</w>
betro ff
beteili gt</w>
bet a</w>
besch ädi
ber ei
beobach ten</w>
benö tigt</w>
benzo ate</w>
b ones</w>
avir -
aus schließlich</w>
ati ver</w>
at umumab</w>
assozi ierte</w>
asi a</w>
angewendet en</w>
ad vise</w>
ab schätzbar</w>
Z yto
Z unge</w>
Z el
YY Y
YYY Y</w>
Xep lion</w>
Vit amin</w>
Ver hin
Ver gangenheit</w>
Vent avis</w>
Vel phoro</w>
V oncento</w>
Typ- 2-Diabetes</w>
Tic agrelor</w>
Tafin lar</w>
TRE VIC
Str ah
Sim vastatin</w>
Serum -
S per
S ei
S ec
Rin dern</w>
RE B
R adi
Prote as
Pro Qu
Pri or</w>
Pre gn
Per for
Pa ediatric</w>
P i</w>
P I</w>
P 450-
On c
OR R</w>
Nieren -</w>
N es
N DE
Multi pack</w>
Mer z</w>
Mehr zahl</w>
M ort
M AR
Li p
Leber enzyme</w>
Langzeit behandlung</w>
Laktat azidose</w>
L ET
K unst
K arton</w>
Int univ</w>
Immun suppres
IN H
I del
Hyper glyk
Hier in</w>
Herz rhyth
Her z</w>
H ilfe</w>
Gesund heits
Gesch lecht</w>
Gastrointestin altr
Fel d
F ra
F o
Ex azerb
Erhöh ungen</w>
Ere k
Enzy m</w>
El trombopag</w>
E TIKETT</w>
Dyspep sie</w>
C F</w>
Bronch itol</w>
Blutgerinn sel</w>
Blut untersuchungen</w>
B z
B rin
B emfola</w>
All erdings</w>
Ab ilify</w>
AN CE</w>
A to
3- 4</w>
200 5</w>
18 .
yl chol
wei gh</w>
w om
vorgeseh enen</w>
vor ange
verhin dert</w>
ver mö
vag inal</w>
ut zen</w>
ur acil</w>
umf as
ul a</w>
tox isch</w>
ton gue</w>
toler ability</w>
to p</w>
thor o
tho chdruck</w>
th ium</w>
termin ale</w>
t ur</w>
supp ly</w>
su cc
stimm ung</w>
stab ility</w>
speci fied</w>
sim vastatin</w>
sib a</w>
short ness</w>
sel f-
sched uled</w>
sch chen</w>
sc armel
sc ale</w>
s he
s au
ro sis</w>
ro m</w>
ript ase</w>
remain s</w>
re production</w>
predomin antly</w>
pran di
path way</w>
p ectoris</w>
opportun is
on ary</w>
olo l</w>
o d
no se</w>
n ö
me pir
lok ale</w>
lin es</w>
le m</w>
lang fris
l actic</w>
krist alline</w>
j ust</w>
is lauf</w>
inter fer
inf ul</w>
inf ant</w>
immun ogenicity</w>
i ma
hän gt</w>
graphi c</w>
ger n</w>
gehör en</w>
gastrointestin ale</w>
flus s</w>
essen tial</w>
es th
erh eb
em als</w>
dom etri
der zeit</w>
de spite</w>
d -</w>
cyto toxic</w>
con secutive</w>
can di
can agliflozin</w>
bu propion</w>
breast- feed</w>
boo ster</w>
bestä tigt</w>
berech net</w>
bedin gt</w>
bar er</w>
b ack
auf wiesen</w>
atten u
ar ten</w>
ampan el</w>
amma dex</w>
ami l</w>
al u</w>
ach es</w>
ac e
a er
a den</w>
Zi ehen</w>
Zer ene</w>
Zalmo xis</w>
Ver dau
Ver dacht</w>
UT REB
UTREB IS</w>
Tre siba</w>
Tal tz</w>
TI C
Substr ate</w>
Stop fen</w>
Stam m
Sprit zen</w>
Sol ution</w>
Sol lten</w>
Sm PC</w>
Skler ose</w>
Schw einen</w>
Schutz kappe</w>
SPR Y
S eb
Rück sprache</w>
R heum
ProQu ad</w>
Prednis on</w>
Pharmaco kineti
PSU R</w>
PRO DU
Origin al
O c
Non- clinical</w>
N elfinavir</w>
Muskel schmerzen</w>
Metaboli t</w>
M ar
Ly rica</w>
Leuk openie</w>
Le aflet</w>
LU MIG
L ap
Kr ka</w>
Intraven ous</w>
Interv alls</w>
Inf anrix</w>
I tr
Hypo kaliämie</w>
Herz infarkt</w>
H 1N
Gly ko
Glu ko
Gastrointest inal</w>
Galaf old</w>
GS- US-
Fluticas on
Fi bro
FS H</w>
F ar
Ern ähr
Empfän gnis
E ight</w>
E ier
Di arrhoea</w>
Dex medetomi
D UTREBIS</w>
Cin ry
CYP3A -
C aspofungin</w>
Br ust</w>
Blu thochdruck</w>
Bi op
Auff ri
Al s</w>
Al an
Ade mp
Ac tr
AL S</w>
A tt
6 .</w>
3. 0</w>
3, 3</w>
3 A4</w>
2- 3</w>
16 ,
1. 6</w>
0 22</w>
.co m</w>
- D
- 2</w>
zi en</w>
zentr a</w>
w s</w>
vor wiegend</w>
voc ate</w>
veter in
verstär k
verschw ommen
v edge</w>
v an</w>
us st
ur i
ungsp flich
töd lich</w>
tro me
trome thor
tion ing</w>
th igh</w>
th ereafter</w>
th em
t ungen</w>
t licher</w>
symptomati sche</w>
stab ile</w>
st en
spre ad</w>
si vely</w>
si b</w>
sever ely</w>
ser ung</w>
sei zure</w>
sch ütz
s ants</w>
ri vedge</w>
ri de</w>
recommend ation</w>
ral tegravir</w>
psori atic</w>
prednis one</w>
poie tin</w>
po or</w>
pharmak ologischen</w>
per si
pe g</w>
om u
o kokk
o es
niedri ge</w>
na i
n üch
n ier
n ekro
musc les</w>
modi fication</w>
mi x</w>
mi sed</w>
mel oxicam</w>
ma cht</w>
m yc
lymphocy tes</w>
ly ta</w>
lo x</w>
lip id
licit i</w>
le di
kur z
konvention ellen</w>
k op
intr ac
inter national</w>
injec ting</w>
inf iziert</w>
indic ations</w>
glei che</w>
gen er</w>
gal actose</w>
fle as</w>
fl ori
fet ale</w>
ex pression</w>
eutic als</w>
entzün d
em er
elev ation</w>
eingeschränk te</w>
eichel drü
ear ance</w>
e gefühl</w>
di azep
det ec
de m
dar an</w>
cov y</w>
cor onary</w>
conc lu
chemi sche</w>
bub b
bubb les</w>
bre z</w>
bir th</w>
bi di
beta- 1a</w>
besch ränk
behavio ur</w>
b ungspflich
appli es</w>
antibio tic</w>
andetan ib</w>
all erdings</w>
ali sib</w>
adi a</w>
Wieder hol
Verwirr theit</w>
Verhin derung</w>
VFEN D</w>
U sing</w>
Th ir
T aub
St oc
Sch lucken</w>
SPRY CEL</w>
S hel
Rep so</w>
Rel var</w>
Re flu
Radio aktivität</w>
Pro p
Pro Mer
ProMer is</w>
Poly prop
PR OT
PC V</w>
P ot
P S
On brez</w>
O xy
Neupo peg</w>
NO T</w>
Mon o
Metho de</w>
MA O-
Lös ungs
Lon sur
Lakt ation</w>
LUMIG AN</w>
In lyta</w>
Immun ogenität</w>
Hi zentra</w>
Gly ber
Gesch m
Ge fahren</w>
Fe LV</w>
Ex vier
Ep is
Ent sorgen</w>
Emp liciti</w>
Eingri ff</w>
ER E</w>
E rivedge</w>
D arm</w>
Cyclophosph amid</w>
CY P</w>
Blut plätt
Bet a</w>
B os
Arz er
An leitung</w>
Alkohol tup
Ak tiv
Ad vocate</w>
AB LET
A mon
A den
7 0
5. 8</w>
2 6-
18 ,
10 7</w>
1, 6</w>
1 75</w>
1 5-
0. 75</w>
0, 75</w>
- S
ü s
äl fte</w>
Ö dem</w>
z otinib</w>
z o</w>
z id</w>
weit er
wass er</w>
vor liegt</w>
vel is</w>
var acetam</w>
v ax
ung s</w>
ti ef
terat ogenic</w>
sur ge
sto ß
sti mu
st dosis</w>
spas m</w>
sp ot
sol utions</w>
so li
si bel</w>
sh ire</w>
sep sis</w>
se aled</w>
saf t</w>
ro ten</w>
rim velis</w>
ri ption</w>
remain ed</w>
rei fen</w>
ran ging</w>
popul ationspharmakokineti
poly sorbate</w>
po t-
path y</w>
pancre atitis</w>
pa inful</w>
p es
p ast</w>
p ap
oph il
op ha
ol on</w>
oco ccal</w>
o val</w>
nas al</w>
nal ox
n om
n ar
mpf en</w>
mix ing</w>
min ute</w>
ment ation</w>
me als</w>
m ass</w>
lophosph amide</w>
lit tle</w>
kontrol le</w>
jec tive</w>
j ection</w>
j ar
in hydrochlorid</w>
impro ve</w>
imm t</w>
ig h
ig at
ie -
hoh em</w>
ho ff
hal t</w>
größ er</w>
grenz e</w>
gr ünd
form ing</w>
fol gender</w>
flori x</w>
fest stellen</w>
fe et</w>
f ten</w>
exc essive</w>
etan us</w>
et was</w>
erat ure</w>
ell ular</w>
elar a</w>
dri a</w>
dom zo</w>
diure tics</w>
dispos al</w>
di asis</w>
dat ine</w>
dar bi</w>
dan ken</w>
d omen</w>
d i</w>
d ental</w>
d L</w>
cyc lophosphamide</w>
correc ted</w>
con fidence</w>
colo ur</w>
co fil</w>
clo sure</w>
cle an</w>
ck s</w>
chol in
caus ing</w>
c te
blu tung</w>
bin det</w>
b olus</w>
b ile</w>
az ax</w>
at temp
at al</w>
ass ess</w>
ar d-
anti hypertensive</w>
an id</w>
ampo ules</w>
alan ine</w>
alafen amide</w>
acc ep
ab igat
Zul ass
Zit tern</w>
Zidov udine</w>
Zer it</w>
Z ALT
ZALT RA
ZALTRA P</w>
With in</w>
W ater</w>
Vori conazole</w>
Vor hoff
Verhütungsmetho de</w>
Verbesser ungen</w>
Ver neb
Ver färbung</w>
V arg
V ON</w>
Tenofovir alafen
Syn florix</w>
St rimvelis</w>
St om
St elara</w>
Ser ious</w>
Sek unden</w>
Schlaf losigkeit</w>
SU ST
SUST IVA</w>
SI RT
SIRT UR
Res ults</w>
Res ol
Protop ic</w>
PR AC</w>
PCT FE</w>
P ic
P A</w>
Ol azax</w>
Ob stipation</w>
OC ET
OCET AX
OCETAX EL</w>
OATP1B 3</w>
O vari
O domzo</w>
O M
Nem datine</w>
Mix 25</w>
Met form
Mel an
M T</w>
Lon g-
Li ver</w>
Körpergewich ts</w>
Kypro lis</w>
Kre uz
Krank heiten</w>
K AB
In-vitro- Studien</w>
IL- 2</w>
I K
Häufig keits
H older</w>
Glyber a</w>
Gleich zeitige</w>
Gener ics</w>
Gel en
Exvier a</w>
EM A</w>
E tan
E qu
E darbi</w>
Darreichungs form</w>
Dar bepoetin</w>
DE X
D ul
D ic
D OCETAXEL</w>
Corti costero
Ch ol
C ancer</w>
C K
C AB
Brad ykardie</w>
Bes serung</w>
B ocep
Auf tropfen</w>
Anti psycho
Ampul len</w>
Amon g</w>
Amino transferase</w>
Ademp as</w>
Ac tive</w>
Ac cofil</w>
5. 0</w>
5, 0</w>
20 11</w>
................................ ................................
über arbeit
yo ur
your self</w>
yl al
ylal kohol</w>
xim ab-
wä r
wich tige</w>
verschie dene</w>
verb lei
ver packung</w>
um gestellt</w>
tus sis</w>
tromethor phan</w>
trin ken</w>
tre mor</w>
tig h
ti sches</w>
ti red</w>
therapeu tische</w>
t max</w>
t adalafil</w>
t 1</w>
swe ating</w>
surge on</w>
sp eicheldrü
sig n</w>
sh e</w>
set ting</w>
senk ende</w>
secon ds</w>
schä d
rever sib
relap se</w>
regi on</w>
reduzier ten</w>
re si
ras ch</w>
placebo- treated</w>
pl aque</w>
par enteral</w>
p aliperid
paliperid one</w>
ob struk
o estro
non- inf
neutroph il</w>
ne o
ne l</w>
mut agen
mor gens</w>
mini mum</w>
men in
me an
materi als</w>
man i
malign ant</w>
m es
log 10</w>
lie gende</w>
leben s</w>
lan gen</w>
je des</w>
j ähr
it re
is h</w>
intersti ti
inter vention</w>
ini x</w>
ini c</w>
ic um</w>
i der</w>
hydro gen</w>
hor ses</w>
hol der</w>
h ier
glyco protein</w>
gew icht</w>
gen des</w>
fre i
fortgeschrit tenen</w>
flur ane</w>
fin det</w>
fest gelegten</w>
fami li
f lip-
eri tis</w>
er wies</w>
el ines</w>
eg ol</w>
eb inix</w>
de men
cte din</w>
contracep tives</w>
contracep tive</w>
circ um
circ ulation</w>
chemi cal</w>
ch olest
ch mal</w>
c id
c en
bur n</w>
block er</w>
blei bt</w>
besch riebenen</w>
beobach tete</w>
be sprechen</w>
be f
au er
ath i
ate f</w>
asep tischen</w>
ank ylo
and au
analy ses</w>
an sprechen</w>
an or
an g</w>
am er</w>
al most</w>
al lo
al gie</w>
aktuali siert</w>
akti vier
ah len</w>
aggre gation</w>
aff in
af il
ad s</w>
acti vi
achie ve</w>
ab setzen</w>
Zu bereit
Z ebinix</w>
YS AB
Wirkstoff s</w>
Wei ße</w>
Varg atef</w>
VEG F</w>
V an
Unter teil</w>
UGT1A 1</w>
Transp lantation</w>
Th or
Tal kum</w>
T rin
T YSAB
T AC</w>
Stoc rin</w>
St ei
Sp itze</w>
SV R
SPECI AL</w>
SO MA
SIRTUR O</w>
S yc
S E</w>
Reproduktion stoxizität</w>
Repath a</w>
Q U
Pro fil</w>
Pregn ancy</w>
Pr ü
Plasmapro teine</w>
P om
P hysi
P fle
Nahrungs mitteln</w>
Nachbeobach tungs
N at
N ase</w>
Männ er</w>
Myel om</w>
Mittel wert</w>
Lonsur f</w>
Leben s
Kau tabletten</w>
KAB I</w>
K ar
Ind acaterol</w>
Inc re
In gel
Impfstoff e</w>
Hyperglyk ämie</w>
Hyper icum</w>
Hir n
Hep ato
H öch
H älfte</w>
F et
F en
Europä ische</w>
Eier st
E por
E CT</w>
CYP2 B6</w>
CH O
C ard</w>
Bru ch
Bauch speicheldrü
B ayer</w>
Arzer ra</w>
Appeti t</w>
Anwen der</w>
Ampul le</w>
AID S</w>
A I</w>
200 4</w>
2. 2</w>
2, 2</w>
1 11</w>
über schreiten</w>
üb lichen</w>
Überempfindlichkeits reaktion</w>
Äl tere</w>
zul assen</w>
z ir
y pi
vo id</w>
verminder ter</w>
ver öff
vacc in
v oni</w>
urr ence</w>
tri va</w>
transpor ters</w>
tr az
tic ular</w>
ter nen</w>
techn ology</w>
str ati
stei gt</w>
ste u
st ar</w>
sprit zen</w>
somn ia</w>
so lid</w>
so for
sin ter
signifikan ter</w>
sho ck</w>
ser v
ser s</w>
se ven</w>
rever sibel</w>
repe at</w>
re turn
re cht</w>
r ü
qu il
prenorph ine</w>
poly propylene</w>
ph ther
perio dic</w>
organ ic</w>
opti mal</w>
on to</w>
on going</w>
on del
ondel is</w>
on ar
om et
olu cin
olucin Beta</w>
ogen esis</w>
o ti
o da</w>
normal i
normal e</w>
nah e
nahe zu</w>
nach folgenden</w>
n ight</w>
mon ary</w>
mb a</w>
mat ure</w>
mark ier
lok al</w>
lo ading</w>
liqu is</w>
lin agliptin</w>
lie f</w>
le th
l ak
kur z</w>
jar dy</w>
it entan</w>
is mus</w>
inter medi
immunosuppres sive</w>
identi fiziert</w>
i vo</w>
i pilimumab</w>
hei ght</w>
haem ophilia</w>
gering ere</w>
fail ed</w>
f ehlen
exten sive</w>
experienc ing</w>
ex hibit
ev ening</w>
euro pä
eu tical</w>
eri star</w>
equ al</w>
episo de</w>
enzy m
enth erapie</w>
ent lich
endo theli
emp agliflozin</w>
el ic
ek turn
ek t</w>
ei gnis
ecti ous</w>
ec lidinium</w>
ec ia</w>
dysp noea</w>
du al</w>
do xi
di s</w>
detec table</w>
des halb</w>
dec reasing</w>
dam aged</w>
d or</w>
consi der</w>
con sumption</w>
chil ls</w>
c in</w>
bu prenorphine</w>
bro mobutyl</w>
blut druck
block iert</w>
bli as</w>
bestä tig
be v
aze doxi
ax ie</w>
atient en</w>
asp ar</w>
ari an</w>
an alge
alph a-
ach ing</w>
Y ondelis</w>
Xig ris</w>
Xel oda</w>
X eristar</w>
Warnhin weise</w>
W erten</w>
Verk ehr</w>
Var denafil</w>
V eter
V E</w>
U ro
U C
Thrombozyten zahl</w>
Tei len</w>
Tab let</w>
TREVIC TA</w>
T ur
T ekturn
T ER
Syn jardy</w>
Syc rest</w>
St adium</w>
Son nen
Si rolimus</w>
Seh störungen</w>
Seb ivo</w>
Sch merz</w>
SI M
SIM BRIN
S tim
Ras h</w>
R- CAP</w>
R il
R MP</w>
Prä vention</w>
Pre -
Packungs größe</w>
P UR</w>
Onc aspar</w>
O f</w>
Nieren funktionsstörungen</w>
Neu pro</w>
Nes sel
Mix 50</w>
Med Immune</w>
Mat ever</w>
Man ufactur
L age</w>
L act
Kontrazep tiva</w>
In ten
In form
IT T</w>
I blias</w>
Hypo kalzämie</w>
Hydro xy
Har voni</w>
H un
H S
Gra sto
G EN</w>
Frequ ency</w>
F rom</w>
F ex
Epor atio</w>
Epis al
Ent nahme</w>
End olucinBeta</w>
En var
Emtricitab ine</w>
Em triva</w>
EV A</w>
ER I
E liquis</w>
E A</w>
D an
C et
C NS</w>
Bruch ker
Bos entan</w>
BTV PUR</w>
BM I</w>
Anwendungs geb
Alzhei mer</w>
Al ph
Ak tivi
Ad apter</w>
AR S</w>
AR D
AD Rs</w>
A v
A m</w>
A lo
5, 8</w>
4 -</w>
3. 3</w>
18 4
10 6</w>
1. 9</w>
1 35</w>
- resistant</w>
- on</w>
ü len</w>
Ä N
zuverlässi ge</w>
z ation</w>
wor t</w>
wom an</w>
wi se</w>
weigh s</w>
vorange gan
vi vo
veröff entlich
versch luss</w>
verminder ten</w>
ver siegel
ver lauf
ver b</w>
v s</w>
us er</w>
unter zogen</w>
unk on
under lying</w>
un controlled</w>
ugh ly</w>
töd lichem</w>
tro l</w>
transp ort</w>
trans mit
trans mission</w>
tr u
tic agrelor</w>
te x
t ach
syst em
st ly</w>
spot -on</w>
sph armak
specific ally</w>
sp atienten</w>
sonsti ge</w>
sier ter</w>
si v
schn eller</w>
s etzt</w>
s es
respon ders</w>
re turn</w>
rank reich</w>
prä par
produc ing</w>
proc ess</w>
pro duziert</w>
prevent ing</w>
pre pare</w>
pl en</w>
perfor at
perforat um</w>
pat ches</w>
p u
os ine</w>
on al</w>
ol g
ni volumab</w>
need s</w>
nachweis bar</w>
mp s</w>
monat lich</w>
mon o</w>
mikro bi
mi dria</w>
mediz in
median en</w>
malig nen</w>
lau sen</w>
lan -M
lan-M ei
l yophilis
l ayer</w>
kre tion</w>
kon tak
kno ten</w>
klin gen</w>
juven ile</w>
j ungen</w>
it ation</w>
is m</w>
induzier te</w>
immun isation</w>
ill ation</w>
heits gefühl</w>
harm ful</w>
guid elines</w>
gest re
gebrau chs
gebrauchs fer
fract ure</w>
fort schreit
fol ge</w>
f low</w>
f eti
f eline</w>
exc ep
exacerb ations</w>
essenti ally</w>
es se</w>
eri al</w>
en d-
em ul
ell es</w>
ec avir</w>
deut lich</w>
demen tia</w>
d olutegravir</w>
d ehy
con fusion</w>
compar ison</w>
compar ator</w>
carb amazep
carbamazep ine</w>
bin d</w>
biliru bin
berich ten</w>
benzo at</w>
ausge wäh
atro ph
at ation</w>
ar ily</w>
ap arin</w>
ange wiesen</w>
am ber</w>
ag t</w>
ad r
activi ties</w>
a gel</w>
Z ug
Wirk mechanismus</w>
Wh ile</w>
Virus last</w>
V IR
UL ARS</w>
UE DEX
UEDEX TA</w>
Ty verb</w>
Thir teen</w>
Tekturn a</w>
TYSAB RI</w>
TIC ULARS</w>
T oci
Symptom s</w>
Stil len</w>
Ste p</w>
Sor bitol</w>
Somn ol
Sing le</w>
Sicherheit spharmak
Schw eine</w>
SV R</w>
SUBSTAN CE</w>
ST E
SIMBRIN ZA</w>
Ri stemp
Ren agel</w>
Re st
Prot eine</w>
Pro stat
Pilz infektionen</w>
Per io
PV DC</w>
PAR TICULARS</w>
P H</w>
Ober teil</w>
OP A</w>
O val
O midria</w>
O D</w>
Novo Eight</w>
Nor m
Nieren erkrankung</w>
N arko
N UEDEXTA</w>
Möglich erweise</w>
Myokard infarkt</w>
Myc lausen</w>
Mon it
Mo d
Milli onen</w>
Mil d</w>
Man nitol</w>
ME DI
MAR KET
M M
Li ven
L ir
Krankenh aus</w>
Kortikostero iden</w>
Kl ein
Kap lan-Mei
K eine</w>
Incre syn
Ig G</w>
Hämodi alyse</w>
Harn wegs
Grasto fil</w>
Granul at</w>
Gr enz
Geträn ken</w>
Gesich ts
Ger many</w>
Gen eral</w>
G au
G UNGEN</w>
Frak turen</w>
F rankreich</w>
F laschen
Ex enatid</w>
Etan ercept</w>
Ery them</w>
Er reichen</w>
Episal van</w>
Entwick lung
E lev
Di alyse</w>
Das abuvir</w>
DIN GUNGEN</w>
Con trol</w>
Cinry ze</w>
CON DI
CO X-
CD 4</w>
C hr
Bruchker be</w>
Bocep revir</w>
Blu ter
Bis her</w>
Bew usst
Behandlungs gruppe</w>
BE DINGUNGEN</w>
B AS
Asth enie</w>
Ansprech raten</w>
Angiotensin- II-
An alog
AC R</w>
A mb
A dr
9 8
3 20</w>
28 -
2 5-
-W erte</w>
ält nisses</w>
zo ster</w>
zier ten</w>
zer ogen
z äh
weiß er</w>
war ran
virologi c</w>
veterin arian</w>
verwendet e</w>
verurs ach
versch lech
umar k</w>
tri fft</w>
tobr a</w>
th in</w>
ten a</w>
t inu
säure -
sug gest
su mit</w>
str ains</w>
st for</w>
spr ün
skel ett
sen schaf
sen ken</w>
schä den</w>
schwerwie gender</w>
sam m
s ci
rich tig</w>
rich tet</w>
ret inal</w>
requi res</w>
re lief</w>
qu ick
psy ch
pr in
phosph on
phenyl but
p -Wert</w>
ot ecan</w>
opl atin</w>
opal esc
op hyl
oc lar
oclar it
oclarit yn</w>
neb uli
ne utrophil
naltrex one</w>
n ia</w>
multi pack</w>
modi fied</w>
mo use</w>
mo stly</w>
mil lion</w>
metastasier tem</w>
mess er</w>
mark ierten</w>
lok alen</w>
k u
is can</w>
ir besartan</w>
intrav as
intersti tial</w>
inde x</w>
in ol
in ar
in adequate</w>
im e</w>
ih nen</w>
iegel s</w>
h ap
h CG</w>
gran ules</w>
ges unde</w>
gener ation</w>
genan nte</w>
gen ü
g ere</w>
fortgeschritten em</w>
form ations</w>
fer asi
ferasi ro
fen ster</w>
enti fic</w>
eno fibr
emboli e</w>
elec troly
el e</w>
ecti bi
e ap</w>
dri p</w>
do sin</w>
disp en
dis colour
di met</w>
di ac</w>
di a</w>
de ep</w>
continu ous</w>
conc urrent</w>
com ing</w>
co hor
circum stances</w>
char acter
cen tis</w>
carb azep
c yl
c m2</w>
bil det</w>
betr agen</w>
berück sichtigen</w>
behandeln den</w>
bal t</w>
ax one</w>
auf recht</w>
attack s</w>
ap art</w>
antivir alen</w>
anti do
ana esth
an tr
an ter</w>
am pri
am mon
al ap
al -
adj ust</w>
a wn</w>
a Te
ZY TI
ZYTI GA</w>
Z um</w>
W ich
Vis tide</w>
Van tobra</w>
V ectibi
Unver träglichkeit</w>
Tro balt</w>
Tenofoviralafen amid</w>
Tel aprevir</w>
Te mp
T or
T AN
Syndro me</w>
Su izid
St abilität</w>
Somnol enz</w>
Skel ett
Sch ock</w>
S lo
S P</w>
Rot aTe
Ristemp a</w>
Ri stfor</w>
Rezep tor
Resist enz
Rap iscan</w>
R axone</w>
R ati
Produk t
Pri mary</w>
Pl aqu
P U
Oval eap</w>
Op sumit</w>
O hr
Not fall
Nor dimet</w>
Ne oclarityn</w>
Mort alität</w>
Monit oring</w>
Mis s
Mer ck</w>
Medikam ente</w>
Main tena</w>
Mag en-
MARKET ING</w>
Lyophilis at</w>
Lu centis</w>
Liven sa</w>
L umark</w>
L ab
L VE
Kortikostero ide</w>
Kontroll gruppe</w>
Kinzal mono</w>
K riterien</w>
K arzin
K O
J ADE</w>
Is avu
Initi aldosis</w>
Immun isierung</w>
I t
Hal lu
H is
H R
Gelenk schmerzen</w>
GR AN
FL U
F ru
F lo
Envar sus</w>
Ent sorgung</w>
En do
EX JADE</w>
E ur
E CO
Durch führung</w>
Do gs</w>
Des covy</w>
Dac ogen</w>
DE X</w>
D AS</w>
Con centr
Cl arithromycin</w>
CT CA
CL L</w>
C abozantinib</w>
C 0
Bre chen</w>
Bl äh
Ato siban</w>
At mung</w>
Asp ar
Ar men</w>
Anti epilep
An aly
Al so</w>
Ab fall
ACH T
A x
A Y
7 7
4 20</w>
2 2
18 -
17 7
1, 9</w>
0. 05</w>
0, 05</w>
- like</w>
- Durchstechflasche</w>
überarbeit et</w>
Über tragung</w>
zun äch
wis senschaf
webe s</w>
war d</w>
vor genommen</w>
veröffentlich ten</w>
verschrei ben</w>
ver mut
var ious</w>
v agin
ur sprün
untersuch ten</w>
ud in-
ub le</w>
u cir
tu be</w>
transpor ter</w>
tinu ier
tig o</w>
thoro ughly</w>
tar ol
t ation</w>
t aste</w>
sä um
sw allow</w>
ständi gen</w>
stim ulation</w>
stie ge</w>
sti c</w>
stei gen</w>
spezi ellen</w>
son dern</w>
sel ösung</w>
schwer em</w>
sal t</w>
ru pt
ron en</w>
ro bri
robri z</w>
rib bel
ri varoxaban</w>
re fract
refract ory</w>
pyre xia</w>
pro duktion</w>
prednis olone</w>
pe z
om ab</w>
nüch ternen</w>
nucle o
nitro pe</w>
nat ure</w>
mus culoskeletal</w>
monati gen</w>
man chmal</w>
ma -
m acrogol</w>
läs st</w>
luck t</w>
low est</w>
lit erature</w>
lier ten</w>
li mit
li g
le b
l on</w>
kom b</w>
kin der
it ed</w>
initi ally</w>
inf il
inf est
in side</w>
in formed</w>
il l</w>
i hren</w>
hormon al</w>
hist or
hel fen</w>
hau t
got ten</w>
glarg ine</w>
gem essen
g ül
fäl lt</w>
for gotten</w>
for dex</w>
fo re
f y</w>
evi a</w>
europä ischen</w>
et ta</w>
et ed</w>
ep lon</w>
enn zeichnet</w>
en lar
e asi
dox aban</w>
doppel te</w>
disturb ance</w>
discolour ation</w>
diagnosti c</w>
di ameter</w>
da quil
continu ation</w>
con ver
con sequ
br ü
blo ck</w>
bil d</w>
bestimm ter</w>
b af
ator ische</w>
arrhythmi as</w>
arma zeu
ar tige</w>
app earance</w>
an zen</w>
an wen
amin o</w>
am in-
allerg y</w>
ali vi
ak tions
ad her
ad der</w>
ac o
ac ids</w>
ac comp
abhän gigen</w>
aber r
Zonis amid</w>
Z U
Xel evia</w>
We ch
WH O</w>
Vi van
V III-
Ty bo
Tro co
Transp lant
Tran sk
Te ch
Sub jec
Sol vent</w>
Sicherheitspharmak ologie</w>
Sero kon
Schädi gung</w>
Schwindel gefühl</w>
Schmelz tablette</w>
S cin
S IN
Rif abutin</w>
Resol or</w>
Rati o
Ran exa</w>
R S</w>
Pre vention</w>
Pos aconazol</w>
PE AR</w>
PDE 5</w>
P-g p-
Om nitrope</w>
Obersch enk
O U
Novo Thirteen</w>
Neo fordex</w>
N icht
Muskel n</w>
Mon at
Mil ch
Mark ierung</w>
M as
Len vatinib</w>
L 4</w>
Kinzal komb</w>
Keto conazole</w>
K et
K A</w>
Incresyn c</w>
Immunsuppres siva</w>
IS E</w>
I T</w>
Häufig e</w>
Hi robriz</w>
Herzrhyth mus
He adache</w>
H igh</w>
H and</w>
Geschm ack
Gesam t-
Flöh e</w>
Fahrzeu g</w>
F ä
Exposi tionen</w>
Ex tre
El derly</w>
Effec t</w>
Ch ange</w>
Car dboard</w>
Can di
CONDI TIONS</w>
C re
C arton</w>
C ab
By etta</w>
Buprenorph in</w>
Budeson ide</w>
Bu propion</w>
Blutgerinn seln</w>
Bel ast
BRA F</w>
B oth</w>
B ol
B einen</w>
Auf sicht</w>
Arzneimittel wechsel
Ano re
Angio ödem</w>
Am mon
Alo pez
Ad al
Ac tel
Ab fall</w>
AP PEAR</w>
A void</w>
5 9
5 51</w>
4. 9</w>
2. 6</w>
2, 3</w>
2 10</w>
2 1-
2 1
14 4</w>
0 -</w>
Über prüfen</w>
zusammengef asst</w>
zunäch st</w>
zu stand</w>
ylsalic ylic</w>
wis sen</w>
wirk ungs
wichtig sten</w>
wi q</w>
whe ezing</w>
wech sel</w>
we gung</w>
war m</w>
vor gesch
verhü tung</w>
verbesser t</w>
v ex
v eil
veil l
veill ance</w>
unterschied lichen</w>
un gewöhn
un commonly</w>
um ulative</w>
u et
trans fusion
tran sc
tr en
to l</w>
to ci
tivi tis</w>
tiv em</w>
ti mu
tempor arily</w>
te tium</w>
sy mptom</w>
sub stitution</w>
sprit zt</w>
spr ach</w>
spontane ous</w>
sp ar
som al</w>
sli f</w>
she ep</w>
ser otype</w>
ser iousness</w>
sen d
sci entific</w>
sch on</w>
sam ples</w>
s ali
ru p
ro c
res p</w>
ren ew
rekonstitu ierte</w>
rec urrent</w>
re member</w>
pre g
pre clinical</w>
pipet tes</w>
physi kalische</w>
phen ytoin</w>
perman ent</w>
p ush</w>
p las
p ink</w>
oxic om</w>
ov ale</w>
op lasma</w>
oly tic</w>
ol le</w>
ob actam</w>
ob ac
o S
oS mith
oSmith K
nö tig</w>
neuro logical</w>
n immt</w>
n ed</w>
männ liche</w>
my algia</w>
mittel gradi
metast ases</w>
mer -
meas ure
mean ing
man ufact
m other</w>
list at</w>
let s</w>
kum ulation</w>
kon tinuier
kardi ale</w>
it -
is etron</w>
in ty</w>
in tegr
hämat ologische</w>
her bal</w>
hal tung</w>
hal er-
gründ lich</w>
gre ifen</w>
gran ul
glarg in</w>
gener ali
geimpf ten</w>
gebil det</w>
ge sich
gastrointestin alen</w>
g au
flip- off</w>
fici al</w>
fibr illation</w>
fall en</w>
er ter</w>
er for
er eignis
entan il</w>
ent ad
entad uet
en tin</w>
em erg
einzel ne</w>
ebr i</w>
eb y</w>
dysp ep
dy ne</w>
disc uss</w>
den ken</w>
con sc
circul ating</w>
car dio
c r</w>
bro ken</w>
bor af</w>
ber u
ber s</w>
benötig te</w>
beh ältnis</w>
az obactam</w>
aus lösen</w>
au to
au ff
atri al</w>
ation -
asth enia</w>
ass ays</w>
are g</w>
ar te
anti cancer</w>
anaphyl axis</w>
ali sierung</w>
ag on</w>
acknowled ged</w>
acet ylsalicylic</w>
ab gew
a the</w>
a PT
Zubereit ungen</w>
Zom eta</w>
Zel boraf</w>
Z yc
Y ENT
YENT RE
Vor tiox
Vivan za</w>
Vi al</w>
Versch limmer
Ver sagen</w>
Ver fahren</w>
Vectibi x</w>
Val tropin</w>
VE ER</w>
V em
Tybo st</w>
Troco xil</w>
Toci lizumab</w>
Thrombozy ten</w>
TR IF</w>
TI S
T ax
T as
Sun itinib</w>
Sp anne</w>
Sol lte</w>
Sch af
ST AY
STAY VEER</w>
SE GA</w>
S ide</w>
S ap</w>
S acchar
S I</w>
Rück enschmerzen</w>
Rot arix</w>
Ri varoxaban</w>
Ri ociguat</w>
Rev inty</w>
Rev es
Ret in
Rep lag
Recommend ations</w>
RC P</w>
Psoriasis- Arthritis</w>
Prozent satz</w>
Prednis olon</w>
Pra x
Plazeb o</w>
Parkinson- Krankheit</w>
Par areg</w>
P yre
P ey
Oste on
OU T</w>
OCT 2</w>
O slif</w>
Nu wiq</w>
Ner v
Nas opharyngitis</w>
Nal trex
N V</w>
Met abolite</w>
Lir aglutid</w>
Li ppen</w>
Leber funktion
L u</w>
L oxicom</w>
Körper temperatur</w>
Krebser krankung</w>
Konzentr ations
J entaduet
Itr aconazol</w>
Infek tions
II I
IG F-
Gr ün
Gluco se-
Glax oSmithK
GIO TRIF</w>
Fut ter</w>
For ts
Flä schchen</w>
F oli
F IL
Ex cipients</w>
Equ ilis</w>
Entzün dungs
E ver
E r</w>
E D</w>
Dex dor</w>
D UR
Cau ca
Cal cium</w>
C u
C holi
Bind R
Beh älter</w>
BLIST ER</w>
B auch</w>
B ab
Aus wertung</w>
Auf druck</w>
Arthral gie</w>
Ar ten</w>
An fällen</w>
Al Sap</w>
Aktivi erung</w>
Addi tional</w>
Ad ults</w>
AUC 0-
AN GABEN</w>
AC E</w>
6 5
5 73</w>
4, 0</w>
3 75</w>
200 8</w>
20 12</w>
2. 4</w>
2- adren
2, 0</w>
1 3,
1 10</w>
ück sich
ücksich tigung</w>
ö hr
é l</w>
ämi schen</w>
ämi sche</w>
ä ten</w>
ä qu
Ärz ten</w>
zyk len</w>
zun eh
yon d</w>
yle stradiol</w>
wach st
vi sible</w>
vex e</w>
ver suchen</w>
val sartan</w>
v et</w>
v ary</w>
up take</w>
unkon trol
ungs faktor</w>
un usual</w>
un stable</w>
un born</w>
ul tr
ucir umab</w>
u dyne</w>
trock enheit</w>
toler anz</w>
toci lizumab</w>
to ok</w>
timu n</w>
th us</w>
teil nahmen</w>
t i</w>
sul fat</w>
sub mit</w>
stron g
star ch</w>
st av
st ag
spezi ell</w>
sorgfäl tige</w>
so dass</w>
sion ally</w>
sion -free</w>
si mp
schw ach</w>
s z
s m
s ent</w>
s cores</w>
ro te</w>
rit uximab</w>
rich tige</w>
rib ing</w>
ri ent</w>
return ed</w>
resp ir
renew al</w>
rel ation</w>
reg ul
rec urrence</w>
rec ent</w>
reag ieren</w>
re vised</w>
re view</w>
re verse</w>
quick ly</w>
qui red</w>
psychi atri
potenzi ell</w>
potenti elle</w>
pos aconazole</w>
pom ag
pneumoni ae</w>
pl ans</w>
pi x
perfor ation</w>
out comes</w>
organ s</w>
ord net</w>
oper ative</w>
oli sant</w>
oc k
oc al</w>
obser vation</w>
ob jective</w>
o ster
n on</w>
multizentri schen</w>
mon o
mi c
metast asen</w>
measur ing</w>
ly sis</w>
ly se</w>
lit ten</w>
li gh
l akti
k ün
k lassen</w>
k au
isol ated</w>
intrav itre
in- Dosis</w>
in ylestradiol</w>
in somnia</w>
imp lant</w>
immedi ate-
immediate- release</w>
im et
ih r</w>
ih n</w>
ig es</w>
hypo calcaemia</w>
hyper troph
h ell
gu ard</w>
gly za</w>
gen ommen
gen aue</w>
gel b
fre ies</w>
fo lie</w>
fle a</w>
ferasiro x</w>
f ru
f ampri
etan ercept</w>
erzi elt</w>
er ecti
erecti le</w>
epi demi
enn t
endo gen
eindeu tig</w>
ein s</w>
eben so</w>
dyspep sia</w>
durchschnit tlich</w>
dre hen</w>
dr a</w>
doc tors</w>
dizz y</w>
dex medetomi
develop s</w>
cros s-
cop e</w>
contain ers</w>
con nec
con genital</w>
clo tting</w>
clo t</w>
chirurgi schen</w>
cart ons</w>
c lassi
c itrat</w>
but ton</w>
bre it
brad ycardia</w>
bos entan</w>
bi zumab</w>
bi kon
be yond</w>
be trifft</w>
bal d</w>
az ine</w>
atul ence</w>
as part
as par
ali resp</w>
ahy dro
adjuvan ted</w>
addi tive</w>
ack en</w>
ac lude</w>
ab nahme</w>
ab domen</w>
YENTRE VE</w>
With dr
Wei ght</w>
Vot rient</w>
Vis udyne</w>
Verschlimmer ung</w>
VIC TI</w>
VER T</w>
V e
V OR
Ti er</w>
Th en</w>
Taub heitsgefühl</w>
T él</w>
T em
Subjec ts</w>
St ar</w>
Si meprevir</w>
Sevo flur
Scin timun</w>
Schul ungs
SOMA VERT</w>
S kal
S ili
S et</w>
S .</w>
RotaTe q</w>
Rit uximab</w>
Reves tive</w>
Replag al</w>
Ratio grastim</w>
RA VICTI</w>
R- CHO
R olle</w>
R aten</w>
Pri vi
Pramipex ole</w>
Placebo gruppe</w>
Pic at
Patienten gruppen</w>
Par ästhesie</w>
PC V
OP D
Nevir apin</w>
N etz
N E</w>
Mut ter</w>
Mon th</w>
Mem ber</w>
Mak ro
Magen- Darm
MUL TI
MI C</w>
MEDI ATE</w>
MD R
Lt d.</w>
Long- term</w>
Labor atory</w>
LVE F</w>
L ow</w>
Koh or
K ribbel
K iefer
Jentaduet o</w>
J inar
Infusions beutel</w>
I DE
Höch stdosis</w>
Häm ophilie</w>
Herstell ers</w>
Heal th</w>
HD L-
Gr am
Glyc opyrronium</w>
GlaxoSmithK line</w>
Gewichts verlust</w>
Fex eric</w>
FLU EN
F ondaparinux</w>
Extre mit
Eth anol</w>
Erhaltungs therapie</w>
Elek troly
Eingri ff
Ein stich
Dys geu
Durch messer</w>
Duo Resp</w>
Diure tika</w>
Depres sionen</w>
DUR CH
D aliresp</w>
Cytochro m-
Com bination</w>
Choli b</w>
Child-P ugh
CL cr</w>
C M
C AM
Bluter g
BindR en</w>
Biliru bin</w>
Besch reibung</w>
Ber ücksichtigung</w>
Beobach tung</w>
Bef unde</w>
Bar aclude</w>
B las
B OT
Aut o
Aus gang</w>
Atem beschwerden</w>
Appeti t
Antipsycho tika</w>
Anti diabe
An th
Amy vid</w>
Alopez ie</w>
Ac ute</w>
AM B
AD MIN
ACHT EL</w>
A re
A mi
A ff
A H
8 4
7 3
5 -</w>
3. 1</w>
2, 6</w>
2 80</w>
14 C-
1- 2</w>
1 4-
0, 25</w>
- 0.
ü be</w>
ö deme</w>
älter e</w>
z erk
yl val
y e</w>
wen ige</w>
vis om
vir apine</w>
vi sit</w>
ves ti
ver ändern</w>
ver ein
v ildagliptin</w>
us es</w>
ur onid
uronid ase</w>
unterstütz ende</w>
un veränder
un avir</w>
ul a
treten s</w>
tr ate</w>
tolo z
tions therapie</w>
tin gl
tingl ing</w>
ti me
thral gia</w>
t tri
syn the
sw allowing</w>
substitu tions</w>
stie gen</w>
steroid ale</w>
ster ase</w>
st ing</w>
st a
squ alität</w>
sp ine</w>
sp emi
si rolimus</w>
si eben</w>
schein ungen</w>
sch ar
roc umab</w>
ro pin</w>
ro le</w>
rheumato ider</w>
rezidi vier
resum ed</w>
reliev e</w>
rechter halten</w>
re fr
rani al</w>
punk ten</w>
provi des</w>
pro state</w>
pri st
pres s</w>
preg abalin</w>
predic ted</w>
phosph onate</w>
ph log
per itone
pen s
pal onosetron</w>
pack aging</w>
p iratory</w>
out weighs</w>
osi tion</w>
opio id</w>
opalesc ent</w>
on a</w>
olog isch</w>
off ene</w>
oc lar</w>
obser v
o terol</w>
no vid</w>
ne virapine</w>
ne ur
ne on
moder ately</w>
mod els</w>
mo vements</w>
mi ent</w>
mg- Dosis</w>
man aged</w>
mal formations</w>
m y</w>
lymp h</w>
lu sive</w>
low -
lo s
lit ropin</w>
lip s</w>
lik ation</w>
lic ation</w>
li ximab-
lakti erenden</w>
l -</w>
kombini erten</w>
kno pf</w>
kardiovas kuläre</w>
k ap
jün geren</w>
is ot
individu ellen</w>
indic ates</w>
ie t</w>
idiopath ic</w>
i dis
höh erer</w>
hämat ologischen</w>
hydrogen phosphat</w>
hol en</w>
hin gewiesen</w>
hil ft</w>
her pes</w>
h ör
h es</w>
gre en</w>
glyc er
gl ini
gi ving</w>
gewich ts
ger ung</w>
ger s</w>
gen ot
ge steiger
ge ment</w>
ge d.</w>
g ar</w>
fu vir
fre isetzung</w>
form oterol</w>
ffi x</w>
ex amin
ever y
erythro poietin</w>
er fahr
er bracht</w>
ent sorgt</w>
enc ephal
emer gency</w>
embryo -
eit en</w>
ef re
ec ting</w>
durch ge
du arp</w>
dox an</w>
doppelblin de</w>
do lizumab</w>
disp osition</w>
dexmedetomi dine</w>
def ects</w>
dar one</w>
da emia</w>
d ac
compo und</w>
com pro
character ised</w>
c le</w>
c G
bur ning</w>
brau chen</w>
bil f
besteh ender</w>
beschädi gt</w>
ber eit</w>
benötig ten</w>
be wertet</w>
be urtei
be stand</w>
bas al</w>
azol am</w>
asymptom atic</w>
ar thralgia</w>
applic able</w>
ap efru
anth racyc
anhalten de</w>
anc e-
an fac
an der</w>
amp yra</w>
am nes
all eine</w>
alap ril</w>
al uronidase</w>
agre ed</w>
affin ity</w>
acknowled ged.</w>
ab fall</w>
a undi
ZY PA
ZYPA D
ZYPAD HER
Z entr
Z E
Vir acept</w>
Veter inary</w>
Vem urafenib</w>
Val doxan</w>
V O</w>
V ANCE</w>
US E</w>
Tum ore</w>
Toxiz itäten</w>
Tin te</w>
Ti gecyc
Th i
TL E</w>
TH ER</w>
T ob
T C</w>
Stim ulation</w>
Steady- Stat
St elle</w>
Si klo
Serum -K
Sec on
Se ebri</w>
Sch n
SVR 12</w>
S ä
Ril uz
Randomi sierung</w>
RO VANCE</w>
RE SS</w>
Privi gen</w>
Pharmac euticals</w>
Pat ronen</w>
PROT EL
PROTEL OS</w>
PR OL
PL AT
PD- L
P hoto
P embrolizumab</w>
On duarp</w>
O si
O L</w>
Nu mient</w>
Nier e</w>
Neu geborenen</w>
Neben nier
N intedanib</w>
N ephro
My algie</w>
MAT ERI
M in
M Bq</w>
M 184
Lu tetium</w>
Leben squalität</w>
L urasi
L .</w>
Krebs zellen</w>
Klein kin
Kat ze</w>
Jinar c</w>
Inj izieren</w>
Indi vidu
Im novid</w>
IS EN
I X
I R</w>
Hydrochlor id</w>
Hol oclar</w>
H ear
H RA</w>
Gr apefru
Gehir ns</w>
GL P-
G- CSF</w>
Fä zes</w>
Fre isetzung</w>
Fak toren</w>
F ampyra</w>
F VIII</w>
F ER
Ex tr
E bilf
Dosierungs schema</w>
Doc efre
Di rec
Deslorat adin</w>
Def it
D RESS</w>
D IC
Ch ro
Ch olest
CTCA E</w>
C olitis</w>
C FT
Beweg ungs
BE SON
Aus nahme</w>
Auf tretens</w>
Arzneimittelwechsel wirkungen</w>
Allgem eine</w>
Alkoholtup fer</w>
Ab atacept</w>
AU F
AS AG
ASAG L
AL PROL
AL K
ADMIN IST
AD ROVANCE</w>
AB ASAGL
9 00</w>
6. 7</w>
5 HT
3. 7</w>
3, 0</w>
3 1
3 -</w>
2C 9</w>
2C 19</w>
2. 3</w>
2 45</w>
177 Lu</w>
17 .
17 ,
1, 73</w>
0 13</w>
üs se</w>
ür en</w>
übergeh en</w>
äch t
µ M</w>
zul assung</w>
zubereit et</w>
zu zulassen</w>
zu erst</w>
zent u
yr am
yn sta</w>
wöch iger</w>
wissenschaf tlichen</w>
wei ch
was h</w>
w o</w>
w ann</w>
w .</w>
vor gefül
vir on
verursach te</w>
verschrei bungspflich
verlänger t</w>
ver pack
ver h
val di</w>
ur ad</w>
up date</w>
un bekannt</w>
u z</w>
ty pi
triglyceri des</w>
transp orti
trans fusion</w>
tion ally</w>
ther eby</w>
tep a</w>
te k</w>
t oni
swit ching</w>
swit ched</w>
suic idal</w>
sug ars</w>
su peri
str y</w>
sp itze</w>
som atropin</w>
sinter v
serot ypes</w>
sen kung</w>
samm lung</w>
sam en</w>
sal z</w>
sal z
s ar
s .
repor ting</w>
rel le</w>
re min
re jection</w>
qu ini
quini dine</w>
psychi atric</w>
pro zentu
prin ted</w>
prim är</w>
pri l</w>
par ts</w>
par ahydro
parahydro xy
p unc
p in
oph thal
on e-
ol itinib</w>
ok lon
oin tment</w>
ogen ese</w>
oc lon
oclon al</w>
nucleo side</w>
no des</w>
n am</w>
multi -
mpf stoff</w>
mo feti
mofeti l</w>
mi z
meaning ful</w>
man chen</w>
ma ß
lop inavir</w>
loo ked</w>
lo ck
li r</w>
li o
l ab
kutan e</w>
k ill
k et
k einer</w>
k einem</w>
je glicher</w>
j or</w>
ix id
ixid ar</w>
itr aconazole</w>
io tepa</w>
interrup ted</w>
inn er</w>
inj izier
ing -
infek ti
id ine</w>
hi er</w>
hem men</w>
hei m</w>
gu es</w>
größ erung</w>
grad ually</w>
glyc opyrronium</w>
gewoh nten</w>
geschw indigkeit</w>
gesch luckt</w>
gepl anten</w>
gel öst</w>
gel b</w>
gel ag
gek ennzeichnet</w>
ge spritzt</w>
ge prüft</w>
g in</w>
fär b
frequ encies</w>
for ts
foet us</w>
fo vir
fizier ten</w>
fin ding</w>
fi kation</w>
fami ly</w>
et nam</w>
er ungen</w>
entro pfen</w>
ent sprach</w>
eli o</w>
eingesch lossen</w>
edi pasvir</w>
e yel
e qui
e ffix</w>
dissol ved</w>
det eri
desi cc
den de</w>
den afil
dauerh aft</w>
d ächt
d b
d ase</w>
cour ses</w>
consider ing</w>
col d</w>
co -</w>
c u
c at</w>
bru ising</w>
box one</w>
bo xy
bli eben</w>
bl adder</w>
bin den</w>
bi ologischen</w>
besteh ende</w>
bel sä
beinhal ten</w>
bei ge
be zogen</w>
be s</w>
be folgen</w>
bakteri elle</w>
b ness</w>
b ase</w>
b am</w>
ausgeprä gt</w>
auf rechterhalten</w>
att ached</w>
at ine</w>
ass el
arter y</w>
ardi ance</w>
ant es</w>
angem essen</w>
ange bracht</w>
ang es</w>
anaphylakti sche</w>
an om
alph a</w>
aktivi erung</w>
ade fovir</w>
ab nehmen
a z</w>
a xi
ZYPADHER A</w>
ZUL ASS
Z effix</w>
Y ttri
Y -
Wo chen
Wirksamkeit send
Wirksam keits
WEN DE
Vorhoff limmern</w>
Vi etnam</w>
U K</w>
Tw ynsta</w>
Transpor ter</w>
Trans l
Thro mb
Therapie beginn</w>
Th at</w>
TS CH
TSCH ACHTEL</w>
TN F</w>
TIS ON</w>
T eri
T aking</w>
T ABLET
Sy stemi
Su boxone</w>
St .</w>
Spe dra</w>
So valdi</w>
So db
Sim ul
Siklo s</w>
STE CH
S us
Richt linie</w>
Res piratory</w>
R ATION</w>
Qu ixidar</w>
Q tern</w>
Pul monary</w>
Protop y</w>
Pos aconazole</w>
Polyeth ylen</w>
Pl at
Pl an</w>
Picat o</w>
Phen obarbital</w>
Pharmacokineti c</w>
Par itaprevir</w>
P ati
On glyza</w>
Om bitasvir</w>
OP TISON</w>
O ST
NA HM
N ieder
N ational</w>
Myc oplasma</w>
Multi ple</w>
Mit g
Mehrfach packung</w>
Ma jor</w>
M ir
L eth
L eit
L edipasvir</w>
Kribbel n</w>
Kol bam</w>
Kalzi um
K n
J ardiance</w>
J ah
Influenz a-
Ig G
IM UL
IC AL</w>
I sol
I s</w>
I B</w>
I .</w>
Herzrhythmus störungen</w>
Hep at
Heal th
Hau tr
H old</w>
H ei
Glu kok
Ge dächt
Gal actose-
Fol gendes</w>
Fak tor-
FAL TSCHACHTEL</w>
F oc
F ebrile</w>
Exazerb ationen</w>
Erst zulassung</w>
Ergeb nis</w>
En th
Eis en
Ein nahme
Ebilf umin</w>
E SS
Dys kine
Differ enz</w>
Dexmedetomi din</w>
Defit elio</w>
DURCH STECH
DP P-
DER E</w>
Cont inu
Cir co
C yram
C it
C A</w>
Blutungs risiko</w>
Bet a-
Ben ep
Ben azep
Bauchspeicheldrü se</w>
BOT TLE</w>
BESON DERE</w>
BAS AL</w>
B lau
B V</w>
B SC</w>
AU B
AR D</w>
ALPROL IX</w>
AL T-
AC H</w>
6. 2</w>
4, 4</w>
4 4
3, 1</w>
20 3</w>
2. 8</w>
2, 8</w>
19 -
10 3</w>
.. .</w>
- 3</w>
ün sti
ün di
überwie gend</w>
ör del
Ä US
zuneh men
z eta</w>
wer t
warran ted</w>
w al
visom ant</w>
vin yl</w>
vigil ance</w>
verstär kt</w>
vernachlässi genden</w>
vermittel te</w>
ver teilt</w>
ur ally</w>
up s</w>
untersuch ung</w>
un ar</w>
un able</w>
tub ular</w>
tu zumab</w>
traz za</w>
toler ance</w>
tic ally</w>
thro w</w>
th re
teil weise</w>
teil te</w>
tei le</w>
t ells</w>
t a
super vised</w>
sub group</w>
stär ke</w>
ster ilen</w>
stell te</w>
stab en</w>
st reifen</w>
st em</w>
st atic</w>
sp inal</w>
sor bitol</w>
sol ange</w>
so genannten</w>
so genannte</w>
si lic
si ght</w>
si en</w>
se y</w>
se vo
schädi gen</w>
schmerz haf
s co
s ar</w>
s ale</w>
resp ect</w>
ren alen</w>
rekonstitu ierten</w>
re le
re c</w>
r at
r aglutide</w>
prim ärer</w>
present ing</w>
practi ce</w>
po sology</w>
phospho kinase</w>
pharmakodynami schen</w>
ph arm</w>
parahydroxy benzoate</w>
par enter
p ho
oper ation</w>
olu com
olucom bi</w>
ob tain</w>
non-inf eri
no x
neh mern</w>
necro sis</w>
nah m</w>
myelo dysp
multic entre</w>
mode gib</w>
mo vement</w>
mit ted</w>
mit o
micro bi
met amol</w>
mem antine</w>
mark eted</w>
lin g
lie b</w>
li raglutide</w>
li ber
liber cept</w>
lebensbedroh lich</w>
lat asvir</w>
l u</w>
l abelled</w>
k reatin
j aundi
j a</w>
ir regular</w>
inter f
interf ere</w>
influ enz
induc er</w>
ind inavir</w>
in ence</w>
imet inib</w>
i pi
i des</w>
höch sten</w>
hä m
hydrochlor ic</w>
hum ane</w>
hol d</w>
heal ing</w>
hap pens</w>
hal tige</w>
h id
h ere</w>
größ eren</w>
gro und</w>
gr und
gly zer
geöff net</w>
gelag ert</w>
ge halten</w>
furo ate</w>
furo at</w>
formi ert</w>
flus hing</w>
fl äch
fi xed</w>
f its</w>
erforder liche</w>
erfol gte</w>
enth rombo
en so</w>
en ed</w>
empf ehlen</w>
elec oxib</w>
el trombopag</w>
el em
ek ta</w>
eimpf ten</w>
eg gs</w>
e f</w>
do sed</w>
def sey</w>
d an</w>
cyl a</w>
contr ast</w>
contain ed</w>
con gestive</w>
comp ati
ck e</w>
chick ens</w>
c ore</w>
blas en</w>
bi pol
betroff enen</w>
ben ec
bekan nte</w>
beding ter</w>
be wirkt</w>
be stimmen</w>
b lieb</w>
azep am</w>
av e</w>
ausreich enden</w>
aus fall</w>
auftreten de</w>
asi reo
as emi
arn a</w>
ap an
anti depres
ange bor
ang s</w>
an leitung</w>
am ous</w>
al i</w>
ak to
af lu</w>
adal imumab</w>
ad äqu
ad cyla</w>
ace q</w>
ab atacept</w>
Z ar
Z UR
Y SI
X EL
X ALK
XALK OR
XALKOR I</w>
Wirkstoff freisetzung</w>
War te
Wachstumshor mon
Vor liegen</w>
Vor bereitung</w>
Vit ekta</w>
Vi z
Ul unar</w>
UL O
ULO J
U D
Trä ger
Transl arna</w>
Todes fälle</w>
Tel biv
T olucombi</w>
T etra</w>
Systemorgan klasse</w>
Sub cutaneous</w>
Str on
Ster o
St ar
Spezi es</w>
Sp ei
Sodb rennen</w>
Sevelam er
Serot ypen</w>
Sek retion</w>
Sc ale</w>
SIN D</w>
SE OR</w>
S T</w>
S M
Ri enso</w>
Reflu dan</w>
Raloxi fen</w>
R ue</w>
R hinitis</w>
Qu alität</w>
Prüf ungen</w>
Proz ent</w>
Pos sible</w>
Por trazza</w>
Po si
Phase-III- Studie</w>
Periph eral</w>
PE -
P asireo
P P</w>
OS SEOR</w>
OPD IVO</w>
OM ET
OMET Y
OL YSI
O vit
O me
O defsey</w>
Normal isierung</w>
No vo</w>
Neur aceq</w>
Nahrungs aufnahme</w>
N ULOJ
Mu ko
Mil z
Medi ane</w>
Mal ign
M S-
Lös ungen</w>
Li po
Leth arg
LA M</w>
L ar
L Y
K olitis</w>
K adcyla</w>
K IN
Inform ations
Inf lam
In no
In du
I st</w>
I L</w>
HER 2</w>
HBeA g-
HB V
H elic
H als</w>
H T</w>
Granul o
Gewichts abnahme</w>
G ast
Fort schreiten</w>
Flä che</w>
Fach en</w>
Enth ält</w>
Em tan
Eliminations halbwertszeit</w>
E nox
E F
E CG</w>
Dur ation</w>
Docefre z</w>
Dis pose</w>
Dic ural</w>
Diabe tes
Di aly
D ro
D S</w>
Cyram za</w>
Cro s
Cont act</w>
Ch ini
Cer del
CAB OMETY
But yl
Bläh ungen</w>
Biliru bin
Benep ali</w>
Behandlungswo chen</w>
Behandlungs ende</w>
Be vor</w>
Be deut
Bas al
B C</w>
At men</w>
An stiege</w>
Alb umin</w>
Ak kumulation</w>
Activ yl</w>
Actel sar</w>
Acetylsalic ylic</w>
AS -
ADMINIST RATION</w>
ABASAGL AR</w>
5 6
4, 8</w>
20 14</w>
2, 4</w>
2 .</w>
19 .
10 2</w>
1 14</w>
00 -
- 0,
än ge</w>
Über ein
z ophr
yc arb
withdr awn</w>
wirk te</w>
weib liche</w>
wech seln</w>
was chen</w>
w ür
vor aus
verzöger te</w>
verb lin
ver wen
vem urafenib</w>
vari ability</w>
ur g
unter halb</w>
tri mester</w>
tre sist
tr ac
titr ated</w>
ti az
ten de</w>
tel aprevir</w>
t etanus</w>
t au
sä u
synthe sis</w>
sy sto
sy l
sun itinib</w>
strong ly</w>
stil len
st ündi
sleep iness</w>
sier en</w>
si m</w>
si des</w>
sevo flurane</w>
sero conversion</w>
ser vier
senk enden</w>
se iten</w>
schw ellung</w>
schi zophr
sch rif
sch lucken</w>
sch en
saf tresist
s a
ron en
regi me</w>
reg ard</w>
refriger ated</w>
ral oxi
pt aflu</w>
progres sion-free</w>
pri mi
presc ribing</w>
post prandi
por tion</w>
per tussis</w>
pe el
p ic
p ated</w>
p aclitaxel</w>
p H-
oth rombo
organ is
ophag itis</w>
ome dac</w>
om as</w>
off- white</w>
of loxacin</w>
oc ar
oc am</w>
ob en
o s</w>
nu clear</w>
non- steroidal</w>
niedri geren</w>
neuro lep
neg ativen</w>
ne ver</w>
nat urally</w>
n intedanib</w>
n eten</w>
n d</w>
my ko
mon oklon
mon oclonal</w>
mittel schweren</w>
mith ilfe</w>
mi ss</w>
metho ds</w>
medi kam
luss fol
lon va</w>
len vatinib</w>
le sion</w>
le en</w>
l anti
l .</w>
krä mpfe</w>
krank heits
korrek te</w>
kl einzel
j us
is etz
intoler ant</w>
ili ar
id an
i stet</w>
ho t</w>
ho ben</w>
hi ves</w>
heart burn</w>
he ad
go od</w>
gew ünsch
gerin geren</w>
gerin ger
g onado
frü her</w>
fr on
fil tration</w>
fil m</w>
farblo s</w>
et axel
esc a</w>
erkran k
erg ie</w>
er wor
er ek
ep r
ent n
en es</w>
en ds</w>
el vitegravir</w>
einher gehen</w>
ein tritt</w>
disp ose</w>
dis se
difficul ties</w>
diagnosti zier
det e</w>
dec kel</w>
de kompen
de fi
dauerh af
dar on</w>
d. h.</w>
corti co
consc iousness</w>
conc urrently</w>
cohor t</w>
ci l</w>
chil d-
ch y</w>
cat egor
c ed</w>
c .</w>
boo sted</w>
bo cep
betr achtet</w>
berich tete</w>
beh älter</w>
aze c</w>
az it
ax itinib</w>
au t
at ur</w>
at tri
at inib-
asi c</w>
as en
arte sim</w>
ap se</w>
antivir ale</w>
ani ed</w>
ana esthesia</w>
an y
an genommen</w>
am ini
alisier ter</w>
ak u
ak ts</w>
ag itation</w>
ad renal</w>
accomp anied</w>
accep table</w>
abzu brechen</w>
abgew ogen</w>
Zen ap
Zav esca</w>
Z IMUL
ZIMUL TI</w>
Vi da
Unter zuck
UC CO
U M</w>
Tro pfen</w>
Tr azec</w>
Th y
Tem omedac</w>
TT P</w>
TE IL
Str ahl
Stom atitis</w>
Stevens-John son</w>
Steady- State</w>
St av
Skal a</w>
Si milar</w>
Sevelam er</w>
S olo
S etzen</w>
S auer
S G
Rück gang</w>
Re zidi
RES T</w>
Pre par
Placebo- kontrollierten</w>
Pipet ten</w>
Physi ci
Pati entin</w>
PACK UNGEN</w>
P 2</w>
Ovit relle</w>
Oberschenk el</w>
O ptaflu</w>
Nessel sucht</w>
N ag
Miss bildungen</w>
Mehr heit</w>
Magen-Darm -
ME DIC
MD S</w>
M ore</w>
Lymph knoten</w>
Luf t</w>
Leber funktions
Lag erung</w>
Körper größe</w>
Kon servier
Iv abradine</w>
Ingel heim</w>
Ind one
Imp ro
Immun systems</w>
IS S
IN F
I P
I D</w>
Ho ch
HbA1 c
HC S</w>
H F</w>
G i
Fluticason furoat</w>
Flu or
F urther</w>
F rei
Extremit äten</w>
Eur artesim</w>
Eptifibati d</w>
Empf ehlung</w>
Ek z
Einstich stelle</w>
EV AR
EVAR REST</w>
ED UR
E1 32</w>
E mul
E lonva</w>
E K</w>
E C
Durchschnit t</w>
Dosierung sempf
Direc tive</w>
D NA
Cush ing</w>
Cro scarmel
CI AMB
CIAMB RA</w>
C 2
Bo vis</w>
Be wegung</w>
Be ut
BRA F-
B UCCO
Ax itinib</w>
Arzneimittel wirkungen</w>
Are panrix</w>
Ar ava</w>
Applikations stelle</w>
Antidiabe tika</w>
Anti phlog
Anore xie</w>
An hang</w>
Alters gruppen</w>
Ab domin
A van
A 6</w>
4. 7</w>
4- hydroxy
3. 75</w>
3. 6</w>
3, 75</w>
3 60</w>
19 ,
18 8</w>
1. 73</w>
0. 25</w>
0 20</w>
0 16</w>
0 14</w>
öt us</w>
än glich</w>
ähn licher</w>
zu tre
zir ku
zi o</w>
zi de</w>
zeu gen</w>
z um
z la</w>
yn z
y on</w>
y m
x ig
x -
wiederhol t</w>
wh ere
where as</w>
wer ts</w>
wass er
vis ually</w>
vi done</w>
vermö gen</w>
verges sen
ver te
ure a</w>
unter en</w>
ungs -</w>
un den
umf assen</w>
treatment- naïve</w>
tr ach
tom y</w>
to ols</w>
thromboemboli sche</w>
thromb in</w>
th iaz
ter en</w>
ten s</w>
ten den
tel n</w>
te zla</w>
tan sine</w>
t ness</w>
stü ck</w>
stop s</w>
sto ols</w>
stark er</w>
st axis</w>
squ amous</w>
spon dylitis</w>
sp leen</w>
sp an
sin ess</w>
sier ende</w>
serot on
se c</w>
schwar zer</w>
schrif ten</w>
schem ata</w>
s th
ru se</w>
rout ine</w>
ro ter</w>
ro t
rip ent
rich tung</w>
resp ective</w>
rekombin ante</w>
rec tal</w>
rec ipi
raloxi fene</w>
radiol ab
ra ised</w>
pro fen</w>
pre zi
pre serv
pr ine</w>
postnat al</w>
plan en</w>
pens ated</w>
peg y
pat tern</w>
pa tho
p ut</w>
oxy b
otherap ie
omu n</w>
ocy tes</w>
oben acoxib</w>
obac ter</w>
o ffici
ni emals</w>
ner ve</w>
n -
min dern</w>
microbi al</w>
mei st</w>
medizini schem</w>
m g-</w>
lyophilis ate</w>
lier enden</w>
l ation</w>
komp let
kam bi</w>
jähri gen</w>
jaundi ce</w>
it- risk</w>
it u
isch aemic</w>
insp ected</w>
inhibit ory</w>
in stituted</w>
in formiert</w>
in ane</w>
imp rin
imp le
immuno deficiency</w>
il le</w>
ih rem</w>
hypo kalaemia</w>
hyper glycaemia</w>
haemorrh ag
h yo
h exa</w>
gru pp
gre y</w>
gram ms</w>
glucur oni
glomer ular</w>
gewährlei sten</w>
gestre l</w>
geliefer t</w>
gelan gt</w>
g am
fi eb
fest zustellen</w>
f s
epider mal</w>
epi theli
ep tide</w>
encephal opathy</w>
en si
em tansine</w>
eh emmer</w>
e osin
durch sich
drin king</w>
docum ent</w>
direc ted</w>
der er</w>
dep end</w>
cont inence</w>
cont amination</w>
con est</w>
compar ing</w>
co ating</w>
ci pated</w>
ch ance</w>
cer ase</w>
centr e</w>
cartrid ges</w>
candi diasis</w>
c ile</w>
bwer tz
bikon vexe</w>
benef it-risk</w>
benec id</w>
beginn ing</w>
be finden</w>
azit axel</w>
az ell
ausreich ende</w>
auf trat</w>
ations rate</w>
ath er
at- Dihydrat</w>
assel ta</w>
aspar aginase</w>
asp ir
as e-</w>
ard less</w>
ar isation</w>
ar en</w>
ap re
ap her
ap amil</w>
anti cipated</w>
anp assen</w>
ange sehen</w>
ang relor</w>
analo gues</w>
an zien</w>
an f
alu prine</w>
alivi zumab</w>
al isation</w>
ak ter
af ur</w>
adol ini
ad vis
ad ap
acto cile</w>
ac lo
ab ends</w>
Zi agen</w>
Zenap ax</w>
Zar zio</w>
Z OST
ZOST AV
Yel low</w>
X iliar
X aluprine</w>
Was h</w>
Warte zeit</w>
WARN HINWE
Vortiox etin</w>
Vida za</w>
Verneb ler</w>
Ver teilung</w>
Ver packung</w>
VI AL</w>
VE SS</w>
V AX</w>
Uro rec</w>
Unbedenk lichkeits
Tr actocile</w>
Thor inane</w>
Th el
Teri flunomi
Tages zeit</w>
T P
Säuglin ge</w>
Sw allow</w>
Strahl entherapie</w>
Spr üh
Simul ect</w>
Sili cium
Schwer wie
Sal be</w>
ST R
S K
Ru conest</w>
Risikomanagement plans</w>
Rezep tor</w>
Respon der</w>
Remo v
R obenacoxib</w>
R habdomyoly
R ach
Pro duktion</w>
Prax bind</w>
Povi don</w>
Pol y</w>
Pl en
Per c
Parkin son
Paliperid on</w>
PCV 2</w>
P s
P on
P aclitaxel</w>
Or kambi</w>
Or g
OLYSI O</w>
O tezla</w>
O ZUR
Nu cal
Neutropen ia</w>
Neu geborene</w>
N Y
Mund trockenheit</w>
Mitg lied
Meth ad
Mal absorption</w>
M id
Luft blasen</w>
Lu x
Lit eratur</w>
L umacaftor</w>
L assen</w>
Krank heit
Kor onar
Kon jug
Knochen mark</w>
Ir rit
Internet seiten</w>
Inter action</w>
Indone sia</w>
Inc ruse</w>
In toleranz</w>
Immuno G
ImmunoG am</w>
Ig E</w>
Idel alisib</w>
IN AL</w>
IK ERV
IKERV IS</w>
I prezi
Hyper tension</w>
Hex yon</w>
Helic obacter</w>
Health care</w>
Hautr ötung</w>
Glu cur
Gesam tan
G v
G lo
G auch
G 55
Forts etzung</w>
For xig
F ötus</w>
F ami
Ever olimus</w>
Ery thema</w>
Epi staxis</w>
Ent y
Emtan sin</w>
Ein satz</w>
EM EA</w>
EM AD
EDUR ANT</w>
E ye</w>
E b
E .</w>
Der matitis</w>
D asselta</w>
D VT</w>
D NA-
D IS
D D
Con stipation</w>
Cholester in</w>
Cerdel ga</w>
Car diac</w>
CABOMETY X</w>
Bew ahren</w>
Ber omun</w>
Bedeut ung</w>
Be zeichnung</w>
BUCCO LAM</w>
BRIN A
BRINA VESS</w>
Aug entropfen</w>
Appro ximately</w>
Antiphlog istika</w>
Antiepilep tika</w>
Angioten sin</w>
An gi
An alge
All ergi
Ak ynz
Adju v
Ade fovir
Adal imumab</w>
Actr apid</w>
Abb au</w>
Ab wägung</w>
Ab normal</w>
AC E-
A sian</w>
A mel
A 77
A77 17
9 3
6. 5</w>
6. 4</w>
5. 6</w>
5, 6</w>
3, 7</w>
20 15</w>
20 13</w>
2. 7</w>
2. 1</w>
2 30</w>
19 4</w>
17 1</w>
1 3-
1 1-
0 11</w>
üttel n</w>
ür e</w>
zyto se</w>
zu dem</w>
z ole</w>
ylval osin</w>
y ra
wen ig</w>
vor tiox
vortiox etine</w>
vis uell</w>
vesti m</w>
vers ehen</w>
verpack t</w>
verk ehr</w>
ver säum
ver mindern</w>
ver langsam
vas o
val ent</w>
v el</w>
v ec
ush ed</w>
unzureich end</w>
ung sin
un denen</w>
umm i</w>
um e</w>
ulc ers</w>
u da</w>
tol vaptan</w>
tic le</w>
tiaz em</w>
tal c</w>
symptom e</w>
subst anz</w>
stärk er</w>
st ant</w>
sk al
silic a</w>
shi o</w>
ser a</w>
sep flich
sch ütteln</w>
sch wach
rout in
rhyth m</w>
remo val</w>
rel ativ</w>
reg er</w>
reg ardless</w>
recor ded</w>
re sorption</w>
re solution</w>
re ini
rau chen</w>
r hythmi
r an</w>
pulmon ale</w>
prepar ations</w>
populationspharmakokineti schen</w>
poly ar
po eti
pl ying</w>
pl a</w>
pi dia</w>
perfor ierten</w>
parti ally</w>
par a
pack aged</w>
pH -Wert</w>
p neum
p ing</w>
oxy gen</w>
or tho
or ische</w>
or alem</w>
ophil us</w>
op itant</w>
onolact one</w>
obstruc tive</w>
o id</w>
o graph
o .
num bness</w>
new born</w>
nebuli ser</w>
n or</w>
n ologie</w>
mol ek
mode l</w>
micro crystalline</w>
meth yl-
mensch liche</w>
mel phalan</w>
medizin isch</w>
medic ations</w>
man nitol</w>
mal absorption</w>
mach iner
machiner y</w>
m essen</w>
m als</w>
lo cally</w>
lin e
lidini umbromid</w>
le un
le bi
l f</w>
l av
l ap
kum enti
kardiovas kulären</w>
kar dio
k ä
k ol
irgend welche</w>
intermedi ate</w>
inten sity</w>
infest ations</w>
inf o</w>
ind acaterol</w>
in t
in continence</w>
im ato
imato prost</w>
ier ter</w>
ich ten</w>
hül le</w>
hydrox id-
hy promellose</w>
haem ato
h appen</w>
group ing</w>
gro ßen</w>
gr ün
gr af
gly ko
gl and</w>
gew is
gepool ten</w>
ge senkt</w>
fr action</w>
fl at</w>
fi brin
exhibit ed</w>
ever olimus</w>
et on
es ti
erh ol
erfol gre
er lau
er fahren</w>
entn ommen</w>
ent eritis</w>
en ding</w>
ein sch
ehydr atation</w>
ed -dose</w>
ec tin</w>
ec rosis</w>
eb -
e- daily</w>
dro gen
do kumenti
diure tic</w>
develop mental</w>
design ation</w>
desicc ant</w>
dec om
de ath
cur ve</w>
control s</w>
connec tive</w>
concern ing</w>
compro mised</w>
com pr
co- infected</w>
cipi ent</w>
ch ec
c anc
bocep revir</w>
betru gen</w>
bet a
besch leun
berich te</w>
berei chs</w>
bei der</w>
be halten</w>
be achtet</w>
bacteri um</w>
back ground</w>
b usulfan</w>
avir us</w>
ati s
assozi ierten</w>
arzneimittel n</w>
appe ared</w>
antipsycho tic</w>
angemessen en</w>
ander em</w>
an sprachen</w>
alfa-2 a</w>
al ong</w>
aggre g
ag s</w>
ag le</w>
afen ix</w>
adr en</w>
achie ving</w>
acet amol</w>
acc ur
ac ity</w>
abnehmen dem</w>
abigat ran</w>
aPT T</w>
a .</w>
Zus at
Zul vac</w>
Z ecken</w>
Y MD
Xiliar x</w>
W il
W er
Vi pidia</w>
Ven enthrombo
Val pro
Vacc ine</w>
V ildagliptin</w>
UNG S</w>
T ox
T lf</w>
T erat
Stei gerung</w>
Stand ard</w>
Solo Star</w>
Serot yp</w>
Serot on
Sen shio</w>
Schwerwie gende</w>
Schwangerschaf t
Sch lussfol
S obald</w>
S icht</w>
S ection</w>
Remov ab</w>
Reiz barkeit</w>
Regi me</w>
Re duk
RO UT
RC C</w>
R NA-
Plen adren</w>
Pipet te</w>
Par vo
PLAT O</w>
P sy
P ir
P G</w>
Original verpackung</w>
O ut
O fat
Ni vestim</w>
NULOJ IX</w>
Myc ophenol
Mus culoskeletal</w>
Mit tl
Minu te</w>
Mid d
Metaboli sier
Mel phalan</w>
MR I</w>
M ini
M ac
M G</w>
Lympho m</w>
Lymph aden
Li ke</w>
Leben di
Lat uda</w>
Kreuz resist
Kompon enten</w>
Kom a</w>
K G</w>
Ir on</w>
Iprezi v</w>
Inj ect</w>
In vent
ISCH EN</w>
IR R</w>
IN FOR
II b</w>
Hydro x
Hy pon
Hear t</w>
Haupt metaboliten</w>
HEX AL</w>
HB s
H ör
H PC
H L
Geschlech ts
Gel eg
Geb är
Forxig a</w>
Flu oro
Flo h
FAL L
Eth inylestradiol</w>
Enzep i</w>
Enty vio</w>
Emul sion</w>
Empfängnis verhütung</w>
Eb ym
EMAD INE</w>
E osin
E G</w>
Doc etaxel
D idan
D 3</w>
Co ag
Clini cally</w>
Ci me
Chini din</w>
Cap sul
C riteria</w>
C el
C P
Bro m
Bosu tinib</w>
Bol us
Blut tests</w>
Blu e</w>
Block ade</w>
BIOLOG ICAL</w>
BE W
B inde
B E</w>
Ar tikel</w>
Ar ticle</w>
Ar rhythmi
Ant agonist</w>
An tigen</w>
An om
Amel uz</w>
Amb risentan</w>
Ak tu
ARZNEIMITT EL</w>
AM D</w>
AH REN</w>
A7717 26</w>
A pix
A G</w>
7 00</w>
6, 7</w>
5. 4</w>
4 0-
3, 9</w>
3 02</w>
3 01</w>
28 .
2, 1</w>
2 D6</w>
2 70</w>
1. 25</w>
1 A</w>
1 28</w>
- Patienten</w>
β -
ön t
äm me</w>
Überlebens rate</w>
Überein stimmung</w>
Über lebens</w>
zz iness</w>
zy topenie</w>
zul eiten</w>
zu ständigen</w>
z on
z en
y rate</w>
y lase</w>
wor m</w>
wirk stoff
wich tigen</w>
wer fen</w>
weich ungen</w>
w ing</w>
w ant</w>
vi ew
verschreibungspflich tige</w>
ver stoffwechsel
var denafil</w>
ut ent</w>
up itant</w>
unterschied liche</w>
unerwünsch ter</w>
un behandelten</w>
umfas sten</w>
u x</w>
u st
typ ically</w>
tw a</w>
troph ie</w>
transc riptase</w>
tr ained</w>
titr e</w>
tho ugh
ther land
therland s</w>
termin aler</w>
ter us</w>
ter min</w>
t azi
tazi di
t as
sur veillance</w>
superi or</w>
suic ide</w>
subsequ ently</w>
stro gen
stimul ate</w>
stimm t</w>
sti ff
stand ing</w>
st adium</w>
sper m</w>
signific ance</w>
sicher stellen</w>
si c</w>
ser gebnisse</w>
sekund äre</w>
se u
se kretion</w>
se as
schrän kungen</w>
schn elle</w>
saftresist ente</w>
s can</w>
rif abutin</w>
rich tigen</w>
reve aled</w>
restric tions</w>
resol ve</w>
rele as
rech t
re x
re place</w>
radio aktiven</w>
radi otherapy</w>
pur a</w>
protein uria</w>
protein -
pro po
pro duzier
pp er</w>
potenzi elle</w>
pi ec
phosphat ase</w>
phosph or
pharmak ologische</w>
perz i</w>
periph erer</w>
pen is</w>
peg ylated</w>
par itaprevir</w>
par ent</w>
par as
pack ed</w>
pa g</w>
oxid ative</w>
out weigh</w>
omegal y</w>
om bitasvir</w>
okokk en-
occa sionally</w>
obstruc tion</w>
ob last
o .</w>
nai ve</w>
nah e</w>
n atrium
mutagen ic</w>
multi packs</w>
mo tor</w>
metaboli sers</w>
medic ally</w>
me gal
lip id</w>
li ck</w>
le genheit</w>
le ep</w>
lan de</w>
körper ei
kr aft</w>
kon tin
kon sum</w>
kan zerogen
kal ine</w>
k le
k asi
jün ger</w>
it es</w>
is on
is lauf
is hed</w>
ir ater
interstiti elle</w>
inten si
in den</w>
in active</w>
impa ir</w>
id o</w>
i pag</w>
i on
i ble</w>
höh le</w>
hydroxid- oxid</w>
hist amine</w>
her gestell
her aus</w>
hep arin</w>
heart beat</w>
h is
h ar
grav ed</w>
gluco se-
glu ko
gering fü
gen it
früh eren</w>
form al</w>
fore ign</w>
fo tase</w>
fo o
flu ids</w>
ff end</w>
fest gelegt</w>
fer tigt</w>
fen id
fan g</w>
f inger</w>
f ett
f ender</w>
f end</w>
f ain
extr ap
exten sively</w>
expl ained</w>
ex position</w>
ex ipag</w>
et -
erk enn
eri v
erforder t</w>
er niedrig
er ection</w>
entwick lung</w>
entran sp
ent -
ensi q</w>
end- stage</w>
en viron
en tial</w>
en graved</w>
emul sion</w>
einmal iger</w>
ein schränkung</w>
e stradiol</w>
duc ed</w>
du o</w>
drug- drug</w>
drin gend</w>
dopamin ergic</w>
do sen
disc us
dis col
discol oration</w>
dipi on</w>
das abuvir</w>
consist ing</w>
comple tion</w>
co x</w>
cken mittel</w>
chroni sche</w>
cho lic</w>
cer ebro
categor ies</w>
cap top
c. G
c openia</w>
bwertz eit</w>
broncho spasm</w>
bo su
bel atacept</w>
bekann ter
beh ält
beginn t</w>
be folgt</w>
be comes</w>
basier en</w>
bakteri ellen</w>
ba siert</w>
b ido</w>
b a</w>
az in</w>
aw are</w>
av as
aufgel istet</w>
attenu ated</w>
att ach</w>
art ons</w>
art ners</w>
armako vigil
ap hy
antido te</w>
ang le</w>
analo gue</w>
am bul
am bu
allow s</w>
allgem einen</w>
al is</w>
al di
age -
aec al</w>
adi ly</w>
ad sorb
aci zumab</w>
acc ess</w>
ac quired</w>
ab bruch</w>
Zal vis
Xig duo</w>
Wieder aufnahme</w>
Verabreich ungs
Ver halten
Vari anten</w>
V omiting</w>
V W
Urin ary</w>
Unterzuck erung</w>
Un ru
UR SPR
URSPR UNGS</w>
Transp ort
Tran sient</w>
Tol vaptan</w>
Thel in</w>
Teriflunomi d</w>
Tab ellen</w>
TV T</w>
TR ISEN
TI MI</w>
TI G
T otal</w>
Syn kop
Str ensiq</w>
Sti ck
Steady-Stat e-
Sper mi
Silo dy
Shel f</w>
SE D</w>
S utent</w>
S ug
S ho
S edi
Rev as
RE GRAN
REGRAN EX</w>
R-CHO P</w>
R ab
Prit or</w>
Prav afenix</w>
Pom alidomid</w>
Polyprop ylen</w>
Plasmapro tein
Pharmakokineti sche</w>
Ph armakovigil
Pfl a
PE T-
PACK AG
PACKAG ING</w>
P it
Osteon ekro
Ofat umumab</w>
OZUR DEX</w>
OAT 3</w>
O THER</w>
Nukle osi
Nucal a</w>
Neutrophil enzahl</w>
Ne therlands</w>
Naltrex on</w>
Nadel schutz
NS 3</w>
NAHM EN</w>
N ei
N NRTI</w>
Mö gliche</w>
Mo der
Midd le
Mel oxid
Magne sium</w>
Ma ße</w>
MEDIC INAL</w>
M ake</w>
Lympho seek</w>
Letharg ie</w>
Leber schädigung</w>
L ep
Krampfan fällen</w>
Konservier ungsmittel</w>
K lin
Inhibit ors</w>
Indu stri
Indi kation</w>
IN TER
Hüh ner</w>
Hän den</w>
Hämo globin</w>
Hy poten
Hormon s</w>
Herz erkrankung</w>
Her pes
Hepatitis- C-
Hep sera</w>
Harnwegs infektionen</w>
HIV- infizierten</w>
HDL- C</w>
HCV- RNA</w>
H1N 1</w>
H OL
Glukok ortiko
Gluco selösung</w>
Gli dipion</w>
G anzen</w>
For men</w>
Fer acc
F lex
F ingolimod</w>
F ett
F AC</w>
Ex peri
Ery thromycin</w>
Er sch
Enzep hal
En ure
Ebym ect</w>
E twa</w>
E agle</w>
Dru g</w>
Dis perzi</w>
Di zziness</w>
De pot-
Das atinib</w>
Cy R</w>
Coag ade
Clo mi
Chro mo
CYP2 D
C at
Broncho spas
Breez haler-
Blutungs ereignis
Blutplätt chen</w>
Biop artners</w>
Bio grastim</w>
Benz o
Bei de</w>
Behandlung sp
BIOLOG ISCHEN</w>
B le
B -</w>
Auffri schi
Aufbewahr ung</w>
Anti depres
Ang st</w>
Analy sen</w>
An sicht</w>
An pharm</w>
All ergic</w>
Al ert</w>
Akynz eo</w>
Aff in
Adju panrix</w>
Adefovir dipivoxil</w>
Ad ult</w>
Ab w
Ab satz</w>
ARZNEIMITT EL
AN TI
9 9
6 0
5. 5</w>
4-hydroxy benzoat</w>
3 58</w>
3 53</w>
3 30</w>
20 10</w>
2- fold</w>
2, 7</w>
2 B6</w>
2 79</w>
18 3</w>
15 4</w>
10 7
1 5,
1 30</w>
1 16</w>
0 2
ü hren</w>
ördel kappe</w>
ör tlichen</w>
ö p
ärz tlichen</w>
Ü NDE
Ü LL
ÜLL UNG</w>
µ l</w>
zin ationen</w>
zei tig</w>
wiederhol ten</w>
w er</w>
vor beu
vivo -
viel en</w>
vi ation</w>
verzöger t</w>
verstoffwechsel t</w>
verschwommen es</w>
versch limmer
vermittel ten</w>
vel amer</w>
val id
v eh
veh ic
uv an</w>
ur in</w>
ung si
ump hosp
u ß
u din
tö tet</w>
tä gigen</w>
tu n</w>
transamin ase</w>
tr an</w>
to wards</w>
to mie</w>
ti tri
ti li
ti erten</w>
tho ught</w>
thi asis</w>
th ing</w>
th eta</w>
t yp</w>
t and
symptomati sch</w>
supple ments</w>
sulph ate</w>
subst anti
stiff ness</w>
steu rel
steurel la</w>
ste p</w>
st ä
st ets</w>
st au
spr ing</w>
spo ten
spezi elle</w>
sol cher</w>
so mit</w>
so ci
sin ken</w>
se velamer</w>
sch u
sc op
s h</w>
s etzung</w>
ro se</w>
reo tide</w>
reco gn
re ser
re adily</w>
radiolab elling</w>
radio active</w>
r u</w>
pr ami
prami pex
pramipex ole</w>
poie tic</w>
po x</w>
plan ned</w>
pit ations</w>
phen obarbital</w>
pf lich
perman ently</w>
peritone al</w>
p azopanib</w>
oph armac
omer sal</w>
om bi</w>
olog ous</w>
ob j
o poeti
o ffizi
non -</w>
no d
neu er</w>
n elfinavir</w>
multi plen</w>
mu lierung</w>
minimi se</w>
mil li
mic ron
mi gr
mi ca</w>
men stru
mem ory</w>
materi alien</w>
man ic</w>
mal er</w>
ma gen
m un
länger en</w>
län gere</w>
lo sin</w>
lo se-
lo arthritis</w>
liqu e</w>
leth arg
lebi tis</w>
le x</w>
le ads</w>
l yophili
l urasi
körper liche</w>
kul är</w>
k s
k erat
iz ophr
inu mab</w>
intramus kuläre</w>
inter pre
inn en
infusions bedingte</w>
individu elle</w>
in tro
in rix</w>
in f</w>
in duziert</w>
imprin ted</w>
ima ging</w>
il led</w>
il a</w>
ide ation</w>
ic i
i rex
i al</w>
hämat opoeti
human es</w>
ho us
hin weisen</w>
hervorger ufen</w>
heredit ären</w>
hei lung</w>
hal o
haemorrhag ic</w>
h emi
gri pp
gran ted</w>
gni tive</w>
gew eb
ge danken</w>
gastro -resistant</w>
gan z</w>
g sk
färb ungen</w>
forts etzen</w>
fol lic
fo li
fin d</w>
f tig</w>
f laschen</w>
f etal</w>
exp on
examin ed</w>
ex primi
eton gue</w>
es ses</w>
er möglich
er ge</w>
ep ing</w>
ent sprechen</w>
ent le
ent ed</w>
engmasch ige</w>
en erg
ell ari
elec tro
ek inumab</w>
ein zuleiten</w>
ein er
ed -
dys kine
dy loarthritis</w>
durchschnit tlichen</w>
dosis abhängige</w>
distrib uted</w>
disp l
direk te</w>
detail s</w>
desi red</w>
deriv ative</w>
deli very</w>
defi zi
death s</w>
cor tis
convul sions</w>
cle an
ch on
cap acity</w>
c umulative</w>
c ine</w>
c e
c am
but yl</w>
bosu tinib</w>
besteh end</w>
ber tek</w>
begrenz ten</w>
begleit et</w>
be zieh
be kä
be coming</w>
ausge gangen</w>
ati v
ass ess
arteri elle</w>
ardi s</w>
anwen dung</w>
ant opr
allgem eine</w>
ali di
ak rani
ak en</w>
ad he
ad es</w>
ac coun
aber vel</w>
a res</w>
a ise</w>
Zalvis o</w>
ZUL V
ZULV AC</w>
ZOSTAV AX</w>
Y 93
Wech sel</w>
WIRKSTOF FS</w>
W est</w>
Vi miz
Vari abilität</w>
VOR SICH
VI AG
VIAG RA</w>
Urs ache</w>
Unter gruppe</w>
UT EK</w>
UM H
UMH ÜLLUNG</w>
U SED</w>
Tw inrix</w>
Trin k
Tra be
Tigecyc lin</w>
Ter min
TS H</w>
TRISEN OX</w>
Substitu tionen</w>
Stoff e</w>
Spon dylitis</w>
Sp ir
Silody x</w>
Silicium dioxid</w>
Schrit ten</w>
Sch ä
Sch izophr
S abervel</w>
Rasagil ine</w>
R R</w>
R IL
RIL UTEK</w>
R G
R -T
Pul l</w>
Protein urie</w>
Produk tes</w>
Phosphat ase</w>
Phase-III- Studien</w>
Ph asen</w>
Pa steurella</w>
PRODU CT</w>
P rec
P all
P .</w>
Oxy globin</w>
Or t</w>
Ober fläche</w>
O seltamivir</w>
O d
O PA
Nukle ar
Nieder lande</w>
Nekro lyse</w>
Nebennier en
Nalox on</w>
Muskel krämpfe</w>
Mus cle</w>
Mikro kristalline</w>
Mic ardis</w>
Mac itentan</w>
MR P2</w>
M üt
M iner
Ly n
Lurasi don</w>
Lungen embolie</w>
Li bertek</w>
Leu co
Leberfunktion stests</w>
Leber erkrankungen</w>
L ICH</w>
Krankenh aus
Kontrol len</w>
Kompon ente</w>
Kombinations behandlung</w>
KO GEN
KOGEN ATE</w>
K uvan</w>
Jah res
Inf ection</w>
Induk tor</w>
Imp ortant</w>
IX IV
IXIV AN</w>
I baf
Hypoten sion</w>
Hitz ew
Hallu zinationen</w>
Ha emo
HPV -
HD PE-
H aus
Gv HD</w>
Geschmack s
Ge webe
Gastrointestinaltr akt</w>
GS-US- 29
GS-US-29 2-
Fol genden</w>
Fl ecken</w>
Fi x
Fe eling</w>
F AC
Enure v</w>
Entwicklung stoxizität</w>
Ent steh
Eierst ö
EX T</w>
E1 10</w>
E vents</w>
Dop amin</w>
Dis card</w>
Dat en
D ehy
D adurch</w>
Con tr
Ch anges</w>
CR IXIVAN</w>
C ri
Brust schmerzen</w>
Bri mica</w>
Bri lique</w>
Binde geweb
Belgi um</w>
Beh ör
BR U
BEW AHREN</w>
B ÜNDE
B rennen</w>
B ra
B lin
B etre
B O
B AX
Aus w
Aufbewahr ungs
Ar teri
An xiety</w>
An alysis</w>
Alzhei mer-
Aden o
Absch luss</w>
AM E</w>
AL U</w>
AC R-
AC C
A irex
A chten</w>
6 9
3. 9</w>
3 M</w>
28 ,
20 4</w>
14 3</w>
1, 25</w>
1 500</w>
1 17</w>
1 13</w>
0. 5
0 4
-W ertes</w>
üb ung</w>
önt gen
ö ten</w>
änder t</w>
ä res</w>
ß es</w>
zu stände</w>
zon is
zonis amide</w>
zo lid</w>
zerk aut</w>
zentr alen</w>
zal ut
yra mid
yr at</w>
ylen glycol</w>
wä gen</w>
weis ung</w>
we i</w>
w all</w>
vir ale</w>
vi ces</w>
vi ca
verwendet en</w>
versch oben</w>
vergessen e</w>
ver sions
ver lauf</w>
vax yn</w>
valid ated</w>
v alidi
us ers</w>
urg ent</w>
ungs studie</w>
ug in
u pri
upri ght</w>
u k</w>
u cle
tu ximab</w>
transamin ases</w>
trans formation</w>
toco l</w>
ti tre
th ick
tel lix</w>
tel biv
tand i</w>
tal king</w>
sä t
systemi scher</w>
swit ch</w>
succ ess
su pr
su ffer</w>
stillen den</w>
ste ad</w>
stav udine</w>
stam men</w>
st atin</w>
st anden</w>
splen ic</w>
so di
sich ere</w>
sib ility</w>
si meprevir</w>
short -
shor ter</w>
sekund ären</w>
schw ellen</w>
schließ t</w>
sal meterol</w>
sacchar ide</w>
s ität</w>
s an
ru cal
rucal op
ripent ol</w>
restric ted</w>
requ enza</w>
ren n
rel ax
rekombin anter</w>
recipi ents</w>
ras agil
rasagil ine</w>
ran ges</w>
rac e</w>
r t
r hinitis</w>
r DNA</w>
quali fied</w>
qu ex</w>
prü fung</w>
produc es</w>
pro gram</w>
pre vents</w>
postmenopaus alen</w>
por f
plötz lich</w>
placebo kontrollierte</w>
plac ed</w>
pl ant
pipet te</w>
phenylbut yrate</w>
ph ac
p .</w>
ore xia</w>
or Plus</w>
or -
op yri
op ty
op oro
on or
om ark
oestro gen</w>
o ft</w>
o V
new ly</w>
neurologi schen</w>
necro lysis</w>
n one</w>
möglich st</w>
mut ant</w>
muskul o
mus cular</w>
mod ul
mod ellen</w>
mo tor
mi ga</w>
mi c</w>
menin gi
mel te
me tia</w>
mag glu
m sec</w>
m am
lä uft</w>
lä ge</w>
ly -
lus sk
loo k</w>
long- acting</w>
log o</w>
loc ation</w>
lo idal</w>
lit res</w>
li via</w>
li thium</w>
li ra</w>
li mi
li mb
li ck
leu copenia</w>
letz ungen</w>
letharg y</w>
ledi glich</w>
lar a</w>
l ate</w>
kl ären</w>
k ilo
k ale</w>
j enta</w>
j ahren</w>
ix aban</w>
it self</w>
it chy</w>
isot oni
intest ine</w>
infizier te</w>
inf undi
inf ectious</w>
indi gestion</w>
in gestion</w>
imp lantation</w>
immun suppres
im a</w>
ig ible</w>
id en
i eten</w>
hör en</w>
hypo vol
hydrogen phosph
human er</w>
hormon es</w>
his tidine</w>
h u
gän z
grad u
grad es</w>
gr unde</w>
gew onnen</w>
gest uft</w>
gesetz ten</w>
gef ähr
gebo oster
geb ung</w>
ge stil
fäl li
frü he
fortgeschritten er</w>
fol gend</w>
fo ur
firm ly</w>
firm ac
firmac ombi</w>
fic ations</w>
far bene</w>
f ed</w>
exten ded</w>
experiment ellen</w>
eth n
ermöglich t</w>
ergi bt</w>
er wachsene</w>
er f
enth i
ent licher</w>
endogen ous</w>
end gül
en ox
embr y
el igible</w>
ein gestuft</w>
eb ung</w>
easi ly</w>
e gen</w>
dosier ungen</w>
do ster
dialy sepflich
di en
deteri oration</w>
detail ed</w>
d unk
d or
cor al
coral an</w>
conjunc tion</w>
con fir
bu profen</w>
brü che</w>
bru ch
breath lessness</w>
block s</w>
bli ster
beschleun ig
bes ser</w>
bes it
belsä ule</w>
bekannter maßen</w>
b ags</w>
av in</w>
ator vastatin</w>
ather othrombo
at um
aspart ate</w>
asi melte
ar men</w>
ap ixaban</w>
anticoagul ants</w>
ange wand
an orexia</w>
ambu cil</w>
am ycin</w>
all el
al ut
air ways</w>
aer ugin
acu bit
acroli mus
ac ima</w>
abgesch lossen</w>
ab domin
a H
Zyk adia</w>
Zyc lara</w>
Zusat z
Z wischen</w>
Z wei</w>
X tandi</w>
X X</w>
Wieder auftreten</w>
Weich teil
We gen</w>
W ak
Vi ro
Vi p
Versch rei
Ven en
Vel ot
Vel metia</w>
Vacc ination</w>
VIC A</w>
V ectra</w>
V andetanib</w>
Tra jenta</w>
Tob ram
Ti vica
Thrombo cytopenia</w>
Tach ykardie</w>
Tab ulated</w>
TN F
TA Q</w>
T acrolimus
T EPA
TEPA DIN
Syst ems</w>
Synkop e</w>
Su vaxyn</w>
Strah lung</w>
Stevens-John son-
Stav udin</w>
Star lix</w>
Sp ectr
Son oV
Sil denafil
Serum-K reatin
Serum kreatin
Serum konzentrationen</w>
Schulungs material</w>
Sal meterol</w>
S pl
S aven
QT c
Pro coralan</w>
Prit orPlus</w>
Prim är
Pre vi
Plas tik
Pl avin</w>
Pfle ge
Perfor ation</w>
Per itone
Per ampanel</w>
Pen is</w>
Pasireo tid</w>
P- Glyko
P ur
P ump
P ugh</w>
P requenza</w>
O T</w>
Nieren funktions
Nerven systems</w>
N iedri
N V
N UM
My si
Moder ate</w>
Misch ung</w>
Mil be
Middle sex</w>
Mi schen</w>
MUL TAQ</w>
MA O
Lungen entzündung</w>
Lon quex</w>
Lev el</w>
Leber werte</w>
Labor werte</w>
Labor untersuchungen</w>
L auf
Krank en
Kon traindi
Kali um</w>
Injektions -</w>
Infusions reaktionen</w>
Indi kationen</w>
Implant at</w>
Immun defizi
IM BRU
IMBRU VICA</w>
I firmacombi</w>
I X-
Häufigkeits gruppe</w>
Hun des</w>
Hex acima</w>
Herz erkrankungen</w>
Hep arin</w>
HbA1 c-
HBs A
H O
Gu anfac
Gli mepir
Gleich gewichts
Gef ahr</w>
G55 1
Fra u</w>
Fort pflanz
Foc livia</w>
Fibro se</w>
Feracc ru</w>
Experi ence</w>
Ernähr ung</w>
Erek tion</w>
Er wachsen
Er satz
Er inn
Er hol
Entsteh ung</w>
Ent sprech
En zalut
Ek lira</w>
Einmal gabe</w>
E ss
E GFR</w>
Duo Plavin</w>
Dul aglutid</w>
Doppel blin
Dec reased</w>
DURCHSTECH FLASCHE</w>
D ichte</w>
D ehydratation</w>
Cro spo
Con si
Com pet
Coagade x</w>
Cholester in
Cer enia</w>
Cauca sian</w>
CYP3A4- Inhibitoren</w>
C max
Bron chi
Brin tellix</w>
Bewegungs appar
Bet miga</w>
Beobach tungs
Be v
Aspar aginase</w>
Appetit losigkeit</w>
Apix aban</w>
Anti do
Angehöri gen</w>
Alkohol konsum</w>
Airex ar</w>
Ab stoß
A tor
7. 0</w>
6 4
6 0-
6 -</w>
5, 3</w>
5, 1</w>
4 9
3. 2</w>
3, 2</w>
2- 4</w>
2, 000</w>
2 E1</w>
14 9</w>
10 29</w>
0. 03</w>
0, 01</w>
0 3-
-W er
η λ</w>
über zug</w>
öp fung</w>
ÄUS SE
µ mol</w>
zutre ffend</w>
zug änglich</w>
zu grunde</w>
zell transplantation</w>
zeit raums</w>
zeit punkt</w>
zei tigen</w>
yp s</w>
yl ation</w>
withdr aw</w>
wirk ung
wi schen
war ten</w>
vi g
vig or
vi erten</w>
verschie den
versch limmern</w>
verdün nte</w>
ve c</w>
var tis</w>
var ic
under taken</w>
un well</w>
un sten</w>
umf ass
um ge
u it
u hr</w>
töd lichen</w>
transder male</w>
tigh tness</w>
ti gecyc
tigecyc line</w>
ti cks</w>
th y
th in
termin alen</w>
tach ycardia</w>
syn cope</w>
symptomati scher</w>
sw ollen</w>
suggest ed</w>
sub groups</w>
su mab</w>
str en
sto per
stimul ating</w>
ste chen</w>
stat ins</w>
spr ungs</w>
spir onolactone</w>
spezi f
sil at</w>
serot onin</w>
sed ation</w>
se patienten</w>
se men</w>
schrit t
rü stung</w>
ro flumilast</w>
ro d
rod ents</w>
rich ten</w>
relap sed</w>
re fl
re fer
radio graphic</w>
rab bit</w>
quanti ty</w>
q .
prot ected</w>
potenzi ellen</w>
posi tivem</w>
porf in</w>
pneumoni tis</w>
placebo -</w>
pit uit
piec e</w>
persi sti
pepti d
par ath
par ameter</w>
p us</w>
p ment</w>
out side</w>
ot ard</w>
opti mi
ophthal m
opha geal</w>
oper ating</w>
opal es
op lastic</w>
on o
omit ap
omegal ie</w>
oly sis</w>
olg us</w>
offici al</w>
of atumumab</w>
o ur</w>
o sulin</w>
non- small</w>
ni k</w>
natrium frei</w>
nalox one</w>
nachweis lich</w>
n am
modi fications</w>
mis sing</w>
mi me
mg- Tablette</w>
mani fest
man ia</w>
magen saftresistente</w>
lä schen</w>
lurasi done</w>
lipid ämie</w>
ling ual</w>
lin ked</w>
li ved</w>
len s</w>
lebensbedroh liche</w>
le br
l an</w>
kon jug
komb iniert</w>
klini sches</w>
k örper</w>
k ulitis</w>
itä t
itz en
it umumab</w>
ir udin</w>
io gl
intrac ranial</w>
in o
in k
in her
in ating</w>
in ate</w>
in aktivi
ilo gramm</w>
iegel n</w>
idis m</w>
id -</w>
i mpf
i mi
hypo glycaemic</w>
hy gi
hous eh
hem men
hel d</w>
h es
glucuroni de</w>
ges und
geno toxic</w>
gener ell</w>
gemessen en</w>
ge halt</w>
förmi ge</w>
func tioning</w>
func tional</w>
früh en</w>
forder t</w>
for men</w>
fl ei
fl atulence</w>
fet alen</w>
f used</w>
extr a</w>
excep tional</w>
ex act</w>
ess ation</w>
esc ription</w>
ery thromycin</w>
ery them
ern den</w>
erlau bt</w>
erfol g</w>
er ol
equi pment</w>
enti le</w>
ent schei
enox aparin</w>
energ y</w>
emetre x
embr yon
el er
el ek
eit s
ei ght</w>
e ähnliche</w>
e ating</w>
drow siness</w>
dosis abhängig</w>
dom et</w>
do si
disper ses</w>
dies el
di hydrogen</w>
der selben</w>
dec i
das atinib</w>
d- type</w>
conclu sions</w>
con gestion</w>
cit onin</w>
cin acalcet</w>
cholin ergic</w>
cho sen</w>
chan nel</w>
cG MP</w>
c essation</w>
bro wn</w>
br achen</w>
bin ds</w>
bili ary</w>
beson derer</w>
b actam</w>
b -</w>
aussch eidung</w>
auf nehmen</w>
at acep
asimelte on</w>
as e
ar -
anticoagul ant</w>
anaesth etic</w>
an es</w>
an amnes
am b
alut amide</w>
allergi scher</w>
alan ar</w>
al ert</w>
al -</w>
ak utes</w>
ahy dr
ad ding</w>
ach teln</w>
ac lidinium</w>
abgeb aut</w>
ab nor
ab ili
Zug ang</w>
Z äh
Z wei
Z w
Wil lebr
Was chen</w>
Wak ix</w>
WARN ING</w>
W or
W erk
W IT
WIT H</w>
Vor schriften</w>
Vir ämie</w>
Vip domet</w>
Vimiz im</w>
Verhalten s
Ver mei
Velot ab</w>
Vel osulin</w>
VORSICH TS
VIR ACE
VIRACE PT</w>
Urs achen</w>
Ur sprungs</w>
Up on</w>
Um gang</w>
Ultr asch
U pper</w>
Tro pf
Trabe ctedin</w>
Thi omersal</w>
Th ree</w>
Ter min</w>
Tab ellari
TI C</w>
TEPADIN A</w>
T rän
T AC
Systemi c</w>
Sub stitution</w>
Su n</w>
Studienteil nehmer</w>
Stre p
Str a
Spritz enk
So wohl</w>
Sign s</w>
Sicherheits daten</w>
Si alanar</w>
Sho uld</w>
Sevoflur an</w>
Sep iogl
Sek und
Secon dary</w>
Schüttel n</w>
Schaf en</w>
Sch l
ST EM
S t</w>
S ax
Ro tig
Riluz ol</w>
Rheum ocam</w>
Resist ance</w>
Rei he</w>
Re duction</w>
R hin
Qu ad
Prä medikation</w>
Protein s</w>
Prostat ak
Pro fender</w>
Popul ations
Po st
Pneumoni tis</w>
Ple ur
Pfer den</w>
Pfer de</w>
Patienten population</w>
Part ner
Par k</w>
P emetrex
P FU</w>
Org alu
OC F</w>
O BI
Num mer</w>
No vartis</w>
Nieren problemen</w>
Nerven system</w>
N et
N elar
Mysi mba</w>
Mon otard</w>
Men stru
Men ing
Maxim um</w>
Mat erial</w>
M ATION</w>
Lyn par
Lip id
Lebendi mpf
Lauf e</w>
Lap atinib</w>
Lamiv udin-
LD L</w>
L- histidine</w>
L et</w>
L ac
L H</w>
Kre islauf</w>
Kol ben
Koh len
Kl are</w>
K ilogramm</w>
J apan
Inter nationale</w>
Inter actions</w>
In tegr
Impf ungen</w>
I Z
I EN</w>
Häm orrhag
Hor mon</w>
Hal s
Haem ophilus</w>
Haar ausfall</w>
H üf
Geschw indigkeit</w>
Gesamt dosis</w>
Gem citab
Geleg entliche</w>
G re
G eben</w>
Frequ encies</w>
Fol gende</w>
Fac tor</w>
F F</w>
Ersch öpfung</w>
En dometri
Elek tro
Ein st
Ein schränkungen</w>
ECO G</w>
Dysgeu sie</w>
Du o</w>
Diagno sti
Di phther
Detail lierte</w>
Dar unavir</w>
Dan ach</w>
Da bei</w>
D rit
D escription</w>
D eriv
D O</w>
D HP
Ci pla</w>
Chromo som
Chr onic</w>
Chol säure</w>
Ch in
Ch emi
CO PD-
C a
C -</w>
BÜNDE L
Blau zun
Betre u
Belgi en</w>
Behandlung sphase</w>
Beh ältnisses</w>
Auffrischi mpfung</w>
Ator vastatin</w>
Ass ay</w>
Ar mis
Appro priate</w>
Anaphyl axie</w>
An aemia</w>
Aluminium- Blisterpackungen</w>
All ergie</w>
Admini ster</w>
AU X-
AU C-
AD H
8. 4</w>
8. 1</w>
7. 8</w>
7, 8</w>
6, 4</w>
6 8
5. 000</w>
4, 7</w>
4, 1</w>
4 90</w>
3, 6</w>
3, 4</w>
3 7.5</w>
2. 000</w>
16 2</w>
107 c</w>
100 -
10 1</w>
1. 0
1 65</w>
0 3
. -
- Virus</w>
- System</w>
- Exposition</w>
ü bri
ä her
Ö s
Ä hn
zäh len</w>
zy sti
zug unsten</w>
zeu ge</w>
z umab-
z ema</w>
z eh
yn da
ynda q
yndaq el</w>
x in
wil ligen</w>
wil d-type</w>
war n
warn ings</w>
vorübergeh enden</w>
vir aemia</w>
vin ylalkohol</w>
verwendet es</w>
versch lechter
verbesser te</w>
ver fahren</w>
ve au</w>
vari ants</w>
val pro
utz t</w>
ut ectra</w>
unter scheiden</w>
unter brechen</w>
un bedingt</w>
ulc er</w>
ul on
u th
tw o-
tu res</w>
tre co
treco gin</w>
transp lant
top ical</w>
tief e</w>
ti of
thrombo embolism</w>
thrombo cy
though ts</w>
tho mime
thi on
thion ini
th ri
teri flunomide</w>
telbiv udine</w>
tan rix</w>
t ter
t -</w>
sy a</w>
sug ammadex</w>
sub set</w>
streng ths</w>
steh ende</w>
st ützen</w>
spiegel n</w>
spezif isch</w>
sp p.</w>
so gar</w>
skal a</w>
sit uation</w>
sign ed</w>
si reotide</w>
si li
ses sion</w>
separ ately</w>
schizophr enia</w>
sch l
sc a</w>
s. c.</w>
s ets</w>
s atis
respon sibility</w>
rep aglini
repaglini de</w>
rekonstitu iert</w>
recommen d</w>
re sol</w>
radi opharmac
r az
pry min
prymin a</w>
provi der</w>
prolifer ative</w>
prolifer ation</w>
profil es</w>
pro per</w>
pro -
pri ately</w>
pre filled</w>
pre ez
pr inc
postmenopaus al</w>
po stoper
po lizumab</w>
pneum ococcal</w>
ple m</w>
pl asia</w>
pig lets</w>
perio di
perio de</w>
pa sireotide</w>
ox etine</w>
ox etin</w>
oth er
ori scher</w>
ord nung</w>
opportunis tic</w>
onc e-daily</w>
omo zy
om y
oc yto
ob wohl</w>
num mer</w>
nit us</w>
neurologi sche</w>
ner ves</w>
ne x</w>
nas opharyngitis</w>
n R
myelo suppres
muco sal</w>
mp a
mpa thomime
mo uth
mo ist
mittelgradi ger</w>
micro biological</w>
met er</w>
mer tinib</w>
meningi ti
mechanis ms</w>
mal aise</w>
magglu tin
ma il</w>
ma gn
m others</w>
m acro
lu x
lose- Natrium</w>
lit er</w>
lim b</w>
ließ en</w>
lich t</w>
li de</w>
le gt</w>
last ing</w>
lan ted</w>
körper lichen</w>
kor b</w>
kl oni
k un
k ern</w>
j aw</w>
investig ate</w>
intramus kulären</w>
intr akrani
inser t</w>
injec table</w>
inf used</w>
induc ing</w>
in- Gruppe</w>
in ämie</w>
in tanrix</w>
in säure</w>
in stead</w>
ie -</w>
ic ef
icef ta</w>
i thromycin</w>
hypoten sive</w>
hypertroph y</w>
hosp it
hervorger uf
her zustellen</w>
hand elte</w>
hal lu
h om
h en
guid ance</w>
gsk .com</w>
gluco cortico
glomer uläre</w>
geu sia</w>
gesetz ter</w>
ger ungen</w>
ger ech
geneti schen</w>
gen es</w>
gel assen</w>
gehöri gkeit</w>
ge webes</w>
frühe stens</w>
for o</w>
flüssi gkeit</w>
fix ed-dose</w>
fir st-
fin gers</w>
fibro se</w>
ff ein
fach er</w>
f ut
f tigen</w>
f ondaparinux</w>
f adin</w>
extre mity</w>
expres sed</w>
et ary</w>
erh ält</w>
erfor dern</w>
erfahr enen</w>
er scheint</w>
er o
er greifen</w>
eph one</w>
enz alutamide</w>
entwick elte</w>
entsprech ender</w>
enlar gement</w>
endotheli al</w>
enc ed</w>
elem ents</w>
electroly te</w>
ek tiven</w>
eingeschränk t</w>
ein hibit
ei li
egor ien</w>
e sts</w>
dys geusia</w>
dul aglutide</w>
du glu
drow sy</w>
dist ride</w>
dispen sed</w>
diagnosti ziert</w>
di vo</w>
depres sive</w>
den den</w>
del ig</w>
cyc lic</w>
cr ushed</w>
con vention</w>
con stant</w>
compo site</w>
complic ation</w>
co vered</w>
co administered</w>
cl onic</w>
cht age</w>
chon dri
cholester ol
chan n
ch salz
ch amber</w>
cc us</w>
carri er</w>
can sya</w>
c ulitis</w>
broncho dil
blutdruck senkende</w>
blo o
bir ds</w>
biop sy</w>
be zo
be wirkte</w>
be sten</w>
be findet</w>
bab ies</w>
b lase</w>
azop revir</w>
ay ing</w>
av an
ausge gan
atroph y</w>
atri x</w>
ate glini
atacep t-
at -</w>
ast -
as signed</w>
as se</w>
arzin om</w>
aqu in</w>
appro val</w>
appro priately</w>
applic ator</w>
ankylo sing</w>
analy sen</w>
amb risentan</w>
am ylase</w>
all einiger</w>
al op
ak zep
ak te</w>
admini str
acubit ril</w>
abgesch rä
ab lock
aH US</w>
a 1-
Zy delig</w>
Zu gehörigkeit</w>
Zin foro</w>
Zell -
Zeit punkten</w>
Zav icefta</w>
Z wischen
Z utectra</w>
Yel lox</w>
Y ST
X a</w>
X UB
XUB IS</w>
X G
Wirkungs weise</w>
Wich tige</w>
Wel cher</w>
W ild
Vor teile</w>
Volum en
Verdün n
Ver w.</w>
Ver schw
Ver färbungen</w>
Ver b
Vacc ines</w>
VI G</w>
V600 E</w>
V yndaqel</w>
V c
Unru he</w>
Unit ux
Unit s</w>
Toxiz itätsstudien</w>
Titan ium</w>
Tier es</w>
Tabellari sche</w>
TH OD</w>
TD F</w>
T u
T ime</w>
T il
T EXT</w>
Syndro ms</w>
Sug ammadex</w>
Substr aten</w>
Sti chtage</w>
Standard therapie</w>
Spectr ila</w>
SonoV ue</w>
Slo ven
Serot onin</w>
Sepiogl in</w>
Selbst injektion</w>
Schlaf störungen</w>
Schizophr enie</w>
Sch we
Sc re
Sam sca</w>
STEM I</w>
STEL AR
ST OR
SR D</w>
S pen
Ro flumilast</w>
Revas c</w>
Res preez
Rec on
Ran i
RI XUBIS</w>
RC PC
R öntgen
R am
R S
R BV</w>
Qu intanrix</w>
Pyre xie</w>
Präpar at</w>
Produkt information</w>
Pro cox</w>
Pre- filled</w>
Pos sia</w>
Polysorb ate</w>
Plaqu e-
Pit olisant</w>
Part ners</w>
Pack s</w>
PRO CY
PROCY SB
P g
P azopanib</w>
P B
Ovari al
Orgalu tran</w>
Or phan</w>
Or phac
Or fadin</w>
Op divo</w>
Ober b
Ob ser
OAT 1</w>
O hn
O ff
Nutzen-Risiko- Verhältnis</w>
Ne ul
Ne ed
Natrium di
Narko se
Nalox egol</w>
Nadel schutz</w>
Nachbeobach tung</w>
N ateglini
Mus kel</w>
Mittl ere</w>
Meloxid yl</w>
MR T</w>
ME THOD</w>
M184 V</w>
M ig
M EN
M ASS
MASS NAHMEN</w>
Lösungs mittel
Leber versagen</w>
LV ION</w>
L up
L es
L eich
L Y</w>
L AV
LAV ENT
LAVENT AI
LAVENTAI R</w>
Kunst stoff</w>
Kunst stoff
Kreb spatienten</w>
Kontr ast
Kombin ationen</w>
Kaplan-Mei er</w>
K en
K IO
KIO VIG</w>
K 65
Internet portal</w>
Inflam mation</w>
In ser
Imp lantation</w>
IDE LVION</w>
Hy cam
Human insulin</w>
HOL DER</w>
HER 2-
H oh
H am
H AL
Grad -
Glyc erol</w>
Gesamtüber lebens
Gast ritis</w>
GEN E
G nR
G lied
G amma
G T
G IST</w>
G E</w>
Film überzug</w>
Fami li
Faltsch achteln</w>
FOL F
F abr
Ereig nisses</w>
Er gänz
Er bit
Enzy ms</w>
Enzy men</w>
Enzalut amid</w>
En y
En vi
Empf oh
EUR D</w>
EUR D-
EURD- Liste</w>
ER FOR
E4 20</w>
E doxaban</w>
E distride</w>
E cansya</w>
E 5
Dre hen</w>
Do sing</w>
Di st
Dex tromethorphan</w>
DPP- 4</w>
DIS P
DHP Pi</w>
D rei
D elam
Cytochrom- P450-
Cu prymina</w>
Cri zotinib</w>
Concentr ate</w>
Cholest ase</w>
Child-Pugh -K
CYP2D 6-
C oli
C B
Brust korb</w>
Blutgerinn ungsfaktor</w>
Blut spiegel</w>
Blister streifen</w>
Behandlungswo che</w>
Be stä
Be enden</w>
Be daquil
B ot
B last
B azedoxi
Armis arte</w>
Antibio tik
Ant az
An schwellen</w>
Aluminium salz</w>
Allergi sche</w>
Affin ität</w>
Ab weichungen</w>
AUC 0-</w>
AM L</w>
A pre
A F
8, 4</w>
74 18</w>
7, 0</w>
6 6
4 8
4 .</w>
33 50</w>
3- fold</w>
3 7,5</w>
20 16</w>
2 b</w>
2 21</w>
16 5
1 23</w>
0. 6
0. 01</w>
0, 03</w>
0 39</w>
0 15</w>
. I.</w>
-- --
ünd innen</w>
öl f</w>
öff el</w>
Über prüfung</w>
zuck er
zi gen</w>
zi g</w>
zi dose</w>
z ahlen</w>
yl ate</w>
y sin</w>
x t
x omi
xomi cin</w>
x in</w>
wor fen</w>
wa it</w>
w elling</w>
vul vo
vor hand
vor gelegt</w>
vor ausgegan
vol le</w>
veränder ter</w>
versiegel t</w>
verseh entliche</w>
verschlech tern</w>
verschieden er</w>
verringer ten</w>
vermut lich</w>
vermu tet</w>
verlänger te</w>
ver sely</w>
ven til
vel a</w>
ungs fähigkeit</w>
un zugänglich</w>
un ding</w>
um eclidinium</w>
um chlorid</w>
um -</w>
ul ärer</w>
tr ationsrate</w>
tr abe
to uch</w>
to se</w>
titre s</w>
tion na
tionna ire</w>
tiof ur</w>
ti erung</w>
tern al</w>
tar trat</w>
t ungsphase</w>
sub lingual</w>
stri k
steroid alen</w>
stat t</w>
stab iler</w>
st asis</w>
spontane ously</w>
spon tan</w>
spas ms</w>
spar ameter</w>
sp ü
sk a</w>
sier ender</w>
sier enden</w>
sich tig
sich erh
si or</w>
si mul
si ck
sh aking</w>
sequ ence</w>
selek tiver</w>
sel ection</w>
scre ening</w>
schütz t</w>
schw ierigkeiten</w>
schrit ten</w>
schmerzhaf te</w>
sch leim
sch lech
sau ber
s ön
rup t</w>
risi ko
ri ociguat</w>
resul tierte</w>
res sion</w>
rekombin antes</w>
rec t</w>
reat ine</w>
reac tiv
re started</w>
ra emia</w>
pädiatri sche</w>
propi onate</w>
prolon g</w>
pre -</w>
poten cy</w>
pom alidomide</w>
pi daemia</w>
phosphon ates</w>
ph thal
per form</w>
pal mit
p- value</w>
oxid ase</w>
oste on
ophenol ate</w>
oph aryn
on u
oli mumab</w>
off spring</w>
ocyto sis</w>
obut yl-
o trach
o seltamivir</w>
num er
non-inferi ority</w>
no w</w>
nach folgende</w>
nach folgend</w>
n ie</w>
n ern</w>
n de</w>
mü de</w>
mö chten</w>
myc ophenolate</w>
mor octocog</w>
mo od</w>
ml- Durchstechflasche</w>
mit teilen</w>
min er
membran e</w>
man gel
ma h
lä sionen</w>
lip ase</w>
limit ing</w>
ligh t-
li er</w>
lauf en</w>
l ter</w>
l ake</w>
kon sistent</w>
kombini erte</w>
kleinzel li
k it</w>
k illed</w>
j enen</w>
ir in
inu sitis</w>
intra ocular</w>
inn ing</w>
ingredi ent</w>
infundi ert</w>
individu ell</w>
indic ating</w>
in aktiviert</w>
imp ort</w>
il es</w>
ier tes</w>
i zed</w>
i p</w>
häufig ste</w>
hydr ation</w>
househ old</w>
hosp h
high -
hi stop
he av
haemato poietic</w>
h eter
gewöhn lichen</w>
gewährlei stet</w>
ger ade</w>
genü gend</w>
gen aus
genaus o</w>
gel n</w>
geh ende</w>
ge gefühl</w>
g lid</w>
g acil</w>
fül lt</w>
fü gen</w>
fil l</w>
far ben
f ex
every body</w>
eth ni
et ab
erwart eten</w>
ere ch
er inn
er geben</w>
er ende</w>
epr azole</w>
environ ment</w>
entzün dungs
en s
en dometri
em ber</w>
ein halten</w>
eili gung</w>
ec tomy</w>
e ze</w>
docum ented</w>
difficul t</w>
di p
deson ide</w>
der mal</w>
demonstr ate</w>
de grad
dau ern</w>
da xomicin</w>
d eh
d ar</w>
cy stic</w>
conjug ate</w>
compo unds</w>
com men
co sal</w>
cl arithromycin</w>
cholest asis</w>
chann els</w>
ch ew</w>
ch e
carb oplatin</w>
cal m</w>
but able</w>
bu desonide</w>
bron ch
bri varacetam</w>
bre iten</w>
br yo
blu etongue</w>
bis lang</w>
beurtei len</w>
beta 2-adren
bestätig ten</w>
beschränk ten</w>
bes ei
beru ht</w>
beinhal tet</w>
bedeut samen</w>
b rit
auß erhalb</w>
auto immune</w>
aufgel öst</w>
atul enz</w>
attri butable</w>
ation sh
at eg
ast en</w>
ase- Mangel</w>
ar me</w>
anti -</w>
ant ine
angewand t</w>
anaphylakti schen</w>
an teri
an sammlung</w>
am yl</w>
alop ecia</w>
aldi alyse</w>
al kalische</w>
ak lir</w>
af lu
af lox</w>
aerugin osa</w>
adi r</w>
adi en</w>
aco mit</w>
acc eler
ab -</w>
a im
Zahn flei
ZULASS UNG</w>
Z yl
Wirksamkeit sergebnisse</w>
W ort</w>
Vor hand
Vit amin-
Viro logi
Vermei dung</w>
Ver aflox</w>
Venenthrombo se</w>
Vas o
Unter nehmer</w>
Ty gacil</w>
Tivica y</w>
Telbiv udin</w>
Tabletten kern</w>
Tablet s</w>
TABLET S</w>
T ris
T itr
T c</w>
T ER</w>
Stuh l
Studienteil nehmern</w>
Sti mm
Spl en
Sp iegels</w>
Sp eichel
Son ata</w>
Silo dosin</w>
Serokon versions
Sedi erung</w>
Schrit te</w>
Schlussfol gerungen</w>
Sch wäch
Sch ema</w>
Saven e</w>
Sacchar ose</w>
STELAR A</w>
SCH R
S ed
S 54
S54 9
Rück en
Ren in-
Rek om
Recommen ded</w>
RES EM
RE ICH
R-T B</w>
R ux
R at
Q -
Pro lon
Pon atinib</w>
Plasmaprotein bindung</w>
Peritone aldialyse</w>
Pe ople</w>
PROCYSB I</w>
PL D</w>
P N
P -</w>
Oste o
Osi graft</w>
Orphac ol</w>
On sior</w>
OR O</w>
ON J</w>
OCT A</w>
OBI ZUR</w>
O s
No te</w>
Nieren probleme</w>
Neul asta</w>
Ne w
Nachbeobachtungs zeit</w>
NS5 A</w>
N äh
Muskel schwäche</w>
Mus kul
Mor gen</w>
Mil z</w>
Methad on</w>
Metform inhydrochlorid</w>
Men in
Melan om</w>
Medikam ent</w>
Maxim aldosis</w>
Magen schmerzen</w>
MAT E1</w>
M aus
M H
M ENT</w>
Lynpar za</w>
Lei den</w>
Leber enzym
Labor tests</w>
L- His
L umin
L actic</w>
Klin isch</w>
Kat ar
Kanü len</w>
Isavu conazol</w>
Injek tor</w>
Inf liximab-
Inf ections</w>
Impf dosis</w>
Immundefizi enz
INTER MEDIATE</w>
INFOR MATION</w>
I rin
I on
Hämat ok
Hycam tin</w>
Hy pomag
Hitz egefühl</w>
HPV -T
HM G-
HMG- Co
HBV- Infektion</w>
HBV AX
H ündinnen</w>
H inter
Grapefru it
Glimepir id</w>
Glied maßen</w>
Gedächt nis
G eimpften</w>
Frei willigen</w>
Fl atulenz</w>
Fil trationsrate</w>
Far be</w>
F ur
F eu
F enofibr
F aeces</w>
Eny glid</w>
Envi age</w>
Entsprech end</w>
Ent schei
En gegefühl</w>
Empfoh lene</w>
Elev ated</w>
Ekz em</w>
ENT S</w>
EL OCTA</w>
EK G</w>
E T</w>
E 3
Dy sph
Durchstechf laschen
Du aklir</w>
Dosis bereich</w>
Dis continuation</w>
Didan osin</w>
Di acomit</w>
Den noch</w>
Delam anid</w>
Cyc losporin</w>
Corticostero iden</w>
Com mission</w>
Clomi calm</w>
Cle ar</w>
CYP 450</w>
CA M</w>
C- 8</w>
C RESEM
C 24</w>
Bri varacetam</w>
Bolus injektion</w>
Blutgefäß en</w>
Beweg ungen</w>
Bet eiligung</w>
Begleit erkrankungen</w>
BTV 8</w>
BRIN GEN</w>
B erech
Az il
Aug es</w>
Auff assung</w>
Antido t</w>
Antibio tikum</w>
Antaz id
Ansch luss</w>
An tivir
An nex</w>
Alters gruppe</w>
Altern ative</w>
Al ters</w>
Al doster
Adr eno
Ab lav
AV AC</w>
AR B
A ge</w>
A A
9. 5</w>
7. 4</w>
6. 8</w>
6, 5</w>
5, 5</w>
5, 000</w>
5 2-
4 0
3 51</w>
2 20</w>
1 95</w>
0. 0</w>
0 17</w>
-T it
-T ech
- hydroxid-oxid</w>
- Pro
- B
über legen</w>
ü ben</w>
öhr e</w>
öff nen</w>
änder ungen</w>
ä le</w>
zyto toxischen</w>
zyk li
zentr ale</w>
z ahn
yre o
with held</w>
wiederhol te</w>
wie gen</w>
wel cher</w>
wei chung</w>
war ning</w>
w ollen</w>
voraus sichtlich</w>
vor bestehenden</w>
volum es</w>
volum ens</w>
vo kan
vokan a</w>
vi ca</w>
vi c
verstärk te</w>
vers ehr
ver trä
ver ing</w>
ver fügt</w>
ven tig</w>
van or</w>
uter o</w>
us ses</w>
ur g</w>
untersuch te</w>
ungsi mpfung</w>
ungewöhn liche</w>
unc er
un regelmäß
un explained</w>
un dene</w>
um- free</w>
ultr as
ulcer ative</w>
ul o
tä g
tro pi
tre ffen</w>
transfusion s</w>
tr übe</w>
toxic ology</w>
tobr amycin</w>
to za</w>
to cid
tocid a</w>
tion -
ther more</w>
ther mia</w>
th op
teil s</w>
te mpf
tar is</w>
tar ge
tal y</w>
synth etic</w>
synth eti
supp ri
suppri mi
sum m
success ful</w>
sub -
su izid
su ffizienz</w>
str au
ster n</w>
steiger ung</w>
stati sche</w>
st att
spi elt</w>
spezifi scher</w>
sor e</w>
so ver</w>
sm aller</w>
skelett ale</w>
sicht bar</w>
sib ilität</w>
sh ake</w>
selek tive</w>
sei tig</w>
sec re
se or</w>
schätz ung</w>
schn ellen</w>
schließ end</w>
schar ge</w>
sch lä
sch laf
sch einen</w>
s uspen
s esp
s agt</w>
s JIA</w>
ru vica</w>
routin em
routinem äß
ron e
ri er</w>
resum e</w>
rest lessness</w>
resist ent</w>
resi dual</w>
reich ung</w>
regi stry</w>
reg u
reduzier ter</w>
reac t</w>
re view
re tin</w>
re mit
re athe</w>
propo sed</w>
progressions freie</w>
proble m</w>
pro xim
pro gen
princ ip
present ation</w>
prefer able</w>
pre c
poin tes</w>
piv ot
pf ei
persi st</w>
periodi cally</w>
per ampanel</w>
pen sation</w>
part ner</w>
par kin
p hr
p embrolizumab</w>
ort ing</w>
organis ms</w>
organ ogenesis</w>
ord ination</w>
or thop
or ange
or afenib</w>
opti male</w>
op res
onolact on</w>
on -</w>
omitap ide</w>
om yel
om er</w>
occa sions</w>
oc arm
obili sierung</w>
ober e</w>
ob reathe</w>
o sigkeit</w>
normal em</w>
nom olgus</w>
neutr alisier
nei lich</w>
nach zu
n utri
n ine</w>
n M</w>
myelo id</w>
mul tocida</w>
mouth piece</w>
monoklon aler</w>
moist ure</w>
mit geliefer
mi dine</w>
mepir ide</w>
ment ed</w>
menstru al</w>
mensch lichem</w>
mehr erer</w>
measure ment</w>
meas les</w>
mb ruvica</w>
mark ers</w>
mar -
mar- plant
malign ancy</w>
magn itu
magnitu de</w>
m acroli
ly n</w>
lu litis</w>
lospor ine</w>
los sen
log 2</w>
lo s</w>
lo pi
lin ks
lin ed</w>
li prist
letz te</w>
let e</w>
lebensbedroh lichen</w>
le i</w>
le arance</w>
lact ase</w>
lac tin</w>
l umacaftor</w>
l o</w>
kur ze</w>
kontin enz</w>
kontak t</w>
kom pon
klo pfen</w>
kilo gram</w>
ke eping</w>
kap sel
kali um
k ations
ju d
iv losin</w>
ital isation</w>
isol ates</w>
is su
is avu
inher ited</w>
in urad</w>
in formationen</w>
hän gen</w>
häm orrhag
hin reich
her vor</w>
hem mende</w>
hear ing</w>
grap efru
gonado tropin</w>
glyc erol</w>
glu tam
glu c
gli mepiride</w>
glau coma</w>
gin gen</w>
gh old</w>
gew öl
gest ation</w>
gesch ütz
gesch üttel
geringfü gig</w>
ger ät</w>
ger ei
genommen en</w>
generali sierten</w>
gen u
gen ra</w>
gel ten</w>
gel atin</w>
geh enden</w>
ge wäh
ge tren
ge teilt</w>
ge klärt</w>
gau ge</w>
gan zen</w>
g ocarm
fut ure</w>
fr ag
form ula</w>
fluoro uracil</w>
fil ter</w>
ff eine</w>
fast ed</w>
fall s
f lo
f ingolimod</w>
f ight</w>
f aecal</w>
eyel id</w>
ex foli
evalu able</w>
etr is</w>
eth anol</w>
estim ate</w>
es cal
erreich te</w>
erne ute</w>
ern de</w>
erhöh tem</w>
erek ti
er zeu
er teilte</w>
er mity</w>
epi thel
ep ist
entr y</w>
eno x</w>
ennt nisse</w>
en sein</w>
en kel
emerg ent</w>
embo urg</w>
ell -
ein z
ec to</w>
durchge führten</w>
druck t</w>
dose- dependent</w>
don ors</w>
do sterone</w>
dist en
direk ten</w>
di scharge</w>
di ert</w>
determin ation</w>
der ness</w>
deli vered</w>
del am
delam anid</w>
degre es</w>
def ek
deci sion</w>
de ple
dar stellt</w>
d alb
cy nomolgus</w>
cri zotinib</w>
cortis one</w>
concern s</w>
compr ising</w>
comple x</w>
coll ected</w>
co ugh
co at</w>
co al</w>
cle ared</w>
cin oma</w>
cin ations</w>
chlor obutyl</w>
carb onate</w>
ca ffeine</w>
ca .</w>
c reatine</w>
c etris</w>
breit ung</w>
breast feeding</w>
[...]
