<unk>
<s>
</s>
,
.
(
)
the
of
in
der
/
and
die
und
to
mit
von
with
mg
is
a
or
:
%
oder
for
bei
Sie
Patienten
be
1
zu
patients
werden
ist
einer
eine
Die
The
nicht
not
auf
für
an
des
den
you
should
wird
on
ml
are
In
dose
Behandlung
as
treatment
zur
im
2
das
nach
your
als
was
at
that
may
wurde
?
10
have
bis
use
ein
;
been
Anwendung
3
by
sind
kann
used
4
wurden
were
dem
-
5
Arzneimittel
dass
Arzt
es
doctor
sich
has
einem
see
Dosis
siehe
after
from
=
If
Bei
angewendet
100
kg
über
tablets
-@@
other
wenn
um
sollte
Abschnitt
vor
Es
keine
section
Wenn
medicine
this
Studien
6
Nebenwirkungen
studies
s
if
blood
enthält
&lt;
unter
than
12
injection
wie
20
effects
it
contains
30
’
haben
50
können
A
während
during
recommended
durch
solution
any
einen
clinical
study
no
EU
≥
sollten
“
reactions
can
who
8
aus
zum
risk
which
–
Studie
medicines
one
Der
treated
day
What
more
years
before
administration
+
take
anderen
reported
given
also
product
n
x
war
disease
C
Tabletten
medicinal
24
side
will
Teva
therapy
4.4
weeks
observed
auch
when
Wochen
beobachtet
Ihren
Eine
information
Wie
täglich
klinischen
following
*
taking
daily
This
adverse
including
Einnahme
It
15
up
active
Ihr
age
these
waren
25
administered
60
„
must
For
7
months
days
combination
nur
2@@
vial
infusion
Tag
compared
safety
pain
doses
patient
oral
severe
increased
placebo
data
tablet
Informationen
gegen
eines
renal
g
sein
Daten
Stunden
Do
symptoms
body
film-coated
time
untersucht
How
had
&gt;
taken
empfohlen
syringe
hours
Wirksamkeit
18
levels
200
Das
Risiko
Ihrem
behandelt
hat
3@@
dieser
40
using
mehr
Kombination
einschließlich
effect
dieses
first
impairment
14
skin
Patients
9
acid
Jahren
all
EPAR
such
increase
available
AUC
Therapie
am
Lösung
Each
andere
p
plasma
children
Placebo
darf
&#91;
about
only
muss
associated
einmal
Nach
Symptome
two
l
There
Kindern
Arzneimitteln
4@@
Filmtabletten
berichtet
95
gegenüber
&#93;
Durchstechflasche
products
er
diese
group
vaccine
once
t
C@@
Ihnen
28
erhielten
liver
°
into
containing
S@@
erhalten
150
its
sowie
sie
alle
subjects
Vergleich
Gabe
leaflet
4.2
ohne
L@@
zwei
5@@
Arzneimittels
11
Packungsbeilage
human
response
Injektion
No
exposure
einnehmen
efficacy
infection
4.8
F@@
rate
eingenommen
shown
Wirkung
Alter
denen
Was
without
G@@
E@@
Tabelle
Cmax
M@@
zwischen
80
ab
en
300
auftreten
behandelten
zusammen
an@@
pre-filled
in@@
Tage
Diese
European
75
Apotheker
per
müssen
6@@
verabreicht
1@@
P@@
mindestens
te
package
pharmacist
known
pregnant
least
each
within
need
so
Dosen
capsules
ersten
over
Ihre
90
erforderlich
Monate
”
hepatic
receiving
16
Woche
un@@
K@@
sodium
substance
pro
between
Jede
e
Accord
N
Verabreichung
common
m2
Nutzen
weight
function
week
single
pack
affect
less
führen
weitere
CHMP
N@@
immediately
insulin
D@@
Jahre
B
cases
innerhalb
I
h
7@@
mL
alfa
cancer
0
er@@
B@@
site
min
considered
heart
cells
most
9@@
bekannt
Pharma
Pulver
t@@
0.@@
Table
type
events
k@@
adults
system
s@@
A@@
prior
ab@@
dogs
E
baseline
their
Frauen
treat
moderate
Packung
Injektionslösung
potential
under
liegen
re@@
received
durchgeführt
Tablette
5.1
IU
‘
powder
toxicity
vitro
every
beträgt
below
cause
en@@
5.2
Blut
häufig
da
studied
higher
those
based
0,@@
T@@
Haut
contact
diesen
Wirkstoff
8@@
pregnancy
due
jedoch
ver@@
reduction
400
Gruppe
similar
experience
Reaktionen
anwenden
You
reduced
disorders
Herstellung
Dosierung
needle
betrug
H@@
sehr
1.@@
13
R@@
Other
ten
occur
but
500
water
O@@
Erwachsenen
period
CI
signs
there
people
very
approximately
women
48
ing
hatten
possible
Schmerzen
appropriate
concentrations
bleeding
does
trials
effective
65
some
cell
Infektionen
mean
total
low
Sicherheit
Mylan
both
21
Dies
Your
gezeigt
infections
Zusammenfassung
1,@@
Anzeichen
etwa
required
ate
S
how
Mikrogramm
against
Menschen
virus
Erkrankungen
g@@
three
high
beim
al
dürfen
Exposition
Infusion
Wasser
m@@
Inhalt
out
population
Für
56
möglicherweise
until
CYP3A4
folgenden
Wirkungen
e@@
Zusammenhang
4.5
I.E.
al@@
o@@
Schwangerschaft
bitte
Docetaxel
70
st@@
I@@
Jugendlichen
number
These
0,5
Patient
0.5
ein@@
Körpergewicht
Clopidogrel
reaction
Im
do
activity
ter
Fertigspritze
same
n@@
wenden
significant
Vorsicht
pressure
normal
Erkrankung
Human
noch
Monaten
pen
assessment
schwerer
hard
c@@
gegeben
twice
Insulin
vom
V@@
di@@
rare
conditions
When
results
problems
ation
Tagen
Ratten
p@@
failure
zweimal
17
l@@
4.3
serious
Pregabalin
Häufigkeit
Impfstoff
Treatment
m
Beginn
mild
clearance
adjustment
However
Anzahl
being
entsprechend
f@@
Bestandteile
bottle
After
Zeit
white
ob
schwanger
Ribavirin
versus
Risiken
An@@
klinisch
gleichzeitige
III
Nierenfunktion
ale
full
either
lower
food
dosing
22
weniger
benefit
T
while
be@@
controlled
2-@@
intravenous
250
98
times
HIV
monitored
verwendet
a@@
Phase
ed
bevor
suspension
clinically
Da
b
c
ine
inhibitors
&quot;
micrograms
Menge
d@@
allergic
serum
Probanden
bone
adolescents
45
greater
indicated
kein
drei
1-@@
Falls
b@@
risks
dies
frequency
Use
Infektion
Fälle
called
seen
Breezhaler
limited
provided
möglich
Fällen
empfohlene
Spritze
Pharmakokinetik
found
aufgrund
end
primary
wirkt
Hartkapseln
decreased
sofort
benötigen
in-@@
Personen
35
Erbrechen
plus
stop
aus@@
↓
bzw.
Ansprechen
de
animals
reports
range
Pemetrexed
anti@@
enthalten
Nicht
reduce
above
↑
26
Ereignisse
zeigte
rats
last
Kinder
600
control
ability
ge@@
metformin
überwacht
ebenfalls
summary
zeigten
vaccination
Ver@@
23
Übelkeit
Ab@@
change
keinen
W@@
Tel
benefits
healthy
Injektionsstelle
aged
µg
case
klinische
verglichen
pharmacokinetics
non-@@
at@@
relevant
Anstieg
mm
As
Lösungsmittel
they
syndrome
phase
Impfung
necessary
ung
5-@@
protein
adult
year
0@@
changes
established
Maschinen
related
Flasche
tes
erhöht
on@@
se
erhöhte
Fachpersonal
arm
did
acute
hepatitis
tests

level
i@@
ensure
glass
Metformin
well
diarrhoea
solvent
beachten
e-@@
OF
d
Agency
diesem
Einfluss
loss
aber
y
Zur
blister
Ein
h@@
r@@
Auftreten
authorisation
pharmacokinetic
volume
ch@@
starting
incidence
followed
ent@@
approved
systemic
5.3
decrease
inhibitor
D
vomiting
discontinued
gen
medical
Sandoz
Suspension
inflammation
cap
Dosisanpassung
child
Therefore
Infusionslösung
P
duration
median
wieder
36
capsule
Einnehmen
84
part
included
work
receive
el@@
beiden
like
Hunden
verwenden
allen
erhältlich
concentration
Weitere
II
gleichzeitig
kidney
occurred
experienced
DER
overdose
injections
sonstigen
diabetes
machines
Europäischen
drug
Teil
Körper
important
alone
evaluated
sections
deren
Inverkehrbringen
verbunden
cannot
ar@@
L
glucose
demonstrated
include
public
1,000
main
further
Genehmigung
42
Abschnitte
Actavis
Überdosierung
swelling
u@@
ated
monitoring
veterinary
Toxizität
Aktivität
darauf
order
In@@
chloride
ema.europa.eu
eye
≤
showed
analysis
09
tell
selten
dann
could
Auswirkungen
mmol
Kind
expected
maximum
alen
32
factor
anti-@@
test
1.000
another
gesunden
Dauer
or@@
Ihrer
PVC
where
drive
Hunde
erreicht
3-@@
leicht
besteht
nurse
read
creatinine
red
52
R
zugelassen
Grad
gibt
de@@
Minuten
entweder
nausea
Ein@@
Sehr
milk
randomised
development
substances
Efavirenz
paediatric
nachgewiesen
concomitant
what
result
Während
store
Seite
Find
lesen
assessed
month
4-@@
Hepatitis
dl
Kapseln
FÜR
ur@@
Ergebnisse
1000
because
10@@
Zoledronsäure
li@@
bestimmt
concentrate
caution
schweren
feeling
ti@@
betreffen
therefore
Maßnahmen
Nadel
Nehmen
Common
Olanzapin
2,5
amount
minutes
subcutaneous
conducted
prevent
rash
lung
survival
mittlere
signifikant
bereits
antibodies
date
ts
One
Zeitraum
through
ro@@
small
listed
einzunehmen
finden
Überwachung
33
get
Antikörper
second
am@@
800
ungs@@
specific
V
insbesondere
Blutungen
Zentiva
performed
able
je
G
soll
M
Leberfunktion
history
measures
i
Fieber
Humalog
Veränderungen
trial
is@@
Levetiracetam
long
evidence
alcohol
Fähigkeit
Filmtablette
sicher
caused
addition
overall
management
marketing
si@@
THE
Typ
ul@@
vials
breast
agents
6-@@
Tieren
co@@
worden
chronic
urine
different
Imatinib
new
significantly
daher
hin
multiple
usually
ALT
fertility
Ritonavir
2.5
um@@
tenofovir
Bortezomib
know
falls
carton
list
erfolgen
healthcare
Medicinal
whether
muscle
180
surgery
make
ungen
96
ol@@
Tierarzneimittel
Plasma
ingredients
Committee
44
schwere
berichteten
chemotherapy
effectiveness
Monotherapie
disorder
immune
auf@@
Erhöhung
start
At
Konzentrat
Informieren
Diabetes
Grade
könnte
gemäß
vergessen
contents
sch@@
lassen
Patientinnen
aler
as@@
lang
ende
jeder
groups
tissue
then
ge
Kopfschmerzen
Blut@@
enzymes
previously
plan
ribavirin
einigen
Tell
therapeutic
alfa-2b
führte
informieren
interval
packs
ähnlich
Lamivudin
vor@@
Bitte
Wechselwirkungen
Union
Dose
traten
z@@
clear
se@@
Konzentration
72
a-@@
local
sprechen
2,@@
U@@
Bedienen
Study
49
Zellen
Z@@
us
19
wofür
Daher
Metaboliten
27
th@@
nehmen
aluminium
29
Erfahrungen
erhöhten
festgestellt
medizinische
humans
Reaktion
meisten
sche
fever
Absetzen
Pro@@
G3
advice
Humira
hypersensitivity
Fall
Neutropenie
discontinuation
Pen
respectively
vermeiden
es@@
HCT
lactose
Spiromax
Vorsichtsmaßnahmen
häufigsten
pro@@
y@@
Week
55
Telmisartan
men
Injektionszwecke
reconstitution
it@@
gezogen
dizziness
unknown
ie
yellow
39
Dieses
mouth
Agentur
care
Levodopa
FOR
Häufig
Very
Behandlungs@@
regimen
growth
Entwicklung
aufgenommen
mellitus
Anteil
gut
erhöhen
Wirkstoffe
vergleichbar
Based
höher
anzuwenden
metabolites
temperature
aufzubewahren
op@@
event
Adverse
Jahr
J@@
especially
erwachsenen
verursacht
tumour
hour
enden
Hinweise
lag
additional
k
ratiopharm
individual
gleichen
Analyse
avoid
Clearance
gelegentlich
o
schen
condition
might
Vor
according
Leber
precautions
Hyper@@
2.@@
increases
Schwindel
Rivastigmin
status
elderly
±
instructions
vivo
Monat
v@@
developed
führt
w@@
Ausschuss
ent
A-@@
1.5
em
Schluss
Uncommon
monotherapy
le@@
34
Why
become
profile
HBV
report
Einzeldosis
sugar
older
breast-feeding
interaction
arthritis
Durchstechflaschen
eingeschränkter
Warum
DNA
them
0.9
älteren
laboratory
Glas
label
positive
abnormal
Katzen
Verbindung
metabolism
Urin
verursachen
stomach
Packungen
reference
kontrollierten
Sch@@
AND
Be@@
Verbesserung
hypertension
prescribed
excreted
Fertilität
VIII
leiden
gen@@
Hospira
lead
major
Konzentrationen
empfohlenen
jeweils
website
needed
Mahlzeit
Natrium
area
docetaxel
metabolite
Website
Entzündung
sure
nicht-@@
31
Sildenafil
Un@@
Ausgangswert
1,5
Pioglitazon
F
Ihres
Lactose
000
unless
Bereich
welche
vollständige
allein
Leberfunktionsstörung
wirksamen
Anämie
Rekonstitution
monohydrate
sp@@
hatte
Gelegentlich
ratio
gleichzeitiger
improvement
next
DIE
Welche
special
ausgeschieden
Muttermilch
headache
Grundlage
professionals
generally
ritonavir
bemerken
Hautausschlag
develop
eingesetzt
together
elimination
Re@@
Chemotherapie
letzten
B.V.
Blutdruck
COPD
calcium
Kontrolle
ULN
Fragen
Durchfall
inhibition
cats
resistance
vollständig
{
ziehen
entnehmen
gastrointestinal
reconstituted
seltenen
wichtig
action
help
tic
Reduktion
immer
}
notwendig
Dosierungen
120
Nebenwirkung
Inzidenz
10,000
ri@@
gelangte
Virus
initiation
via
release
class
standard
Median
Ende
hinsichtlich
wobei
safe
to@@
tr@@
59
UND
Veränderung
contain
cardiac
neutropenia
lo@@
yl@@
liche
Herceptin
measured
6.6
zweiten
sorgfältig
il@@
respiratory
fold
blisters
wirksam
oben
achieved
überwiegt
form
Form
genannten
peripheral
inject
Olanzapine
Krankheit
99
über@@
male
us@@
authorised
ausreichend
HCV
08
me@@
Viramune
H
Niereninsuffizienz
dazu
verfügbar
too
Müdigkeit
behandlung
equivalent
Werte
intended
Verkehrstüchtigkeit
hormone
defined
po@@
presented
physician
02
zuvor
expiry
vier
10.000
zeigen
away
K
Einheiten
insgesamt
Blisterpackung
animal
pulmonary
P-gp
hydrochloride
et@@
lamivudine
Leber@@
tem
unverzüglich
leichter
Products
upper
continued
brain
progression
tract
größere
.@@
Fertigpen
ei@@
adjusted
Hemmung
jeden
EN
infected
interactions
count
mi@@
au@@
PFS
ac@@
38
carefully
anaemia
initiated
x@@
ng
receptor
H5N1
fatal
medizinischen
influenza
Haut@@
sollen
phosphate
sowohl
All
Merkmale
Art
ungefähr
Er@@
Rare
Zeitpunkt
maintenance
Allgemeinen
dosage
Cmin
entwickelt
geboten
Aluminium
long-term
please
indicate
death
Emtricitabin
04
four
Umkarton
score
ter@@
oedema
Auf@@
hypoglycaemia
der@@
made
00
half-life
angegebenen
Hypertonie
frequently
Den
o-@@
disoproxil
unerwünschten
41
E172
continue
liquid
longer
Behandelten
cycle
vollständigen
46
sicherzustellen
ak@@
syringes
ap@@
abgesetzt
studie
provide
Stunde
begrenzte
Dosis@@
influence
entwickeln
Nierenfunktionsstörung
werte
reduziert
whose
table
EXP
Rivastigmine
Über@@
Verfalldatum
Abnahme
An
vision
HIV-1
size
Rate
usual
Markteinführung
pharmakokinetischen
characteristics
zu@@
stillen
seizures
ask
back
placebo-controlled
Name
tri@@
125
Flüssigkeit
Interferon
abdominal
Alle
oralen
EN@@
Untersuchung
commonly
viral
initial
P-@@
female
anderer
hyper@@
complete
RE@@
weiteren
Rat
repeated
on-@@
accordance
St@@
likely
ers
Clinical
talk
Beschwerden
Spiegel
Syndrom
om@@
lichen
notice
rubber
Aufgrund
Erwachsene
proteins
Betracht
ase
values
allergische
To
elle
show
occurs
rates
häufiger
Arthritis
vs.
vaccines
aktiven
hypo@@
ates
enzyme
0,9
http
check
previous
Empfehlungen
ag@@
units
sen
therapie
code
sicheren
combined
06
depression
64
produced
certain
37
beurteilt
halten
ant
Aus@@
beeinflussen
systemische
hinaus
early
Untersuchungen
Zoledronic
te@@
07
Rahmen
antibody
oraler
regelmäßig
advised
vein
el
001
Überempfindlichkeit
Kombinationstherapie
51
h.
lich
7-@@
ausgeschlossen
X@@
Welchen
01
Hypotonie
Erfahrung
ern
i.e.
container
comparable
id@@
Following
NSAIDs
Some
absorption
down
box
course
tion
free
folgende
relevanten
obtained
Aliskiren
Schwellung
mediane
fumarate
mittels
resulted
meal
ations
since
baby
Irbesartan
d-@@
supplied
Inhibitoren
aussieht
forget
93
surface
bezüglich
Plasmakonzentrationen
47
Verschlechterung
definiert
present
19@@
Wofür
denn
beeinflusst
Hydrochlorothiazid
Verfügung
Um
kontraindiziert
stated
factors
majority
Because
light
geben
stark
S-@@
platelet
Duloxetin
endpoint
levodopa
empfahl
signifikante
erhöhtes
life
gesamten
During
distribution
beginnen
induction
alternative
Not
dialysis
requirements
Verwendung
tische
begonnen
intravenöse
davon
ph@@
Blutung
involving
83
hauptsächlich
KI
ec@@
Filgrastim
sis
looks
asthma
no@@
B-@@
mixed
injected
verringert
j@@
interferon
Augen
0.0@@
HR
sterile
Herz@@
geeignete
difference
statistisch
damit
advanced
pemetrexed
Medicines
Symptomen
reach
re-@@
ating
olanzapine
require
²
wegen
randomisierten
-T@@
Al@@
soon
häufige
stehen
ep@@
breathing
einzelnen
hohen
Verlängerung
kommen
worsening
state
Blisterpackungen
Hypo@@
ER@@
stopper
dysfunction
colourless
pioglitazone
E171
affected
mon@@
Anti@@
en-@@
intravenös
Limited
Before
statistically
estimated
CARTON
uncommon
Aripiprazol
REYATAZ
ige
Tenofovir
See
treatments
dry
63
Andere
pre@@
severity
www.ema.europa.eu
länger
treten
d.
practical
Arztes
76
con@@
Auflistung
le
erwiesen
unten
Effekt
scher
Peginterferon
beschrieben
Inhalation
spiegel
Thrombozytopenie
Nespo
z
poly@@
GmbH
recombinant
10-@@
Xarelto
impaired
double-blind
akuten
6.1
CYP2D6
damage
ch
measure
AST
contraindicated
contraception
protect
t-@@
4.6
Mittel
oberen
…
give
around
deficiency
88
störungen
tumours
aten
IN@@
C-@@
Zubereitung
Senkung
Simponi
iron
Referenzarzneimittel
id
Blutkörperchen
oxide
organ
transient
‌
ly
six
schnell
lange
ic
ol
Temozolomide
Gebrauch
Faktor
könnten
binding
Poly@@
Lilly
infants
ia
Auf
st
05
unabhängig
Kapsel
Wenden
Verringerung
verringern
03
auftritt
Basierend
Etikett
ms
Rasilez
C.
Voriconazol
konnte
ses
Immun@@
Herzinsuffizienz
hypotension
Leflunomid
OR
ting
↔
Zu
Bezug
weiter
62
fatigue
Endpunkt
line
57
Injektionen
randomisiert
inhaler
closely
described
several
tischen
HbA1c
Jugendliche
application
indem
ene
54
Augen@@
ger@@
assay
Operation
U
Carbidopa
aliskiren
Beurteilungsberichts
0,0@@
bi@@
Bildung
e.g.
Kaninchen
IV
haemorrhage
Knochen@@
bestimmte
Humanarzneimittel
Datum
kommt
angezeigt
Anweisungen
gene
Par@@
signifikanten
difficulty
Abbildung
metabolised
Talk
T-@@
average
therapeutischen
Wortlaut
überwachen
tested
Pflaster
much
ST@@
onset
höheren
Wert
Schweregrad
concomitantly
consistent
zoledronic
bestimmten
already
Anfangsdosis
emtricitabine
lesions
Arzneimittel@@
maximal
58
PE
Eisen
Öffentlichen
Please
material
CYP3A
Pioglitazone
Dexamethason
Vor@@
handelt
750
Fertigspritzen
liegt
ide
mittleren
PAH
OS
verabreichen
diseases
Flaschen
Störungen
ä@@
wiederholter
unmittelbar
presence
Caution
injiziert
ir@@
Cisplatin
studien
dilution
Viraferon
Mit
12.5
do@@
trat
Schwere
ser@@
erten
potassium
gab
erwarten
frequent
opening
niedriger
sechs
types
excluded
toxic
urinary
Substanzen
in-
haemoglobin
Amlodipin
prescription
Öffnen

room
orale
dexamethasone
zer@@
darüber
ations@@
Ratio
large
68
counts
ins
Blister
prolonged
cisplatin
109
20@@
her@@
absolute
Genuair
tägliche
AL@@
weekly
Atazanavir
ex@@
Take
eyes
way
zellen
f
92
Bioverfügbarkeit
ic@@
zeigt
per@@
ert
zusätzlich
systemischen
off
particularly
diluted
78
sei
kontrolliert
Substanz
identified
Männern
Gesamt@@
Assessment
Q@@
entspricht
hazard
Tiere
volunteers
besonders
66
efavirenz
mögliche
cm
az@@
ben@@
Atemwege
Tumor@@
ationen
follow-up
Krebs
peginterferon
ber@@
Muskel@@
HIV-@@
treating
aufgeführt
y-@@
abnormalities
intravenösen
Kreatinin-Clearance
ko@@
solche
procedure
hydrochlorothiazide
53
höhere
keep
ange@@
Schlaganfall
12,5
43
eingeleitet
7.5
secondary
ally
ding
ö@@
weisen
sub@@
mit@@
Parkinson
medac
Verwenden
kam
drink
Bauchschmerzen
85
Schwellungen
AN@@
mo@@
Unterschied
einige
slightly
plunger
metabolisiert
System
vaccinated
device
fluid
set
Anti-@@
klinischer
schwerwiegenden
stroke
schwerwiegende
Co-administration
Studien@@
bar
möglichen
säure
Impf@@
inter@@
Ibandronsäure
Pharmakotherapeutische
gemessen
Ex@@
140
0,6
Raumtemperatur
relative
bo@@
Resorption
Tierarzneimittels
hemmt
selbst
Organ@@
whole
co-administered
differences
negative
air
reproductive
97
Sodium
Once
causes
16@@
tuberculosis
Stillzeit
Signifor
basis
004
unter@@
ster@@
Verträglichkeit
Nieren
Inhibitor
ar
15@@
inhalation
Kühlschrank
having
adequate
general
D-@@
8-@@
investigated
Beutel
Pfizer
licher
sildenafil
me
Ärzte
jede
Kontakt
3,@@
bereich
oc@@
monitor
leichte
dependent
Di@@
co-administration
concluded
components
danach
substrate
ergriffen
0.6
Beurteilung
vi@@
Diarrhö
parameters
Store
lagern
89
bottles
means
even
proportion
Formoterol
73
Pack
vorsichtig
Nahrung
fest
gel@@
Tod
Verdünnung
Pharmacotherapeutic
Überempfindlichkeitsreaktionen
ast@@
Topotecan
ma@@
Juckreiz
Vorgeschichte
bisher
ATC
Behandlungsbeginn
17@@
tion@@
9-@@
stable
allergisch
ous
amlodipine
recommendations
av@@
still
genotype
ellen
cardiovascular
resulting
Dosisreduktion
neuropathy
seine
mal
Serum
responses
patch
excretion
told
tigen
Temozolomid
tolerated
responsible
Bedingungen
dioxide
str@@
mainly
et
87
μg
außerdem
AD@@
0.3
91
beabsichtigen
86
weißen
ati@@
ox@@
mittelschwerer
chest
ad@@
Husten
ender
0,1
Studienbeginn
cattle
primäre
confirmed
bezeichnet
ger
Einzel@@
se-@@
Zahl
AR@@
FEV1
foetal
jedem
fachen
pH
exposures
hal@@
orodispersible
eren
ste
Resistenz
stellen
prevention
28@@
Efficacy
gebracht
reversible
Vorbeugung
Unterschiede
Depression
69
corticosteroids
erst
eb@@
Prevenar
Darm@@
hands
tions
term
F-@@
Hypoglykämie
Substrat
160
PA@@
entsorgen
angepasst
Influenza
beeinträchtigt
Epoetin
Keep
think
involved
r
storage
withdrawal
subsequent
mm3
place
aufbewahren
missed
antiretroviral
amide
verschiedenen
chronischer
Concomitant
setzen
hydroxide
81
assoziiert
94
ung@@
intervals
0,3
ru@@
Cobicistat
ihre
unerwünschte
chronischen
hohe
Inter@@
ve
ken
clopidogrel
IST
Infusions@@
Entacapone
Crohn
sen@@
ne@@
responded
N-@@
started
post-marketing
exposed
abbrechen
target
fer@@
im@@
old
absorbed
Zulassung
regular
fully
Votubia
Selten
anhand
sed
dis@@
Memantine
störung
pigs
filgrastim
Cases
hergestellt
gefolgt
Capecitabin
ihrer
Baseline
decided
Effekte
particles
s-@@
ulation
drugs
wert
003
viel
gesamte
dabei
Contents
erneut
4.@@
hervorrufen
ie@@
Asthma
agent
dog
ob@@
0.1
Gazyvaro
7,5
Möglichkeit
rapid
Nivolumab
CML
relevante
rabbits
Zidovudin
open-label
18@@
13@@
subkutan
durch@@
symptomatic
Studies
IE
CR
Lojuxta
77
Trastuzumab
safely
zusätzliche
männlichen
unit
close
Therapie@@
Genotyp
works
strong
gel
aufweist
includes
stopped
nächsten
Unter
Test
ig@@
0.00@@
constipation
Inhaber
SUN
z.
reducing
dauer
Impfstoffes
decide
Although
weiße
ten@@
Anforderungen
E-@@
feel
reductions
Mund
Prägung
Glenmark
Y@@
RA@@
CYP1A2
straight
ur
cycles
-Dosis
mechanism
30@@
Trudexa
0,00@@
QT
Y
BMS
stored
Meloxicam
tive
Plegridy
species
Population
präklinischen
inflammatory
MIT
mutation
determined
grade
ere
maximale
verschrieben
fi@@
Sprimeo
maintained
Darüber
CH@@
iger
bioavailability
id-@@
Zyklen
thrombocytopenia
3.@@
unlikely
particular
would
zuletzt
Pruritus
L-@@
ation@@
subkutanen
ierten
wirksame
marrow
Alkohol
vorübergehend
len
Änderung
Lungen@@
Day
yl
neuen
Schläfrigkeit
remove
imatinib
Date
Morbus
preparation
receptors
met@@
@
Eigenschaften
bilirubin
fragen
handling
refrigerator
engmaschig
genau
Plus
ni@@
ml-@@
Abstand
sick
occurrence
mäßig
vessels
arms
fall
excipients
strain
beobachteten
derived
weakness
Betaferon
coated
Summary
insufficiency
Protein
Perjeta
par@@
umgehend
Hypersensitivity
Remicade
placebokontrollierten
Alu
apparent
Besondere
Halbwertszeit
direkt
Ellipta
double
injizieren
Marketing
qu@@
Pegasys
12-@@
1.0
needles
Gewicht
ischen
ell@@
third
subkutane
ative
itching
em@@
VELCADE
bound
AS@@
Acid
lagen
ZYPREXA
exercised
Administration
-KI
led
round
Bonviva
weiblichen
episodes
removed
telmisartan
individuals
company
humanen
production
Falle
avoided
Lopinavir
Gewährleistung
ra@@
chen
batch
regarding
induced
Ch@@
mice
Auge
MS
at-@@
Deshalb
com@@
gt
rat
Warfarin
Titandioxid
fach
mer@@
Welches
Entacapon
Con@@
administer
administering
prepared
Blood
eliminated
reached
starken
trastuzumab
baren
cholesterol
dreimal
findings
fat
fortgesetzt
sten
bedienen
bekannter
zurück@@
Neuropathie
BOX
&apos;s
kon@@
monthly
method
007
genannt
Tadalafil
begrenzt
primarily
Immunsystem
face
Eylea
regimens
ämie
verfügbaren
Arm
Plasmakonzentration
Cimzia
potentially
bedeutet
depending
half
pädiatrischen
82
fl@@
ut@@
psoriasis
formation
Insulin@@
tions@@
orally
Truvada
HERSTELLER
Severe
bildung
Hartkapsel
KwikPen
mal@@
Injektionssuspension
normally
Sitagliptin
attack
nach@@
breath
ische
kal@@
noted
complications
Parameter
Einige
aemia
Remove
Regel
opinion
formulation
006
transplantation
bodyweight
Faltschachtel
Ausscheidung
Renal
Due
stage
Zyklus
often
bacteria
produce
Serum@@
e-
point
erkennen
ose
igen
ü@@
Ad@@
marked
current
ON
67
lu@@
Prometax
visual
Komplikationen
Always
shall
Viread
Helixate
value
elevations
Per@@
trans@@
Magen@@
führten
verantwortlich
Tenofovirdisoproxilfumarat
Ausmaß
isch
Saxagliptin
corresponding
Detailed
rapidly
erste
itis
however
Tagesdosis
OUTER
recently
Stamm
blocking
Aufnahme
Hersteller
Ar@@
CYP2C9
Obwohl
Child-Pugh
suggest
doppelblinden
Special
cough
bioequivalent
febrile
Neparvis
verlust
zweite
physical
entsprechende
Gilenya
CYP2C19
4,@@
Xultophy
appetite
14@@
NexGen
exceed
Abacavir
005
Mäusen
warfarin
nachdem
ator
methotrexate
Verlauf
Erhöhte
Sp@@
Unter@@
pi@@
aufgetreten
iert
seit
Status
normalerweise
Sicherheitsprofil
Acetylsalicylsäure
Auswirkung
geringen
Methotrexat
Overall
fast
few
discomfort
Sprechen
Dapagliflozin
Verwendbar
Läsionen
O
bri@@
30-@@
z.B.
supportive
funktion
mäßiger
educational
Siehe
amin@@
Dabrafenib
Dieser
ell
Information
primären
weder
SD
tika
besonderen
ER
Any
subject
medication
Erwägung
schedule
plastic
vorliegen
microgram
open
Bestandteil
suspected
Mean
Angehörige
enz
Enzyme
einnahmen
Überleben
highly
Duloxetine
infolge
illness
61
bortezomib
AUTHORISATION
inform
ON@@
correct
ment
bag
angesprochen
SI@@
basierend
Stalevo
Product
throughout
prolonged-release
Schutz
Toujeo
Beendigung
seinen
dapagliflozin
faeces
71
ity
randomized
schützen
Plasmaspiegel
außer
Fycompa
kürzlich
Arzneimittel-Agentur
Tuberkulose
subcutaneously
dosis
acetate
pens
Ivacaftor
ek@@
1,0
I-@@
field
Beeinträchtigung
extent
Zustand
Xiapex
Patienten@@
tige
geeignet
requiring
Figure
wahrscheinlich
protective
angegeben
detected
Insgesamt
many
Packungsgrößen
Teysuno
Aus
AM@@
occurring
Verstopfung
micro@@
Mahlzeiten
Berichte
Von
INCIVO
Winthrop
Li@@
resistant
lactation
Viren
gebärfähigen
Volumen
post-@@
Lunge
component
aufweisen
diet
although
002
ens
ted
pruritus
person
intolerance
ot@@
konzentration
vertragen
Mutationen
tragen
En@@
elevated
pneumonia
erteilen
Einzeldosen

mutations
ierte
RNA
pr@@
coagulation
Hauptindikator
Handhabung
Orion
minor
lack
UNG
verringerte
Fachinformation
aktive
Rilpivirin
quality
gruppe
MM
questions
Ketoconazol
starke
nationalen
große
tip
White
Reduzierung
Schwierigkeiten
vermuten
112
irritation
schmerzen
Heilberufe
antagonists
limit
ach@@
Atem@@
bioäquivalent
Reproduction
central
0-@@
74
pre-@@
neck
De@@
man
Uptravi
Mutation
younger
Hazard
black
Umständen
unchanged
BCRP
ho@@
tig
Erteilung
bacterial
Reports
fache
Natrium@@
Blutzuckerspiegel
RoActemra
reduzierte
Risikofaktoren
gender
Leflunomide
älter
Progression
zen
2000
geringer
partial
separate
Behandlungen
Elimination
mehrere
diabetic
nen
Diagnose
12@@
Gewebe
Gruppen
Most
PR
Com@@
Xofigo
intravenously
ne
Entzündungen
Flu@@
dec@@
Riprazo
4,5
applied
ologische
decreases
United
Durch
menschlichen
ärztliche
and@@
Macrogol
Characteristics
bekommen
adapter
Injektions@@
Verlust
left
Außerdem
pa@@
Risikomanagementplan
konzentrationen
auftraten
Rapamune
Soliris
source
suitable
TO
Hypromellose
MTX
bio@@
Injection
Natriumchlorid
Somatropin
Check
prolongation
Co@@
Klinische
ff@@
route
PET
den@@
än@@
CrCl
00@@
vermieden
Po@@
health
farblose
Standard@@
so@@
diagnosis
gehört
Ibandronic
rec@@
Lamivudine
Tr@@
Zunahme
nächste
mehreren
morning
IX
upon
short
generic
NSCLC
1.2
aller
steady-state
Linagliptin
Tumoren
metastatic
intake
antigen
abhängig
UN@@
klare
erythema
reduzieren
ben
Vene
UMKARTON
gastric
weiterhin
Prophylaxe
AB@@
Rebif
metabolic
verdünnt
Lebererkrankung
kleine
erkrankungen
gering
Mikro@@
durchführen
recovered
ivacaftor
Klasse
Response
dr@@
susceptibility
praktische
transplant
immunity
HCV-@@
voriconazole
State
1,3
entacapone
Partikel
Rezeptoren
HDPE
col@@
behandelte
sometimes
throat
ence
TMZ
Virus@@
lungs
enz@@
regularly
substrates
Mon@@
v
sches
Bondenza
3.5
evaluate
res
ähnliche
P450
clots
schließen
Wird
anhydrous
vorübergehende
delayed
einge@@
BATCH
Esbriet
childbearing
Krampfanfälle
zi@@
abacavir
Harn@@
min@@
joint
indiziert
Porcilis
Ereignissen
Met@@
ological
104
zeit
yet
Polysorbat
all@@
ergab
acidosis
CD@@
erfolgt
009
Applikation
niedrigen
Tests
Midazolam
dummy
Entfernen
abgebrochen
gelangen
lowering
offenen
Infliximab
Ciclosporin
Impfstoffs
Busilvex
Non-@@
ents
Ge@@
GE@@
apply
absence
International
initiating
directly
redness
MAH
Angaben
ALL
rilpivirine
Induktion
stopping
terminal
transdermal
achten
fen@@
Sub@@
follow
Mengen
tischer
right
Trametinib
direct
su@@
Angina
0,001
ax@@
carried
Purevax
MedDRA
Generikum
ermittelt
inhibit
Bedarf
Leberfunktionsstörungen
prä@@
Verminderung
Oral
rivastigmine
geimpft
respond
always
Remsima
ales
diagnosed
-Studie
Jeder
co-@@
184
CO@@
somnolence
kidneys
antiretroviralen
Lactose-Monohydrat
males
Potential
ink
developing
Since
jeweiligen
myocardial
aminotransferase
Tier@@
Plasma-@@
Retardtabletten
TR@@
Instructions
008
Binocrit
Kon@@
0.001
sti@@
Fentanyl
vorgesehen
sachet
AF
go
Abraxane
Kingdom
Inflectra
zeit@@
verhindern
dabrafenib
Beim
Ac@@
Read
liches
intramuscular
und@@
Hepatic
Doxorubicin
Imlygic
Bakterien
vorherige
io@@
1a
cartridge
ub@@
testing
Verteilungsvolumen
Sehen
favour
verminderte
currently
seinem
aripiprazole
NexoBrid
fibrosis
Gen@@
Halten
SIFROL
mäßigen
Nachweis
†
Triumeq
points
Behältnis
determine
increasing
Stribild
Powder
infarction
unterbrochen
Wechselwirkung
carcinoma
Eviplera
Probleme
randomisierte
wieder@@
bel@@
Tacrolimus
del@@
wiesen
erte
refer
percent
reduces
Hauptstudien
Digoxin
en-
Iasibon
ka
unwahrscheinlich
intravenöser
outer
hospital
ven@@
durchschnittliche
viruses
las@@
angioedema
Weise
enough
Gardasil
PR@@
Knochen
maximalen
NICHT
tritt
Public
anschließend
infliximab
calculated
bekannten
Drücken
Über
seek
1.3
ance
Urtikaria
nervous
Hände
copies
1,2
steady
sulphonylurea
aufgeführten
final
Inhalator
impact
erreichten
inactivated
Viekirax
Antikörpern
Brustkrebs
O-@@
designed
sizes
induce
sehen
cover
Package
dadurch
Oprymea
Beispiel
MANUFACTURER
lin@@
später
wöchentlich
zurück
content
planning
Dis@@
Praluent
Gewichtszunahme
-K@@
geringe
bestehen
appear
weiß
Verhältnis
ds
matter
ATC-Code
Abgabe
beeinträchtigen
sobald
worse
RESPONSIBLE
Herzfrequenz
Risk
Schwangeren
improved
geb@@
RELEASE
Women
allem
Schmelztabletten
zidovudine
überprüfen
aufbewahrt
soft
Skin
protection
an-@@
Natriumhydroxid
steht
pharmacology
verändert
gehen
DES
radiation
gently
entfernen
Children
Volibris
potent
79
antiviral
RT
mittel
Vimpat
saxagliptin
females
endpoints
Hinweis
five
üblicherweise
Cinacalcet
Type
Unterbrechung
cht
evaluation
closed
yp@@
H2O
langsam
verordnet
affecting
haematological
balance
AT@@
Psoriasis
relevance
B.
a-
original
entzündung
168
täglichen
seltene
R-@@
Nausea
myeloma
adequately
Produkt
live
entscheiden
ketoconazole
immun@@
Antibiotika
akuter
os@@
CHARGENFREIGABE
leading
Magen
Anpassung
over@@
Kopien
cobicistat
later
analyse
Valsartan
weighing
Nach@@
angiotensin
They
vorbehandelten
gleichzeitigen
0,8
Glas@@
Revolade
instructed
tet
ant@@
VTE
Cosentyx
Ph@@
cy@@
geeigneten
Gehirn
Behandlungsdauer
radioaktiv
extr@@
len@@
VERANTWORTLICH
multi@@
weil
Unbedenklichkeit
Patrone
ze
beide
Jakavi
makes
manufacturer
tro@@
lei@@
Sicherheits@@
geeigneter
fühlen
2009
angina
Immunität
mortality
titanium
association
0.8
progressive
fungal
pivotal
Br@@
tissues
Zeit@@
updated
Corbilta
gefühl
inf@@
post
ET@@
PK
Metabolisierung
um-@@
übliche
3,5
Rötung
Deutschland
empty
Tri@@
example
Rifampicin
tacrolimus
men@@
Class
Podhaler
5-FU
oma
accumulation
Remission
ari@@
sustained
ci@@
seal
recovery
anxiety
us-@@
Hemmer
infizierten
thrombosis
ViraferonPeg
Grundimmunisierung
inhibits
entfernt
rheumatoid
unused
erwogen
By
INR
eller
thyroid
stoffe
BLUE
renale
2001
neue
but@@
top@@
Authorisation
Metacam
Schritt
gewöhnlich
lymphoma
properties
injury
Empfindlichkeit
retention
ke

-1
persistent
Canagliflozin
0,4
Memantin
krankheit
Provenge
ranged
dihydrate
Grund
Selincro
ali@@
systems
he@@
life-threatening
Pneumonie
albumin
erkrankung
remaining
ergaben
Des@@
capecitabine
hydroxy@@
schwangeren
maintain
spezifischen
steps
weak
CYP3A4-@@
Bondronat
belongs
QTc
cirrhosis
amine
among
Milch
0.2
M-@@
LABEL
anaphylactic
across
Raptiva
sk@@
mediated
enen
EXUBERA
V-@@
Palonosetron
Cotellic
except
Risikos
Änderungen
ed@@
Indinavir
accidental
urticaria
Sofosbuvir
Aluminium@@
0.4
einmaligen
colitis
Auch
erung
Animal
Fluenz
sc@@
Hautreaktionen
aseptic
Col@@
Einschränkung
Epilepsie
Revatio
amounts
doxorubicin
resolved
Labor@@
gemischt
entsprechenden
-Gruppe
exercise
gets
inhaled
Punkte
Trächtigkeit
Silapo
Anfälle
tiredness
W
Unternehmen
AL
getting
2-
Capecitabine
folgt
Behandlungsgruppen
Stellen
teil
conventional
PML
bowel
CVMP
Aripiprazole
ite
young
hoher
Blutgefäße
raten
orange
s-
uric
methyl@@
ges
Dosier@@
Körper@@
erläutert
Box
Ansprechens
ART
insufficient
Zell@@
Krankheits@@
Empagliflozin
zell@@
Abständen
Episoden
outcome
rund
whom
ieren
Epclusa
Therapien
Häufigkeiten
Leukämie
trametinib
Puregon
go@@
Kurzatmigkeit
fol@@
CV
Lo@@
periphere
vitamin
Score
gegebenenfalls
Rück@@
Ansprechrate
Dynepo
sexual
versch@@
leukaemia
careful
Ereignis
added
fünf
son@@
behandeln
Ltd
Inhibition
Sicherheitsinformationen
Größe
AUF
10,@@
haemodialysis
Repaglinid
Budesonid
indication
Notwendigkeit
Haltbarkeit
9.@@
wirksamer
Leberinsuffizienz
carry
Wahrscheinlichkeit
0,7
infektionen
Dolutegravir
erreichen
Erhaltungsdosis
Immunantwort
positiv
Eingeben
Nierenversagen
sol@@
untreated
polyethylene
verstärken
belegt
Xolair
verschlossen
Dysfunktion
tiert
VER@@
waste
flasche
Impfstoffen
Bet@@
Diarrhoe
Europe
Stärke
tikum
supervision
Störung
address
Ödeme
abge@@
Folge
Licht
Zevalin
anderes
proportional
rarely
pharmacological
Verschreibung
Sepsis
John
name
Kalydeco
darunter
Alogliptin
erwartet
gebunden
interruption
legs
epilepsy
selected
undergo
verstehen
Pandemic
ines
IC@@
hoch@@
professional
lt
sing
consideration
-treated
drücken
mes
Schmerz@@
allow
kleinen
-oxid
CR@@
kontrollieren
leichten
mmHg
bromide
neu
peak
sufficient
eGFR
completed
prophylaxis
BiResp
Zusätzlich
Bio@@
Versican
percentage
alogliptin
platelets
Basis
generalised
Aerivio
ReFacto
Kolben
Nadeln
positiven
überprüft
ausgesetzt
adjustments
radiolabelled

Herzschlag
ODER
Fresenius
Data
th
0,2
peripheren
Stivarga
helps
ran@@
Res@@
IF@@
Gesam@@
Natriumchloridlösung
ien
ah@@
Gebrauchsinformation
digoxin
240
ciclosporin
Sucrose
Haupt@@
Hypoglykämien
possibly
MACI
LE
850
Mekinist
Blutzellen
wirken
ang@@
schwerwiegend
imp@@
hypersensitive
CL@@
ibandronic
ini@@
gain
Xyrem
ids
reveal
hin@@
Optruma
BE@@
slight
siert
France
-Therapie
Management
pharmacodynamic
tis@@
Hal@@
affects
wer@@
pl@@
Zoely
Ausschlag
4.0
Car@@
arterial
pooled
Ziel@@
Normal@@
prescribe
Lesen
..
0.7
completely
tung
accidentally
Daklinza
sion
genotoxicity
2.0
pen@@
Königreich
selective
eg@@
Tierarzt
Safety
Gesamtüberleben
trächtigen
allergischen
0,0001
6.@@
osteoporosis
Chargenfreigabe
1.4
MI
Tecfidera
Aerius
bare
To@@
Si@@
key
oph@@
gemeldet
50-@@
degludec
Ergebnissen
stri@@
Leganto
täglicher
Patientengruppe
Bestimmung
gung
duloxetine
entwickelten
Johanniskraut
levetiracetam
mp@@
antibiotics
konnten
Blutdrucks
tic@@
niedrigere
zed
Abdominal
Al
akute
Abhängigkeit
Ask
ANC
OR@@
IR@@
&apos;
improvements
225
foil
antagonist
geht
IN
CIALIS
Applikationsspritze
BLINCYTO
kin@@
fentanyl
Silgard
Pens
ºC
3000
frei
discarded
driving
tional
maternal
tliche
erachtet
coloured
undesirable
tre@@
Su@@
Ph
Anschrift
Krebs@@
ters
Verhalten
Ent@@
Tenofovirdisoproxil
besitzt
Hauptstudie
stearate
solchen
Metabolismus
bestehenden
Ebixa
Ma@@
anti-inflammatory
strength
108
Kabi
gewebe
vorhanden
blue
OATP1B1
i.v.
man@@
dessen
eh@@
lic@@
bedingte
monkeys
1-
normaler
Ceplene
gleich
machen
gilt
Quinsair
Intr@@
With
LEMTRADA
altered
0.0001
Anamnese
Two
medizinisches
harm
mischen
multiforme
ums
Stuhl
Linderung
Trulicity
angemessene
ane
Busulfan
Iclusig
Neu@@
Prolia
c.@@
Ofev
beispielsweise
Road
spray
Infusionen
Zu@@
atazanavir
minimal
hereditary
menge
bilden
populations
1.7
-Behandlung
Vokanamet
debossed
secretion
procedures
untersuchen
tis
dritten
Pain
examination
dern
10.@@
Mal@@
Ausführliche
Multi@@
eth@@
Care
transfer
Potenzial
er-@@
trotz
Rasagilin
les
wound
Magnesiumstearat
density
mat@@
Q
slow
Eperzan
appears
Effentora
titration
Vereinigtes
gefunden
&amp;
art
citrate
Disease
attention
vorher
ass@@
view
Nur
ready
Nimenrix
asen
Bewertung
Pramipexol
450
zwar
Führen
weißes
areas
Genotoxizität
Genvoya
Dosierungs@@
alter
Bündelpackung
Innerhalb
infektion
Steady
biconvex
Mo@@
6.3
hoch
sh@@
Neuro@@
Elvitegravir
thromboembolic
support
Placebo-Gruppe
IONSYS
Gesicht
Anwendungsbedingungen
act
better
Plans
sites
spezifische
toxicities
account
leflunomide
invasive
exactly
Apotex
Desloratadine
regelmäßigen
undergoing
ase-@@
Behandlungszyklus
dopamine
haltigen
Zinbryta
Gefühl
magnesium
yo@@
mu@@
cor@@
ativen
rifampicin
negligible
ern@@
Briviact
car@@
Dyspnoe
Ipilimumab
Ultibro
nahmen
Umstellung
clearly
Thrombozyten@@
Schilddrüsen@@
blurred
AD
Protein@@
Einleitung
1,7
Unwohlsein
let
lactating
überempfindlich
Ri@@
eventuell
ty
Ireland
Pankreatitis
On
rei@@
AC
activated
Zurampic
äre
Nieren@@
Person
werten
Lungenerkrankung
w
shows
Cellulose
runde
corticosteroid
Mal
lenalidomide
ASA
pancreas
HyQvia
dung
terms
Zontivity
we@@
zusätzlichen
granting
excess
Fol@@
TOBI
1,4
4.1
properly
Osteoporose
BMD
Abbruch
1.1
Mechanismus
isation
own
-related
Entresto
ure
Benlysta
explains
inducers
disposed
sal@@
hair
vermindert
window
fractures
ONIVYDE
gr@@
welches
Säuglingen
performance
Diät
stellt
ings
sudden
OHSS
Group
Endpunkte
pre-existing
Dosisanpassungen
vir@@
verabreichten
Ausgangs@@
gi@@
nung
mental
enrolled
tier@@
ary
überzogene
vilanterol
Geburt
epoetin
Kivexa
Leber-
HIV-1-@@
follows
übergeht
pharmakokinetische
IOA
slowly
Schwangerschafts@@
replacement
eingestellt
Bosulif
Kindes
carcinogenicity
Tremor
berücksichtigt
Rasitrio
Fatigue
Kappe
mg-@@
chewable
kept
26@@
Increased
H-@@
Revlimid
010
Blutzucker
eliminiert
embolism
Lenalidomid
physicians
beenden
Wirkstoffen
cutaneous
her
eu@@
Vilanterol
Sulfonylharnstoff
Fuzeon
5.@@
mcg
unverändert
ma
Jedoch
Flixabi
immediate
Immunglobulin
Number
sleep
PVC-@@
erhöhter
CYP2C8
Lyxumia
Xoterna
infusions
hi@@
For@@
seiner
Gel
sucrose
Tmax
EVOTAZ
Benommenheit
Schwitzen
ier@@
Kanüle
Kovaltry
Anbruch
Bi@@
Ph.Eur.
normalen
up@@
ventricular
Sonstige
add-on
Antikörper@@
rel@@
reaktionen
suffering
temporary
lispro
HIV-Infektion
neuro@@
remain
possibility
Phenytoin
ität
EC
18F
protease
surgical
best
mentioned
Wachstum
Funktion
getestet
sitagliptin
FOLFIRI
gesch@@
physi@@
alt
dermatitis
bleiben
Ne@@
adi@@
Schutz@@
resorbiert
zusammen@@
melanoma
sensation
susceptible
Carbamazepin
klar
praktischer
IS
X
CT@@
amp@@
Hinblick
Körpers
Hund
S.A.
Raltegravir
mark@@
Monohydrat
relationship
g-@@
25@@
24@@
highest
ure@@
zutrifft
Repaglinide
Gutachten
hand
Fertigpens
ORENCIA
Körperoberfläche
enten
discontinue
Hydrochlorothiazide
Schüttelfrost
Um@@
ology
preferably
AG@@
13.@@
ovarian
Menveo
extension
Herpes
Tierexperimentelle
HA@@
radioactivity
Hexal
50@@
Her@@
opaque
unterziehen
ile
af@@
Atemnot
Raplixa
pass
ised
Victrelis
Anweisung
Pixuvri
Retacrit
packung
Zalasta
Trizivir
Protaphane
malignancies
ANWENDUNG
ring
ck@@
ähnlichen
Lixiana
wodurch
Ryzodeg
Zomarist
for@@
Bindung
Only
zurückzuführen
Nobilis
RA
venous
Injektionsnadel
Rinder
sequ@@
hydrochlorid
blutungen
whilst
dosen
Effects
Hand@@
AU@@
depends
therapies
Zirrhose
programme
ies
abzusetzen
ampoule
bil@@
break
degree
Epivir
in-use
Organ
Zyprexa
PecFent
El@@
ente
remission
NE@@
Zeichen
Schwäche
deuten
pump
Plasma@@
clo@@
trägt
HPV
tor
Optimark
enthaltenen
Zonegran
ACTIVE
u
coli
disturbances
fort@@
da@@
LDL-C
length
Vergleichs@@
Scheinbehandlung
Anwendungs@@
ft
independent
joints
schwer
again
All@@
Relevanz
agonists
divided
befürwortenden
exenatide
Salzsäure
inc@@
172
dose-@@
beendet
carbidopa
topotecan
End@@
sofosbuvir
6,@@
opened
drops
Mehrzahl
angewendeten
Ventavis
TI@@
Vitamin
periods
Herz
immunoglobulin
consult
tub@@
swallowed
Bemfola
entire
Ak@@
Dyspepsie
Serum-@@
form@@
vorzugsweise
Xeplion
versehentlich
IV@@
Voncento
midazolam
ks
Merz
Thrombo@@
ausschließlich
dafür
ierung
stabil
benötigt
Hierin
Multipack
head
abschätzbar
juice
sofern
cytochrome
SS
tics
toxizität
single-dose
Erhöhungen
Durch@@
Geschlecht
blockers
beteiligt
Ticagrelor
Karton
Hilfe
inhal@@
viele
particulate
negativ
YYYY
ev@@
criteria
Zunge
Tafinlar
syndrom
Nieren-
published
Blutuntersuchungen
Bronchitol
por@@
technique
Rindern
aktiver
Prior
Allerdings
Paediatric
Enzym
3-4
tieren
ef@@
Typ-2-Diabetes
Wieder@@
Radi@@
Eltrombopag
Laktatazidose
sclerosis
bones
flu
card
advise
Velphoro
mittel@@
linear
bedingten
Leberenzyme
fluticasone
2005
Langzeitbehandlung
cloudy
assoziierte
delay
Del@@
durchzuführen
Human@@
dehydration
ORR
sia
toxische
Simvastatin
-Test
ori@@
ASS
perforated
carcinogenic
vergleichbare
18.@@
CL
genen
Vergangenheit
beta
niedrig
pale
Abilify
zugelassenen
Intuniv
dargestellt
Blutgerinnsel
subkutaner
working
beobachten
IB@@
natural
fasting
Ziehen
1.6
pol@@
Galafold
5,@@
ren@@
heit
Rücksprache
supply
besch@@
predominantly
simvastatin
Krka
regelmäßige
hängt
ster
ProQuad
canagliflozin
Metabolit
FSH
Taltz
acting
Diarrhoea
Hypokaliämie
vorgesehenen
Mangel
DUTREBIS
of@@
Prednison
d-
6.
pathway
mar@@
ever
weise
-2
lich@@
hä@@
Brust
SmPC
Sklerose
Tresiba
hr
cytotoxic
alu
Behandlung@@
Lyrica
just
Stopfen
bin@@
tide
berechnet
despite
Als
top
lokale
remains
radi@@
JJJJ
Fache
Sollten
barer
Infanrix
ain@@
tongue
Zalmoxis
bestätigt
sierte
sto@@
immunogenicity
scheduled
Bluthochdruck
atives
Non-clinical
lactic
booster
tolerability
3,3
scale
gastrointestinale
Solution
essential
Spritzen
sch
reproduction
Verdacht
16,@@
stability
2-3
Schweinen
kul@@
weg
verhindert
Leukopenie
Nelfinavir
3A4
Gastrointestinal
Placebo-@@
Substrate
3.0
ären
endem
terminale
Caspofungin
Verschluss
aufwiesen
Muskelschmerzen
shortness
G-@@
nt
PSUR
nose
consecutive
gehören
infant
022
sensitivity
Leaflet
Intravenous
ded
breast-feed
Schutzkappe
bupropion
Herzinfarkt
pectoris
Zerene
Empliciti
international
prednisone
SPRYCEL
107
poor
Pre@@
Neupopeg
daran
Relvar
Repso
24-@@
15-@@
Entsorgen
Ko@@
allowed
modification
q
expression
Tabletten@@
bubbles
175
psoriatic
eingeschränkte
Phase-@@
PS
CYP
ausge@@
NOT
Darm
5.8
är@@
scheint
allerdings
biological
stand
fleas
Urin@@
Anleitung
spread

ges@@
Verhinderung
Cyclophosphamid
maßnahmen
ular
leuk@@
pharmakologischen
symptomatische
VFEND
Eingriff
injecting
Gummistopfen
K-@@
Gefahren
SE@@
intestinal
vascular
thereafter
birth
indications
niedrige
vorwiegend
muscles
ves
Stoffwechsel@@
mod@@
load
Inlyta
behaviour
trough
art@@
cal
eat
sin@@
Laktation
mer
Erivedge
elevation
0,75
chemische
Hizentra
mus
Chlor@@
lymphocytes
FeLV
rin@@
acts
infiziert
ans
Onbrez
Man@@
raltegravir
tödlich
ProMeris
PCV
version
severely
Advocate
IL@@
SC
antibiotic
seizure
Schlucken
18,@@
teilen
ocular
Radioaktivität
1,8
lösung
beta-1a
0.75
genden
thigh
Immunogenität
meloxicam
1,6
Using
recommendation
applies
LUMIGAN
gleiche
konventionellen
mix
Methode
coronary
aufge@@
Verwirrtheit
Ger@@
regi@@
Olazax
teratogenic
bolus
emia
Ödem
Serious
unden
causing
Verfärbung
TH@@
antihypertensive
solutions
Voriconazole
improve
PRAC
ampoules
remained
closure
Zittern
Mund@@
est
colour
Zerit
Zidovudine
assess
Holder
Auftropfen
disposal
Stelara
Schlaflosigkeit
reaktion
Results
Seh@@
meals
Exviera
IS@@
diuretics
1.8
Water
Cancer
HBV-@@
Strimvelis
IT@@
Protopic
Besserung
pancreatitis
past
vorliegt
ranging
Active
Obstipation
DOCETAXEL
In-vitro-Studien
Among
bile
veränderungen
etwas
Körpergewichts
Glybera
mixing
confidence
ich@@
ome
Bradykardie
blutung
painful
12,@@
polysorbate
national
Darreichungsform
toxischen
Darbepoetin
corrected
Synflorix
Edarbi
feet
Verbesserungen
MR@@
Within
cyclophosphamide
Liver
ber
lose
ts@@
ases
IL-2
alafenamide
little
sive
HA
Odomzo
feststellen
dL
Adempas
wöchigen
roten
OATP1B3
ZALTRAP
Gallen@@
PCTFE
feeding
avir@@
dro@@
VON
Sekunden
naïve
excessive
fähigkeit
Ro@@
SUSTIVA
eti@@
größer
tur@@
hohem
dental
Krankheiten
Accofil
come
5,0
Index
Nemdatine
2011
nasal
Gleichzeitige
Kyprolis
clean
Generics
5.0
oval
minute
EMA
Gelenk@@
sepsis
Mix25
mass
Verhütungsmethode
Ampullen
bindet
sealed
Reproduktionstoxizität
fo@@
tmax
region
parenteral
ce
horses
KABI
Appetit
Spitze
wichtige
beschriebenen
111
yl-@@
SIRTURO
Hälfte
bleibt
paliperidone
kinase
intervention
yourself
zwei@@
Hirn@@
Calcium@@
Zebinix
größe
besprechen
log10
umgestellt
volumen
Mittelwert
erwies
contraceptive
oli@@
morgens
Hyperglykämie
relapse
tan@@
reduzierten
minimum
he
Str@@
festgelegten
neutrophil
ement
Profil
malignant
analyses
verschiedene
Transplantation
VEGF
materials
rasch
Plasmaproteine
holder
Lonsurf
Weiße
ver
onen
Talkum
Indacaterol
Europäische
Ampulle
Wirkstoffs
tadalafil
photo@@
Kautabletten
SPECIAL
AIDS
ats
Wei@@
beobachtete
des@@
pal@@
PACKUNG
Männer
Nase
CYP2B6
freie
Hypericum
she
Stocrin
plaque
activation
Bayer
Pregnancy
Myelom
Lebens@@
Arzerra
Impfstoffe
enk@@
therapeutische
UGT1A1
contraceptives
sweating
trinken
achieve
almost
surgeon
tremor
Nahrungsmitteln
spro@@
2004
sel@@
circulation
aktualisiert
aseptischen
Repatha
Anwender
tired
Kalium@@
2,2
placebo-treated
TAC
01@@
körper@@
Unterteil
fortgeschrittenen
fort
2.2
t1
Vargatef
setting
existing
ea
jedes
seconds
height
Verkehr
extensive
evening
immunosuppressive
AV@@
cellulose
ITT
Flüssigkeits@@
damaged
consumption
Alzheimer
haemophilia
3.3
thi@@
Xeloda
cs
Bosentan
verminderter
deshalb
Antagonisten
pe@@
Nicht-@@
From
ADRs
schem
Neupro
ons
Entnahme
Eporatio
Teilen
periodic
consider
tis-@@
Stadium
üblichen
Prävention
reversibel
135
optimal
Hypokalzämie
onto
Yondelis
ipilimumab
Lage
Oncaspar
endes
Gefäß@@
empagliflozin
failed
spritzen
loading
RMP
identifiziert
sensitive
Sycrest
fen
Emtricitabine
Blutungs@@
Kontrazeptiva
TREVICTA
Bauch@@
Harvoni
Mix50
CNS
alpha-@@
nachfolgenden
cular
equal
überschreiten
bromobutyl
signifikanter
chills
geringere
normale
decreasing
Sebivo
ismus
Of
legen
tin
ion
Frequency
BMI
Hämoglobin@@
Cal@@
Thrombozytenzahl
PE@@
lokal
Post-@@
Eliquis
technology
adjuvant
Begleit@@
EndolucinBeta
polypropylene
osis
Sehstörungen
Gr@@
ß
chlor@@
Iblias
Überempfindlichkeitsreaktion
Werten
night
ongoing
Einstellung
Xeristar
nahezu
Synjardy
transporters
shock
experiencing
blockiert
det@@
Ältere
dyspnoea
Am
fil@@
fest@@
BTVPUR
Rash
Tablet
20-@@
repeat
Warnhinweise
Emtriva
solid
5,8
106
Nierenfunktionsstörungen
Matever
episode
Xigris
MedImmune
kurz
Vardenafil
buprenorphine
linagliptin
Packungsgröße
atoren
tik@@
1.9
seven
che
Sirolimus
organic
Schmerz
ticagrelor
Episalvan
transport
graft
uncontrolled
perforatum
return
Omidria
monatlich
Dialyse
jungen
Bruchkerbe
preventing
exacerbations
needs
shaped
din
Sorbitol
Mannitol
ACR
malignen
hei@@
thrombotic
dolutegravir
position
Erythem
Symptoms
While
OPA
320
Wirkmechanismus
medianen
IgG
Dasabuvir
ism
Cinryze
zuverlässige
beschwerden
harmful
produziert
fracture
Hämodialyse
Single
Renagel
fin@@
gelbe
GFR
woman
Kontroll@@
Tekturna
confusion
underlying
Krankenhaus
dementia
Ox@@
carbamazepine
process
producing
bre@@
Myokardinfarkt
25-@@
immunisation
-Syndrom
Proteine
elles
Pilzinfektionen
m-@@
Millionen
sonstige
Etanercept
Bisher
activities
Keine
CD4
verminderten
lä@@
Gesichts@@
Ser@@
Mild
patches
responders
spot-on
flow
unterzogen
-Arm
gem
Kortikosteroiden
Behandlungsgruppe
Stillen
TYSABRI
tödlichem
1b
amin
Ansprechraten
prepare
NUEDEXTA
transmission
Möglicherweise
deutlich
Granulat
SIMBRINZA
comparison
PT@@
Grastofil
verschluss
PARTICULARS
BEDINGUNGEN
vs
Asthenie
wi@@
agonist
Step
arm@@
methyl
Nüchtern@@
schneller
Getränken
SVR
Myclausen
Pr@@
nachweisbar
juvenile
nivolumab
let@@
Schweine
Tyverb
Boceprevir
PDE@@
ging
Frankreich
comparator
General
Frakturen
PVDC
NovoEight
essentially
Control
layer
SUBSTANCE
induzierte
feline
Germany
PL@@
specifically
Viruslast
Oberteil
Erreichen
angewiesen
tiger
guidelines
Qu@@
Zahn@@
Nierenerkrankung
user
Syndrome
verwendete
-Durchstechflasche
Raxone
richtig
Entsorgung
al-@@
strains
granules
Vistide
Gastro@@
behandlungs@@
virologic
aufrecht
Descovy
betragen
Ristfor
cal@@
continuous
Neoclarityn
embryo@@
wei@@
Also
enter
wor@@
Vi@@
br@@
modified
berücksichtigen
pan@@
Dogs
relief
Nordimet
1,1
se-
multipack
markierten
concurrent
bildet
ically
Maintena
zoster
Monitoring
veterinarian
420
weist
ES
Armen
ß@@
Trobalt
apart
11@@
Stabilität
Durchführung
stelle
sation
Dacogen
8.@@
Medikamente
Vantobra
Clarithromycin
stellung
tern
Ber@@
Te@@
EL@@
Merck
index
drip
richtet
cl@@
atische
Lyophilisat
Cabozantinib
ologic
fortgeschrittenem
DAS
schwerwiegender
done
weißer
Opsumit
Brechen
antiviralen
circumstances
18-@@
Ovaleap
chlorid
attacks
ing@@
SP
EXJADE
p-Wert
ihnen
Rapiscan
Livensa
retinal
metastasiertem
Initialdosis
mostly
behandelnden
suppression
cm2
Bre@@
Ristempa
interstitial
million
nis
ZYTIGA
Mortalität
gesunde
7.@@
Somnolenz
0.05
DI@@
Hy@@
dine
Lymph@@
inadequate
0,05
Ag@@
Primary
Gelenkschmerzen
ord@@
Envarsus
nephro@@
MARKETING
Kortikosteroide
Immunisierung
Unverträglichkeit
Kontrollgruppe
ämi@@
Telaprevir
mouse
Lucentis
irbesartan
deep
Schw@@
Atosiban
Schock
Tenofoviralafenamid
stell@@
CLL
Atmung
mil@@
hCG
tid
Kinzalmono
bro@@
adjust
Zum
Ohr@@
fet@@
senken
Lumark
requires
1,9
lokalen
Kriterien
Ig@@
Beinen
refractory
selben
Schlaf@@
Lenvatinib
Ranexa
Por@@
disturbance
Schmelztablette
pat@@
Headache
doppelte
Xelevia
forgotten
tube
block
AP@@
Expositionen
els
sulf@@
vaginal
Omnitrope
Ei@@
0.000
uria
europäischen
Übertragung
Trans@@
CONDITIONS
Schädigung
aktiv
CE
Immunsuppressiva
Bupropion
Hirobriz
Flöhe
dar@@
various
Abfall
lässt
4.9
speziellen
P-gp-@@
inside
schmerz
Buprenorphin
drop
Aufsicht
ihren
filled
forms
bor@@
210
appearance
Change
Aluminium-@@
Muskeln
tig@@
rivaroxaban
Th@@
tiges
BRAF
APPEAR
diagnostic
Wasser@@
Both
12.@@
discolouration
Rei@@
genetic
Hand
l-@@
stimulation
Budesonide
nüchternen
vorgenommen
Ketoconazole
musculoskeletal
ache
Resolor
sondern
Neofordex
macrogol
NovoThirteen
Ket@@
On@@
Liste
thro@@
Meth@@
swallow
Carton
2,3
ativer
L4
Blutgerinnseln
thoroughly
ill@@
allergy
ami@@
LE@@
Häufige
Effect
oper@@
Sicherheitspharmakologie
bit@@
hormonal
rest
til@@
dosis@@
Fahrzeug
prednisolone
Posaconazol
PDE5
Kinzalkomb
Langzeit@@
fal@@
diameter
helfen
Schwindelgefühl
überarbeitet
144
literature
nature
Byetta
Rifabutin
veröffentlichten
changed
Elderly
§
551
atory
manchmal
Prevention
non@@
High
Cardboard
Solvent
untersuchten
Einzeldosis@@
protein@@
gruppen
taste
lowest
No@@
bestimmter
glycaemic
Angioödem
re
Zonisamid
verschreiben
Gesamt-@@
Avoid
arrhythmias
initially
amino
glargine
val@@
transporter
Markierung
inen
pyrexia
freien
salt
Incresync
2.6
ment@@
WHO
Milch@@
informed
Liraglutid
push
glargin
Nuwiq
9,@@
ich
wichtigsten
Riociguat
Tybost
verbessert
Aufdruck
Lippen
seriousness
Bauch
wheezing
Parareg
acetylsalicylic
AlSap
ac
symptom
Vectibix
remember
Thrombozyten
Auswertung
ACE
benötigte
GIOTRIF
pink
lic
fallen
RCP
Aktivierung
genic
hy@@
Hemmern
temporarily
vis@@
männliche
Zelboraf
ovale
13,@@
2008
Überprüfen
einzelne
Spanne
wissen
schon
CA@@
metastases
4,0
anticancer
Additional
Nasopharyngitis
od@@
Er
skeletal
aw@@
Tocilizumab
omen
Verfahren
lat@@
Sunitinib
onic
Ben@@
Valtropin
flip-off
Bakteri@@
spontaneous
Rückenschmerzen
Zubereitungen
Rivaroxaban
Konzentrations@@
oth@@
myalgia
Metabolite
ANGABEN
Dexdor
zunächst
prot@@
Prozentsatz
hämatologische
discuss
Mus@@
substitution
Recommendations
fibrillation
geimpften
gastrointestinalen
Psoriasis-Arthritis
broken
nötig
SEGA
Entzündungs@@
ID@@
scientific
permanent
Anfällen
Plazebo
2,0
acknowledged
zusammengefasst
gh@@
recurrent
assays
Arten
Loxicom
Itraconazol
Inhal@@
375
Calcium
Prednisolon
eln
fall@@
Futter
neurological
OCT2
Arthralgie
sheep
Versagen
pipettes
nimmt
Excipients
Nasen@@
Haem@@
unterschiedlichen
Sollte
Me@@
Equilis
nit@@
physikalische
pres@@
rekonstituierte
rep@@
Rotarix
Oslif
pri@@
Revinty
anaphylaxis
2012
herbal
atrial
mother
Zometa
Parkinson-Krankheit
gens
ativ
STAYVEER
Lymphozyten
Bo@@
NRTIs
Fläschchen
Imp@@
warm
acet@@
Adults
ig
ear
circulating
Krebserkrankung
om
BLISTER
Körpertemperatur
gründlich
land
Wund@@
auslösen
Side
Trocoxil
serotype
110
Vivanza
Sel@@
Behälter
uncommonly
2.4
zo@@
din@@
samples
asthenia
Hydro@@
phenytoin
eno@@
gebildet
glu@@
sions
573
kardiale
preclinical
multizentrischen
rituximab
LVEF
reg@@
Daliresp
etanercept
Combination
BindRen
DuoResp
Laboratory
drehen
ading
reverse
Eth@@
100@@
bradycardia
Ho@@
adjuvanted
Lin@@
organs
insomnia
hypocalcaemia
Ratiograstim
fac@@
revised
ut
RAVICTI
additive
bald
Sal@@
speziell
il
reagieren
Health
Diuretika
sierung
Atembeschwerden
Baraclude
Herstellers
Antipsychotika
80@@
act@@
sodass
recent
congenital
3.1
Subjects
Rolle
renewal
flea
urie
anz@@
Nevirapin
280
isolated
ages
Affen
returned
Infusionsbeutel
Simeprevir
0,25
fahren
teilnahmen
Alopezie
hält
tocilizumab
Befunde
in-Dosis
richtige
out@@
Ärzten
posaconazole
clot
doctors
AT
Low
PACK
Member
Tél
button
ute
Depressionen
meth@@
ss
recurrence
dizzy
SOMAVERT
derzeit
Votrient
cartons
unusual
teil@@
schwach
gro@@
CLcr
kom@@
Verschlimmerung
thrombo@@
are@@
hell@@
Fondaparinux
containers
gabe
beyond
fumarat
Acute
ulären
erectile
ie-@@
starch
ihr
Placebogruppe
visible
dyspepsia
guard
Visudyne
abdomen
potentielle
Then
vary
genaue
ihn
betrifft
Replagal
ad
Erhaltungstherapie
observation
Jentadueto
under@@
SCH@@
14-@@
β@@
ETIKETT
erzielt
ain
Glycopyrronium
Patientengruppen
Beobachtung
5-
Long-term
Pramipexole
BM@@
quickly
measuring
clotting
sorgfältige
Gewichtsverlust
rote
YENTREVE
Durchmesser
de-@@
perforation
14C-@@
Fexeric
immediate-release
valsartan
bosentan
ders
thus
develops
chirurgischen
durchschnittlich
Bes@@
outcomes
Höchstdosis
fe@@
scores
uptake
Tier
Berücksichtigung
Revestive
mas@@
Beschreibung
RotaTeq
Ausgang
Ethanol
Leuk@@
Scintimun
2,6
Amyvid
atischen
unborn
eri@@
tel@@
unstable
took
oxi@@
Month
AS
Hämophilie
eindeutig
potenziell
Parästhesie
Ob@@
review
submit
Ltd.
Cholib
PT
objective
implant
GlaxoSmithKline
Taubheitsgefühl
Rituximab
Mutter
Bilirubin
1-2
Weight
-0.@@
ebenso
Hi@@
probleme
HRA
characterised
itäts@@
nevirapine
coma
G-CSF
role
unterstützende
17,@@
-D@@
palonosetron
reich@@
Onduarp
jüngeren
disposition
iden
Stelle
So@@
hilft
Katze
vildagliptin
sieben
CT
Desloratadin
movements
moderately
Allgemeine
Fäzes
Patronen
klasse
Imnovid
2.3
amid
substitutions
Pharmaceuticals
Dosierungsschema
ving
Nintedanib
2C9
pandemic
17.@@
lympho@@
defects
dy@@
enti@@
spine
CYP3A-@@
bestand
models
pregabalin
mg-Dosis
offene
erbracht
funktion@@
Toxizitäten
Valdoxan
USE
pos@@
mut@@
ve@@
hämatologischen
press
Fampyra
toxisch
900
emergency
3,0
3-
kardiovaskuläre
tete
Jinarc
ADROVANCE
5HT@@
stiegen
Lebensqualität
Alkoholtupfer
Freisetzung
bewertet
schw@@
basal
Stimulation
fetale
doppelblinde
packaging
benötigten
Extr@@
resumed
asymptomatic
beschädigt
Numient
COM@@
7,@@
Abatacept
½
Hydrochlorid
opalescent
Druck@@
wirkung
Viracept
bereit
nor@@
unde
ED@@
3.7
CTCAE
Photo@@
acknowledged.
Lutetium
TNF-@@
opioid
-1@@
PA
177Lu
gende
bu@@
Veterinary
affinity
ufen
agreed
höherer
applicable
alleine
rheumatoider
ators
ide@@
verändern
Niere
compound
Tinte
hingewiesen
visit
lips
Vemurafenib
malformations
indicates
green
SVR12
folgender
lie@@
1,73
stei@@
lip@@
relieve
sions@@
Privigen
Colitis
prostate
Myalgie
dexmedetomidine
Pembrolizumab
sirolimus
Nephro@@
Krebszellen
Gehirns
lymph
2C19
dio@@
245
to-@@
low-@@
eck@@
Gluko@@
dom@@
MBq
lierte
cat@@
Neugeborenen
MA@@
Symptom@@
Pap@@
fte
Auftretens
Inf@@
blind
forming
herpes
Kin@@
wirk@@
6.7
öse
oly@@
FVIII
013
laktierenden
ältere
giving
individuellen
managed
burning
formoterol
arthralgia
wenige
idiopathic
entsorgt
ris@@
erythropoietin
TE@@
Arzneimittelwechselwirkungen
Tumore
Injizieren
swallowing
IM@@
Seebri
Ausnahme
kombinierten
Holoclar
provides
PROTELOS
tingling
besondere
erer
Randomisierung
Faktoren
anhaltende
predicted
outweighs
BSC
somatropin
wen@@
rise
courses
endo@@
risiko
adefovir
ess
finding
nodes
ör@@
base
Ledipasvir
Picato
Febrile
lös@@
ALT-@@
bl@@
Kan@@
glycopyrronium
cold
geprüft
Qtern
Jardiance
Posaconazole
considering
wh@@
Respiratory
anaphylaktische
RAS
Defitelio
IB
Plan
co-
dur@@
alpha
Richtlinie
FALTSCHACHTEL
BASAL
dissolved
thereby
Taking
artery
Zusammen@@
od
geschluckt
Kribbeln
Pl@@
cat
family
Eisen@@
National
wash
2,8
wann
zuerst
Beta-@@
sep@@
Kalzium@@
Major
manchen
ality
103
3,1
verursachte
binden
bringen
serotypes
gradually
wissenschaftlichen
Kolbam
switching
Fre@@
interrupted
blut@@
biologischen
Ombitasvir
ZYPADHERA
sex
unbekannt
TNF
hier
hemmen
eingeschlossen
ling
Herzrhythmusstörungen
→
ort@@
transfusion
Protopy
befolgen
lopinavir
Multiple
Onglyza
wo
frequencies
Folgendes
attached
LDL-@@
primär
BOTTLE
switched
kuläre
Pulmonary
gelb
spiegels
Erythro@@
rejection
eben
sagen
Spedra
BESONDERE
übergehen
Sovaldi
zuzulassen
Konfidenzintervall
Differenz
Ergebnis
geplanten
That
ointment
angebracht
verlängert
Transporter
gespritzt
lipo@@
meaningful
Therapiebeginn
Quixidar
angemessen
Pharmacokinetic
bezogen
quinidine
ausgeprägt
Hemm@@
suicidal
-3
Suboxone
mel@@
ALPROLIX
reporting
Siklos
try
aufrechterhalten
satz
Gen
one-@@
Mehrfachpackung
ton@@
looked
Tro@@
Influenza-@@
entsprach
printed
triglycerides
enn@@
Phenobarbital
Cor@@
We@@
6.2
Mono@@
Vietnam
lichkeit
gungen
Zeffix
Bar@@
vorher@@
Erstzulassung
IF
beinhalten
post@@
duc@@
Bauchspeicheldrüse
gekennzeichnet
4,4
zubereitet
keinem
glich
sugars
dauerhaft
bladder
gewohnten
itraconazole
jeglicher
Vorhofflimmern
spitze
Exazerbationen
psychiatric
ech@@
bakterielle
µM
2.8
foetus
UK
blieben
OPTISON
dispersible
Ö@@
bruising
Mycoplasma
Immuno@@
St.
ogen
update
Dexmedetomidin
alität
Twynsta
tin@@
Paritaprevir
formed
Ebilfumin
schwer@@
US
keiner
Blutungsrisiko
dem@@
Hold
parts
king
fe
Polyethylen
flu@@
8,@@
Dispose
Knochenmark@@
Systemorganklasse
lar@@
DE@@
furoate
lebensbedrohlich
Kolitis
ties
marketed
~
OP@@
Kadcyla
Bevor
PP
erfolgte
sterilen
Subcutaneous
114
movement
bedingter
ener
haltige
IG@@
eltrombopag
throw
contrast
inducer
OPDIVO
Vitekta
Atmen
Tetra
respect
warranted
schmerz@@
2014
Behandlungsende
empfehlen
bewirkt
ür@@
-Werte
ecken
solange
Agonisten
2,4
zation
gastro@@
Scale
Wirkstofffreisetzung
Docefrez
contained
Hals
Benepali
Raloxifen
multicentre
Hydroxy@@
Dar@@
Anstiege
aggregation
Vorliegen
X-@@
abatacept
renalen
2.
schädigen
erythro@@
nahm
Rhinitis
größeren
Eliminationshalbwertszeit
interfere
lte
Nahrungsaufnahme
Lipo@@
Akkumulation
Wachstums@@
Cyramza
chickens
subgroup
happens
lact@@
Tolucombi
operation
brechen
4,8
J
kontrollierte
ABASAGLAR
Code
DE
Albumin
practice
Prä@@
tolerance
posology
geöffnet
ausreichenden
Spezies
betroffenen
fixed
Normalisierung
II@@
Sekretion
flushing
200@@
healing
rekonstituierten
Fachen
core
Qualität
Ulunar
0,000
SIND
HBeAg-@@
fits
Komp@@
unable
ansprechen
teilweise
Blähungen
lam@@
adalimumab
res@@
Träger@@
22@@
At@@
parahydroxybenzoate
ADMINISTRATION
erforderliche
vermittelte
mäßige
AS-@@
cop@@
OSSEOR
Mediane
dosed
gehalten
102
sorbitol
ECG
Gewichtsabnahme
Todesfälle
SM@@
Neuraceq
HER2
gu@@
aufnahme
vernachlässigenden
Gal@@
Wirk@@
irregular
Phase-III-Studie
Possible
Or@@
tuzumab
memantine
tw@@
überwiegend
Vorbereitung
bestimmen
Immune
gelagert
Fortschreiten
hydrochloric
primärer
Actelsar
Fort@@
Prozent
sierten
zyto@@
stem
Translarna
Portrazza
ind@@
verteilt
Contact
indinavir
congestive
sight
obtain
stellte
humane
q@@
chemical
zeta
sale
Zer@@
eggs
Duration
tubular
Rue
verstärkt
höchsten
Sh@@
Prüfungen
blieb
XALKORI

Novo
EX@@
pharmakodynamischen
Lösungen
Dicural
ick@@
Acetylsalicylic
Behandlungswochen
necrosis
TEN
Sodbrennen
Enthält
tells
Refludan
EM@@
-0,@@
altern@@
Ist
liraglutide
stoffen
Peripheral
Fläche
sor@@
hold
auftretende
sogenannten
Odefsey
ric
sogenannte
Rienso
Serotypen
Activyl
supervised
iness
é@@
Axitinib
Pipetten
vas@@
Mar@@
Further
regard
188
axitinib
synthesis
014
oni@@
Lymphknoten
paclitaxel
MDS
myo@@
Ingelheim
adrenal
Oberschenkel
Au@@
Luft
Einstichstelle
wechseln
dosierung
beta-@@
E132
Sevelamer
nuclear
net
aut
empfindlich
TTP
anaesthesia
Cushing
mus@@
wort
Placebo-kontrollierten
ort
Körpergröße
non-steroidal
farblos
einhergehen
waschen
lenvatinib
berichtete
OL@@
hives
consciousness
azol@@
Nesselsucht
sevoflurane
More
360
mithilfe
Eliminations@@
Nat@@
zy@@
Applikationsstelle
lesion
Missbildungen
alanine
Steady-State
Thro@@
säure@@
IST@@
dispose
4.7
ect
ton
strongly
fri@@
essen
chen@@
others
Arepanrix
good
tä@@
Bovis
nintedanib
EIN@@
sunitinib
sieren
geringeren
agitation
abgewogen
ark@@
angenommen
Elonva
betrachtet
pp@@
Durchschnitt
Stomatitis
le-@@
monoclonal
variability
intolerant
Setzen
tetanus
tom@@
Immunsystems
HCS
Flaschen@@
Zavesca
Tropfen
elvitegravir
seroconversion
off-white
LV@@
fusion
Do@@
Le@@
concurrently
Optaflu
unterhalb
prescribing
hot
don
ven
weibliche
Arava
accompanied
Stevens-Johnson
mittelschweren
Patientin
azol
016
schlucken
cr@@
Mit@@
Skala
Altersgruppen
Temomedac
cur@@
sleepiness
vemurafenib
gelegt
ely
stehenden
Eptifibatid
rä@@
cer@@
negativen
Mehrheit
Mark@@
telaprevir
aktiviert
pertussis
progression-free
verzögerte
gl@@
abzubrechen
Extremitäten
cap@@
3.6
ZIMULTI
withdrawn
020
refrigerated
ore
heartburn
filtration
Antidiabetika
Ivabradine
Directive
antivirale
EVARREST
früher
Rückgang
Anorexie
Trazec
Eurartesim

trimester
difficulties
0.25
Pol@@
Anhang
methods
Bewegung
Fr@@
ese
behälter
korrekte
Ovitrelle
Lagerung
d.h.
arzt
l.
vo@@
titrated
Fluticasonfuroat
niedrigeren
ösen
naturally
Arzneimittelwirkungen
-S@@
film
umab-@@
miss
CIAMBRA
Induktoren
ID
1.73
#
Similar
never
Empfehlung
Rep@@
cohort
anticipated
ner
gelangt
ungs-
lie
Approximately
postnatal
hexa
informiert
depend
emtansine
inn@@
Urorec
Healthcare
Asian
tools
pattern
Cy@@
Hypertension
Tractocile
Angiotensin
roter
Mundtrockenheit
Idelalisib
lon@@
Knochenmark
Everolimus
Hexyon
umfassen
befinden
mitteln
allo@@
erb@@
bikonvexe
Strahlentherapie
ologischen
171
ausreichende
war@@
Brust@@
liert
schwarzer
contamination
raised
CABOMETYX
Zarzio
zus@@
opathy
×
Lumacaftor
5.6
Eye
6.5
Povidon
Rezeptor
instituted
DNA-@@
Nas@@
2.7
born
jaundice
glomerular
Internetseiten
Robenacoxib
kre@@
umin@@
est@@
abends
Nadel@@
Swallow
fällt
berichten
Dasselta
einiger
geliefert
Cholesterin
dates
Inc@@
routine
medizinischem
TP@@
Fortsetzung
OLYSIO
drinking
Otezla
mg-
13-@@
planen
thromboembolische
Salbe
Tageszeit
Bewahren
ete
Xaluprine
wiederholt
Helicobacter
gewicht
Parkinson@@
Vernebler
5,6
Zenapax
EDURANT
Leben@@
Beromun
E2@@
carb@@
ron@@
ischaemic
grey
Produktion
hypokalaemia
indi@@
epidermal
stops
Actrapid
Fötus
contr@@
ants
011
ches
ALS
Praxbind
sa
hormon@@
Cardiac
benefit-risk
DVT
Pal@@
Bezeichnung
untersuchungen
Yellow
ste@@
n-@@
Adalimumab
encephalopathy
IKERVIS
rekombinante
spondylitis
Wash
IgE
Erythema
werts
Bro@@
oh@@
Thorinane
Antiepileptika
ischer
intr@@
raloxifene
hyperglycaemia
Paclitaxel
Poly
treatment-naïve
sierende
festzustellen
Fi@@
ihrem
visually
Bedeutung
urea
sä@@
beginning
Neugeborene
Placebo@@
tungs@@
Einmal@@
Säuglinge
CSF
ImmunoGam
Responder
tt@@
aemic
ok@@
wach@@
x-@@
3,7
squamous
exp@@
analogues
Einsatz
Augentropfen
Cerdelga
ching
hist@@
immunodeficiency
AC@@
aff@@
Epistaxis
vermögen
Wartezeit
Paliperidon
chance
anpassen
lines
niemals
keiten
inhibitory
Indonesia
jährigen
stools
Incruse
haut
responding
Orkambi
Ziagen
app@@
Risikomanagementplans
2015
Angi@@
ille
PCV2
cul@@
Interaction
spleen
MM@@
b-@@
sion@@
angesehen
55@@
kontrolle
Neutropenia
11-@@
Vortioxetin
nerve
BUCCOLAM
Vidaza
comparing
EMEA
Antiphlogistika
Verteilung
lyophilisate
coating
ologie
starker
Constipation
Ruconest
2013
Gewichts@@
BRINAVESS
unteren
vul@@
ähnlicher
candidiasis
Dermatitis
gewährleisten
meist
6.4
230
Luftblasen
document
E.
Tol@@
VIAL
cartridges
Lassen
Verpackung
Abbau
Hautrötung
whereas
morph@@
Emtansin
Vari@@
2.1
ase-
asparaginase
Simulect
sulph@@
auftrat
path@@
sier@@
ical
directed
Abnormal
Literatur
ack
inspected
CYP@@
Nivestim
locally
Criteria
medications
relativ
Schwerwiegende
Hauptmetaboliten
orische
Clinically
melphalan
Nor@@
Ameluz
background
naltrexone
Sulf@@
exhibited
1A
unzureichend
suchen
Blue
Docetaxel@@
In-vitro-@@
6,7
Beh@@
70@@
SoloStar
AG
model
microcrystalline
mehr@@
Vaccine
mes@@
hypromellose
beider
Mittel@@
EMADINE
methyl-@@
irgendwelche
Can@@
intermediate
rhythm
NULOJIX
antipsychotic
pH-Wert
concerning
AMD
retin@@
preparations
Myo@@
assoziierten
Bosutinib
happen
a.
char@@
gepoolten
along
packaged
betrugen
organ@@
2,1
schwerem
A771726
Thrombozy@@
Vildagliptin
nebuliser
generation
tab@@
grouping
Originalverpackung
einsch@@
mannitol
Removab
HEXAL
erfahren
resolution
tigkeit
visuell
Tlf
700
302
Chinidin
abnehmendem
schwäche
128
appeared
Blockade
vermindern
D3
lierten
Melphalan
zudem
weiter@@
Kol@@
Musculoskeletal
designation
regardless
nor
connective
Vipidia
menschliche
info
ulcers
40-@@
numbness
beachtet
symptome
medizinisch
wenig
perforierten
tor@@
gram
fraction
BIOLOGICAL
Z
infestations
Gripp@@
feed
2D6
Iron
Hau@@
oralem
Pen@@
ungspro@@
Demenz
rit@@
Hör@@
ule
yk@@
achieving
versehen
großen
enter@@
gland
talc
Sicht
Empfängnisverhütung
detectable
Forxiga
Risiko@@
Rezeptor@@
x1
malabsorption
Bu@@
tionen
Minute
ARZNEIMITTEL
Article
MG
Serotyp
vortioxetine
Senshio
ack@@
Antigen
busulfan
Standard
machinery
alfa-2a
Steigerung
Ep@@
Antagonist
5.4
flat
Komponenten
phosphat
Pipette
valent
seite
ole@@
Zecken
atively
recorded
Heart
BE
270
silica
stärker
aPTT
Iso@@
entnommen
boceprevir
therap@@
Wirkstoff@@
co-infected
Hist@@
MRI
normali@@
arzneimitteln
inic
Ipreziv
In-@@
everolimus
metaboli@@
developmental
karzinom
fr@@
phy@@
ansprachen
diuretic
Regime
daten
Latuda
ME@@
Lymphom
graf@@
medi@@
gehend
Enzepi
sy@@
pot@@
Ambrisentan
54@@
tolvaptan
angemessenen
esis
Floh@@
incontinence
Kopf@@
chte
Gu@@
obstructive
intensity
insul@@
curve
gesenkt
Emulsion
controls
iz@@
populationspharmakokinetischen
keit@@
schütteln
stest
Plenadren
fibrin@@
verpackt
Entyvio
-Patienten
sprachen
removal
EG
Xiliarx
kardiovaskulären
som@@
partially
Ges@@
Dosi@@
newborn
Bluttests
tiver
rek@@
desiccant
PLATO
301
Zulvac
SE
3,9
KG
Like
glycol
aktion
21@@
IIb
Koma
PI
anderem
indacaterol
Zyto@@
Artikel
vier@@
lan@@
näch@@
auen
Inject
RCC
oxygen
Section
Sobald
keits@@
erg@@
Funktions@@
Ethinylestradiol
pulmonale
Reizbarkeit
IRR
ured
Varianten
Urinary
fluids
UT@@
fication
foreign
PACKAGING
acquired
Formen
ard
Netherlands
end@@
Steady-State-@@
358
significance
Herzerkrankung
gener@@
Pravafenix
sit@@
det
1A2
Absatz
Pritor
basiert
proteinuria
unterschiedliche
tabletten
nahe
2010
5.5
obstruction
Mögliche
galactose
becomes
klein@@
conversion
fälle
Erythromycin
SS@@
protein-@@
dringend
aktivität
Maße
Vial
Fingolimod
gleich@@
lipid
früheren
Ganzen
attenuated
FAC
c.G@@
Konservierungsmittel
Neutrophilenzahl
ath
β-@@
transcriptase
SA
allows
PET-@@
umfassten
Kno@@
surveillance
02@@
HIV-infizierten
ärer
emulsion
∞
sicherstellen
RI@@
Hormons
aking
Teriflunomid
superior
Rezeptor-@@
Alert
parent
ually
TIMI
·
R-CHOP
acht
esen
cholic
gew@@
Total
enh@@
basieren
assen
Herpes@@
Blutplättchen
Thelin
AB
zen@@
Indikation
mess@@
Transport@@
Nucala
OAT3
ca@@
OTHER
interstitielle
allgemeinen
Schul@@
Zy@@
NS3
elt
peripherer
specified
Dizziness
sekretion
titre
HDL-C
attach
bronchospasm
Lymphoseek
kno@@
Tolvaptan
jünger
replace
Ebymect
ombitasvir
exposition
analogue
Sutent
revealed
myelo@@
penis
Leberschädigung
unbehandelten
occasionally
uf@@
schnelle
drug-drug
HCV-RNA
15,@@
lant@@
Fett@@
antidote
chronische
tar@@
130
mutagenic
VIII-@@
Aufbewahrung
intravas@@
festgelegt
Glucoselösung
H1N1
Etwa
Pomalidomid
TVT
fibro@@
senkt
Unterzuckerung
Lethargie
medically
radioaktiven
potenzielle
andau@@
einmaliger
ites
Angst
categories
Tabellen
ental
MEDICINAL
2-fold
Glidipion
schutz@@
Inhibitors
Akynzeo
Anpharm
2B6
ämischen
terminaler
Harnwegsinfektionen
typically
end-stage
iso@@
Adjupanrix
Ir@@
Polypropylen
CON@@
Cer@@
phosphatase
Biograstim
leben
radiotherapy
Magnesium
suicide
impair
restrictions
p-@@
metabolisers
NNRTI
353
completion
ler
279
Xigduo
beginnt
183
Beide
sperm
154
ret@@
aufgelistet
Hühner
OZURDEX
extensively
subsequently
stimulate
ATE
formal
erection
2,7
gre@@
Hepsera
belatacept
ine@@
Übereinstimmung
Biopartners
Ofatumumab
Disperzi
PH@@
Dasatinib
Überlebens
PD@@
mis@@
ently
reli@@
Eagle
Strensiq
Hämoglobin
Adult
erfordert
eng@@
dasabuvir
Ansicht
oxidative
Wi@@
ogen@@
anc@@
motor
dopaminergic
Händen
Methyl@@
Überlebensrate
cord
URSPRUNGS
finger
gek@@
Analysen
pegylated
atic
REGRANEX
Früh@@
ENT
fällen
angle
sekundäre
consisting
aria
Pharmakokinetische
heparin
paritaprevir
zuständigen
Make
74@@
pharmakologische
Vomiting
naive
packed
kurz@@
Shelf
Allergic
BIOLOGISCHEN
trained
engraved
scan
wichtigen
igh@@
resolve
want
rifabutin
Transient
estradiol
access
aware
fer
verschreibungspflichtige
Adefovirdipivoxil
discoloration
outweigh
Drug
kan@@
beat
s.
unerwünschter
multipacks
heraus
inactive
Fin@@
hau@@
heartbeat
vardenafil
bakteriellen
As@@
Wiederaufnahme
Naltrexon
tisch
Krampfanfällen
befolgt
Impfstoff@@
Neben@@
116
pazopanib
Leberfunktionstests
engmaschige
-Wert
Indi@@
distributed
Macitentan
­
ast
somit
oms
pas@@
sw@@
produktion
entsprechen
ausgegangen
solcher
µl
Wechsel
dipivoxil
mb@@
kali@@
P.
pramipexole
Kuvan
Sabervel
intramuskuläre
Pull
permanently
manic
Makro@@
radiolabelling
Naloxon
mpf@@
Blin@@
3.9
MRP2
stabili@@
alten
E110
hydro@@
Phasen
cumulative
stiffness
Feeling
capacity
phenobarbital
hinweisen
HPV-@@
bei@@
Bas@@
zahl
ganz
Daten@@
thought
Siliciumdioxid
Tigecyclin
imaging
allgemeine
28-@@
sign
verstoffwechselt
113
vari@@
Untergruppe
planned
CI@@
TRISENOX
Dy@@
Induktor
cho@@
Proteinurie
Fehl@@
CV@@
tors
Brustschmerzen
ha@@
Folgenden
verschwommenes
Niederlande
non-
Produktes
PV@@
becoming
Exenatid
gastro-resistant
Dadurch
kungen
eben@@
ce@@
reac@@
ogenic
st-@@
minimise
ved
Überlebens@@
einzuleiten
WIRKSTOFFS
4-
trag@@
Schritten
CRIXIVAN
examined
Men@@
3M
fetal
leads
steigt
tun
Micardis
BO@@
details
Lat@@
humanes
bul@@
Substitutionen
tägigen
Infection
la
ZOSTAVAX
imprinted
sur@@
Da@@
My@@
WE@@
multiplen
Raten
viation
ogene
stets
Entwicklungstoxizität
UMHÜLLUNG
ALU
hypertensive
agen
Spondylitis
143
Enurev
S.
Krankenhaus@@
Oseltamivir
ATION
haemorrhagic
Ster@@
bestehend
desired
Phosphatase
hervorgerufen
117
Ort
Dys@@
acetat
verzögert
tierten
ili@@
derivative
arterielle
abzu@@
Fach@@
Phase-III-Studien
nelfinavir
Gewebe@@
Notfall@@
begrenzten
spezielle
brauchen
Rasagiline
1500
Kontrollen
neuer
la@@
rezidivier@@
Variabilität
örtlichen
Lebererkrankungen
DM@@
Discard
sulphate
GvHD
step
Nekrolyse
ate-@@
Analysis
readily
towards
theta
don@@
Oxyglobin
204
stu@@
ae
dosisabhängige
Altern@@
bosutinib
Card
peritoneal
Komponente
transaminase
gestellt
Brimica
Punk@@
Pasteurella
granted
hereditären
PRODUCT
butyl
versuchen
Anxiety
Retin@@
Important
famili@@
delivery
73@@
Kombinationsbehandlung
vielen
Muscle
VIAGRA
Geschmacks@@
Lungenembolie
Abschluss
längeren
potenti@@
Mutter@@
körperliche
ares
Gastrointestinaltrakt
hydroly@@
Oberfläche
krankung
ras@@
ärztlichen
induziert
begleitet
Brennen
OT@@
Stoffe
Halluzinationen
radioactive
erge
West
SU@@
Adapter
fenster
Brilique
sul@@
IT
Bra@@
Mul@@
Silodyx
KOGENATE
Belgium
98@@
fortsetzen
längere
Ursache
deaths
Libertek
hydr@@
Mikrokristalline
Changes
supplements
Muskelkrämpfe
Dopamin
ZUR
ZULVAC
memory
find
convulsions
TSH
ACR-@@
symptomatisch
Twinrix
Achten
RILUTEK
stoff
Lurasidon
durchschnittlichen
sat@@
ideation
direkte
Nicht@@
setzung
Hypotension
ay
Zalviso
nationale
sevelamer
Flecken
Events
wiederholten
infusionsbedingte
zierten
users
placed
ün@@
humaner
upright
late
besser
Kranken@@
Eklira
AUC0-@@
hormones
location
Mischung
necrolysis
Strahlung
schein@@
itself
aci@@
Schulungsmaterial
Appetitlosigkeit
gewonnen
HbA1c-@@
abdomin@@
neurologischen
Experience
rhinitis
ward
EGFR
produces
Level
Stavudin
sters
granul@@
Moderate
Sildenafil@@
29@@
Myelo@@
LD@@
Alkoholkonsum
2-4
oft
stillenden
Entstehung
Erektion
Zwischen
itchy
extended
bags
Prot@@
ying
rDNA
rekombinanter
ergibt
recipients
pipette
airways
0.03
zonisamide
Trajenta
5,1
def@@
Pasireotid
fied
kel@@
infectious
dor@@
verwendeten
Injektions-
aspartate
indigestion
oestrogen
stammen
Zykadia
Leberwerte
2,000
wand@@
Ersatz@@
6-
Betmiga
lithium
mini@@
eingestuft
UR
2E1
möglichst
Dehydratation
wöchiger
HC@@
AX@@
stavudine
long-acting
Wegen
inten@@
Pump@@
shorter
mutant
au
haem@@
bedingungen
•
axis
tal
conjunction
Beobachtungs@@
hypovol@@
Foclivia
chs
Serumkreatin@@
ising
Luft@@
race
Ä@@
endogenous
ach
Suvaxyn
fortgeschrittener
lang@@
Nervensystems
val
Lonquex
my
plat@@
Mischen
Heparin
weisung
Tabulated
RS
Karzin@@
virale
anorexia
1029
Mil@@
PC@@
denken
detailed
Angehörigen
restricted
Xtandi
Häufigkeitsgruppe
MT@@
lediglich
simeprevir
holen
Einmalgabe
Ta@@
liegende
lethargy
7.0
prevents
postmenopausalen
modi@@
qualified
tel
teten
Gel@@
Prüf@@
look
Blister@@
Cmax@@
Co-@@
149
3.2
Salmeterol
Hexacima
yp
Hundes
ingestion
Penis
fläche
sichere
identi@@
validated
Caucasian
PAR@@
Dichte
schließt
ca
^
Vectra
hepato@@
absetzen
blocks
Zyclara
Systems
äres
systemischer
easily
Cerenia
Middlesex
pur@@
comes
0,01
nucleoside
deterioration
infizierte
cin@@
hören
vergessene
tz@@
pass@@
stieg
bekanntermaßen
Prequenza
breathlessness
NO@@
beh@@
Laborwerte
Fibrose
urgent
Perampanel
Neur@@
firmly
intestine
Implantat
peri@@
program
eligible
rt@@
Airexar
FOR@@
macht
Versch@@
mung
Coagadex
anticoagulants
Fet@@
Decreased
splenic
Velmetia
3,2
Starlix
Lungenentzündung
sekundären
cally
Tachykardie
pir@@
zentralen
Infusionsreaktionen
Vaccination
phenylbutyrate
MULTAQ
Plastik@@
abgeschlossen
ection
-W@@
Wiederauftreten
Herzerkrankungen
Perforation
Vandetanib
Frau
talking
Ifirmacombi
NA
Brintellix
Weichteil@@
ssen
Kom@@
23@@
DURCHSTECHFLASCHE
gluco@@
none
sensi@@
apixaban
Indikationen
plötzlich
PritorPlus
wall
Ti@@
ranges
gener
super@@
Ernährung
Hepatitis-B-@@
Zwei
Pugh
ungsphase
Primär@@
litres
5,3
Apixaban
salmeterol
Gefahr
grades
msec
erwachsene
newly
Thrombocytopenia
tiv@@
Dulaglutid
switch
ermöglicht
IMBRUVICA
suffer
stabile
atorvastatin
ket@@
Kalium
innen
rasagiline
60-@@
Serumkonzentrationen
Pan@@
CYP3A4-Inhibitoren
Asparaginase
transaminases
placebokontrollierte
ap
verschoben
Laboruntersuchungen
Procoralan
implantation
MT
Synkope
xi@@
fed
Feraccru
DuoPlavin
liegenden
03@@
ZE@@
Haarausfall
anticoagulant
besonderer
klinisches
functional
imi@@
Prop@@
Am@@
7,8
Ursprungs
100-@@
atri@@
gan@@
Assay
WARNING
4,1
Interactions
Geschwindigkeit
Integr@@
165
deten
Sun
functioning
Thiomersal
Pferden
Cholsäure
5.000
Velosulin
Pul@@
Vis@@
2.000
gehalt
E4@@
asi@@
thal@@
Detaillierte
ing-@@
subgroups
lage
Kilogramm
Impfungen
Belgien
Randomi@@
aufnehmen
Resistance
aussch@@
operating
Rheumocam
dosisabhängig
non
Anaphylaxie
Dysgeusie
LH
101
kl@@
59@@
LDL
Profender
sedation
Laufe
zei@@
Transamin@@
Three
withdraw
1.0@@
tachycardia
Administer
zugrunde
tightness
Clo@@
placebo-
orrhag@@
ole
saft
Sicherheitsdaten
4,7
exact
Nervensystem
Kal@@
Hormon
Oste@@
chosen
rau@@
al-
frühen
losigkeit
Rel@@
verschlimmern
bekannte
Nummer
körper
emo@@
Lapatinib
olo@@
spinal
Patientenpopulation
statins
Upper
Blutzucker@@
syncope
parameter
dex@@
ologischer
athi@@
akutes
binds
congestion
posi@@
Einst@@
outside
du@@
Geben
aclidinium
blu@@
magensaftresistente
Waschen
lived
serotonin
Riluzol
8.4
enoxaparin
rabbit
derselben
warten
zutreffend
suggested
Populations@@
alem
terminalen
St
drowsiness
ität@@
TEPADINA
Pi
ective
linked
33@@
Umgang
L.
injizier@@
3,6
cessation
µmol
Appropriate
Atorvastatin
Upon
my@@
quantity
Auffrischimpfung
Anaemia
ar-@@
presenting
positivem
Sus@@
biliary
schutz
unwell
Schütteln
tigecycline
Sowohl
Vorschriften
eight
hes
3,4
natriumfrei
Kn@@
Lipid@@
Park
FF
acids
Virämie
plas@@
generell
26-@@
COPD-@@
extra
yn@@
missing
Termin
Lact@@
patienten
Danach
37.5
nachweislich
Pneumonitis
cGMP
WITH
stoff@@
lurasidone
Fer@@
Schl@@
ess@@
genotoxic
Factor
Gre@@
ja
-Virus
dialy@@
potenziellen
fikation
Hormon@@
ophthalm@@
Infektions@@
7.8
weit
dasatinib
...
Duo
Post@@
sec@@
kombiniert
transdermale
ck
toler@@
Zugang
FL@@
naloxone
hypoglycaemic
tu@@
nis@@
equipment
Lamivudin-@@
stimulating
Sevofluran
Behandlungsphase
Einschränkungen
Allergie
channel
modifications
Cipla
ticks
lichem
Darunavir
VIRACEPT
vation
adding
Internationale
Folgende
eten
Zwei@@
Dabei
official
490
ECOG
Chronic
Klare
Signs
Maximum
litten
6,4
Kreislauf
flüssi@@
Sol@@
Systemic
eating
uter@@
sil@@
erlaubt
intracranial
Schafen
alert
Ü@@
ino@@
Material
Proteins
brown
Erschöpfung

optimi@@
Monotard
lebensbedrohliche
lid
Ni@@
allergischer
conclusions
roflumilast
flatulence
BC
self-@@
Referenz@@
ül@@
semen
Endometri@@
id-
erythromycin
PFU
Vimizim
tal@@
Frequencies
radiographic
P450-@@
früh@@
anaesthetic
pneumonitis
spironolactone
octocog
107c
energy
stren@@
swollen
fetalen
protected
Reduction
Description
führ@@
Secondary
glucuronide
Novartis
Should
leit@@
Gesamtdosis
treatment-@@
üh@@
mg-Tablette
L-histidine
FT@@
non-small
stechen
pho@@
Sialanar
undertaken
abgebaut
Velotab
ofatumumab
rodents
DO
Ursachen
Wakix
richten
Studienteilnehmer
NS
ausscheidung
edi@@
epi@@
ann@@
Kiefer@@
Vipdomet
Haemophilus
genommen
Behältnisses
dihydrogen
impf@@
Gelegentliche
Prämedikation
stat@@
gemessenen
refer@@
Gerinn@@
-Exposition
verdünnte
sulfat
tisches
162
sten@@
cyto@@
exceptional
Substitution
Aluminium-Blisterpackungen
tödlichen
brachen
can@@
avi@@
Gluco@@
Mysimba
IgG@@
Carb@@
Pferde
Nierenproblemen
Typ-@@
TA@@
cinacalcet
Reihe
symptomatischer
relapsed
gn@@
Trabectedin
cle@@
C-
hig@@
Vyndaqel
transplant@@
chamber
cyclic
Tabellarische
ektive
2b
sugammadex
AI@@
covered
verbesserte
nasopharyngitis
Kunststoff
alleiniger
Inflammation
Krebspatienten
dre@@
Teil@@
Unruhe
Cuprymina
Aluminiumsalz
relap@@
ambrisentan
fixed-dose
körperlichen
Yellox
Kunststoff@@
Beenden
stehende
Spen@@
prefilled
Samsca
Wirkungsweise
piglets
Schizophrenie
lichkeits@@
kar@@
instead
VI@@
Geno@@
pu@@
Lang@@
IDELVION
Orgalutran
FLASCHE
here
Glycerol
birds
E420
besten
Mel@@
at-
obwohl
Gem@@
Internetportal
rekonstituiert
015
topical
Units
guidance
mangel
elements
omy@@
injectable
eres
genot@@
unterbrechen
neten
Zinforo
AUC0-
ergreifen
crushed
omas
län@@
unterscheiden
denden
atrophy
tent
assigned
Behandlungswoche
Enzymen
HB@@
7,0
alin
electrolyte
Faltschachteln
Enzy@@
t-
approval
zählen
rest@@
wege
HOLDER
48@@
Xa
warnings
Kapsel@@
coadministered
separately
hip
Cholester@@
Drehen
Lösungsmittel@@
thoughts
Wirkungs@@
Opdivo
threatening
fondaparinux
Standardtherapie
ances
sero@@
composite
karzin@@
Ecansya
Welcher
äuß@@
Enzalutamid
Enzyms
äl@@
Implantation
neurologische
AUC@@
Packs
öser
Pyrexie
entwickelte
METHOD
Nutzen-Risiko-Verhältnis
mothers
prüfen
far@@
log@@
Sepioglin
variants
constant
TDF
DPP-4
4.
complication
spiegeln
Procox
strengths
lasting
Ham@@
endothelial
Armisarte
legt
ART@@
Gastritis
56@@
nte
cross-@@
Suizid@@
ably
comp@@
Bilirubin@@
Roflumilast
2016
verfahren
situation
Muskel
Pazopanib
ließen
RBV
inal
ors
gramm
Crizotinib
mittelgradiger
Filmüberzug
befindet
Narkose@@
Präparat
ften
bedingt
GIST
gsk.com
Polysorbate
Produktinformation
zugunsten
Blutspiegel
HER2-@@
proper
erfahrenen
TEXT
Verw.
Misch@@
depressive
dysgeusia
phosphokinase
wild-type
Aspart@@
erscheint
rho@@
‡
eingeschränkt
viraemia
responsibility
stimul@@
Sugammadex
tiefe
Ereignisses
EV@@
Zeitpunkten
M184V
Revasc
Quintanrix
7418
221
Besch@@
once-daily
enzalutamide
ie-
Selbstinjektion
123
Coli@@
Serotonin
mid@@
s.c.
Orfadin
avir-@@
spezifisch
neh@@
met
Brustkorb
Naloxegol
Orphan
sts
TT@@
ED
limb
jaw
pneumococcal
microbiological
höh@@
profiles
eintritt
flüssigkeit
convention
stre@@
Stichtage
Zutectra
psych@@
Tach@@
ear@@
Drei@@
ulcer
fibrose
spp.
Kaplan-Meier
schizophrenia
0.01
intramuskulären
adin
MI@@
opportunistic
DER@@
aHUS
repaglinide
Cholestase
investigate
expressed
Syndroms
vinylalkohol
malaise
untersuchung
schl@@
Ha@@
Nadelschutz
unds
aying
0,03
Humaninsulin
unbedingt
hypotensive
hypertrophy
0.6@@
3350
Off@@
gewebes
Anschwellen
drowsy
inducing
ness
.com
Ol@@
nia
glomeruläre
schäden
DHPPi
blutdrucksenkende
Len@@
stration
Dialy@@
Edistride
genes
carrier
extremity
amylase
biopsy
handelte
insert
Pre-filled
SonoVue
Auß@@
two-@@
erfordern
Possia
21-@@
diagnostiziert
dende
GT@@
Substraten
frühestens
Rec@@
Verfärbungen
bewirkte
Epi@@
ides
wies
atorische
multi-@@
Zydelig
dulaglutide
Meloxidyl
provider
ility
lier@@
37,5
Hier@@
Wichtige
elling
Schlafstörungen
Vorteile
STEMI
FOL@@
in-Gruppe
erhält
8,4
fingers
tiven
LAVENTAIR
Vaccines
Tieres
Pitolisant
nerves
verwendetes
Abweichungen
AML
V600E
Dextromethorphan
subset
RIXUBIS
kt
skala
ones
dün@@
herzustellen
babies
Titanium
alk@@
Dosing
recommend
genital
pro-@@
inner
Diabetes@@
Blutgerinnungsfaktor
039
lide
Röntgen@@
EURD-Liste
thromboembolism
analysen
kel
proliferation
Zugehörigkeit
vorübergehenden
Spectrila
entsprechender
Nachbeobachtung
parti@@
19.@@
applicator
CYP2D6-@@
Cytochrom-P450-@@
3-fold
ps
entan@@
Ovarial@@
Hämat@@
Allergische
mucosal
ez@@
Time
Leberversagen
EURD
Kombinationen
Tech@@
erter
ankylosing
telbivudine
Blisterstreifen
Zavicefta
blocker
sogar
EL
OAT1
Concentrate
Affinität
Edoxaban
enlargement
teriflunomide
pasireotide
Zwischen@@
Mittlere
infused
sum
MRT
Toxizitätsstudien
är
mechanisms
stati@@
postmenopausal
appropriately
KIOVIG
schn@@
lipase
-Pro@@
bedeutsamen
aren
elten
Absch@@
Savene
uch
sun@@
P-
now
Engegefühl
um-
esse
oseltamivir
Annex
Morgen
rekombinantes
everybody
Altersgruppe
Serokonversions@@
laufen
leben@@
195
Hündinnen
tically
verschiedener
Vitamin-@@
aden@@
Entsprechend
EKG
hydration
toxi@@
wertes
enzen
Alkohol@@
ectomy
anti-
Tablets
arme
stab@@
duk@@
nachfolgende
Saccharose
Ponatinib
alf@@
arten
Cl@@
Schema
punk@@
chew
urr@@
zyklus
7.4
beschränkten
cystic
fung
jenen
Bewegungen
IL-@@
STELARA
kit
Gl@@
alkalische
ück@@
ange
volle
dic@@
AGE
017
C2@@
moroctocog
lid@@
wait
spi@@
ff
pädiatrische
Auffassung
C-8
6.8
Duaklir
Plasmaproteinbindung
potency
CAP
Überprüfung
touch
müde
3.75
Wiederhol@@
genauso
gang
Alternative
etic
gs
Malign@@
anzu@@
budesonide
non-inferiority
alb@@
Alters
schmerzhafte
nde
Amino@@
accum@@
Antidot
Unternehmer
bluetongue
ars
blo@@
SB@@
Lu@@
Magenschmerzen
membrane
spontaneously
barkeit
Leiden
Einnahme@@
versiegelt
graphic
high-@@
erwarteten
oxid@@
Dosisbereich
Sedierung
bar@@
Isavuconazol
5,5
yr@@
Tivicay
channels
prim@@
ST
limiting
dauern
ZULASSUNG
führung
CYP450
Sonnen@@
ET
dex
Muskelschwäche
welling
aeruginosa
difficult
Kanülen
Y-@@
Vaso@@
zahlen
mood
Methadon
verlängerte
Nierenprobleme
inaktiviert
einhalten
Auges
mitteilen
phthal@@
Schritte
ens@@
statt
Metforminhydrochlorid
aufgelöst
Telbivudin
verringerten
pin@@
Flatulenz
Tygacil
sublingual
Dennoch
lösen
bislang
bers
0.0
19,@@
Medikament
light-@@
cont@@
Venenthrombose
Clomicalm
tial
Elevated
anaphylaktischen
sien
kineti@@
conjugate
killed
fluss
Gliedmaßen
ato@@
vergleich@@
selektiver
bestehende
alisier@@
Lactic
C24
CM@@
Impfdosis
utes
Sonata
shaking
compounds
ändern
vermutet
dermal
edema
genügend
Prote@@
schützt
lake
Begleiterkrankungen
son
screening
artige
attributable
Diacomit
autoimmune
Mas@@
yro@@
Didanosin
CF
häufigste
Ober@@
BL@@
glyc@@
ther@@
Peritonealdialyse
pomalidomide
Melan@@
BTV8
40@@
5,000
Corticostero@@
kombinierte
Tel@@
Note
vorgelegt
OUT
Faeces
eli@@
Hycamtin
selection
schwellung
Farbe
umeclidinium
riociguat
zyten@@
Maximaldosis
außerhalb
Stuhl@@
öl@@
Spiegels
demonstrate
Beteiligung
Geimpften
infundiert
Gedächtnis@@
titres
Wirksamkeitsergebnisse
asten
irrit@@
druck@@
Infections
Veraflox
Neulasta
Dem@@
brivaracetam
azole
iertes
beurteilen
verschlechtern
PROCYSBI
INFORMATION
People
gesetzt
tartrat
Onsior
Commission
gerade
Schlussfolgerungen
angewandt
NS5A
Stero@@
Klinisch
Influenz@@
gest@@
ay@@
gri@@
Geh@@
Silodosin
Osigraft
Filtrationsrate
3,75
Metform@@
hor@@
geh@@
Discontinuation
turn
intraocular
Maus@@
pre-
spontan
NS@@
gewährleistet
Hitzegefühl
Peri@@
Perfor@@
monatigen
Empfohlene
dar
mycophenolate
lig@@
TABLETS
Q-@@
Bolusinjektion
OBIZUR
erh@@
Glimepirid
ater@@
HP@@
Erk@@
vermutlich
Labortests
Cyclosporin
beinhaltet
chol@@
Hoch@@
Studienteilnehmern
UG@@
mor@@
trä@@
gehende
propionate
spasms
Inten@@
haematopoietic
iges
Bef@@
Wort
44@@
Blutgefäßen
Clear
bestätigten
zin@@
arn@@
ylate
Brivaracetam
spä@@
indicating
Tablettenkern
Orphacol
Erst@@
clarithromycin
Lynparza
Delamanid
fre@@
p-value
Injektor
oxidase
restarted
ARD
alopecia
ingredient
fill
mark
ab-
auff@@
zig
produk@@
ml-Durchstechflasche
Vermeidung
ENTS
füllt
LY@@
Infliximab-@@
sierenden
import
Corticosteroiden
sich@@
carboplatin
Lab@@
Ekzem
Infek@@
REICH@@
Freiwilligen
tigung
INTERMEDIATE
entzündungs@@
individuell
documented
cholestasis
auftreten@@
resultierte
heter@@
Lev@@
ergeben
Anschluss
Enviage
351
household
konsistent
sis@@
MATE1
Enyglid
HBV-Infektion
Rücken@@
Antibiotikum
environment
220
gef@@
beutel
US@@
nachfolgend
Age
New@@
Milz
offspring
ELOCTA
90@@
igkeit
perform
6,5
nie
beruht
möchten
stand@@
unzugänglich
9.5
che@@
prolong
verlauf@@
ak
-hydroxid-oxid
versehentliche
ONJ
bef@@
sequence
Recommended
veränderter
Nachbeobachtungszeit
Melanom
9,5
fasted
fingolimod
glaucoma
Growth
Stronghold
WARNHINWEIS
QT-Intervall
Flüssigkeitsretention
letzte
Seife
IO@@
Aivlosin
restlessness
Not@@
Schein@@
Swelling
INFAI
BLISTERS
tim@@
Transplant@@
ner@@
PUVA
eyelid
INE
Lesinurad
Blutgerinn@@
eld
Chemical
Imbruvica
sichtbar
geklärt
resume
stern
E464
Schädigungen
Legen
glycerol
cep@@
Inhixa
ud@@
volumens
arthro@@
isolates
fight
Kohorte
Bazedoxifen
successful
gerät
lebensbedrohlichen
aufeinanderfolgenden
lulitis
gli@@
NRTI
xia
Kleinkindern
band@@
synthetic
Warn@@
Aktivitäten
reduzierter
COMETRIQ
estimate
discharge
keeping
LDPE
comprising
GA
häufig@@
resistent
2006
on-
VELOTAB
Disorder
COX-2
angs
Ovari@@
212
nM
degrees
concerns
bares
menschlichem
ROUTE
unexplained
syn@@
aches
Kar@@
Den@@
toxicology
ungsmittel
INVERKEHRBRINGEN
Gehirn@@
preferable
Nutzens
Ammoni@@
UGT1A@@
Myelosuppression
Schwächegefühl
zeugen
diert
evaluable
hearing
menstrual
3.8
progressionsfreie
glimepiride
Vorhandensein
periodically
kum
aufzu@@
inherited
shake
Antidepressiva
Italien
Hyperkaliämie
spezifischer
8.6
moisture
lipid@@
Osteonekrose
MN@@
gern
4,2
S.@@
Genot@@
ethanol
Analge@@
voraussichtlich
Ganz@@
Peyona
Bewegungsapparates
RO@@
ulcerative
H2-@@
direkten
Spezi@@
Mi@@
Apply
caffeine
Blutbild
omer
MULTIPACK
ungewöhnliche
Wer@@
grün@@
aldosterone
CTC
erhöhtem
cynomolgus
erneute
measurement
Mundhöhle
GER@@
ganzen
Trockenmittel
defek@@
partner
OB@@
Wundheilung
breastfeeding
HS@@
akutem
Zuckern
Selexipag
geringfügig
Wirksamkeits@@
IP@@
UM@@
lactase
transfusions
ungsstörungen
ust
Bone
fel@@
flo@@
4,3
Deferasirox
Füße
multocida
verabreich@@
Ristaben
Furthermore
Breast
durchgeführten
magnitude
fach@@
Erythropoetin
gestation
future
Trisenox
Absorption
creatine
Methoden
lin
gauge
ple@@
Osseor
faecal
wollen
basierte
Erholung
donors
zentrale
suizid@@
19-@@
Funktionsstörungen
Invokana
VA
Elektrolyt@@
cleared
Dig@@
Tasermity
decision
organogenesis
DEN
kilogram
hervor
zeiten
Neupogen
entry
going
HBsAg
Blocker
mouthpiece
setzt
Sicherheit@@
markers
darstellt
Bravecto
Outer
malen
Vaxelis
Behandlungszyklen
verstärkte
DUAVIVE
Shake
CYP-@@
untersuchte
Se@@
lumacaftor
weiß@@
Prüfung
hen
theit
organisms
Bretaris
mpfstoff
Cimetidin
Fibro@@
öch@@
pack@@
boosted
allergi@@
3D
ag
sore
ser
Vfend
öffnen
angi@@
ansteigen
Trock@@
00-@@
breakthrough
Ultratard
formula
28x1
lab@@
verh@@
tierte
Buc@@
Sam@@
Gli@@
Croscarmellose-Natrium
reco@@
fizier@@
Orbactiv
auftretenden
Nerven@@
sam@@
selektive
complex
A-
gelten
obere
Verdauungsstörungen
carbonate
2x@@
hämorrhag@@
lizumab
Mehrdosen@@
ail@@
BM
normalem
LDH
persist
Tovanor
sting
Insert
Insulin-@@
Koinfektion
kurze
BSA
Insul@@
Sinusitis
319
JEVTANA
determination
antiplatelet
Angioödeme
zentr@@
problem
eter
respective
5.9
smaller
oxy@@
7.2
Stevens-Johnson-Syndrom
1194
dual
hier@@
wa@@
tigt
prec@@
test@@
Luxembourg
haemo@@
Versuchen
fizierten
rectal
occasions
prote@@
ws
713
Moventig
Enalapril
aining
SYLVANT
Italy
Gummi@@
proposed
atosiban
Respreeza
Infusionsstelle
Unit
Opgenra
P-glycoprotein
ardi@@
Granulozyten
myeloid
perampanel
befall
Betä@@
erreichte
wasser@@
Leberprobleme
malignancy
PIs
2C8
Propylenglycol
komp@@
lieren
routinemäß@@
tobramycin
Haar@@
anhaltenden
3.4
kappe
Rebetol
Erbitux
3,8
delivered
405
8.5
Ernähr@@
registry
sJIA
transmit@@
REACH
Standard-@@
imm@@
Reactions
hängen
ahlen
UL@@
North
ulo@@
embryo-@@
Fü@@
BioPartners
sy
measles
zytotoxischen
idal
31@@
Aflibercept
log2
osin@@
ca.
neur@@
Grades
ACT
Hyperkalzämie
erteilte
mehrerer
Dosierung@@
Produkte
stärke
vorbestehenden
Atemdepression
wiederholte
Gelbsucht
schema
alters@@
Fablyn
schnellen
Teile
monoklonaler
fieb@@
Vaskulitis
spielt
Blutgerinnung
QT-@@
ESRD
deut@@
sexu@@
hemmende
nine
NR
Erfassung
Fibrin@@
Increases
wiegen
Nachkommen
Tages@@
Lakt@@
Grippe
welcher
beschränkt
0,0
emergent
Belatacept
mern
sagt
Adcetris
residual
Nachbeobachtungs@@
warning
Victoza
Child
überlegen
trübe
Lyophilisate
vaso@@
Spironolacton
gelöst
volumes
sub-@@
8,5
161
fortschreit@@
dose-dependent
Colobreathe
Lithium
Entecavir
age@@
Sileo
presentation
Richtlinien
gend
1,5-@@
react
Cattle
abhängigen
ls
barrier
Velcade
statt@@
itätsstudien
optimale
los
yc@@
filter
verfügt
gingen
Aussehen
collected
wo@@
ARBs
12-wöchigen
erungs@@
coat
gelatin
Medikation
delamanid
utero
Systemorganklassen
chten
haf@@
chlorobutyl
Pharyngitis
crizotinib
Periphere
DRESS
IL
pointes
generalisierten
geteilt
Blutes
sionen
Müttern
pembrolizumab
withheld
treffen
PG@@
äußeren
8.8
vorherigen
korrigiert
har@@
5-fluorouracil
Versuch@@
irinotecan
Tub@@
OptiSet
otherapy
ZEPATIER
trockenen
Sharp
Zeitraums
Ziel
empfindlichkeit
Nerven
App@@
Novo@@
benign
ml-
comparative
dagegen
E15@@
put
Selbst@@
omo@@
dauert
Wunden
eins
Risikoreduktion
skop@@
8,6
anz
Dosierspritze
grapefruit
Alle@@
Bronchospasmus
Speich@@
för@@
-Tests
sulfate
Kop@@
75-@@
Titer
Glucose-@@
tap
Tierstudien
sleeping
dient
Lungenkrebs
lin-@@
hospitalisation
Dip@@
sufficiently
Geschlechtsverkehr
Sun@@
Eingriffe
Haemat@@
Eptifibatide
simplex
azep@@
transferase
4,9
bende
faktor
Synagis
geschätzte
Endothel@@
modified-release
Gerinnungs@@
Ames
Grenz@@
pain@@
anormale
Diure@@
Reg@@
ine-@@
Brom@@
arr@@
antigens
höchstens
Serumkonzentration
cards
gedrückt
adolescent
415
GEN
classified
feu@@
Pharmakovigilanz@@
Capsule
JIA
Welpen
web
intensi@@
sachets
zwölf
Page
combinations
crisis
Ur@@
Knochenschmerzen
nas@@
Palladia
tau@@
arma
Hu@@
AUCτ
reviewed
recognise
luss@@
Breezhaler-Inhalator
IG
coun@@
pathy
einzel@@
akt@@
culture
antimicrobial
Intensität
foetuses
sexuelle
ril@@
sample
fehler
usion
bili@@
Contains
α
Stoffwechsel
XGEVA
Dosage
onia
lasts
weighed
KRAS
RAAS
controlling
seasonal
Avanafil
Stre@@
PANDEMIC
Erhaltungsphase
Boehringer
pharmakodynamische
therapien
Omalizumab
Butyl@@
bau
Basal@@
antipsychotics
Induktions@@
Blu@@
Flüssigkeitsansammlung
Spontan@@
mussten
Je
vandetanib
thrombin
investigator
thrombotische
5,4
HEXAVAC
Don
II-@@
Geburts@@
Natriumcitrat
stabilised
beibehalten
intra-@@
pharmacovigilance
ungs
weakened
delta
Werkzeuge
FS@@
GLP-1
ZNS
preferred
infusion-related
Scores
reactivation
neuropathic
tivität
OL
Arznei@@
transdermalen
Strahlen@@
IGF-I
bronchodilator
Telephone
CRESEMBA
ty@@
itätsstudie
Operationen
Phosphat@@
Prüfen
indicative
coughing
NE
Az@@
Acet@@
SC@@
7,9
tolerate
Dehydration
Umfang
weights
KR@@
centre
2007
inserted
Säugling
CYP450-@@
Taxespira
Sulfonylharnstoff@@
Bz@@
radiopharmaceutical
bekämpfen
Einzeldosis-@@
326
Akute
Interaktion
nten
tables
Problemen
dys@@
adine
Thy@@
ferner
depressed
passing
Bereichen
ano@@
Länge
gegen@@
Physicians
5.7
hyperplasia
Complete
gloves
pneumoniae
onat
virological
pump@@
LEK
haematocrit
Depending
DISPOSAL
age-@@
Abfallmaterial
Oxid@@
Swe@@
neun
hr@@
Blutdruckabfall
Verlänger@@
omeprazole
Tä@@
ways
geschüttelt
Hämoglobins
mg-Kapsel
ersetzt
CYP3A4-Induktoren
Body
gout
VORSICHTSMASSNAHMEN
PD
Zaleplon
Transaminasen@@
meningitidis
icht@@
findet
nichts
Applikations@@
Accor@@
3-Studien
antiepileptic
Liqu@@
höheres
dextromethorphan
q.d.
prolactin
Unituxin
partum
Ek@@
Formulierung
enes
-dose
antifungal
modifying
Kombinations@@
updates
broad
progenitor
Pravastatin
LOCF
Mirvaso
Umeclidinium
arz@@
hypercalcaemia
front
Ausschusses
Gro@@
Dr@@
Rheumato@@
alkaline
sichtbare
FS
vers@@
Personal
VACCINE
gas
otherwise
ärem
Horn@@
avanafil
airway
Irinotecan
Tetan@@
AS03-@@
neutrophils
Pos@@
Infusionsgeschwindigkeit
0.8@@
omalizumab
Liter
Acc@@
opathie
Antazida
Tre@@
breakdown
208
Skelett@@
HBVAXPRO
Grapefruitsaft
adäquate
Konjug@@
Paracetamol
8,8
ocyte
Gently
Konzentrats
Invented
Hin@@
myco@@
hem@@
add
trockene
ENT@@
9.6
Bleeding
degradation
humantherapeutischen
histopath@@
INFLUENZA
erforderlichen
Steady-state
Econor
Füßen
instabile
Kommission
Thiaz@@
ta
TION
glomer@@
bisphosphonates
Infusionsrate
Orlistat
benutzen
Essen
AUFZUBEWAHREN
stimulates
beneficial
pap@@
ACR@@
Kopf
PDE5-@@
Rhabdomyolyse
TID
Cont@@
Feuchtigkeit
aufgefordert
Föten
Adjuvans
creme@@
palpitations
PRODUCTS
karzinoms
shell
48-@@
eit@@
bas@@
breaks
carbox@@
irritability
mucosa
ät@@
lit@@
cardio@@
stimu@@
naloxegol
oren
Thiotepa
Norm@@
soap
aufmerksam
mikrobiologischer
ING
resist@@
Organogenese
manufacture
ulcerosa
Preparation
cortisol
Sin@@
Endo@@
Lapp
-free
dehy@@
029
TNF-Antagonisten
preservative
NYHA
7,1
global
steroidal
aspart
ungsp@@
drückt
Additionally
Futter@@
Kat@@
dispersion
decline
seines
weißem
Lipegfilgrastim
HD@@
propylene
thin
azepam
Fehlbildungen
TIA
hepatotoxicity
Episode
Asthma@@
dekompensierter
entecavir
wöchentlichen
ARs
problemen
Cyto@@
medicated
....@@
stratified
zol
einzu@@
natürlich
exten@@
verlängern
künftigen
asth@@
Global
Rasilamlo
tierexperimentellen
derung
einig@@
gression
übermäßige
Nadelschutzkappe
Behandlungsarm
hohes
Kontakt@@
hand@@
mineral
Sy@@
komple@@
record
ation-@@
draw
Hei@@
Apremilast
psychiatrischen
gastritis
Symptom
g-
Aufrechterhaltung
lik@@
Abklingen
4-fold
darin
UR@@
verbessern
207
9,6
Hepatitis-C-Virus
L4R
Ste@@
ledipasvir
vorbehandelte
va
2,9
auszuschließen
BR@@
Ravicti
valid
PASI
Angstzustände
satz@@
gesteiger@@
Key
OCT1
Ul@@
omi@@
BI@@
bedeut@@
Gesamtkörper@@
Haarlem
QT-Intervalls
kanzerogenen
Sek@@
conjugated
erniedrigt
Kurzzeit@@
Träger
relatively
nicht@@
Kreatinin-
zunehmen
dopaminergen
generalisierter
Ranibizumab
o-
Sper@@
Hepatotoxizität
arzneilich
VWF
dysp@@
scored
zep@@
radioaktive
Panzytopenie
vol@@
Pegfilgrastim
krankheiten
SONSTIGE
Sonnenlicht
langen
actions
demi@@
anion
zel@@
dermat@@
Alopecia
EP
Potactasol
erst@@
-M@@
kung
Effek@@
orienti@@
versiegel@@
doc@@
Langzeitstudien
Herzens
Cabazitaxel
ologist
322
Cytochrom
Ataluren
heartworm
vorangegangene
bindung
besitzen
venösen
TB
99.@@
30x1
gemeinsam
pathways
wiedergefunden
dabigatran
shaken
Funktionen
ylierung
Bexsero
TD@@
experiences
Place
MCyR
Psoriasis-@@
ATCvet-Code
eff@@
membranes
stages
4000
1250
isol@@
chemi@@
sper@@
advisable
mm@@
Y93H
cellular
vorliegenden
ugh@@
responder
Nachdem
Seltene
motion
oil
charcoal
Tobramycin
vermittelten
Withdrawal
inhibited
interferons
Abwehr@@
säure-@@
hygiene
260
lost
Hepat@@
ennen
ivabradine
Marker
Alpha-@@
investig@@
pre-specified
dri@@
Feldstudien
zaleplon
vag@@
geachtet
ail
Menstruations@@
weigh
Ruxolitinib
brau@@
H1N@@
sible
Ultraschall@@
behandelter
Glucose
Entfernung
pointing
Hä@@
shoulder
Gerät
ol-@@
Mundstück
Farb@@
fatty
arzneimittel@@
kehr@@
freies
grams
trabectedin
Erreger
Krankheitsprogression
Rekombin@@
polysaccharide
Vismodegib
ologi@@
Daxas
V.
appliziert
Druck
Hinsichtlich
verwerfen
CYP2C@@
ozy@@
orrhoea
Zulassungsinhaber
off@@
145
rekombinanten
Einreichung
crossover
Baby
senkenden
hepatische
ramucirumab
Alirocumab
Monats@@
Expositions@@
propyl
triple
Al-@@
Behandlungsmon@@
TM@@
darm@@
disposable
VIZAMYL
omyelitis
It@@
SOC
OC@@
Mod@@
porcine
asleep
Pegvisomant
weichen
rin
Sero@@
gewoh@@
Gi@@
D2
reichen
PS@@
ulitis
nachstehenden
215
Ras@@
lor@@
ultrasound
olol
os
identisch
Glaxo
ular@@
Folie
Messungen
Bur@@
doppelten
knochen@@
behältnisse
Antikoagulanzien
M2-@@
idi@@
Ivabradin
umfasste
fortgeführt
Aktualisierungen
Todesfällen
288
tte
epidermale
helping
trop@@
radio@@
Männ@@
pituitary
om-@@
uronium
Jungen
aufeinander
genug
PTH
inhibiting
structure
block@@
Doses
Medi@@
tlich
Reconstitution
peelable
RCPCh
1.
resolves
bewirken
ong
119
gebrauchsfertige
molecules
sonst
sofortige
MS-H
disodium
lierende
Available
Position
opti@@
Cetrotide
ani@@
niedrigste
918
zehn
Untergruppen
kräftig
skip
Opioid-@@
transdermales
multidose
ausgewertet
bevelled
remo@@
accelerated
Aden@@
essenzi@@
Erkenntnisse
facial
bietet
Fendrix
beraten
STATEMENT
unregelmäßiger
osteonecrosis
dan@@
Nutzen-Risiko-@@
Vas@@
Reproduktionsstudien
Red
MAO-@@
Kl@@
1,500
5-Fluorouracil
asic
Präklinische
ba@@
expressing
Granisetron
CFTR
Oberschenkel@@
anspricht
appro@@
Attacken
selektiven
erkrank@@
HBV-DNA
Finger
Fremd@@
Gastrointestinale
Anschließend
rechnen
Dry
tendency
atorischen
verschw@@
Absprache
Dosierungsempfehlung
5-HT@@
Dünn@@
dose-related
applizier@@
tray
Kreuzresistenz
UNGS@@
Follik@@
Substitutionstherapie
Atemwegs@@
tidine
Unterstützung
Myel@@
-Score
Difference
füllen
umgewandelt
bazedoxifene
Dosissteigerung
psycho@@
abgeklungen
entzün@@
chain
maler
bacterium
heat
ÄUSSEREN
time@@
6,3
Tumor-@@
geschützt
unk@@
medikament@@
Überdosierungen
near
Manufacturer
Bezüglich
Probenecid
Schei@@
Std.
ected
Fluor@@
mixture
ang
Sivextro
Intravenöse
330
ödem
wand
chens
Rapilysin
ab-@@
consists
Full
accounted
nitrogen
phospho@@
PRECAUTIONS
385

operative
Imi@@
drug-related
multiplem
Aspergil@@
wöchige
6,6
ersetzen
◊
defences
zubereitete
in-vitro-@@
Studienmedikation
bleeds
humanem
000-@@
Isoenzyme
MD@@
sharps
progredi@@
enhance
DNA-Technologie
tiere
gesprochen
BAXTER
sinus
................@@
schei@@
phen@@
exc@@
90Y
attenu@@
iegen
viren
sei@@
applic@@
Herkunft
onate
Ruhelosigkeit
Praxis
-Spiegel
New
kulären
normalisation
neuroleptisches
graph@@
autologous
Such
Test@@
neo@@
Hyaluronidase
fenac
urs
Schachtel
Recuvyra
sterben
siv@@
Auffrisch@@
globin@@
lau@@
Uveitis
edge
minimi@@
tun@@
steroids
vCP@@
Multaq
particip@@
bisphosphonate
AUBAGIO
CA
alo@@
Fenofibrat
ly@@
einher
Dermat@@
1.25
Kalzium
zufolge
Innovax-ILT
Concurrent
Messung
dyskinesia
leukopenia
Dec@@
ex
0.4@@
Amlodipine
Blutwerte
vaccinations
Immunreaktion
phosphat@@
Tazobactam
28.@@
uveitis
pivotalen
HM@@
Pre-@@
observational
spezifisches
multicenter
Vit@@
Asthma-@@
Bündelpackungen
monatlichen
newborns
Refer
Puh

Serum-Kreatinin
dietary
Ap@@
gte
reflux
DL@@
lebens@@
Sevelamercarbonat
tropin
tazobactam
Kreatinin
matched
7.1
cancers
ele
vorheriger
ERFORDERLICH
Triglyzer@@
Leberenzymwerte
erzielen
Bestandteilen
pregnancies
Auflösung
K65R
jährige
Verabreichen
stündige
suche
Wachstumshormon
Implant@@
Milz@@
turen
KE@@
erkennbar
Umwelt
individuelle
soluble
4,6
105
Excipient
short-term
2-year
vasculitis
blei@@
Ebenso
unterschiedlicher
rever@@
Din@@
markiertem
Afinitor
iel@@
Discontinue
UNUSED
differenti@@
oblong
Hetlioz
variable
Rotigotin
schaft
JETREA
teilt
cri@@
Analoga
ßen
Push
Bis
veränderte
gestör@@
discard
GMT
Weiteren
PVdC
dazol@@
entzündliche
SA@@
Gelenken
oid
challenge
Ablavar
HAM@@
Truberzi
überschritten
Ovis
Child-Pugh-Klasse
Blauzungenerkrankung
depletion
keinerlei
isotonischer
Pesti
vorbehandelt
ausgewählter
ator@@
Beobachtungen
epistaxis
Mem@@
metaboliten
transi@@
Gramm
category
win@@
205
variieren
Adren@@
assessments
focal
erneuten
earlier
pancreatic
tick
umfasst
ath@@
luss
GF@@
Reizung
eczema
PRE@@
Report
septic
schwar@@
Press
sunlight
ules
Fluconazol
Kidney
Esmya
rescue
itäten
larger
Spritzen@@
aktivier@@
Bydureon
mende
attempt
enzy@@
Folge@@
hän@@
platin-@@
alleinigen
Peg@@
Ongentys
smoking
treatment-related
contribute
Antiarrhythmika
suggestive
Verschlusskappe
Verapamil
TSC
syndromes
granisetron
uro@@
E1
Close
pleural
arteri@@
erheblich
Gelenke
abgegeben
SR@@
blin@@
tor-
Pulvers
Zyllt
equ@@
Bel@@
RevitaCAM
hinweist
ase-Inhibitoren
Isoenzy@@
Entscheidung
all-@@
Hol@@
nun
IZBA
beitragen
soya
persists
flush
2.9
PROCOMVAX
dam@@
7.9
schicht
linear@@
identical
ovaries
Eli
kol@@
203
administrations
Scenesse
olytic
RESTRICTIONS
Comtan
ade
seltener
competent
QI@@
laherparepvec
KRYSTEXXA
Blasen@@
Teratogenität
Blutdrucksenkung
litis
tern@@
Octocog

cognitive
7,2
ZU@@
passed
standing
SJS
WIE
inflammat@@
Geweben
vorgefüllten
schemata
hydrogen
verb@@
lomitapide
lineare
Zubrin
back@@
dark
Luminity
dat@@
Fett
Fast
mittlerer
sodium-free
noe
Irrit@@
Mehrfach@@
dert
cation
Preclinical
vorzubeugen
SCC
uren
converted
Abstammung
Bronchitis
RC@@
stärk@@
Toxi@@
zeichen
Proteas@@
uss
versagen
Vaniqa
Fingern
oin
limitier@@
K30
released
Arzneimittel-@@
Gonado@@
macular
AST@@
zum@@
allowing
success
Amin@@
portion
0,15
lymph@@
ichten
Original@@

Extension
Definition
ehen
sweise
Wasserlassen
influenz@@
Part
hab@@
up-@@
1,25
chemischen
holding
empf@@
orlistat
IM
Der@@
lus@@
abnormally
aden
ceftaroline
prozentuale
Vertigo
Schweregrade
Sonstiger
CD4-@@
präpar@@
Stammzelltransplantation
gesehen
aktionen
reason
mitotane
manner
α-@@
haltung
wirkstoff@@
ning
demonstrating
Basis@@
Namen
nar@@
ebung
M1
sorgt
verliefen
submitted
ANTI@@
0-1
logo
Dil@@
Behandlungserfolg
IGF-@@
ening
robenacoxib
Organe
ACTH
sek@@
series
Proz@@
Glukokortikoiden
sources
postnatale
NCI
vir-@@
Gesamtexposition
wipe
beinhalteten
Demo@@
arteries
micronucleus
effectively
054
Kit
meningitis
Tragen
tlichen
aktualisierten
6-month
imbalance
trate
absent
lten
wär@@
langsame
azität
Effekten
immunosuppression
multizentrische
aktu@@
motorische
extre@@
irgendeinem
annähernd
liefer@@
Xenical
Blas@@
rezeptoren
beats
Schwein@@
Chest
NMS
erkennt
HBeAg
Modi@@
0.15
Dehydrierung
Bl@@
Abdominal@@
thel@@
69@@
errors
vorliegende
udin
Shelf-life
glyco@@
darstellen
delivers
maligne
Einzelfällen
Lomitapid
Chinese
WASTE
maternally
bestehender
Hypercholesterinämie
GI
ey@@
geordnet
varicella
AGEN
V-1
CONTAINING
lipids
amino@@
R-CAP-@@
povidone
Cresemba
adren@@
BRAF-@@
FERTIG@@
rap@@
04@@
net@@
Winkel
Pharmazeutischer
benden
zirku@@
reduktion
tlicher
digestive
attempts
zur@@
IRC
vedolizumab
Celecoxib
Impfstoffdosis
Enter@@
smokers
Transkriptase
unver@@
spülen
Follitropin
034
tät
worsen
breeding
E1@@
KINDER
molecular
ichtete
azin
tenderness
Gemcitabin
FP
glauben
Ef@@
Hautkrebs
ärztlicher
herabsetzen
vec@@
0,9@@
plötzliche
materialien
Reproduktions@@
Herzklopfen
laufenden
Serumspiegel
Sauerstoff@@
interim
unveränder@@
BID
Gran@@
Gedanken
QD
rhabdomyolysis
vollständiger
Auto@@
vorbestehender
coli@@
HIV-
mitgelieferten
Reproduktions-
Vergrößerung
Folgen
Resistenzen
CHILDREN
Amp@@
Ear
jährlich
Retigabin
operate
glichen
contraindications
Inflacam
ataluren
reductase
Labor
Rest@@
Intervall
Fix@@
LAIV
0,4@@
Beutels
hypercholesterolaemia
reminder
Temperatur
exacerbation
continuing
Dyspnoea
rod
brad@@
normalised
etes
Natriumchlorid-@@
far
stimmt
temperatur
indirect
evirus
Transplantat@@
schedules
AbbVie
geraten
ITP
8.0
rat@@
reicht
Orale
intramuskulär
steigen
unzerkaut
ufe
Vedolizumab
Befund
Vizamyl
akto@@
salivation
alis
Österreich
ilität
Vergleich@@
tegafur
Fatal
fäl@@
origin
neutralising
Region
Monotherapie@@
boxes
gekommen
Knochenmetastasen
latent
ruled
offiziellen
expon@@
Wachstumshormonmangel
Symptomatic
Ytracis
Paget
PCSK9
EKG-@@
T-0@@
Survival
Hazard-Ratio
Weißes
Dx
440
356
soli@@
flaschen
conc@@
RR
Pflasters
8.3
8,0
SI
gefähr@@
dependence
propi@@
Bimatoprost
Magen-
Cetuximab
dauerte
rech@@
Zoetis
Rezidi@@
anhaltendes
Lactase-Mangel
1,200
Raloxifene
fenofibrate
aktualisierte
99mTc
cell@@
Glipizid
injek@@
canine
CKD
Tropfinfusion
1.200
eb
ligen
imple@@
avenue
His@@
Ataxie
BC@@
xy@@
mikrokristalline
Rilpivirine
Lung
äh@@
Opioid@@
rac@@
progressionsfreien
standen
sively
Isol@@
ects
Needle
ON-@@
V600@@
kor@@
menopause
icidal
mac@@
ceftolozane
Absolute
markets
versehentlichen
retigabine
Ret@@
ursprünglich
astr@@
7,4
appe
Molek@@
Nebenwirkungsprofil
omyo@@
Blutgluko@@
bereichs
Gastrointestinaltrakts
stra@@
resorption
Inn@@
ual
market
Manche
Relistor
equine
Son@@
compar@@
rubella
adversely
Speiseröhre
QTc-Intervalls
Kengrexal
Hemi@@
NSAID
escalation
tag
HALAVEN
ketoacidosis
glucose-galactose
QTc-@@
sinusitis
Milligramm
cher
PD-L1
Erhaltungs@@
SCHL@@
Op@@
aufgeteilt
stick@@
aly@@
teratogenicity
tale
got
aufgetretenen
Gutachtens
cerebrovascular
Lit@@
fourth
opath@@
ses@@
Gelatine
latex
Laborator@@
aktuellen
schaden
submission
Opio@@
acetic
genetische
uncertain
Glucose-Galactose-Malabsorption
struk@@
196
diphtheria
421
Informations@@
Lungenfunktion
Bedienungsanleitung
verstop@@
Lan@@
Hepatitis-B-Virus
consisted
isavuconazole
Tables
cyclosporine
oxid
Abirater@@
ells
Halbwertzeit
lungen
Ulipristalacetat
Continue
Startdosis
Bakterium
24-week
ments
58@@
Sequ@@
LLOQ
progressionsfreies
Char@@
012
Wur@@
Partikeln
tötet
dronedarone
männlich
gten
randomisation
Harnsäure
manufactured
non-clinical
MU
zt
troph@@
Eier
Expression
Tube
colloidal
kurzem
verabreichte
histamine
Non@@
doub@@
temp@@
tionsrate
häufigkeit
kation
consistently
wachstum
Konjunktivitis
Oedema
Beine
n.@@
Tax@@
broncho@@
paraesthesia
scre@@
bw
ectin
Benz@@
HbA1c@@
Thromb@@
Feten
rauchen
pegfilgrastim
emp@@
Zusätzliche
therapeutischer
Behandlungsschema
spezi@@
Volume
α@@
gelbliche
virus@@
ungsprogramm
121
Leukozyten
Ausgangswerte
Atri@@
Lei@@
tartrate
ulceration
wirkendes
Magen-Darm-@@
conditioning
Arrhythmien
Gegenstände
Blutungsereignisse
offen@@
Ablauf
cyc@@
neoplas@@
follitropin
chromosomal
blockade
matrix
replication
Fetus
web-portal
removing
ometh@@
ierter
57@@
mission
Frühgeborenen
R-CAP
Co
wöchentliche
Brad@@
blaue
leer
AL-@@
Ramucirumab
28,@@
Sofern
verschlechtern@@
PC
Transaminasen
berechnen
Kombination@@
HINWEISE
fat@@
8,3
cke
COR@@
axi@@
Potassium
abortion
ill
verwen@@
45-@@
TAGRISSO
erfolgreich
ASTR@@
individualised
Label
ula
Kein
drei@@
metastasierten
Vorteil
cure
NAME
aesthesia
itr@@
Tur@@
evaluiert
produzieren
He@@
Dex@@
ungsdosis
DP@@
Wochen@@
illary
Vorbehandlung
Aclidinium
bipolar
bild
Jung@@
Kontr@@
sleepy
silodosin
lapatinib
first-line
Verfügbarkeit
Schnappdeckel
Gaucher
TC@@
Vascular
CC
itinib
Sulfon@@
oesophageal
Cat@@
abgesch@@
namens
iegels
Ansprech@@
Bzmb@@
kutane
distension
vermischt
Hautveränderungen
Plat@@
emesis
mono@@
Umhüllung
overweight
discoloured
Stämme
7,7
löst
ihres
Reiz@@
Sim@@
Syn@@
ella
correction
atro@@
tigem
Hep@@
denjenigen
flur@@
minimieren
looking
absorb@@
spots
Glukur@@
spo@@
Formel
aufgetragen
son-@@
messen
mofetil
IA
Τηλ
leucopenia
Days
ließ@@
labor@@
sought
ONLY
Stechen
Injektionsstellen
offal
Ter@@
Blutergüsse
weg@@
Carboplatin
stam@@
Enfuvirtid
post-operative
Behandlungsarmen
PO@@
Ceftolozan
amber
1-4
Gelborange
krä@@
XELOX
Purpura
Tumor
Mantel@@
Produk@@
sit
ClickJect
derartige
ERS
geschätzt
eculizumab
Breast-feeding
Erforder@@
haematologic
Bovilis
opr@@
erleiden
Nelarabin
PACKAGE
Fas@@
Xagrid
resistenten
Partnerin
biop@@
Prostat@@
Increase
Essigsäure
frozen
anti-cancer
urination
Fidaxomicin
Fir@@
hyperkalaemia
Fahrzeugs
SRE
nahm@@
Blutzuckerwerte
Japanese
anthracyclines
erweit@@
T-cell
182
Mau@@
immuno@@
bestimm@@
splenomegaly
tumor@@
INHABER
6.0
minimale
Knochenerkrankungen
last@@
eingebracht
skelet@@
Des
anticonvul@@
bleme
unversehrten
kardio@@
Verhärtung
modul@@
Wechselwirkungsstudien
ranibizumab
Tenofovir@@
PROWESS
Blutzuckerspiegels
guide
Hautausschläge
SIGHT
temozolomide
126
9.1
Hypästhesie
post-dose
hyaluronidase
Xydalba
ausgenommen
pH-Einstellung
Palivizumab
Kap@@
Gesamtbilirubin
Feld@@
zusätzlicher
gleichmäßig
r-@@
Cough
vessel
But@@
fu@@
äußere
ATCvet
purified
Treatment-@@
topen@@
Mutagen@@
we
ards
üsse
diagnosti@@
Präpar@@
ory
MP
cobimetinib
Crospovidon
interpre@@
verlauf
HIV-infected
lizier@@
Xadago
GI-@@
vertigo
basierten
Tuberkulo@@
tightly
Drotrecogin
dissolve
arrhythmia
ried
ry
thiazide
ign@@
catheter
histology
or-@@
ELISA
atric
Glucur@@
Blutfettwerte
ober@@
antagon@@
swabs
8.2
70-@@
hämatopoetischen
Haut-
legte
Wochen-@@
haut@@
phases
sided
Coadministration
Tylvalosin
situations
hat@@
olytische
Peyron@@
thromb@@
ologisch
modest
Paglitaz
Polyethyl@@
möglicher
Masern@@
jährlichen
üch@@
Adeno@@
Asth@@
colo@@
höchste
-Infusion
spannung
Flüssig@@
anger
null
atmen
0.45
9,9
größ@@
Amen@@
geräusche
didanosine
pf@@
drück@@
OHNE
adenocarcinoma
1,0@@
etri@@
tiv
Isolate
apine
Logo
hepati@@
virologischen
tives
Virusinfektion
tsch@@
Bisphosphonate
zing
contrib@@
auer
Ec@@
verändertes
Gaben
IVI@@
0.9@@
Mobilisierung
Blutdruck@@
variation
Methotrex@@
Co.
E-01
inating
Comp@@
5,7
ermittel@@
DMARDs
üren
antivir@@
Transfer@@
Tox@@
derivatives
bringt
separaten
diejenigen
Dyspepsia
aspirin
einander
Stop
Netzhaut
GENEHMIGUNG
myelosuppression
PEN
Diltiazem
Chemotherapeutika
Vertreter
D.
Iloprost
ets
confused
Arthralgia
gauze
Hyo
07@@
-labelled
chronisch-@@
T1
Gehalt
Schläge
7,6
Herz-
lif@@
Pankreas@@
inflamed
021
Kre@@
Gener@@
produkt
Schätz@@
meat
yellowish
bt
geändert
Set
ural
Kochsalzlösung
Daily
Samen@@
Open
lebten
sind.
Arteri@@
entlichen
tol
Pharmak@@
sol
bal@@
Design
simp@@
Langzeit-@@
Levofloxacin
cyclo@@
Verdauungs@@
dungen
SCN
sensorische
contraindication
Erhöhter
measurements
MIC
Entnehmen
VE@@
ley
Inactivated
Trifexis
typ@@
ursprünglichen
Lösungsmittels
Leichte
Sprycel
myelodysplastic
jahren
murine
Cs
Actraphane
aft
neoadjuvant
midin@@
Velactis
ther
isoenzymes
induzieren
Anwendungsgebiet
Drittel
Krämpfe
Pil@@
poorly
erinnern
Competent
2B@@
kardiovaskulärer
Trinken
7.3
Male
sm
XX
cup
Booster
WORDS
dryness
bes
methadone
medium
480
electrolytes
probably
Proben
pravastatin
Post-marketing
anstelle
W-135
Amiodaron
entsprachen
otitis
Hämo@@
antr@@
schrittweise
Dihydrat
TS@@
erheb@@
rebs
scheinbare
ander@@
involvement
Stand@@
ACE-@@
verlangsamt
blast
Pneum@@
lan
initialen
Local
neu@@
blau
stic
Kurz@@
vis
Spitzen@@
Bedaquilin
versuch
BLISTERPACKUNG
ventilation
vice
differ
inhalativen
lag@@
0,02
Leberschäden
Zahnfleisch@@
überein@@
T-Zell-@@
8,1
Wich@@
YERVOY
Suizidgedanken
hyopneumoniae
gesetzten
phosphor@@
III-@@
wn
time-@@
unterbrechung
Hyponatriämie
objektive
Brustraums
Live
Crossover@@
Val@@
Hautfalte
thoracic
prolifer@@
kin
2-8
192
gall@@
0.5@@
introduction
dynami@@
außergewöhnlichen
Denmark
spare
mittelschwer
adap@@
lick
Abhängig
historical
prescriber
Ci@@
teratogene
Knochen-
gles
assistance
Überlebenszeit
Behandlungsp@@
100x1
dilute
2031
istische
350
alirocumab
intravitreal
BAR
Enzephalopathie
agree
induzierten
moderater
Auswasch@@
bläschen
ausgesch@@
War@@
Therapy
URE
azi@@
Performance
Schale
passiert
Abwägung
geschw@@
int@@
dist@@
Cabometyx
OATP@@
-Kapseln
Antine@@
elast@@
Verk@@
vehicle
schi@@
axial
validierten
option
Less
potentiell
niedrigem
inib-@@
à
Relative
wesentlichen
ee
icil@@
substantially
Dohme
ful@@
schädigung
Sehschärfe
sib@@
vo
Komboglyze
entro@@
Gesamts@@
C09@@
Tumorzellen
252
Mei@@
external
apremilast
zugeteilt
erfasst
Thrombin
protocol
-Konfidenzintervall
Tysabri
2A
0,6@@
-Titer
immunosuppressants
ungewöhn@@
316
pul@@
Monats
UpCard
DS
istic
Quality
suppres@@
dig@@
Daclatasvir
zug@@
läh@@
Eingeschränkte
stests
287
Anfalls@@
erhielt
ologen
141
nden
Signifikan@@
ase@@
ethnischer
Onivyde
Bindungs@@
FlexPen
6,1
the@@
smooth
Relapse
Applikationssystem
SGOT
Manufacturing
Behandlungsregime
siko
Sprühstöße
Geschw@@
system@@
CFTR-@@
Ty@@
UNGEN
IC50
µ@@
Injektionszubereitung
Hämagglutinin
zes
ti
Dro@@
Radio@@
wiederholen
12-week
FAC@@
Hoden
Koronar@@
screw
Idelvion
E460
sweats
incidences
Guanfacin
transplanti@@
azine
design
postponed
ads
Teilnehmer
Urticaria
hergestell@@
gummistopfen
injektion
Amylo@@
Trinkwasser
Medikamenten
23-@@
lassen@@
suggests
Wirksamkeitsendpunkt
glipizide
Outcomes
Palpitationen
FTC
Jedes
0.02
schleimhaut
-like
derjenigen
Exp@@
Poulvac
ypische
ponatinib
consum@@
5,9
fiziert
Is@@
Verkauf
Fachinformationen
Mag@@
entri@@
Glasflasche
passes
cimetidine
HDPE-@@
resorb@@
Marixino
HT
bewerten
ority
kat@@
www.ema.europa.eu.
Bordetella
glucagon
geführt
Zerbaxa
crush
fortzusetzen
ergen
premature
MATERIALS
pic@@
ABFALLMATERIALIEN
otherapie
Escherichia
sicht
packungen
oxime
vel@@
719
170
California
anaphylactoid
49@@
husten
CYP2@@
mü@@
metabolized
Follow
Kanzerogenität
FLUENZ
kongenit@@
continuation
ermöglichen
Otitis
mt
jemals
Kaletra
Som@@
ust@@
mie
event@@
Produkt@@
neutropen@@
Prepandemic
Ceftiofur
100,000
gelben
unacceptable
9,0
durchsichtige
Befolgen
mature
niedrigsten
gest
DIFICLIR
sponge
siver
Antigene
Reaktivierung
Haemoglobin
spült
lation
hielt
Virus-@@
verstärk@@
familial
ZNS-@@
evaluating
92@@
behaviours
Patienten-@@
Meningitis
214
aid
inhibit@@
First
U-@@
abhängiger
fewer
launch
Brombut@@
1,3@@
sau@@
Deltyba
Antikoagul@@
plain
Überdosis
Glutam@@
drin@@
asked
causal
inate
Via
getroffen
accordingly
mol
SANCUSO
arbeit@@
10-20
Proteinbindung
-System
Zw@@
alien
analog@@
Hitzewallungen
CHO
mg-Tabletten
breeds
580
influenced
ticular
vergleichbaren
Oc@@
Hyperbilirubinämie
tren@@
symptomatischen
Essbare
faster
Ähnliche
Dyslipidämie
abel
Metabolism
stopfen
Mycophenolatmofetil
postprandial
einmalige
na@@
ged
mumps
Kapselhülle
Verh@@
verschlimmer@@
dür@@
hydrocortisone
Aluminiumkappe
Subgruppe
Substanz@@
neonatal
flache
Gleichgewichtsstörungen
024
Ausbreitung
Steven@@
L01@@
Phosph@@
eingesch@@
Torasemid
Enoxaparin
b-
farbene
applying
lossenen
drinks
blood-@@
Mutations@@
Inhalators
Rest
fris@@
209
Therapier@@
Ikterus
amiodarone
Benutzen
oplastic
anaphylaktischer
Blutzuckereinstellung
isch@@
rupture
ylen@@
seh@@
labelled
ech
einher@@
About
Geträn@@
antidepressants
ylated
Normalized
Steu@@
Plavix
Fel@@
zellulären
CYP2A6
Empfind@@
Eingriffen
Orencia
tyrosine
bacter@@
9-
harm@@
Lysodren
interference
Las@@
Leukozyten@@
experimental
Area
Fortacin
aufgeführte
static
stamm
effusion
dil@@
Augenli@@
importance
Leuko@@
Vss
SCENESSE
Subkutane
daclatasvir
Imatinib-@@
ocytes
rea
anhaltender
Industrial
Anaphyl@@
inolone
siven
Ratte
Bil@@
Hämodialy@@
einhergeht
veins
Modul
Ames-Test
spiegel@@
pathological
Umstände
leakage
att@@
pathogens
Slo@@
typ
Spermi@@
Filter
konjug@@
ischämische
124
definierten
uni@@
ential
sinkt
child-resistant
6-monatigen
file
Daumen
Gri@@
Bewusstlosigkeit
Cobimetinib
acuity
Regi@@
Dep@@
puppies
spasm
intestin@@
Jetrea
Komplikation
natürlichen
ization
langsam@@
zäh@@
Lokal@@
hydrox@@
PsA
Benzylalkohol
iti@@
ungenü@@
nochmals
chromosome
soliden
First-@@
Add-on-Therapie
Durchbruch@@
partielle
Efalizumab
340
fluor@@
Harrow
AUX-@@
wounds
forc@@
Einmaldosis
prospective
ily
complicated
heiten
Haup@@
GT
Hydrochloric
matory
Rachen
bricht
Cyclo@@
one@@
photosensitivity
Invirase
schwerwiegendsten
graduated
Life
checked
regul@@
rem
AP
Tollw@@
DATE
Mittelwerte
acceptable
auto@@
shield
gastrointestinaler
PNH
compromised
Fraktur@@
Eff@@
suggesting
8.1
detect
Milbemycin
9,1
Hypoglycaemia
Dazu
Gew@@
nei@@
schemas
Aussch@@
MULTIPACKS
l-
Interfer@@
Recombinant
ately
co-infection
Wal@@
idelalisib
lebensbedroh@@
numbers
Maintenance
desloratadine
Embry@@
vers
betr@@
spir@@
ocy@@
pflanzliches
abfall
Vermeiden
member
Mechanism
specialised
Aclidiniumbromid
leitung
Wachstumshormon@@
senkung
hepatocellular
VEGF-@@
gradual
benutzt
zole
erforderten
opportunistische
diure@@
21-day
Reduced
uli@@
Evaluation
Attach
prophyl@@
entsteht
verbleiben
squ@@
Lympho@@
Signal@@
annual
Hepatitis-B-Infektion
maternale
attained
ura
lens
gamma
amid-@@
MO@@
Lä@@
0,8@@
ase-Hemmer
Wiederholungsimpfung
Pankreas
KRKA
Hühnern
Omeprazol
lungs@@
compensated
intra@@
Verabreichungsort
Amgen
sch-@@
open@@
Therap@@
ACEIs
vaginale
Effec@@
Bördelkappe
break@@
NB
adrenergic
postnatalen
äu@@
Povidone
beige
thrombotischen
anti-epileptic
zumab-@@
Glu@@
Diphther@@
Appendix
suddenly
Pilzinfektion
verse
O1
kumulative
olysis
Gegenmittel
decken
facher
Telzir
Nuklearmedizin
mode
Venous
Licht@@
estimates
Insuffizienz
Kanten
Elanco
anor@@
Brimon@@
spotenzial
SGPT
ATIVE
Herzwur@@
albumin@@
1203
edoxaban
risperidone
iloprost
haz@@
PI@@
eckt
exprimi@@
note
Resistenz@@
sin-@@
5-fold
restart
reasons
gefüllt
pathien
parallel
GAB@@
Prim@@
Primärer
In-vivo-@@
differ@@
Elektroly@@
Hertfordshire
conduct
2-adren@@
titri@@
HPV-Typen
itumumab
Min@@
yps
beeinträchtigte
modellen
thalidomide
theophylline
abnor@@
Verschwommen@@
aufgeklärt
basvir
Generalised
andauern
unit-dose
Undesirable
WEITERE
Lebendimpfstoffen
Kinder@@
Sing@@
Wär@@
folgen
Schmerzlinderung
grippeähnliche
weitergeführt
eingeschränkten
wasser
Behörde
reversibility
arzneimittel
Einfuhr
2017
GS-331007
ss@@
kanüle
Du@@
oste@@
Salz@@
Cartons
kleiner
Eindruck
ata
idiopathische
HVT
finished
Wor@@
ologicals
exceeding
Anom@@
stör@@
ration
GL@@
compare
takes
Meat
mul@@
analgesic
Disodium
Periodic
hom@@
benommen
starts
Technik
induces
deferasirox
rig@@
tungen
kam@@
Verzögerung
summarized
glo@@
tation
handle
Blut-
Seroton@@
puncture
shi@@
Rout@@
guan@@
Hepatitis-B-
Libido
dom
Eiweiß@@
in-Exposition
irgendeiner
Kontamination
ovulation
behältnis
Microcrystalline
Stickstoff@@
Strep@@
Rarely
Ospemifen
rip@@
proteine
ACE@@
Ventri@@
formalen
Drei
xim@@
TAMs
defect
swab
EE
unterliegt
weit@@
schritte
ises
Galactose-Intoleranz
substanz
zü@@
Fluticasonpropionat
heavy
celecoxib
wiederum
Sti@@
Metaboli@@
T4
pig
klassen
Bevacizumab
MINDESTANGABEN
T-1
Lymphadenopathie
bleed
kindergesichertem
nahme@@
Currently
6,8
Zonisamide
antiretrovir@@
entwicklung
reaching
depressiven
aktur
WITHOUT
Hepatobiliary
verordnete
wahrschein@@
middle
Herzkrankheit
ataxia
Halo@@
weib@@
UGT
enfuvirtide
haematoma
quali@@
renin-@@
paras@@
fremd
struc@@
ays
tain
Ab
hepat@@
diagnostizierter
kontaktieren
infect
Ran@@
Schlagan@@
narrow
weiterer
sucht
Mio.E.
QTc-Intervall
Absinken
Injektionsknopf
erektilen
berichte
Filtration
Ketoazidose
lasia
ultr@@
versagens
ratsam
non-fatal
citric
persons
stop@@
assung
gigen
7,3
croscarmellose
dystroph@@
program@@
fix@@
Nutzen-@@
freiem
ption
Einleitungsphase
stag
übrigen
Theophyllin
straat
erections
Obizur
Epilep@@
Mini@@
vollen
zustand
Cel@@
PK-@@
zyklen
Gesamtinzidenz
tremors
vernachlässig@@
angeborenen
Belast@@
vertebr@@
Ustekinumab
chirurgischer
unge
OCT
cangrelor
converting
Gelbfärbung
disc
Kern@@
training
VELCADE@@
alan@@
Transfer
-Kurve
hydrate
stoxi@@
AUF@@
schließlich
Medianes
säm@@
berühren
perio@@
picture
continues
Intoleranz
Reversibilität
Straße
OPATANOL
Stärken
Situation
proliferative
zeitraums
Alanin-Aminotransferase
single-use
exerts
Initial
variate
aktiviertes
mammalian
Insulindosis
typischerweise
bezogene
Rilpivir@@
inhaliert
Odds
Telithromycin
orrhö
körpereigenen
Evarrest
veränderten
501
TEVA
intensive
Pe@@
kose
tes@@
RG@@
stomatitis
stitis
aberration
mechan@@
mem@@
ml-Spritze
benzoate
steiger@@
-resistant
transplanted
Starterpackung
Leit@@
regime
Sverige
abuse
0-
impfen
LS
verzöger@@
siltuximab
double-@@
enfalls
auszu@@
auszugleichen
alis@@
Zellzahl
Hautreaktion
ame
13C-@@
tilität
Rabies
urs@@
TIER@@
musste
Schäden
abhängige
wr@@
Multipler
ihm
entlang
Auftragen
calves
Gesamtpopulation
amen@@
stärkere
Eosin@@
Sensi@@
metast@@
bewertung
intussusception
Gau@@
Magenk@@
Angststörungen
2A6
incorpor@@
abzieh@@
9.0
Immunglobul@@
Kolo@@
Nagel@@
änder@@
tili@@
Penis@@
je@@
maize
inden
fehlender
stress
aplastic
mechanismus
Nobivac
EFV
steroid
ics
Company
Lokale
walk
ina
ES@@
klangen
artigen
alle@@
CS@@
ulated
Deb@@
hypertensiven
kontinuier@@
Prozent@@
risikos
toxischer
rot
027
Fl@@
Serokonversion
Business
entem
GBq
epidemiological
FCF
Vir@@
geringem
cream
retina
potentiate
üt@@
trouble
Dosistitration
hepatischen
steriles
palmar-plant@@
Plaque-Psoriasis
lyophilised
vorgeschlagenen
hinzu@@
set@@
anhalten
worn
Vorher@@
supplementation
minimisation
unbekannter
carboxy@@
Gebrauchs@@
gal@@
dunk@@
50-
Consequently
MCL
Nateglinid
laktin@@
Muskel-
Pir@@
fak@@
schließ@@
teilten
Norm
oxybate
synerg@@
4-week
Psych@@
pH-@@
So
Trometamol
sorb@@
PV
Institute
hindeuten
induration
systolic
Inhalations@@
Sc@@
FPG
lipoprotein
Psoriatic
Haus@@
lase
0,7@@
PD-L1-@@
Dinatriumhydrogenphosphat
GILENYA
übersteigt
beseitigen
alitäts@@
gewis@@
Leishmania
Behandelte
Aubagio
Parasiten
Aspartat-Aminotransferase
arterieller
enge
proto@@
PBPC
flus@@
ungeborenen
übertragen
useful
Months
fluoroquinolones
zeitige
Stadien
ease
Reaktions@@
16-
HETLIOZ
bakteri@@
Parvovirus
inated
SUPPLY
relax@@
milligrams
licks
identify
Blutstamm@@
Withdraw
soci@@
replic@@
Glyco@@
GnRH
´
7.6
obese
shortly
angeboten
Azacitidin
zz@@
mach@@
spezifi@@
122
adjuvantierten
ib-@@
vierten
pflanzliche
AUC-@@
fehl@@
hallucinations
headaches
Dronedaron
influenzae
extrapyramid@@
Spot-on
Mitte
komplikationen
stehender
Std
Blutkreislauf
ruxolitinib
hemi@@
enheit
Agitiertheit
36@@
Gesamtüberlebens
Insulins
growing
Dyskinesie
PHAR@@
IX-@@
stabilen
plac@@
anamnestisch
TNFα
Morbidi@@
ästhesie
media
SevoFlo
funktioniert
Bindeh@@
sm@@
sional
Centre
num@@
Diagno@@
sorgfältiger
dynamic
ears
occlusive
Informationsmaterial
richtigen
Medical
Gicht
Tal@@
Phase-II-Studie
MAO-Hemmern
Retardtablette
ungeborene
ccin@@
Specific
PRCA
erstmaligem
-Lösung
Cangrelor
macitentan
abgeschrägten
boys
hydroxid
Four
Gründen
Verminderte
CYP3A4-
nekroti@@
Kreatinin@@
Klini@@
nicht-
6,2
oplas@@
quar@@
Eierstöcke
35@@
mia
Generally
lio@@
sitis
uted
Percentage
Clostridium
Nagern
reinigen
venöse
Pemetrexed-@@
cau@@
Lacosamid
mito@@
formulations
enc@@
Willebrand
CEL
Hypokalaemia
trend
BEHÄLTN@@
1A@@
Doppel@@
San@@
bitches
Familien@@
unterstützen
ektomie
Posology
cross
Wann
lastic
MAO
Gesichts
welchen
BY
authority
log
Antikörperantwor@@
verschlechtert
akte
verdünnen
Anaphylactic
divi@@
retinopathy
daraus
obili@@
Venen@@
Rhin@@
initi@@
Kolben@@
pe
avirus
verworfen
undergoes
Natriumoxybat
Wirbelsäule
paper
leichtem
respiratorische
zyme
150-@@
ish
Individuals
aver@@
163
sepatienten
onwards
blocked
aring
klinisch-@@
geleitet
tö@@
stands
INN
rechten
0.95
ylene
linie
Aufbewahrungsbedingungen
Stat@@
Maropitant
ungsstudie
gesteigert
session
verkürz@@
gliche
hochdisperses
kontr@@
rank
AE
Gummi
lowered
Sustained
three-@@
überwie@@
Betreu@@
vital
manufacturing
spritze
ax
verlu@@
Gastroenteritis
systoli@@
Pneumokokken-@@
statin
oromucosal
Statine
ogenes
mediastinal
16-@@
pit@@
Patientenpass
QTcF
sichtbaren
ARZNEIMITTELN
Ribavirin-@@
Medic@@
aufzunehmen
Diagnostics
synthese
hing
Mut@@
auffäl@@
aminosalic@@
breit@@
Vorder@@
Mechanismen
CTEPH
follicular
halten@@
Fc
krankungen
MANUFACTURING
low@@
riluzole
ahydrate
Ant@@
setz@@
Renvela
markierenden
zit@@
alia
transportieren
itinib-@@
Rauch@@
Folien@@
viralen
linken
Lungen
ierenden
Nasenbluten
dic
mentation
calc@@
Kreuz@@
Nederland
gambling
SGL@@
DFS
niedri@@
Ibaflin
mesothelioma
carmine
ähn@@
breiten
unkontrol@@
verabreichtem
FL
ains
Rif@@
aket
gemcitabine
Kexxtone
manifest@@
pet@@
chewed
zid
lock
Aluminiumfolie
considers
azo@@
Dick@@
mucous
Antikoagulantien
mahlzeit
acellular
Lartruvo
play
Prüfarzt
Cr@@
representative
floxacin
ranel@@
schaf@@
intracellular
italis@@
dosi@@
resul@@
Bottle
ocytosis
ia@@
hel@@
belegen
pronil
umge@@
Splenomegalie
dyslipidaemia
Hals@@
zustellen
zubereiten
Psy@@
aktiv@@
compatible
asymptomatische
Fif@@
Candidiasis
individu@@
CMV
K103N
Cycles
aemi@@
G551D
selectively
Kogenate
ICH@@
los@@
Nile
clonic
Harnstoff@@
leere
Defibro@@
Risiko-@@
Zypadhera
glyko@@
gerä@@
ANY
calendar
Zelle
Elevations
Center
Coun@@
Schicht
Asfotase
Para@@
verläuft
embryon@@
GM-CSF
Posi@@
Fluid
HA1
Kohlen@@
dialysepflichtigen
percentile
Leukapher@@
Stei@@
erungen
Ioa
Tepadina
6B
dealk@@
etimi@@
Abend
soralen
gehörten
acil@@
anthracycline
Janu@@
Antieme@@
knee
Cho@@
aziquantel
klasto@@
Lupus
Rap@@
urt
Dimethyl@@
Serotonin-@@
vomit
Sloven@@
Calcitonin
-Tri@@
Patientenkarte
high-dose
requirement
behandelnde
uxostat
HD
braun@@
twisting
ChondroCelect
preparing
Ösophagitis
fas@@
phi@@
Every
neuritis
wichtigste
ADP-@@
Messlöffel
foot
lecithin
gemisch@@
breathe
nichtsteroidalen
vap@@
Servier
sivum
Prostatak@@
deckt
Linear@@
Anwendungsgebieten
Leberzirrhose
efflux
Lymphaden@@
methoprim
Narkose
deckel
0000
lizierten
ix
Nahrungsmittel
Exposure
Bru@@
gewährt
Albiglutid
Lungenödem
cos@@
Frage
disappear
090
hormonellen
regulation
manageable
addi@@
Bisphosphonaten
Observed
Nervosität
faktor@@
ulathromycin
181@@
acon@@
Kum@@
Proportion
Hüfte
7.7
65@@
ologisches
beeinträchtigter
figure
T-
hämatologischer
Te
Man
consequences
gemäß@@
Bec@@
pped
Multiplen
vivo@@
Interferon-@@
hol@@
urin
cu@@
sz@@
Nephritis
exception
97,5
schnell@@
dazole
Poten@@
chtig@@
meningococcal
acetylcholine
falling
vismodegib
tumor
injec@@
single-@@
atherothrombo@@
pull
aboli@@
scans
FIRDAPSE
depres@@
Hypertrophie
fru@@
Eispr@@
318
zeitlichen
Unbedenklichkeitsberichte
rotigotine
explain
esti@@
Gauge
greifen
Schwangerschaften
ungewöhnlich
consulted
Kanuma
sed@@
Staphylococcus
Antimykotika
Nackenschmerzen
Melovem
Sauerstoff
234
2-5
space
Genotype
senkte
sozi@@
epileptischen
Pharma@@
NI@@
alterations
mals
ills
Jahres-@@
RS@@
secreted
Fragebo@@
Person@@
unwanted
zug
Beson@@
neuropath@@
FI
onacog
Applik@@
geltenden
dity
trocknen
yeast
Novaquin
1200
gesagt
60@@
geleg@@
Gesamtvolumen
Vizarsin
Verabreich@@
Fleisch
Dinatri@@
thin@@
stochen
polymorph@@
infusionsbedingten
consent
DOS@@
Anbetracht
TER@@
511
vulvo@@
115@@
Regarding
Fall@@
Ceftazidim
linien
469
78@@
unabhängige
hervorgerufene
Nasal
ulipristal
Exazerb@@
BÜNDELPACKUNG
1.05
Benazepril
Pumarix
genicity
diabetischen
Candi@@
Rachen@@
entzünd@@
meistens
Höh@@
azolam
reliable
200-@@
WHO-@@
Sep@@
Sprüh@@
H5N3
transportiert
betroffen
Metabolisierer
zide
schrift
insäure
levofloxacin
niedriger@@
Nutzen-Risiko-Abwägung
omark@@
Bestimm@@
Histologie
schwanger@@
adaptor
Talc
Alzheimer-Demenz
Lungenkarzinom
improving
demo@@
213
decompensated
ödeme
prä-
Pantoprazol
palivizumab
Laborstudien
antacids
Fertility
u.
diagnostischen
Hypomagnesiämie
miner@@
Blistern
organischen
sekundärer
darm
Intervallen
HbA1c-Wertes
Gemäß
Immunsuppression
Bluterguss
cotton
amifampridine
1,05
junc@@
N-Des@@
Typ-I-Glas
Research
SN
herunter
well-@@
lay
66@@
Propranolol
GR@@
P-Glyko@@
ked
enthielten
pine
anwendung
Bis@@
halo@@
yst@@
lagen@@
Panretin
Eingriffs
undi@@
Schn@@
ernden
deh@@
lagerung
Reproductive
Gelb@@
Schellack
vergröß@@
ammon@@
immunsuppressiven
profloxacin
Muttersubstanz
freeze
Soj@@
cabozantinib
vinyl@@
PHEBURANE
MAT@@
0-24
Raloxi@@
Parvo@@
tischem
pyr@@
glatten
133
-Scores
trav@@
5mg
beigefügt
nearly
Hormonersatz@@
vorbeugt
NOAEL
H2
schien
schar@@
ölkerung
pol
Bri@@
geschwindigkeit
206
mind
geschwollene
ecting
hydroxyp@@
Estrogen@@
Häufigkeitsangaben
konzentri@@
IK@@
ovari@@
RET
netupitant
M.
sin
felis
krankheits@@
Sitax@@
things
vagin@@
stimeth@@
Beachten
1.2@@
geal
325
HERSTELLUNGSERLAUBNIS
MDR@@
Dosierknopf
eosin@@
diabetischer
broch@@
xanth@@
Alcohol
suppressed
EDSS
Abdomin@@
Giotrif
Magen-Darm-Trakt
lipegfilgrastim
relev@@
egg
kardialen
Tagrisso
sta@@
tein
BLISTERPACKUNGEN
benazepril
PG
gewar@@
ierende
Wir@@
Gebärmutter@@
wässri@@
CIR@@
dilatation
patho@@
Polyvinyl
limbs
exceeded
verblei@@
Apothek@@
5-6
muscular
Hautkontakt
Glyc@@
reflect
mer-
unterdrücken
707
Sufentanil
Seizures
Depot-Exenatid
unterstützt
mic
Assays
esp@@
Lebertransplantation
thiotepa
erklären
flushed
erster
pegvisomant
Netupitant
medizinischer
fortgesetzter
schlossen
Nukleosid-@@
patient@@
bpm
Stop@@
Vibativ
pers
mine
Difficulty
auch@@
TIH
mox@@
maropitant
clastogenic
Drugs
anth@@
betroffene
Daratumumab
28-day
Augenschmerzen
oritavancin
hals
Ratten@@
721
Where
REGARDING
Wirksamkeit@@
komplette
farben@@
ophi@@
onie
hemmer
kontinuierliche
naiven
histor@@
längliche
his
NNRTIs
line-@@
kardi@@
spas@@
eck
UPD@@
richtung
Glubrava
Wachstum@@
polyarticular
abnormal@@
ux@@
Gründe
aging
Antirheumatika
sh
sun
eritis
sides
Ps@@
scheme
druck
küh@@
immunocompromised
Zytiga
Plaque
enthal@@
kap@@
Wirkdauer
why
Circovac
raum
Ferkel
numer@@
IIIa
Rezidiv
us-
Hyperhidrose
ausgeprägte
Pflegek@@
Toxizitäts@@
aqu@@
pharmac@@
0.99
degenerative
Risperidon
integrase
328
abhängigkeit
zunehmendem
schlecht
Sudden
ACE-Hemmer
thumb
Krystexxa
purinol
aimed
ausrüstung
stor@@
Nacken
Dapaglifloz@@
teratogen
Aminosäure@@
Sil@@
Repeat
Trübung
idämie
ona
LCE
idine
sant
Cardiovascular
Prescri@@
angel
Methylnaltrexoniumbromid
mangel@@
Chlorambucil
Therapeutic
behavioural
Sä@@
musculo-skeletal
Chloride
regression
fällig
arte
nichtsteroidale
Leucofeligen
AUCinf
Suprelorin
Dex
ero@@
ral@@
plan@@
reproduk@@
turning
MUST
Gesamtansprechrate
materno@@
denselben
HIV-RNA
kombinierter
Xgeva
netium
ta@@
gkeit
Drucktinte
wat@@
testosterone
sempf@@
Eosinophilie
ek
icardi@@
NEOSPHERE
ventrikuläre
atop@@
aufgezogen
c-@@
Glucuron@@
obutyl
Memory
hep@@
ony@@
Apfel@@
Meldesystem
avoprost
FV@@
schwindlig
Kontraindikation
Percent
Version
RT@@
fusion@@
sierender
geringerem
ures
ke@@
entnahme
home
4,000
Zusatz@@
ings@@
sensory
Respon@@
thy@@
Koronarsyndrom
bedaquiline
Nukleosi@@
exfoliative
jähriger
techniques
gewich@@
speak
embryo-foetal
Chromosomenaberr@@
entle@@
0.7@@
cre@@
stablette
opyri@@
beiträgt
funktionen
insulin@@
wur@@
obstruktiven
ylation
best@@
beg@@
Dosiserhöhung
Atempro@@
asti@@
herum
gemeinsame
E-mail
dete
mittelgradi@@
anleitung
V59P@@
Tacrolimus-@@
Aminotransferase
Aflunov
asiatischen
Abgeschlagenheit
Minimum
Overdose
ekizumab
Empfän@@
präparate
strahlung
predic@@
Korrektur
langfristigen
forced
zuführen
lumbar
chi@@
Verzehr
zysti@@
hepatocytes
enia
Humenza
EINER
begin
Moreover
Cats
Proteinen
lixisenatide
Schwe@@
irium
P.@@
fainting
9805
H5N@@
gebrauchsfertigen
aggressive
apre@@
langfristige
SOFERN
ACS
Dass
CA2090@@
showing
foeto@@
pouch
90x1
gepoolte
GEICAM
Antikörpertiter
PR48
Golimumab
variety
Kam@@
Finger@@
Masivet
Pri@@
neues
217
erwachsener
gebooster@@
Hem@@
MS-@@
arrhythmi@@
nachgewies@@
ypic
ump@@
uv@@
muscarinic
gemeldeten
Diabetikern
Herzen
nutrition
er-
VcR-CAP
Gesamtan@@
externa
anstieg
kontrollierter
ate@@
pression
graphy
WHAT
doch
1040
gaben
plötzlicher
optimalen
retroviral
97.5
Blutzuckerkontrolle
raise
Spain
Tropf
disseminated
agency
4a
Einmalgebrauch
measurable
san@@
pigmentation
ICH
780
64@@
erzeugt
723
Karzinogenität
ker@@
pirfenidone
getr@@
stillation
Umeclidiniumbromid
QX
Mu@@
179@@
Mis@@
Verstoffwechselung
verursachten
postoper@@
einzigen
iae
ammonia
Reconcile
gut@@
Termin@@
positiver
Luveris
SurePal
got@@
dauerhaften
ADDRESS
peridol
Patient@@
sebehandlung
vigorously
Thalidomid
Avibactam
Aminotransfer@@
A.
omorph@@
erende
asal@@
242
drug-@@
sem
TAF
akts
Milzrupt@@
Placebo-Arm
sekund@@
chan@@
erhoben
spectrum
ace@@
embryonic
kleineren
empfiehlt
Insbesondere
chymo@@
sam
masse
Fever
Proteus
Mehrfachdosen
nungs@@
Imrestor
.-@@
sichtlich
Bindegeweb@@
μ@@
Verneb@@
Rin@@
nitrates
470
Sor@@
unzureichende
Interaktionsstudien
anagrelide
probe
Gesundheitsberufe
stagen
udin-@@
127
5,2
277
contacts
uring
β2
DARZALEX
3x@@
0,95
Flus@@
verpackung
End
129
erenden
ND
sammel@@
aching
vermittelt
CART
Ferner
sarcoma
phylax@@
virologische
ys
me-@@
MEN@@
ENGAGE
periode
washout
heits@@
ungen@@
Flöhen
Vehi@@
Präparate
build-up
ält@@
unt
discussed
justifies
HES
enthaltene
temetamol
enalapril
Ibuprofen
stratifiziert
Interaktionen
Application
ogenese
Thus
NUMBER
propranolol
ligh@@
absoluten
gefäß
selektiv
conjunctivitis
Pflegepersonal
Constella
versäumt
ärz@@
Pent@@
Anomalien
autom@@
y-
Invasive
avas@@
promo@@
lesser
geplant
metabolischen
strictly
Sedadex
flächen
versäumte
inhale
Gleich@@
Pexion
Spuren
accurate
pulmonaler
phosph@@
pel@@
Neutropenien
ppen
gimeracil
anterior
anter
Viral
ocar@@
Spondyloarthritis
-induced
Gamma-@@
Pneumonia
schädliche
necro@@
kerat@@
G4
028
sers
Resorp@@
755
Patientenjahre
OLANZAPIN
Heilung
upp@@
entr@@
melan@@
grund@@
duktion
TP
erwägen
Hautläsionen
MTIC
Bestimmungen
leidung
q8h
Breite
IMMEDIATE
lets
Aldosteron-@@
verwendbar
glycoprotein
YMDD
transfer@@
angewendetes
Miner@@
Yttriga
stimuliert
retro@@
hemmenden
Spritzenk@@
Saxenda
myelodysplas@@
TC
WIRKSTOFFE
sofortiger
asfotase
stick
etz@@
Luer-@@
NVAF
Risikofaktor
muskel@@
volumina
nat@@
impression
defin@@
versorgung
wert@@
partikel
Studienpopulation
inability
distrib@@
transit@@
Neisseria
reliev@@
arb@@
avasation
Periode
penile
6,0
60x1
Aktivkohle
hes@@
AZILECT
steel
making
Antikörper-@@
adherence
auszugehen
LV
farben
ranke
upset
zerebrovas@@
fy
PCI
angiotensin-@@
lers
tubuläre
verbundenen
lymphocyte
158
tran@@
Angesichts
M4@@
enth@@
zurzeit
schwankungen
T2
Studi@@
rotavirus
fir@@
F-
jegliche
HepB
NRTI-@@
erfor@@
inder
geholt
Beg@@
verbleibt
britum@@
uk@@
WIRKSTOFF
durchsich@@
Nahrungs@@
Chargennummer
lux@@
Lenvima
Nähe
227
CHF
webe@@
Creme
10000
toxisches
lethal
Responses
libido
Peak
fulmin@@
MYLAN
ollen
PSURs
akzep@@
erworbene
post-
Creatinine
conclu@@
kinder@@
Bewusst@@
pitolisant
ÄN@@
Lagerungsbedingungen
Mass@@
suspended
Nierenzell@@
physiological
Hyperthermie
flu-like
0111
Wirksamkeitsdaten
132
omotor
toni@@
interact
setzten
Child-Pugh@@
tafamidis
mutag@@
atypical
bloating
wastewater
azon
psychiatrische
Sulfonylharn@@
nete
S.A.@@
gebil@@
Mix
Stiripentol
aseptische
Impfschema
brüche
Omega
Usu@@
composed
handhab@@
Asthenia
N.V.
MedDRA-@@
Auflösen
lop@@
sichergestellt
CYP1A@@
kalium@@
ities
tödliche
Injecting
84@@
whe@@
Basalinsulin
Far@@
Term
zellkarzinom
Körpergewich@@
148
Drü@@
sprin@@
beziehungsweise
exacerbate
bevacizumab
I.@@
CYP3A4-Inhibitor
electrical
duoden@@
Irritationen
1.08
beobach@@
Schafe
af
IDE@@
coming
beteili@@
glaukom
ästhe@@
Supp@@
supra@@
Dreh@@
größten
uchen
personal
halb@@
hamster
separ@@
vorgeschrieben
preventive
orales
Guide
DO@@
Plas@@
every@@
jug@@
star@@
Absz@@
alleng@@
Babys
anhält
aut@@
Geschlechts
Elektro@@
hinter@@
personen
ION@@
coll@@
langsamer
tylvalosin
Programms
Gesundheitszustand
verlangsam@@
triglycer@@
HIV-Erkrankung
Grapefruit
DAS28
abnormale
Tetanus
146
gerech@@
PSA
kautschuk
Beseitigung
selek@@
extreme
k-@@
CRVO
P4
viel@@
Hämoglobinspiegel
Zaltrap
Chemotherapie@@
silicon@@
Hämaturie
ante
Tages
cows
intermedi@@
terat@@
erythemato@@
nahme
Volumenmangel
antipyre@@
obstruktion
306
Fosamprenavir
ausgelassen
vacc@@
ziel@@
Pi@@
HI
Chemotherap@@
Intervet
termination
typical
normalisierte
Gegensatz
152
Dopamin@@
MAOIs
Fc-@@
detection
systemen
sauberen
Onset
Analogon
mg-Kapseln
ester
E5@@
ensin
Gefäßerkrankungen
Jucken
stiripentol
uli
Östrogen
Rotavir@@
Verdünnen
ference
einschließen
Pimozid
rebound
thyreose
tl@@
tures
3-mal
geschwür
inhalers
apped
Organen
verschwommenem
toren
Seroprotek@@
stört
HO@@
fach-@@
µm
Langzeit-
späten
VIRB@@
Consideration
ffer@@
sus
AI
CYP2C19-@@
Toxicity
Muskulatur
TT
agonisten
bel
behandlungsbedingten
simultaneously
angehalten
frühere
eslicarbazepine
diagnose
FU
Gon@@
Ani@@
Gesamtüberlebenszeit
fludarabine
dul@@
ine-treated
fehlende
zirkulierenden
end-@@
olaner
rid@@
MINIMUM
phenylalanine
Einzelpackungen
Zucker@@
attaching
Verpflichtung
Let
lit
Belgique
pyri@@
begleitenden
Ca@@
arbeiten
anything
Kardio@@
ems
lumpen
perfusion
bindungs@@
ziert
TAC@@
stro@@
lasted
intermit@@
Blockieren
10,7
Plasmasp@@
jen@@
gegenwär@@
QT-
distress
anzeige
Gelbe
observations
dienen
zurückgeführt
Given
teilnehmen
Abstoßungs@@
Hämoglobinkonzentration
ocumab
Corti@@
Polypropylen@@
geringfügige
coagul@@
241
orischen
wear
EK@@
BCC
Pharmaco@@
Ergänz@@
smoke
3,000
intact
-based
Fachpersonals
inclusion
EPS
separated
fats
Verb@@
Induktionstherapie
sät@@
Belatacept-@@
azell@@
täg@@
zumindest
adsorbiert
Vo@@
Impfstoff-@@
HIV-1-RNA
ylic
rub@@
Reyataz
US-@@
hinreichenden
nephritis
tum@@
frühzeitig
ISE
blutdrucksenkenden
hyperactivity
................................@@
dox@@
vorausgegan@@
359
ANCE
caspofungin
grauen
antrone
natriure@@
Reflu@@
0,52
Abwasser
Fahrtüchtigkeit
Idiopath@@
infiltration
TN@@
Therapieversagen
ypepti@@
Reverse-Transkript@@
Metacresol
Jahres@@
recognises
sco@@
arzinom
gamma@@
aetiology
Per
zosin
symptom@@
sph@@
unding
acial
Amylas@@
enz-@@
etab@@
Sur@@
zahnärztliche
Neigung
thinning
zeich@@
SYRINGE
tech@@
0,72
varying
Verteporfin
unkontrollier@@
zeu@@
Infektionsrisiko
child-bearing
Denosumab
11.8
DEM
ein-
XELIRI
upside
ency
ös@@
ütz@@
Paroxetin
verschwinden
Memantinhydrochlorid
unresectable
itten
Medac
langsamen
Pharmaceutical
entleerung
ativ@@
asis
myopathy
Sarkoidose
consequence
0.72
jetzt
Belastung
idiopathischer
simpfstoff
fötale
Depot-Injektionssuspension
Begrenzte
neither
Similarly
Sprach@@
pre-dispensed
tedizolid
pronounced
N-
dosiertem
Mikroliter
Sen@@
inklusive
gram@@
Mädchen
Katarakt
versehentlicher
gehenden
medikam@@
trock@@
prophylactic
stabelle
QU@@
Fumarat
rechtfertigt
self-injection
België
Indigocarmin
monatiger
10.7
Osteo@@
befähigt
Durchstechflaschen@@
behind
foaming
ep
Final
bed
stellten
litre
induzierter
Verhütung
entfaltet
Typ-1-@@
Oberbauchschmerzen
Pertussis@@
enhanced
genetischen
anom@@
entscheidet
Leuco@@
merkmale
cholinergic
Dexmedetomi@@
konzentrations@@
aste
C10@@
Hallu@@
decompensation
Perz@@
Tablettenbehältnis
subsets
intraperitone@@
teeth
STOCRIN
acryl@@
Oxali@@
anomale
Thromboembolien
tol@@
URE@@
horizon@@
Galle
Potenzi@@
intense
gewünschte
ologika
Pneumonien
onc@@
Fen@@
Durst
Blutzuckers
ull
CIN
Pirfenidon
Fe@@
tiefer
affen
partieller
Speichelfluss
Cro@@
soweit
THAT
ution
gelen@@
Bronchialkarzinom
Zeitdauer
Verlauf@@
liner
swine
Stoffwechsel-
begleitende
Comfortis
mating
Plasmahalbwertszeit
Ausgangswerten
leep@@
anfälle
IPD
gänge
thrombocy@@
Säugl@@
Abschnit@@
Activated
Turn
rue
skarte
markierte
Priap@@
vermehren
mCRC
Sichelzell@@
Previ@@
Dystonie
älter@@
Tumors
del
Interpretation
Biotransformation
klingen
ankles
Hämatokrits
trockener
HOW
Fak@@
adhesion
progno@@
Exkretion
extrap@@
adsorbed
Krebsarten
muskuloskelettale
speci@@
molekülen
cysteamine
rosa
Fil@@
wet
4HF
toxiz@@
E-
TNF-antagonist
gebung
öff@@
diff@@
HIV-Infektionen
Deriv@@
calculate
zieh@@
Leg@@
Kraftfahr@@
fläch@@
natürliche
parasitä@@
öl
Strasse
Kreislauf@@
complement
platin@@
Ara-C
höch@@
Leukozytose
lusion
Tasimelteon
CINQAERO
Aut@@
Trau@@
Notfallmedikation
Kaliumspiegel
zeitpunkt
Zähne
inappropriate
11,8
enrol@@
Parkinson-@@
chemisch
Concentrations
3.
ergänz@@
Beobach@@
fruit
Progressive
Alb@@
active-controlled
rose
Mepolizumab
Differ@@
NS5B
Gewich@@
pill
letzung
geometric
Knochenbrüche
fanden
blistering
Antwor@@
methrin
easier
chromo@@
residu@@
ANORO
Nierenfunktions@@
etr@@
korrigierten
Azil@@
Prolonged
sespiegel
max
Stage
torasemide
pathie
azid
laf@@
Weniger
UD@@
olan@@
alisierung
muskulo@@
Rhein
remainder
insulins
Wildtyp@@
Pg@@
DASS
atischer
avian
obutyl-Gummistopfen
intrar@@
Vier@@
onal
Diazepam
Austria
ier
Alzheimer-@@
wing
yrin@@
aryn@@
correlation
olytika
call
B-
Free
Yttrium
Einzelfall
Erythrozyten
Spiegeln
glykämische
Aug@@
eing
Mercaptopurin
C0@@
sho@@
besser@@
Handschuhe
fox@@
Sicherheitsbedenken
vorbeu@@
irrigation
GPT
klär@@
festen
Philadel@@
Clopidogre@@
Langzeitanwendung
bildungen
L-
Reconstitute
suppress
vorkommen
Daclizumab
ISS@@
lymphatic
Rimonabant
längerer
Wes@@
ational
thir@@
8400
tho@@
lactate
minütige
sickness
adhesive
zero
jugendlichen
Never
219
größte
estrogen
ist@@
aving
Estro@@
9,4
ergebnisse
Rivastigminhydrogentartrat
States
intramuscularly
1,2-@@
verordnen
occ@@
zolid
transp@@
plasma@@
Kurve
sants
ograph@@
Volumens
fähig
kurzen
belonging
Hospitalisierung
Umgebung
Meningokokken-@@
Sehkraft
proton
anzupassen
precaution
4.000
Pel@@
Careful
Bindegewebs-
Zudem
Säu@@
Lepirudin
Feldstudie
allgemeines
KO@@
Glucose@@
ationstest
microsomes
gent@@
Fluorch@@
feste
üblich
INN@@
labels
infantum
lupus
Cimalgex
Elo@@
steroidale
vent
Statinen
Angst@@
Weeks
Prophyl@@
Warten
erwartenden
stock
länger@@
einseitiger
Harninkontinenz
Men
allogeneic
stärken
azol-@@
Ausgangs-@@
aglipt@@
Empfängnisverh@@
zugelass@@
alisation
TMA
kürz@@
Laborato@@
renally
kleinzelligem
186
prescri@@
immunsupprimi@@
spondyloarthritis
elim@@
durften
ska
Ätiologie
reconsidered
erzi@@
quimod
Angioö@@
syntheti@@
I-Neb
ched
establish
Sei@@
Tester@@
cross-resistance
Hepatozyten
UE
Autoimmunerkrankungen
VOD
lesinurad
Cytochrom-@@
Cross-@@
Restless
kanäle
aseptisch
Verteilungs@@
Ibafloxacin
ellem
Difloxacin
PRE-FILLED
defekt
flare
ceritinib
retion

inaktivierte
opioids
Hohe
Krebsarzneimittel
anschließ@@
tose
awareness
Rab@@
Tinnitus
timing
förmige
Grad-4-@@
Trial
fail@@
ausgelöst
Previously
udine
coadministration
angewendetem
Performance-Status
mercaptopurine
333
Plasm@@
gestion
gemessene
wes@@
cysts
SL@@
E3@@
gebrauchte
oesophagus
implemented
HLA-B
hypomagnesaemia
prozentualen
Gegenwart
ZVV
Mess@@
instabiler
Nebenniereninsuffizienz
Frucht@@
ths
graue
infektiösen
undes
entered
beides
Semintra
Herzsch@@
CP
anwendeten
Mangels
cataract
antiretrovirale
Nukle@@
Grazoprevir
dieselbe
toph@@
178
zubereiteten
stemi@@
keratosis
RP
juveniler
virus-
belly
bur@@
14C
tomach
nachstehend
Amne@@
Hormone
sitting
Leist@@
Sehvermögens
75@@
qualifizierten
Zulassungs@@
persist@@
267
Glomerulonephritis
difficile
entzündlichen
rezeptor-@@
domain
B12
Roche
Small
modell
dennoch
retinitis
vermehrt
Event@@
invasi@@
getragen
someone
reconstitute
erwartende
antidepressant
Don@@
Thiazide
02-@@
fixen
schwacher
sa@@
schädlich
pent@@
Verabreichungs@@
Läsion
stoppt
pathologischen
Niedrige
Verhaltensänderungen
Magenverstimmung
Schraub@@
leg@@
blister@@
achtung
TLS
wide
unverblindeten
stim@@
benzoat
Retinitis
segment
hyperthermia
ratios
˂
dokumentieren
infusions@@
verringerter
ECOG-@@
Hib
Bedarfs@@
Wertes
schütz@@
undetectable
Genotypen
ERE
tile
Its
geblieben
diltiazem
ramipril
doppelt
tox@@
schieben
f-@@
Plasmapro@@
died
deposits
zer
optic
günsti@@
A-Behandlung
Exjade
diarrho@@
Glycerolphenylbutyrat
Schleimhaut
endometrial
UGT@@
erkrankten
palmitate
036
bacterials
placenta
Mycophenol@@
leg
Black
with@@
Nierenfunktionseinschränkung
Kerato@@
relapses
els@@
Asenapin
half-lives
264
concentrated
Interim@@
Dosierungsempfehlungen
verlänger@@
verbundene
afterwards
Κ@@
Anthracyc@@
scopic
Cycle
IC
randomly
walking
tioned
woche
Leberproblemen
RAVs
abzugeben
extremities
sicherheit
ened
skombination
vorzuzeigen
acromegaly
Caprelsa
Nachweisgrenze
glutam@@
181
Faktor-@@
bereit@@
Quanti@@
verlängerten
Verträglich@@
Anfangs@@
triglyzer@@
Tegafur
apnoea
bir@@
intrakrani@@
Sevohale
24-wöchigen
occult
stoffwechsel
passt
bes@@
Wunde
HCV-RNA-@@
202
Prucaloprid
Thromboembolie
hyponatraemia
Nervenzellen
bing
einfach
cephalospor@@
vermindertes
ADA
Transport
9.9
AN
leb@@
Schleimhaut@@
unbound
epileptic
Resistenzentwicklung
and-@@
Embo@@
hülle
Vorlage
cetuximab
utuximab
Linie
feto@@
inch
Genital@@
stainless
girls
kran@@
ble
Spal@@
Pharmacokinetics
Kontrast@@
adäqu@@
Stoff
thickness
inneren
Unerwünschte
Terminology
glands
targeted
hydrat
erhol@@
Behandlungsunterschied
Manie
MANUFACTURERS
SF-36
malignes
battery
lithiasis
Phospholi@@
gemischten
Lymphomen
körpereigene
enlarged
Nil@@
Torsade
elektri@@
fragile
Ps
geringes
wachstums
valenten
strict
Nich@@
eigenen
Apo@@
Rot@@
Primo
haltiger
diluent
toward
supr@@
hierzu
Sichtfenster
classes
square
Synthese
AF@@
Augeninnendruck
wise
312
pad
Accidental
D1
INJ@@
inolonen
Hemmstoff
Niveau
Verletzungen
Wiederherstellung
Zustände
8,7
blau@@
merase
Chem@@
gere
muster
gül@@
Even
Q80@@
frakturen
L-Histidin
adenosine
Invagination
Aufstehen
Mineral@@
verletzungen
Quad@@
normal@@
beschädi@@
zytotoxische
ADH@@
d.o.o.
Lymphozyten@@
gleichgewicht
eich@@
kramp@@
Einzelheiten
Rau@@
inf
semi@@
cardboard
Mig@@
compartment
wärmen
ischaemia
AA@@
Blastenkrise
Entwicklungspro@@
nadir
post-natal
μM
hypertroph@@
spermat@@
Od@@
brin@@
Alpha1-@@
Kardiomyopathie
erfahr@@
transparent
übertritt
atation
inesterase
SRH
ungsstatus
grünen
Evalon
Eliglustat
nungen
Erre@@
Seiten
pin
Situationen
kaus@@
TAC-Arm
oti@@
Ras-@@
Ra@@
errech@@
gän@@
ankylo@@
neurologic
Berechnung
Flatulence
Kreatinin-@@
Stimm@@
Kot
500@@
HSCT
Gehör@@
Neutrophilen
tas@@
functions
hemo@@
Hyperaktivität
Nierenerkrankungen
Mitgliedstaaten
930
milli@@
hergestellte
ibuprofen
Nu@@
globulin
Treten
maßen
Individual
XDR-TB
antidotes
DDC
weis@@
pes
hinzugefügt
rabies
abgetö@@
abhän@@
Carfilzomib
beige@@
gar
progressed
Hauter@@
embry@@
relation
tion-@@
Typ@@
anwen@@
Drin@@
Analy@@
basier@@
contribution
fachtherapie
South
Beuteln
Dupuytren
Stickstoff
sie@@
Dic@@
trigger
razox@@
Rückbildung
Gefüh@@
conazole
0,5@@
Renin-@@
Nordisk
opres@@
betre@@
Regel@@
probenecid
Ingelvac
Replac@@
VO
Bestätigung
collection
Therapieabbruch
Lipase
sows
regulated
purpose
albiglutide
Mad@@
licherweise
Authority
Retinal
sures
rSBA
nelarabine
orph@@
Levonorgestrel
emmung
Mediastinums
Todes@@
utili@@
Warnings
Grepid
vable
eingehalten
100.000
sacubitril
speed
grad@@
460
Tedizolidphosphat
ent-@@
HI-@@
Neutroph@@
stellungen
Myelodysp@@
UNITI@@
115
Polyneuropathie
insp@@
Mix@@
Gesundheitsberufen
Lepto@@
kapselförmige
Comtess
senkende
044
hinweg
Myx@@
emetic
circa
haft
self
einzige
Mat@@
Schulter@@
regulations
Herzschwäche
Oritavancin
vitreous
klären
grenze
host
Register
geneti@@
Anteils
eto@@
ept
Lot
bipolarer
Erfolg
edges
sense
Sau@@
bcr-ab@@
haemoptysis
zurückzu@@
entan-@@
acc@@
strip
Baseline-@@
cc@@
inging
BN
Literatur@@
Gens
TEIL@@
erythemat@@
agen@@
ase-Inhibitor
dieselben
tam@@
Bedenken
dehydrogenase
poese
availability
nd
bedtime
phagen
dekompen@@
exists
NMD@@
reife
Materialien
silesomab
023
0,99
300-@@
nodules
.I.
Santé
hyperammon@@
programm
Sinus@@
Kapselinhalt
Neutrophil@@
preterm
Velpatasvir
interferon-@@
utz@@
Dysp@@
läuft
ahr@@
Methyl-4-hydroxybenzoat
Flex@@
FEL@@
clumps
carcin@@
chs@@
Weiterbehandlung
FH
Tildipirosin
safinamide
abilität
Sorg@@
te-@@
atrio@@
somn@@
konvention@@
Auffälligkeiten
Zycortal
11,2
achie@@
fying
Nekro@@
sicht@@
28-T@@
counter
enic
groß
Phen@@
Spei@@
adrib@@
Spray
Antigen@@
afen@@
151
kels
myelosuppressive
Malabsorption
kills
sors
ogenitätsstudien
Paliperid@@
20-40
q12h
Geschmack@@
Lip@@
lacosamide
EUROPEAN
omer@@
Aufbewahrungs@@
esotheliom
profitieren
a-Behandlung
Monats-@@
sacchari@@
Har@@
Rücken
akinra
ious
Schutzvorrichtung
Schä@@
vorbestehende
USA
Vacc@@
Controlled
faktoren
Thymanax
Granulo@@
Draxxin
gender@@
kleber
tear
ibafloxacin
lig
geschult
ogenes@@
enzahl
CPK
narro@@
hydrolysiert
Myopathie
Vorübergehende
spre@@
294
Opti@@
Improvac
bran@@
breast-
Aspirin
Bacterial
Myeloms
Einen
Üb@@
Reproduktion@@
ffen
Virologi@@
neutralisierende
55216
Hämolyse
Trend
Stabilisierung
fehlenden
pradofloxacin
PO
Turkey
ältnissen
post-treatment
engung
bidi@@
brutinib
ustekinumab
-A@@
MEK@@
Berichten
oxidation
PLD
tumoren
staff
verschreibt
Amifampridin
genotypes
ALK
Kreatininclearance
sanft
Pertussis
PATI@@
-Monotherapie
fügen
postural
lüf@@
None
lim@@
verk@@
Tick
268
gic@@
Derivat
446
317
klassi@@
STR@@
scheinen
Käl@@
0.85
STORED
Glukose
Nierenschädigung
interrupt
nukleosi@@
Merial
processes
Vincristin
Aufmerksamkeit
Regimen
magne@@
voll
ensuring
546
Schwer@@
Physi@@
anaesthetics
post-vaccination
Tie@@
Shire
vivo-@@
rötung
gives
Log-Ran@@
fizierung
Pleuraerguss
chem@@
Large
Perio@@
HD-@@
Natalizumab
visu@@
collect
Erb@@
CYP3A-Inhibitoren
desleukin
agon
Kleinkinder
Normbereichs
zugeordnet
Rötel@@
nehmb@@
Erhalt
omat@@
ambul@@
Placebo-Patienten
ba
ium
110@@
manage
Grunderkrankung
ONS
lichkeit@@
accepted
chirurgische
In-vitro-
Subtypen
stabilisiert
ße
hea
Insulintherapie
alkylating
enopyri@@
ovary
inspect
μmol
Til@@
EA
cken
einfrieren
sett@@
convulsion
lindern
261
proven
Erfahrungs@@
Stühle
leidet
antes
Fru@@
umar@@
transferred
Sekundär@@
Vorlä@@
tively
zun@@
ossification
verkauf@@
ib@@
gemeinsamen
Applikator
entschieden
ötungen
wäre
braune
MAO-Hemmer
FLASCHENETIKETT
intak@@
Pandemrix
Serumphosphat@@
Pro
anded
-DF@@
sicher@@
digitalis
Generalisierung
cro@@
767
turn@@
Intervention
Contracep@@
CD
Blutungsneigung
foods
aggreg@@
AID@@
appen
Natriumdodecylsulfat
8000
fs
dreht
Pack@@
Verhaltens@@
oqu@@
InnoLet
pulling
FILM-COATED
dise@@
unverzögert
Krankheitsaktivität
Verschreibungspflich@@
zweier
1.02
Check@@
R155@@
vermehrtes
Behörden
Wirksamkeitsendpunkte
Tacrolimus@@
überwiegen
Gerinnungsfaktor
Darreichungsformen
TRA@@
intend
Fludarabin
Equip
CSF@@
isetz@@
Nevirap@@
Phantasi@@
abor@@
erkrankt
Injektionsnadeln
Öff@@
riebenen
blockage
geschätzten
Puten
schwächen
Enzephal@@
paralysis
LI
Plötz@@
aer@@
Moxidectin
Ischämie
AquaSol
biopsie
Fenster
GP@@
republika
ranolazine
anaphylaktoide
abrupt
gnis@@
peptide
satisfactory
Glyko@@
unterstütz@@
Sublingualtabletten
diagnostische
Hypophyse
ämien
Erinnerungs@@
382
iel
4-wöchigen
Maisstärke
Pup@@
pharmakokineti@@
tryp@@
Febru@@
VI
Caucasians
lap@@
Verdünnungsmittel
akt
cytokines
igem
olef@@
74V
gradi@@
Contraindic@@
d.d.
Gene
ILP
autologen
ulate
Zentralnervensystem
weak@@
604
schlaf@@
oval@@
träch@@
FluFend
Dilute
valproate
chromat@@
ine-related
nearest
würde
i.m.
dermic
beuteln
Farydak
P-Glykoprotein
click
ortness
yreo@@
64Cu@@
Kieferbereich
bene
019
pups
nekrose
additiven
Produkts
Harnsäurespiegel
move
Leu@@
BVD@@
256
aggravated
parenterale
haemostasis
05@@
FUT@@
select
Plasma-
52-@@
Eprex
dosiertes
Pneumocystis
Basingstoke
erup@@
bid
E218
dip@@
blinded
deutliche
Fahrzeugen
Ohnmacht
Hand-Fuß@@
Papier@@
epilep@@
ADHD
Kontrazeptiv@@
omegestro@@
hexafluor@@
Entwicklungs@@
0,5-@@
Sacubitril
achy@@
VAV
vering
Akne
nah@@
Cruzeiro
kill@@
J01@@
macro@@
118
tur
Sicherheitsh@@
sacchar@@
einzuhalten
Normalwertes
Nierentransplantation
QT-Verlängerung
tetr@@
pushing
glyk@@
ophilic
sel
Hampshire
cabazitaxel
though
reversibler
wirksames
folge
ovar
-L@@
Zäh@@
kanzer@@
ink@@
charakterisiert
XX@@
olog@@
dihydrochloride
fün@@
Bradycardia
Elektrokardiogramm
ater
übermäßiges
e-treated
ationspatienten
testes
rit
Verantwortung
prucalopride
inser@@
auswirken
648
Over
Sevelamerhydrochlorid
testicular
Rachens
Octreo@@
Grenze
Quadrisol
emerging
Zugabe
UNIT
Immunschwäch@@
postprandialen
Zurzeit
─
concerned
wägen
Canigen
Improvement
GFR-@@
etikett
6.75
Bronchodilatatoren
allele
elek@@
alisierter
neben
kologische
omarker
Zoster@@
sives
änge
Yervoy
otherap@@
Pu@@
progres@@
drogen@@
acep@@
eher
zufuhr
Rd
übung
165@@
Xalkori
197
Physician
Brustdrü@@
9,2
Look
wider@@
icht
Meloxoral
Schwindel@@
ison
sparameter
BCR-AB@@
Ly@@
veränderung
B-Lymphozyten
Industri@@
r.
cryst@@
MPD
tenden@@
Normal
ump
Streifen
prä-@@
Risiko-
PASS
exprimiert
Lebensalter
abnormality
father
C1@@
HCV-Infektion
Pix@@
Zinc
fung@@
AstraZeneca
Put
haematuria
........................................................................@@
rine
refriger@@
denosumab
antineoplas@@
haemat@@
populationspharmakokinetische
ences
kologischen
Anfälligkeit
ethinyl
Polysacchar@@
Zir@@
Recommendation
ENTSORGUNG
fron@@
Reproduktion
RET-@@
Myokardinfark@@
opi@@
multip@@
Ramipril
monatliche
pus
überdacht
prolon@@
Phosphat
description
-associated
kr@@
austritt
Blase
ationsp@@
Proveblue
Ifirmasta
anticholinergic
S-
oberhalb
Konzentr@@
uterine
190
sex@@
Verdünn@@
!
Arrhythmi@@
trace
renin
Lixisenatid
analysed
16549
Exper@@
umfassend
Kortikostero@@
etzt
Zi@@
resultiert
Infusionspumpe
understood
anhaltend
Nexium
normo@@
engmasch@@
represented
thesi@@
364
parenter@@
84x1
melden
angen
VKA
toxic@@
vorzunehmen
PK@@
leave
amus@@
Maximale
Purified
avoid@@
Osteoporo@@
iegel
reservoir
zurückgegangen
Fabrazyme
rekonstituieren
Krebserkrankungen
Elaprase
Auto
Aktive
principally
ο@@
turnover
ise
reifen
gangs
glucocorticoid
eptifibatide
8.7
neutr@@
Eizellen
Mesilat
merk@@
bimatoprost
Eslicarbazepinacetat
SC-@@
deemed
In-vitro-Daten
systeme
ake
ycyc@@
kamen
consulting
selector
SARL
DPD
Osimertinib
titriert
implanti@@
Thrombose
Erscheinungen
Syncope
hydroxycarb@@
verteporfin
parvovirus
Valproat
juvenilen
stück
sprays
genotoxisch
Pille
1.500
System@@
equine-2
improves
Fabr@@
spoon
ospemifene
DEX
WAS
verschrei@@
chlorambucil
uxetan
tein@@
beeinflusste
ABCB@@
apopto@@
Scre@@
395
zyklische
EC@@
Transpor@@
uting
zir@@
Dac@@
TABLETTEN
definition
Kiovig
Significant
ähnliches
OATP-@@
9,7
865
Angiotensin-II-Antagonisten
Nier@@
H7N@@
Associ@@
Sed@@
persön@@
phal@@
PID
Ermessen
enthielt
geboosterten
Alph@@
compatibility
richtungen
Zusatztherapie
Allé
rif@@
gehemmt
tamper@@
Kategorien
concern
spielen
control@@
enocoumarol
PRES
resuspen@@
Avan@@
devices
heißt
zell-@@
ofen@@
Histamin
oteracil
722
ever@@
1-5
Caelyx
schwierigkeiten
Rezeptors
bedruckt
TREATMENT
Hungary
infektiöse
verapamil
ogenesis
atrophie
Convul@@
Sifro@@
Responder@@
β2-Adrenozep@@
Behin@@
V600
Zuständen
termin
macrolides
zw@@
hemifumarate
grenz@@
tening
M184@@
hospit@@
freigesetzt
durchstich@@
follik@@
dangerous
514
2003
Agranul@@
RG
virolog@@
R-
Screening
Plazebo-@@
colon
yrosin@@
tere
morbidity
quantification
Erweit@@
beta2-adrenergic
Säuge@@
slower
seri@@
d-Behandlung
ave
flurane
Knochenresorption
Gedächt@@
ulärer
mögliches
BEN@@
RG24
Back
KA
pflanz@@
Resistenz-@@
Komparti@@
gefär@@
tropic
Erektionen
Laktat@@
Rs
sity
erhebliche
questionnaire
Mirabegron
fluconazole
begleitend
NSF
kanalblocker
meter
wirkungen
reagiert
307
ösen@@
proof
HT@@
1,02
Aluminiumbördelkappe
respir@@
Mehr
Dezember
Buchstaben
theore@@
285
milch@@
burn
MW@@
Insek@@
unger
links@@
Hydroxycarbamid
PUBLIC
Sv
tasimelteon
evident
Bestä@@
phag@@
Anästhesie
Richtung
Saccharomyces
toparasi@@
ARZNEIMITTELS
alidomi@@
transporting
fluoro@@
FOLFOX-4
Ceritinib
SK@@
vascularisation
Oran@@
Sauen
ehemmern
BGR
ici@@
fatalities
cast@@
Schübe
sup@@
alkalo@@
Standardabweichung
Edurant
oprolol
gastroenteritis
Brustkreb@@
biologische
Ren@@
späteren
Procysbi
ausgewählten
lyophili@@
leichtes
uri@@
irudin
ungeklär@@
Disposition
Atemwegserkrankungen
Lymphsystems
precautionary
TruScient
präsen@@
BCVA
olaratumab
Taiwan
häm@@
pegIFN
LBQ657
initiate
und-@@
beurteilung
CYP3A@@
unbeabsichtig@@
meta-analysis
S549N
check@@
PEG@@
Schutzfolie
Phenylalan@@
scht
MCI
behandlungen
loo@@
PDT
analysiert
pinch
Dänemark
451
estat
ieten
Dosierungsschemata
ect@@
Produkten
kations@@
ezing
1,01
Way
SICH@@
Nichtunter@@
flavo@@
mens
OATP
Spermien
spp
myc@@
ed-@@
delays
a1
gefriergetrock@@
Mindest@@
Pancreatitis
Dosisreduktionen
Entzug@@
Ansammlung
fül@@
0,45
Struktur
Sar@@
Schaumbildung
deltoid
Evi@@
Erytheme
BPH
getesteten
Attacke
Durchstech@@
4-hydroxybenzoat
Virbagen
Enoxaparin-Natrium
tender
−
Erinnerung
tentransfusionen
Inj@@
Klinik
punkten
neuromuscular
nachzuweisen
Schutzwirkung
ef
gripp@@
conazol@@
tter@@
geln
DTC
verbrauchen
Altersklassen
-K.I.
ätzt
ylsäure
650
Uro@@
erlitten
bubble
specialist
icam
atosis
Estate
unterliegen
caps
DK-2880
ian
incomplete
äne
assoziierter
Konzentrates
TEIL
040
gewölbt
Hir@@
argin@@
lutein@@
inaktivierten
ful
effektive
Cockcroft-Gau@@
24-hour
Modell
Vd
phosphodiesterase
bruch
sexuellen
hydrolysed
IE@@
qHPV
Alanin@@
deling
shor@@
angen@@
Temp@@
statischen
eur@@
Dysgeusia
dosier@@
wechsel@@
PD-@@
Desi@@
4-91
follic@@
A1@@
BW
flexi@@
MDRH
atherothrombotic
Entzünd@@
strom
osine
Pflege@@
xide
adrenocorti@@
Stro@@
Gallensäure@@
differential
Nebenwirkungs@@
beherrsch@@
Fün@@
entschei@@
Tierarten
Acticam
Penta
became
Menopause
mesilate
opharynge@@
Injektionsspritze
pide
Bagsværd
fristige
stiegs
addressed
fic@@
leak
CC-@@
Kisplyx
mutagen
orthostatische
myko@@
driasis
emi@@
gering@@
RHD
Europa
epileptische
osimertinib
vermehrte
spoten@@
tomie
reiben
idin
Herzversagen
DMARD
nephrotoxic
Erypo
brüch@@
lags
membran@@
Mikrometer
Triazolam
heit@@
735
declined
Panacur
obligation
LHON
Trimenon
Sevoflur@@
Fluralaner
Aluminium-
Neutropen@@
Charakteristika
toco@@
hyperbilirubin@@
metabolische
Vaginal@@
constriction
natalizumab
okokken@@
aflibercept
WNV
Windpocken
Pepti@@
regu@@
Azidose
RC
Lahm@@
Multiple-@@
consolidation
caregivers
emir
unzureichender
OM@@
Titration
ome@@
NV@@
Immundefizienzvirus
Pharmakodynamik
695
Atrophie
sigma-tau@@
amid@@
Hautaussch@@
Vermehrung
glucocorticosteroids
Tränenfluss
AR
GLP-1-@@
ernde
Oberarm
unded
Imvanex
emic
herabgesetzt
uber@@
Fortpflanzungsfähigkeit
phosphorus
Hämoptyse
NQ@@
FORCALTONIN
6,75
BAT@@
Telavancin
BRA@@
serv@@
novo
Methylthioniniumchlorid
m-
Keiner
tivity
empfindlicher
Malta
epidemi@@
strontium
abine
gefäß@@
ue
swir@@
Erkran@@
entherapie
Stammlösung
organische
versa
zusetzen
H5N1-@@
UE@@
ID-@@
teilung
Venen
sinken
rene
nekrosen
Halogen@@
verhüten
HEMANGIOL
Anwendungsgebiete
ACWY-@@
reflex
Vorgang
Services
Kühlsch@@
Mening@@
parkinson@@
eric
Ammonaps
rheumatic
Derzeit
Amb@@
CM
ppFEV1
Doppeltsehen
Verhältnisses
1,4@@
Niemann-@@
8416
triphosphate
29-@@
mittelschwere
Regorafenib
Lag@@
anzien
häufigere
Korrelation
remitting
.eu
313
sprofil
Body-Mass-Index
seitig
intravascular
concentr@@
Gebiet
Zytokinen
Eierstöcken
Hautfarbe
Adasuve
Tritanrix
genit@@
korrigierte
gers
etwa@@
adjuvante
Ensure
cytopen@@
Weiterhin
fantrin
Gesundheit
Vedrop
Gefähr@@
quanti@@
database
Einnahmezeitpunkt
lement@@
Schwämme
pg
wind
Avda.
Pradofloxacin
Indigo
dort
AT1
Kanzerogen@@
Behandlungspause
graphie
NCI-@@
innere
chicken
vitro-@@
verzögern
dialysepflich@@
precipit@@
Leberfunktions@@
effekt
gewiesen
voraus@@
gestillten
tment
LDL-C-@@
aufsuchen
anfängliche
Knochendichte
Koagul@@
ozytose
Bev@@
CKD-@@
corneal
Photop@@
gewünschten
großer
migration
Gebär@@
Keuchen
Florbetapir
Pharmakokineti@@
awaited
adhes@@
Arz@@
Abnahmen
Pharmacovigilance
OPA@@
CCR
gonadotropin
apro@@
non-inferior
Risikominimierung
Ch.-B.
mak@@
pulmonal
sarcoidosis
Harn
ungsfähigkeit
VERWENDETEN
punkte
lus
Angiotensin-@@
abrup@@
Method
Exc@@
Einschätzung
siertes
Fo@@
dextrose
ght
Absetz@@
38@@
toxoid
CABG
Mump@@
ierungen
odi@@
notwendige
mierten
geno@@
6,9
Opicap@@
890
Cyc@@
hervor@@
strö@@
Grad-@@
6.9
osteoc@@
iler
deln
Estradiol
thrombocytopaenia
Schleimhäuten
kale
ungs-@@
lusses
Meta-@@
Linaclo@@
alternativen
Regadenoson
Insulinbedarf
phosphatid@@
microangiopathy
Anhaltspunkte
else
signal
291
Renin-Angiotensin-@@
en.
qui@@
Levodopa-Dosis
Beck@@
HUMENZA
Völlegefühl
ume
Biopsie
osin
Wirkstoffes
bev@@
mitig@@
JECT
images
inverted
descri@@
mesto
benzyl
feelings
shr@@
off-@@
Proteaseinhibitoren
ungeimpften
wel@@
fortlauf@@
antipsycho@@
nakalant
Ce@@
euticals
Paar@@
astitis
portion@@
Antibodies
Cidofovir
Phlebitis
TNF@@
teren
Harnwege
Trials
s-Syndrom
Resultate
Halb@@
Tierver@@
parathyro@@
atal
folie
investigators
Wildtyp
Anwendern
Durchschnit@@
Gelatineschwam@@
arteriellen
myeloischer
bind
einarmi@@
möglichkeiten
O2
eingereicht
bereiche
egt
critical
unaffected
Nicht-Unterlegenheit
2-Agonisten
beginnend
losporin-@@
TNF-Blockern
Teva-@@
Wiederauf@@
QUAL@@
Lietuva
country
-Krankheit
antibio@@
Eierstock@@
N-desmethyl
permitted
FT
gitis
wirkstoffhaltigen
Topotec@@
dau@@
disper@@
Unbedenklichkeitsberichten
Rating
fand
pre-treatment
overdoses
asehemmer
hyperglycaemic
Ag-
mon
κ@@
bis@@
Ausrüstung
on-treatment
ñ@@
responsive
verfügen
Benzodiazep@@
proximal
Hypoglykämie-@@
Pgp
Einzeldosi@@
einheit
subtype
KINDER@@
leukapher@@
judgement
East
Seltenheit
Mitotan
erstmaligen
perative
HBV@@
riterien
dronsäure
Bolus
degeneration
gute
HA-@@
Gimeracil
Typen
Weibchen
ophag@@
Chronische
broached
pathology
Activity
intravitreale
glich@@
Flo@@
purposes
pharmakologisch
Hoden@@
dac@@
Reteplase
sitz@@
unterstützenden
Milliliter
ycin
rinse
Hautre@@
retreatment
plazebokontrollierten
stan@@
leuko@@
located
Kontrollieren
output
dressing
stens
Blutungsstelle
b.@@
therapeu@@
Rhabdomyoly@@
Vorsichtsmaßnahme
berechnete
pathies
vorübergehender
prothrombin
variables
-Pulver
vergangen
bottom
Trink@@
Cysteamin
Thrombozytenaggregation
sty@@
Wirksamkeitsparameter
L18@@
Stimmungs@@
chemotherapeutic
drit@@
oxic@@
III-
Hitzewallung
SCHRI@@
arity
ett
restless
cholestyramine
TC-@@
Risikomanagement@@
Net@@
Antihypertensiva
GABA
Ery@@
w.
oriogonadotropin
shellac
8,9
ausgeprägter
Olanzapin-Behandlung
Verminderter
glioblastoma
disturb@@
Decrease
FOLFOX
künst@@
abiraterone
Erkält@@
Stor@@
anders
Alters@@
ank
December
tiefen
asenapine
QTc@@
mantle
Leberenzymen
V-2
metry
REPORT
Rit@@
Cholesterinspiegels
Pyoder@@
28.3
radioaktives
heraus@@
produzier@@
proxim@@
Nä@@
Dokument
ika
ub
sorgane
BLISTER@@
reactivity
Oropharyn@@
okkul@@
aub@@
abi@@
BH@@
eter@@
manufacturers
Nagetieren
Ix@@
parasitic
Diabetic
rheumatoide
OP-@@
gestellten
Beratung
Amylase
EUROPÄISCHER
Apathie
angs@@
lameness
Reversible
Twist
frühe
usions
Impoten@@
Onsenal
leitungen
Rosuvastatin
thinking
calcitonin
SICHT@@
ständen
fish
conduction
dick@@
puber@@
unklar
Phosphodiester@@
Berech@@
klinischem
microbial
vollständiges
Alkoholtupfern
enters
Ceftarolin
pulmonalen
Initial@@
leistung
Normalerweise
enab@@
refraktären
ight
Küh@@
datum
unzureich@@
Opioide
Embryotoxizität
supplies
-up
bevorzug@@
piper@@
Calcul@@
Lichtempfindlichkeit
entile
lech@@
mam@@
gesundheit@@
tis-
Angststörung
Module
options
pH-Wertes
fore@@
unexpected
leuco@@
Carboxy@@
Creatin@@
LV-@@
Hypoaesthesia
Sirturo
ion@@
le-dose
zess
CP@@
funktions@@
Hoh@@
Systemorgan@@
opio@@
ns
akteri@@
Bewusstseins@@
midine
re-evaluated
stenose
hyperuric@@
zusammengefassten
cervical
structural
verschlimmert
ethnischen
Exposition@@
poet@@
irgend@@
SSRIs
gebnisse
Arterien
Mammakarzinom
anden
personnel
analgesics
duction
sierter
6-12
Ulzerationen
Zeiten
glycaemia
Dyskinesien
blutzucker@@
I.
DD
mobilisation
entranspor@@
etc
Kaukasier
normales
ensured
adrenaline
side-effects
passive
excipient
tened
Metabolisierern
sing@@
uk
Etiketten
ulates
attacken
Gaucher-Krankheit
045
3-11
erhöhung
tzahl
Normalwerte
manischer
abo@@
manifested
Flip-off-Verschluss
sili@@
Blast@@
rashes
motility
sympathomimetic
zerbrechen
12.
gesetz@@
enschmerzen
ertem
0,97
Adenokarzinom
Kontrastmittel
efalizumab
agon@@
vermehrter
stine
V87P@@
agoni@@
Safinamid
0.125
existence
GEBRAUCH
Flu-like
peptidase-4
Harnstoff
hemmen@@
requ@@
begrenzter
neutrophilen
Katheter
Allow
Afatinib
low-dose
wean@@
52-week
rhinotracheitis
Exubera
Auswur@@
Gegenanzeigen
Early
diplopia
Verfahrens
preservatives
pelvic
eingenommenen
Migräne
sPGA
Adequate
303
injektions@@
Schwangerschaftstest
ral
non-infectious
Primäre
secukinumab
Zel@@
conjug@@
Gil@@
Merk@@
Akathi@@
Abstoßung
Subgruppen
FALLS
virologischem
Excessive
Polyethylen@@
Stau@@
Frequ@@
IND@@
Neurotoxizität
Berührung
Ionen@@
HL@@
arise
Tetr@@
einmalig
Wirkstoffkonzentrationen
stoßen
lung@@
capsule-shaped
Kr@@
amnes@@
Saquinavir
integrated
Questionnaire
Eribulin
ethnicity
Papillom@@
NPH
lamivudine-@@
10-
Lymphom@@
azacitidine
armi@@
erektiler
gerichtet
rezeptor
gol@@
Evol@@
Syndro@@
moderaten
henfolge
2x
oede@@
postmarketing
SPE@@
Interferone
beabsichtigt
Insp@@
Polymorph@@
teen
salz@@
Belim@@
chel@@
Kontak@@
Ärz@@
methylnaltrexone
Konjugati@@
yarrhythmi@@
bedeutsame
Fehlen
Versiegel@@
Spinosad
corresponds
sensibili@@
öses
Antibiotikatherapie
ticul@@
Innenseite
cardiomyopathy
Α@@
Auswahl
sedative
dispensed
72@@
Progressions@@
kompensierter
DaTSCAN
V-
NC
atin
Selektion
ütt@@
confirmation
FAC-Arm
Copolymer
shape
ore@@
vehic@@
equivalence
-Population
mepolizumab
Ceftarol@@
ventrikulären
Kreatin@@
metastasier@@
jün@@
Conver@@
immune-related
isons
pharmacodynamics
Verbrenn@@
glucose-@@
FIRST
‚
Vögeln
neuromuskulären
embryonale
likelihood
Vorapaxar
generalisierte
statisti@@
26-week
Transporter@@
konsultieren
Glau@@
schub@@
Parallel@@
Knochenmarks@@
ädi@@
verantwortlicher
psori@@
Nitisin@@
ranial
Hämorrhagie
lebende
neuropathischen
tooth
Anwenderinnen
Outcome
tachy@@
prevent@@
MIU
Gewebes
ice
Prothrombinzeit
SEE
stauung
adip@@
salz
Pinner
interventional
Hause
verminder@@
zwanghaf@@
pfer
Lutropin
Augenerkrankungen
enzym@@
NS5A-@@
Dulox@@
asymptomatisch
Cushing-Syndrom
yndrom
0.89
surie
Aktu@@
PCR
Studiend@@
Hepati@@
gendem
Ablagerungen
Lon@@
Path@@
genehmigten
Guillain-Barr@@
Arthri@@
Neurolep@@
Bereiche
karten
Sax@@
cholinerge
butyl@@
Injections
electrocardiogram
pramine
displac@@
stündigen
Strang
Hepato@@
nea
suspect
ausgewäh@@
messungen
biph@@
Quadr@@
Zulassungsstudie
Retinopathie
Buprenorph@@
freigesetztem
ping
bessert
tenen
intrinsi@@
elte
Blutungsereignissen
beste
4v-@@
Hauptmetabolit
Sehfähigkeit
1,00
tomography
Langzeittherapie
Ctrough
PRILACTONE
Ohr
Severity
14x1
tiotropium
Kalibri@@
Eli@@
Myalgia
behandel@@
malig@@
Dabigatranetexil@@
ball
Deter@@
brüchen
ara-G
murinen
Mavacoxib
vorkommende
MAOI
vierte
langfristig
Poland
unterlegen
Loss
Carmel@@
immunological
BSEP
Eculizumab
Behandlungsabbruch
unterschiedlich
margin
prolonging
EC50
beur@@
derzeitigen
Blässe
Glukokortiko@@
multiples
Span@@
starkes
Mehrfachdosis@@
ypeptide
CV-@@
Skel@@
Riluzole
post-menopausal
ADHD-RS-IV
extracted
Pig@@
efficacious
uläre
gemeinsamer
wahr@@
pimozide
lock@@
Schulungs@@
Rezep@@
-Packung
Dexdomitor
opul@@
enteral
domin@@
Kaus@@
Mukoviszidose
sque@@
trüb
Cere@@
Verdachtsfall
vereinbaren
Gesamtüberlebens@@
ler@@
Phosphatspiegel
tokol@@
Ferkeln
progesterone
Fung@@
yellowing
Schweiß@@
Def@@
Schüben
erwartete
31.25
dispensing
inferi@@
Mer@@
di
üben
Distribution
Träume
35-@@
Ermüdung
ASSESSMENT
Croscarmel@@
Mukositis
Atemschwierigkeiten
Sind
Ungefähr
halbe
stil@@
eventually
osi@@
ÖS@@
kutanen
Cytochrome
invasiven
ity-@@
serscheinungen
BV
hinter
thyro@@
ärzte
unclear
vorbereit@@
error
übt
Schwangere
umgekehrt
displayed
adjustierte
poietin
Brinzol@@
uration
versehentlichem
ordination
dia
sipel@@
suria
entoxizität
12,3
tief
Pass@@
stecken
femoral
Brief
zucker
Protein-@@
ACH@@
TIC
PBA
ülen
Kenntnis
lax@@
wählen
fes@@
lessness
nier@@
AOM
Thyro@@
examine
Nex@@
intraokul@@
aquine
jud@@
s.@@
Typs
pharyngitis
9.2
Five
oC
alit@@
definierte
erfol@@
cef@@
Adjus@@
Anwendungen
ana
Cis@@
Syndromen
cleansing
Ileus
stes
10x1
arc@@
Prac-tic
biochemical
ateral
am-@@
Anwenders
halbwertzeit
PROT@@
syndro@@
Natrium-
proteasome
Regranex
Benazeprilhydrochlorid
Initiation
etin-@@
-Kriterien
bronchi@@
FILMTABLETTEN
Angiotensin-II-Rezeptor@@
onium
Combin@@
fur
plattenepithelialer
bypass
Verhütungsmethoden
ak-@@
abgeschwä@@
26-wöchigen
FEV1-@@
enem
medoxomil
balanced
Fusionspro@@
S549R
Leberfunktionswerte
Coffein@@
4-6
Neo@@
Intersti@@
sintervalls
omegalie
Prostatakarzinom
Rauchen
Adjusted
isozymes
jahr
Lendenwirbelsäule
erniedrigte
vesi@@
gluko@@
Joint
quellen
Nar@@
agre@@
Saint
DPP-@@
sum@@
Verunreini@@
Blut-@@
mer-@@
RECIST
0.5ml
oxygen@@
RR@@
Embryo@@
unvaccinated
Dysphagie
unique
smodellen
embryofetale
knowledge
copy
032
fünf@@
fortschreitenden
Pandemie
Schwebstoffe
Venenpunktionsbesteck
ecke
unten@@
Divertik@@
herab@@
Zeitspanne
Clear@@
Keuch@@
Sími
paar
schläfrig
Maßnahme
carrying
lyophilisates
vorangegangener
Citric
g.h
Pfla@@
necrotising
lymphadenopathy
Let@@
lem@@
OS@@
Geschwüre
strum
seroton@@
genetisch
-intestinal
Cle@@
weshalb
mungs@@
verbesserten
Natri@@
BzR-CAP
idismus
PF@@
varied
Placebo-
Fertilitäts@@
Erwachsenenalter
strasse
vorlagen
Sit@@
Statin
Fortpflanzungs@@
Hämorrho@@
Siltuximab
INR-@@
370
ys@@
Adolesc@@
Pen-@@
hül@@
pup
Rebi@@
Verfalldatums
Laborwer@@
überein
gradig
calibrated
RANK@@
Cholelithiasis
multi-centre
apple
hinweise
codon
kranken
Ergänzung
Einzel-
paroxetine
avor
ücke
Proteaseinhibit@@
Consistent
gewichtes
AIN
selösung
3-fache
Vision
Adap@@
tinnitus
atur
post-authorisation
1.01
laufende
falten
interpretation
zufriedenstell@@
Östrogen@@
jederzeit
zogen
LA@@
fehlgeschlagen
Anagrelid
link
färbung
aseptically
BEURTEILUNGSBERICHT
lar
alyse
caus@@
bend
Plättchen@@
Over@@
Dosis-@@
line@@
Haemo@@
Mehrfachgabe
mo
Candida@@
aku@@
proportions
Formoterolfumarat-Dihydrat
refl@@
Anmerkung
schätzung
IRE@@
stabilisation
yramid@@
oster@@
itron
0.97
Virologisches
Aph@@
Nuklearmediziner
wischen
abstoßung
olimus@@
Mycobacterium
rid
Pferdeinflu@@
ÖFFENTLICHER
imumab-@@
Benzodiazepine
gelassen
Hepatitis-@@
IMLYGIC
nieder@@
CDC-@@
Angiotensin-II-Rezeptor-Antagonisten
Teilchen
ush@@
Infusion@@
CRM@@
unsicher
BN@@
Dihydro@@
Pilz@@
LU@@
verdün@@
ästheti@@
Ru@@
pfei@@
indirekte
ehemmer
ppen@@
saliva
Belastungs@@
uation
spor@@
constitu@@
Start
Hintergrundtherapie
CSF-@@
Fibrin
schädi@@
-Durchstechflaschen
Konvulsionen
xin
TIG@@
INF@@
halt
zugestimmt
137
Velaglucerase
gelb@@
issues
Rekonstitu@@
TCF
kinases
Filter@@
pouches
purpura
Aufsättig@@
Telbiv@@
aufgetreten@@
HCl
ABGABE
066
hydroxylation
thromboembolischer
parturition
apparente
inhalieren
Shamir
believed
Schwellen@@
stasis
....
völlig
Secon@@
GS-US-292-@@
sweg
dauernden
Talspiegel
vereinbarten
Salic@@
anthem@@
Kapillar@@
amides
Nitro@@
getrennt
Hautstelle
Dosisstufe
Inhaltsstoffe
INH@@
anten
endoc@@
HBs
Leberfunktion@@
Mindestens
deutet
Magnesium@@
TAX@@
ämie@@
jiroveci@@
0,125
ALP
exclude
elen
Phenylephrin
apseln
Glo@@
dopamin@@
umphosphat
ature
anaemic
ücken
Latex@@
Duale
Manifest@@
Impaired
evol@@
Oberflächenantigen
genann@@
dement
latex@@
Antikonvulsiva
portal
Ausgangswertes
stimulierenden
discussion
localised
phenylalan@@
431
beweg@@
wie@@
angemessen@@
Än@@
azide
brimonidine
asting

Proliferation
vorbehaltlich
over-@@
butamol
actual
Knochenum@@
yel@@
Spritzenkolben
arkom
atum@@
Umkartons
pon@@
sorgfäl@@
UFC
stear@@
depth
UC@@
tor-@@
Angio@@
Mak@@
Interferonen
beta2-adren@@
UNG@@
adolinium-@@
asymptom@@
originally
arzin@@
SY@@
venipuncture
hypoaesthesia
aluminium-aluminium
Aloxi
fähige
-Tumoren
vastatin
Etr@@
kumulativen
laryn@@
ALK-@@
3-week
bauch
endotheli@@
Hypoton@@
c.C@@
van@@
Steroide
avancin
Remis@@
reddening
980
TK@@
Energi@@
letters
dent
darunavir
ergot@@
zytogenetischen
bitten
Titr@@
azilsartan
HI@@
kus@@
anxi@@
Volumen@@
LPLD
Func@@
pantoprazole
rupt
verlaufen
resistance-associated
rese@@
lipid-@@
allmählich
asch@@
generated
aine
Nekrose
8ºC
such@@
Ödemen
keit
Florbetaben
MDR1
Unterdrückung
Säure@@
ination
somal
illi@@
freisetz@@
Sedativa
twitching
HAART
Johnson
egi@@
Immundefizienz@@
Dexamethas@@
Klassi@@
363
valle
Fluoxetin
lammen
arthri@@
canarypox
GE
depleted
acted
illen@@
typischen
Relap@@
serotonergic
&apos;@@
Nessel@@
QUANTIT@@
Older
omycin
Hämatologische
gegebenen
plötzlichen
regt
Herzprobleme
korrekten
expertise
ös
onylurea
indic@@
ve-@@
verfärbt
freez@@
Cardalis
excluding
summarised
Faktor-IX-@@
adjunctive
Antihistaminika
10,0
velaglucerase
uritic
................................................................................................@@
Lapp-@@
artiger
HMG-CoA
aphy@@
Restless-Leg@@
Chil@@
Bortezomib-@@
nail
Coffeincitrat
etion
gefundenen
obutyl@@
Ohren
gesundheits@@
Glibenclamid
policies
Appetit@@
loose
bestätigte
UAW
Melosus
pegyliert
ky
Confidence
zierung
wish
represents
pier@@
Imidacloprid
vorzuziehen
afatinib
Vag@@
dunkel@@
immitis
atacept-@@
Triacetin
Remo@@
rises
PRO@@
lysis
NY@@
anger@@
Aminosäuren
CY@@
Kohlenhydr@@
Beeinträchtig@@
Ton@@
vigorous
irreversible
Größenordnung
Faktor-VIII-@@
Chi@@
chromosom@@
intramuskulärer
Dilu@@
geschul@@
glatt
nursing
stitute
monoklon@@
Grippe-ähnliche
Insulinen
Pf@@
antihistamine
Asparaginase-@@
cytogenetic
spenden
BT@@
Benzalkoniumchlorid
constituted
Ohnmachts@@
pin-@@
freier
shampo@@
Häufigkeitskategorien
flip
ught
conn@@
DDC-@@
antron
BRVO
instruct
Wechseln
Cl
Var@@
esthesia
seropositive
-Wild@@
Rezeptor-Antagonisten
inischen
41-@@
komponente
geimpfte
PH-@@
Langzeitansprechen
Optikus@@
AEDs
Protonenpumpenh@@
Schweregr@@
bank
einsetzen
grazoprevir
ank@@
ingh@@
encouraged
antagonisten
Halaven
defini@@
routes
stool
kappen
Stimul@@
anti-J@@
Lebermetastasen
Reduk@@
Knoten
ori
pandemischen
Unmittelbar
Beeinflussung
Haushalts@@
Schlei@@
Ortho@@
Film-coated
vorhandenen
Einsch@@
S.L.
ferred
HDPE-Flaschen
hinaus@@
find@@
Weg
thymidine
eliglustat
Limit
038
Bekämpfung
oxali@@
mg-Filmtablette
polyvinyl
Bewegungsstörungen
pyl@@
doppel@@
Abfall@@
Ris@@
sets
orrhoe
ergonov@@
hämatopoeti@@
getren@@
sach@@
wäch@@
ritonavir-boosted
slows
Kontraindikationen
circulatory
Unver@@
C0168@@
classification
Lor@@
re-
Bild@@
lac@@
Tendenz
Citrat
Muskelsteifheit
graphische
Rebo@@
auszulösen
Lymphome
Ελλά@@
Erek@@
Verordnung
onidierung
auswertbaren
endogen@@
wipes
COX-1
itonitis
nebuli@@
pren@@
Circovirus
Skelettmuskulatur-
bewerteten
20x1
intrakranielle
abscess
153
Ranolazin
progressi@@
anti-TN@@
12.3
methoden
äußerst
wer
stenosis
checks
-5@@
Fell
Thiaziddiure@@
otic
coordination
Inhalieren
Thi@@
H-Spiegel
accident
3-Studie
herpesvirus
afinil
früh
medik@@
Abbau@@
advantage
gefühle
Halsschmerzen
uppung
anzuwendende
T-Zellen
Kühl
gradu@@
somatostatin
washed
201
reaches
Alu-@@
ungsgrenze
sunset
leaf@@
ere@@
Doctor
avibactam
Cynomolgus-Affen
antibacterial
NA@@
pre
Hinweisen
el-@@
sphase
10.0
Nacht
Meter
relaxation
ica
icillin
DME
cartilage
lying
Malignome
Kopfschmerz
REN
E470b
patient-years
Citronensäure-Monohydrat
determin@@
fovecin
spr@@
Frettchen
eous
intrauterine
Whenever
toxicological
Parath@@
gerechtfertigt
Hüf@@
Rem@@
ugh
fluctuations
Voll@@
sores
Ausgangskörper@@
11,1
Adjuv@@
Acro@@
lige
sag@@
-Hemmer
IPF
Nitraten
Terat@@
dronate
Immunantworten
Sterblichkeit
Initi@@
Aber@@
Die@@
ziell
umed
386
cortical
polyartikulärer
Trimester
pra
gebuch
thels
breast@@
exis@@
selbst@@
trimesters
Becken@@
schützende
Krankheit@@
structures
virologisches
runny
Continued
99@@
Repatha-@@
T-Studie
tegr@@
ins@@
HPC3@@
zier@@
komponenten
LEAFLET
Bal@@
depen@@
diabetics
killing
Hydrocortison@@
beruhen
jec@@
knochen
Dabigatran
-B@@
urely
MM.JJJJ
neonates
NAION
direk@@
Fertilitätsstudien
rektal@@
sponges
Sexual@@
Their
DA@@
E572
essenti@@
calor@@
Catumaxomab
vorangegangenen
Pandemi@@
ylchol@@
Pfer@@
guten
glucuronidation
Inhibit@@
upfen
induzier@@
R-TB
strategy
suppor@@
Behandlungseffekt
cy
Sät@@
8,2
CK
ALE
Thiazid-@@
ATP
gebrochen
daß
8.9
äte@@
Preparing
muskel
spira
History
Verdau@@
tenim@@
1B1
1,08
hSB@@
embryotoxicity
Anion@@
phenot@@
ophthal@@
nervousness
ebr@@
ahrung
Durchschnittsalter
ascites
Olar@@
herangezogen
erniedrigten
rigid
rät
menopausal
custom@@
undergone
infizieren
testen
vertheless
Harnsäure@@
Ang@@
Tränen@@
Isoformen
Surrey
kur@@
163@@
Gadoversetamid
correl@@
gezi@@
Lyon
prospectively
Bovine
wohl
CD34
Rezolsta
adenitis
alfa-@@
BET@@
ienai@@
intrinsic
Geor@@
metaboliser
Glycin
display
druckt
Guanfac@@
MAC@@
Hodg@@
TEM
chroni@@
hilfreich
Persist@@
Review
Dispersion
Carbamazepine
Bilirubinwerte
trocken
Bioäquivalenz
IVE
symbol
bereitgestellt
aushalt
Itr@@
mpfungen
hosphate
Rech@@
Frei@@
bezogenen
verabreichende
lopi@@
Bauchspeicheldrüsen@@
Gelenkschwellung
Muskul@@
NOS
2-Studie
Secukinumab
658
Neurotransmitter
perforations
krank@@
ortho@@
immunologischen
Firdap@@
hoc
schlafen
bifloxacin
............@@
nachweisbare
telavancin
eindeutigen
termin@@
ILIS@@
hervorruft
reiz@@
aufgeb@@
nik
tzdem
1.09
Verschreib@@
gewöhnliche
Austrock@@
glucerase
abe
auflösen
ätz@@
umhydroxid
isoforms
potenzi@@
sies
dies@@
fett@@
fettreichen
Kalium-
M05B@@
olaparib
klein
Go@@
Piperaquin
cut
Schau@@
I-Neb-@@
gran@@
ausgeprägten
infekti@@
lowers
Gast@@
koronar@@
endgültige
post-transplant
any@@
Dosisänderung
Beispiele
kloni@@
Chickens
einzuholen
Kenn@@
SNR@@
occurrences
RENEWAL
Blutproben
ereignis@@
kro@@
³
429
Dulaglutide
Grippeähnliche
aph@@
Immunmodul@@
epidemiologischen
CHR
19,3
peg@@
Inflam@@
paracetamol
abnormer
10.2
endometri@@
EQUIOXX
diastolic
Cic@@
L04@@
größt@@
Em@@
BLISS-@@
Famotidin
Plasmaspiegeln
clinic
Temperaturen
vorbereiten
aviroc
Fluoro@@
ausreich@@
seronegative
ado@@
ions
Stark@@
jem@@
Forcaltonin
Plazent@@
Straßenverkehr
Soliris@@
steigender
EPI
genommene
Talimogen
ISCH@@
specific@@
arsen@@
Keytruda
ständige
IMPAC@@
Mix2Vial
HZA1068@@
Varicella-@@
Schweiß
TW8
Cystagon
reases
proben
Oxy@@
Aorten@@
freisetzendem
skelettbezogener
randomi@@
unmittel@@
Makroli@@
mäß@@
Nabel@@
TDx
procedural
unkontrollierten
10,2
Fruchtbarkeit
treat@@
WIRKSAME
Versorgung
lowing
pains
2C
Antipyre@@
maturation
Kontrollgruppen
45@@
560
Normbereich
ku@@
Fixkombination
Grad@@
Populationen
3018
erem
AMMEN@@
Systemi@@
Natriumdihydrogenphosphat-Dihydrat
starkem
niedrig@@
Knochenmarktransplantation
SPRITZE
Zitronen@@
fitted
Somatostatin-@@
stuf@@
Guideline
PIPF-@@
equivalents
................................................................@@
Mikroangiopathie
gni@@
nateglinide
HER@@
299
Ati@@
Tobi
aven@@
hyodysenteriae
Ven@@
Dehy@@
Anthrazyklin@@
BESCHRÄNKUNGEN
Weit@@
bility
Patho@@
zol@@
höhlen
QS@@
DD@@
bwertszeiten
implications
...................
kriterien
Betablock@@
Legeperiode
Induktion@@
Häm@@
Hypophosphatämie
Decitabin
inhibiert
Hypoxie
air@@
PMs
sades
addres@@
Nadir
puncture@@
EW@@
behältnissen
thyroidism
glycosides
yridam@@
Flaschenadapter
Magyarország
overdosage
Spann@@
maß@@
Kontrolluntersuchungen
sufentanil
fibrin
56x1
infective
aktivierte
APPL@@
Wahl
sauber@@
asp@@
Arzt@@
Fluticasone
progress
-Zeit@@
Verwirrung
igu@@
Geb@@
lick@@
alsidase
targets
Osteonecrosis
INHAL@@
teri@@
ändert
desipramine
welpen
maintaining
Mikronukle@@
INHIBIT@@
consist
AUC-Werte
Stunden-@@
electro@@
Enzym-@@
Cinqaero
Plaques
stemp@@
Hydroxy-@@
Oseltami@@
durchgeführte
dae
verz@@
pare@@
Langzeitstudie
Bol@@
verzeich@@
7.
ADA-SCID
wasserfrei
cirrho@@
AI424-@@
node
terephthalate
port
Inaktivierung
rheumatoiden
injizierbaren
pancytopenia
ip@@
Metastasen
E553b
enzymatic
reduzierung
festlegen
ACT@@
nisses
liposomal
R117@@
¶
legenheit
tical
transporter@@
Sympathomime@@
separat
independently
bronchiseptica
radiologischen
umoren
Glut@@
ileus
repeat-dose
bestätigen
changing
A24
shivering
0,35
voc@@
abgetötet
individually
mononuclear
erfolgten
deckten
Transfusion
innen@@
Oberbauch
needing
verkleisterte
equi@@
platin
rezidivierten
Stich@@
irgendeines
Waarderweg
vaskulärer
ced
lenvatinib-treated
Injektionstech@@
eribulin
reguliert
förmi@@
exceeds
fluoxetine
Podhaler-@@
accounts
ösophageale
ceftazidime
candidates
43.75
Rückfall
ender@@
S-Patienten
AA
jucken
cultured
foam
unerwartete
delling
vierung
Litak
colorectal
diverticulitis
geschoben
Zepatier
itu@@
Wait
0,64
cP
12-
popul@@
Prec@@
Add
eptotermin
PURSU@@
Rind
se-Patienten
fructose
Problems
acto@@
402
Anoro
lierender
Jungsauen
Worsening
UM
E321
EINZEL@@
activating
Somac
Treat
zulässi@@
caninem
fläschchen
1,600
Durchstechflaschen-Adapter
Block@@
epan@@
inactivation
ECT
Serum-K@@
unregelmäßige
Behandlungszeitraums
oplasien
Crospovidone
1,10
ST-Streck@@
Lymphopenie
275
C211
parkin@@
026
cancerous
Naltrex@@
WCBP
homozy@@
Isavuconazole
ANT
UB@@
Roc@@
Danmark
orangefarbene
FLASCHEN
thaemia
Reconstituted
Paramet@@
D2301
angiomyolipoma
arisation
Gadolinium
cerevisiae
welchem
Idarucizumab
ecalciferol
KEYTRUDA
YO@@
Weiter@@
kappa
kBq
mirabilis
peach
Leberfunktionseinschränkung
GS-US-174-0@@
Variante
Lup@@
organismen
Schluckbeschwerden
organe
aspergillosis
Netzhaut@@
KLE@@
Bot@@
ios
grow
Mehrfachpackungen
ic-@@
tende
Immunogen@@
replaced
Capsul@@
Sonidegib
ähr@@
sulfase
1.8.1
tieri@@
Zysten
Syrin@@
Butylhydroxytolu@@
ortikostero@@
temperatures
aqueous
EFF@@
Antivirale
HF
Nebennierenrin@@
Cholesterinspiegel
flü@@
Endstadium
wich
gleicher
gewonnenen
Nadelkappe
Median@@
Inventory
mpfung
negativer
Plazenta
produc@@
Gram-negative
Esomepr@@
gegeben@@
Reise@@
cardi@@
583
ochromo@@
sthesie
Flüssigkeitstherapie
entliche
eme@@
Subgruppen@@
KPS
reaktivität
F508@@
choice
286
sutis@@
dehydrated
Zielwert
Emodepsid
SPECIFIC
MRT-@@
sistent
mas
RESTORE
Reinigungstu@@
Tredaptive
prandial
dosierten
590
Dabrafen@@
4b
Hämostase
mmung
Slovenská
infil@@
Inform@@
Oxygen
Stayveer
kg-@@
Gamma@@
Get
540
beschrif@@
HARTKAPSELN
Infusionsflasche
FW
rasch@@
tensive
Hell@@
peripheres
erwähnten
farblosen
Prolaktin
premedication
905
digital
Thorax@@
rennendes
Fachkraft
Doppelblindstudie
Zellkul@@
vorzeitigen
respiratorischer
einz@@
VOR@@
Ekz@@
anatomi@@
verträglichen
432
Cholestyramin
D168@@
opressin
VVA
Uhrzeit
E216
retrosp@@
pumps
Erhöh@@
direkter
cosis
TRAN@@
mitochondrial
reserve
verlängerung
necitumumab
gerichteten
Triglyceride
reas@@
beschleunigten
o.@@
kalzium@@
CNV
syndroms
Hemmers
PDE3
9GS
Kodiac
cani@@
ided
Kolbenstange
HYCAMTIN
S.p.A.
MEHRFACHPACKUNG
canal
ösophage@@
ITT-@@
Ali@@
Knöch@@
station@@
Komplex@@
mob@@
9NL
HMG-CoA-Reduk@@
streng@@
zulassungs@@
obutyl-@@
variab@@
ALAT
Unter-
GRE@@
Erythropoet@@
aplastische
Yarvitan
mic@@
Erythrozyten@@
Behandlungsmöglichkeiten
Zubettgehen
driven
achtet
VOLUM@@
icin
Gripovac
formulierung
Vergleichspräpar@@
likation
Wählen
IgG1
penetration
den-@@
Quotienten
rich@@
Origin@@
Hefezellen
nö@@
inaktive
Sev@@
ehren
Pemetrexed@@
Teilnahme
zykli@@
Film
MRLs
Hautare@@
Convenia
Bipol@@
disseminierte
Luxemburg
faint
gerinn@@
Pharmac@@
TORO
enzephalopathie
beschleunigter
Female
umfassende
343
Poli@@
UNE
Prepare
blas@@
DC-@@
0.52
Eryseng
trifluridine
Krampfanfall
530
SO@@
Knopf
Sign@@
mutilans
inter-@@
Kreuzresistenzen
43,75
d-Arm
vorkommt
prospektiven
erklär@@
befalls
CT-AMT-011-@@
genität
blasts
Großteil
Sputum
Polska
tuber@@
Nierentransp@@
SER@@
1B
neutralisier@@
Exanthem
ferrets
avirenz@@
rück@@
gebrauchten
fro@@
examples
retardation
Kortikosteroids
sali@@
correctly
ytocin
zunehmen@@
verzögerung
Lebendimpf@@
anamnes@@
Jun@@
beeinträchtigung
p-Wer@@
verhütende
Bild
isot@@
Hypoglykämi@@
Erstlini@@
aufgelisteten
vak@@
Vaxxitek
EPO
Intent-to-@@
bakterieller
Yentreve
DATUM
neutropenic
pegyliertem
nucle@@
AAD@@
Disability
Genotyp-1@@
jähr@@
abgeschwächt
she@@
enza
A-Studie
designated
Noradren@@
Jevtana
Stronti@@
Frider@@
Berkshire
Laventair
RTU
Mass
Erhaltung
BeneFIX
Sicherheitsprofils
90-@@
dargelegt
Pause
Nuedexta
Hyperurikämie
operativ
Struk@@
idiopathischen
odds
farblo@@
Aero@@
Thyreo@@
vertrugen
korrekt
Speichel@@
Natrium-@@
Intervalls
GHB
samer
Anticholinergika
Diabetes-@@
stabiler
regulatory
verteilung
497
pigmentosa
Frühstadium
deliver
AAA
BÜNDELPACKUNGEN
Vielzahl
pressed
gulierung
3002
Infusionsreaktion
cisapride
dieren
exhibit
VEPACEL
inning
derte
Orange
P-gp-
wid@@
Repub@@
Ausscheidungs@@
Populationspharmakokinetische
Tic@@
Lock@@
tonia
Hyperplasie
Gesundheits@@
Morph@@
mildly
Mosquito
epithelial
digen
proceed
Thr@@
largely
Wh@@
Einsetzen
L31F
antem
DFSP
competitive
vorausgesetzt
Thereafter
Gehen
easy
Revaccination
decitabine
tenden
belastung
itation
Acetylcholin
X-
1,6@@
SLE
Super@@
Update
papill@@
MRHD
cone
L28@@
clothing
geringerer
tliches
anf@@
conjunctival
immature
pust@@
DNA-
Labortieren
ator-@@
Hauptindikatoren
Emtricitab@@
Abbruch@@
Visual
A156@@
SEL@@
Teduglutid
COX-@@
69007
Ideben@@
Kontrazep@@
vate
validi@@
denz
867
Allgemein@@
Zahnarzt
1-Studie
fle@@
Antiviral
asis@@
lovastatin
besprochen
Cisaprid
traz@@
karte
Serumalbumin
31,25
rotated
fokalen
institu@@
match
intoler@@
Progester@@
3-Fache
Stämmen
hoben
continuously
unverändertes
Erwachsener
completing
lished
diagnostiziertem
B.V
mers
Pappschachtel
Develop@@
X-ray
gesam@@
43@@
lyse
threshold
Hydroxylierung
Lebermikrosomen
machten
blassgelbe
eindeu@@
streifen
itated
night@@
glitazone
Hämoglobinwert
enger
aktivem
ulin
Benazepril@@
Hautver@@
ire
Lungenerkrankungen
guanfacine
G1244E
withdrawing
Weichk@@
FORM
ance-@@
necessitate
2.0@@
ERA
senk@@
weaken
ungeborenes
Ossifikation
stattet
gängig
Anfalls
Verlängerungen
unterschieden
Kohorten@@
Pa
Farmac@@
PARADIGM-HF
African
neuroleptic
erseits
ypischen
Katar@@
diastoli@@
mani@@
VCAM-1
Harnwegsinfektion
A3
Lung@@
yed
Ju@@
Huningue
Bipolar
ge-@@
chlorid-Dihydrat
MHK
ROS@@
anni@@
Grenzwertes
Befall
keV
mpfen
exponiert
übertrag@@
Stillens
Gereinigtes
Victrelis-@@
glas
nemulin
AUCs
VERMERK
exist
Hochdisperses
Behandlungszeitraum
gon@@
189
2,6-@@
ogestrel
ase-Werte
216
dairy
MELD
Erythrodysästhesi@@
wä@@
AEG@@
eingesetzten
Arzneimittel-
infiltrates
ein-@@
aktisch
Dulagluti@@
krist@@
Keratitis
NSAR
regorafenib
gramms
orting
aggressives
ationsphase
Ot@@
Zol@@
fit
oxyribonu@@
kern@@
Dutrebis
Glieder@@
GKID50
limits
390
BCG
linsen
USI@@
Receptor
dermati@@
behalten
thromboembolischen
evaluations
Pseudo@@
Alfentanil
Gesamtcholesterin
opaleszier@@
Beatmung
tubes
Galacto@@
statische
Geschlechts@@
angeborener
Mehr@@
meet
anzuzeigen
peration
Hydr@@
Kali@@
rie
Marketing-@@
Harndrang
Lumigan
tummy
nä@@
advises
ophlebitis
spermia
Vulvo@@
Serotyps
Herzrhythmus
würmer
Tumour
denti@@
Glass
Ausbildung
untere
ola
Ermittlung
natürliches
einnahme
wenigen
sorgen
salicylates
H3N2
Warnzeichen
verfügbare
OAT@@
verord@@
auditory
periodontal
geri@@
nitric
Somnolence
Dialysepatienten
KANUM@@
Miglustat
bow@@
udine-@@
bezieht
Program@@
zelluläre
Dopamin-@@
minimally
StrepE
zut@@
Spezielle
Re-@@
Phase-III-@@
orthopaedic
basiliximab
per-@@
niveau
ergic
Implantat@@
TIERE
fielen
ejection
PBM@@
gendes
Moroctocog
Siena
1.00
Antwort
Eisai
Anwesenheit
Somavert
endogenen
VERWENDE@@
combin@@
latest
bilirubin@@
Schwangerschaftstests
deckung
1113
gerö@@
substitutes
Bridion
Diagnosti@@
Infusionslösungen
SEG@@
S1251N
tion-site
F4
PUREVAX
vorgefüllte
fast-acting
ausgebreitet
1.10
Surveillance
Pramipex@@
Paliperidonpalmitat
Beziehung
fils
stämme
Pyrexia
inieren
eingeprägt
Berühren
läge
CAPSULES
weiche
insuffizienz
QI
palm
Parkinson-Demenz
Zidov@@
susp@@
worm
7SR
Vorhofflattern
auswertung
schwellungen
alpha1-proteinase
nachbeobachtet
dauernde
Tierversuchen
sitaxentan
arrest
initiale
verwand@@
Anthrazykl@@
Immediately
unk
Konditionierungs@@
011-@@
hob@@
bleibender
TCID50
Chapelle
9,3
PR-@@
opharyngeal
GU16
anzuweisen
Kanarienpockenvirus
Priest
Minuten-@@
Kreatinphosphokinase
aberrations
auswirkt
GS-US-292-0104
341
iegel@@
465
73m2
offizi@@
Hämorrhagien
antidiabetic
Elocta
10.0@@
rosis
dil
AUClast
alysis
titers
zunehmenden
broschüre
ectro@@
lauril@@
exploratory
akzeptablen
Produc@@
Gluc@@
patient-@@
ogenen
770
Simvastat@@
Schalen
inform@@
sterio@@
glucocorticoids
DF
Autofahren
Berei@@
Muttertier
trehalose
Therapiezyklus
box@@
mbling
spezies
dried
genetically
Aspartam
19.3
Azilect
Blutplättchen@@
Pasteur
CircoFLEX
TKI
rings
ül
Prolon@@
perior@@
flüssigkeiten
surrounding
ush
Competact
increments
Rhinotrachei@@
Reduktionen
65-@@
ÜCK@@
oclo@@
angiogenesis
9.3
destro@@
symptomatically
HPCT
akteris@@
ergol@@
erschwer@@
Repeated
Ki
98-@@
nachzu@@
Natriumchlorid@@
Calciumspiegel
SensoRe@@
Furosemid
kleinzelliges
Pegloticase
beliebigen
Cortavance
839
T790@@
abr@@
mentierung
gewichts@@
zellen@@
characteri@@
074
hypoten@@
Block
Basiliximab
6MWD
Gegeben@@
Plastik
beta-1b
Indoxacarb
Parenter@@
Dek@@
grauem
anthelmintic
ble@@
Alk@@
Luftblase
QT-Syndrom
epithelium
oestro@@
ot
Therapiedauer
ahl@@
statistical
NACH
Indem
Eu@@
Mutanten
gentechnisch
meglumine
predictive
Ej@@
AUC0-24h
Dificlir
344
INCLUDING
bessere
6250
raft
wenken
Monon@@
April
Sovic@@
S1255P
Ungarn
ahydrat
ativa
AUX-I
ypen
intravitre@@
poman@@
12-month
share
lining
Chlorid@@
é
standardi@@
Apoquel
Impul@@
Româ@@
receives
inhalations
hervorgeruf@@
vorzu@@
77@@
dritte
chickenpox
Fehlens
tonic-clonic
ader@@
Augenreiz@@
Vectormune
Begleitmedikation
23F
191
syno@@
ernsthafte
Doppelblind@@
ally-@@
adjusting
Eluxadol@@
saison@@
Ivacaftor-@@
Ísland
dich@@
CESS@@
methode
vergleichen
Vc@@
426
Alanin-
rühren
sterility
ocytic
Milbemycinoxim
Abfallmaterialien
text
cationic
Analgesie
Zustandes
IBD
tocol
choose
Vpriv
Kaplan-Meier@@
adjus@@
bezeichnung
lauf@@
instances
cytosis
asy@@
ather
ASAS
geschwächten
stadium
Granul@@
bran
erhal@@
jeweilige
klappen@@
µ-@@
331
reased@@
quantit@@
deutlichen
leu@@
RRR
Glykoprotein
übertragung
generalisation
862
Spektrum
Analog@@
vermehrten
inspir@@
147
Selbstmordgedanken
virul@@
CLARITY
Fluticas@@
j
gewinnung
attributed
schlä@@
sin-
ANIMAL
macrolide
ficial
ild@@
keratitis
empfindlichen
Versäum@@
vincristine
Tou@@
turkeys
Unterhautzell@@
MH
e2
betreffenden
neutropaenia
le-
Adjuvanzien
nehmung
HIV-1-RNA-@@
question
Senkungen
Facsimile
Obser@@
metri@@
ANT@@
Koordin@@
desinfizieren
peri-
IONSY@@
Aliskiren-@@
Venöse
dase
Reaction
Kälbern
Abwehr
Anwendungsbeobachtung
435
CES
therapie@@
acetyl-@@
Plattenepithelkarzinom
Kautablette
konges@@
a-Therapie
ENB-00@@
VDDx
spüren
zid@@
ARC
dium
Muster
reas
Phenyl@@
cken@@
HSZT
emet@@
Replikation
1.7@@
beschich@@
barem
triazolam
Mor@@
Skelettmuskul@@
Uhr
berg
Fieberk@@
Potenti@@
Makulaödem
155
Normales
CE-@@
ccus
unkom@@
Blutuntersuchung
BUN
Blutdruckanstieg
adhere
mittelschwerem
gelass@@
nachfolgender
-l@@
lymphocytic
haemolysis
Tasonermin
maleate
predefined
Avonex
glycine
mengen
Anaphylaktische
Queti@@
gum
Leitfaden
titr@@
G178R
eral
131
Diphtherie
contributes
peel-off
clomi@@
stimmen
665
sechs@@
nutzen
Sand@@
EGFR-@@
pharmacologically
onen@@
Betablockern
bew@@
folgte
orphanol
Albumin-@@
dness
geheilt
weises
serreger
idarucizumab
Blutungsepiso@@
ased
Win@@
WS
Aminoglykosi@@
geometrische
warned
magnetic
SGRQ
oesophagitis
year-old
monophosphate
P-2
Asia1
teile
Condi@@
kaukasischer
CIBIC-@@
Bor@@
anämie
gereinig@@
CO2
nstein@@
Teilnehmern
ancy
BCIRG
erkenn@@
immunosuppressant
emplo@@
gummi
eimpf@@
aggregationshemmer
luer
rolid@@
Mensch
Erg@@
Statisti@@
parenteralen
Kommuni@@
iertem
Nutzen-
performing
crossed
031
weiteres
mischung
chronisch
hindeutet
stillstand
Immunogenicity
1.07
mail
tempor@@
terus
Piv@@
offered
CDAI
Olanzap@@
raschen
Kategorie
riterium
tend
Aluminiumsiegel
kauen
irrespective
erk@@
griffe
Hypovolämie
Hämatome
za
lev@@
thrombolytic
geschlossen
í@@
BEZEICHNUNG
image
proteolytic
Harnsäurewerte
Karnofsk@@
zeitraum
infrequently
50,000
geschlechts@@
reversiblen

bildungs@@
kardiovaskul@@
scheinungs@@
halben
Neuroleptic
194
fieberh@@
persistence
391
Größ@@
linksventrikulären
448
gesetzte
Ander@@
kop@@
361
kleinzelligen
tie
ME
Ros@@
La
une
herz@@
Wachstumsstörungen
fü@@
releasing
durchstech@@
anyone
ASS-@@
exhibits
tei@@
AUCGIR
markedly
Ki@@
arzneimittels
lagerungen
DMÖ
leep
Ess@@
Immunsuppres@@
Cedex
substantial
enon
BELG@@
maximaler
mikrobielle
Herzinfark@@
nehmenden
gallisepticum
Gallenblase
saisonalen
plenty
ütungs@@
DB@@
Pomalidomide
Circo
Akromegalie
Spielsucht
Konvention
hierfür
P2Y@@
infertility
kurzer
Q2@@
Shannon
Another
Premedication
Absetzens
G1349D
ending
ismen
oling
Chel@@
setron
directions
maternaler
nummer
Konsolidi@@
Unopened
overload
bildeten
ABSS@@
Hef@@
afil@@
FB@@
Operations
zierte
Medikations@@
fortschreitet
pJIA
pot
folgendem
emit@@
Neoplas@@
ilities
sezern@@
T66I
seu@@
BRAF-V600-@@
teils
Trevicta
liposom@@
resezier@@
verschriebene
NS3-@@
Format
Ciambra
Bewegungs@@
ZACTRAN
ECGs
0.93
stärkeren
polycy@@
zerkauen
Ländern
abut@@
Mitgliedsta@@
empfind@@
-Tro@@
1-3
zeichnung
unken
licl@@
catch-up
GRI@@
Pleuram@@
malari@@
Nec@@
Blau@@
Blutzuckerwert
TSC@@
cytom@@
Monoaminoxid@@
rezep@@
Stomach
notify
Infants
alveolar
Air
Inform
fens
signals
gebnissen
pdm@@
aster
aproxen
ventri@@
adjuvants
Natriump@@
Ban@@
dosisabhängigen
Fest@@
betreffende
House
bemerkt
issue
acyclin
Bringen
Glasflaschen
Osteokl@@
Prostaglandin@@
fusions@@
Agomelatin
cART
Fünf
Mukoviszi@@
sweat
progressiven
Standardbehandlung
575
disappears
2005-01
uminal
analy@@
RCC@@
kapselförmig
Seit
integri@@
hämodynami@@
replacing
Glycopyrr@@
schwache
neutrophil@@
Tumorly@@
Kalzi@@
mittlerem
338
ARY
Dauerinfusion
Serumkali@@
Glioblastoma
CERTIFECT
erzeugen
beschrän@@
frame
September
IIIa-@@
Differential@@
supplement
Herz-Kreislauf-@@
sar@@
daratumumab
geplante
elic@@
Chol@@
mikro@@
zystischer
Alendronat
Dipeptid@@
implants
illus
cytokine
obser@@
aktuell
fol
carries
Geschlecht@@
Herstell@@
GRANUPAS
Occ@@
Kortikosteroid
topenien
Valproinsäure
21G
adeno@@
Sanofi
monkey
werfen
830
karzinomen
mechanismen
operable
saline
vitro@@
introduced
ganze
Stammzellen
ZUGÄNGLICH
scalp
herunter@@
Kundl
1003
Pulver@@
impulse
Kondition@@
gemeldete
Pharmakodynamische
pig@@
ADP
CTG
138
infliximab-@@
deficient
eal
Darstellung
TIONS
hef@@
reversal
Auflagen
ena
erscheinen
knoten
ahren
Platelet
gesetzter
BESTANDTEILE
PACKUNGS@@
latente
exclu@@
kindergesicherten
reteplase
activate
18C
ahr
etexilate
expiratory
Emp@@
-Tabletten
etabliert
Eme@@
erf@@
hormon
Arbe@@
Ulzer@@
Slowly
pharmacologic
pegloticase
Compar@@
aften
indirek@@
Solche
obstruktiver
dungs@@
amyloid
Blincyto

SVR-Raten
Gestation
invol@@
Nervous
MHz
stripes
Long
Variationskoeffizient
hu@@
Kath@@
trying
headedness
Responders
Natriumdihydrogenphosphat
Lidoc@@
Fibr@@
von-@@
yl-
underwent
gerei@@
Betreuung
pair
ventrikulärer
SSRI
cinen
bildgeben@@
infest@@
hemmte
pt@@
symptomen
aspartame
Fri@@
Korti@@
inaemia
bekanntem
Äquivalent
Dosisempfehlung
Recovery
wesentlich
Lovastatin
y-one
klin@@
Kft
Starting
Vital@@
pseudo@@
hör@@
522
○
präparat
Zurück@@
Dosierungsintervall
juxtaglomer@@
inhydrochlorid
Schweregrades
gebär@@
ew
intrazelluläre
Einzeldosisbehältnis
Vergewissern
rant
apping
G551S
Fütterung
Knod@@
Proteasehemmer
Impulskontrollstörungen
appoin@@
Dysph@@
utuzumab
HIN@@
HPC@@
propylcellulose
Fortschreitens
mei@@
anamnese
Sustiva
glycerin
spezialisierten
monoamine
Polen
principal
consequently
resi@@
olarisation
Atazanavir-@@
opaleszente
MATE@@
mania
iode
ungsper@@
conaz@@
Blutkrebs
anerkan@@
3-fach
Bromobutyl@@
369
Tagesdosen
mity
Groß@@
confirm
OT
Taub@@
änot@@
uroctocog
Mitglieds@@
AAD
DMA
upfer
Knowledge
Natriummono@@
-Mump@@
P-Gruppe
Inhibitor-@@
ektion
erleichtern
AR-T
Other@@
verträgliche
serotonergen
kürzer
asia
anschließender
Tafamidis-Meglumin
Niedriger
bronchodilators
INPUL@@
lip
tablösung
N.
Tagesgesamtdosis
format
struktur
Thrombosen
buccal
tle
Exacerb@@
L-Histidin@@
ARD@@
ick
464
FAS
025
ProteqFlu
therapeutisch
Remica@@
adrenergen
Cephalosporine
Toxiz@@
ican
manifes@@
sichtlichen
TG
nominal
Verlängerungsphase
Argin@@
touching
ILD
л
blindness
0,85
MPAG
setikett
stream
ffachen
Hilfsstoff
ono
Pigs
PPI
alteration
internal
Polyethylene
Sekundäre
Schwangerschaft@@
vaginalen
dy
onat@@
Netzhau@@
lebend
Je@@
Proben@@
Cumulative
Inhalts
Allgemeinzustand
Fehlgeburten
MPA
nem
68330
Food
Schwefel@@
ture
HZ@@
g.@@
wave
MenACWY@@
rank@@
Implantats
gegenseitig
Brustschmerz
Antiepilep@@
Q14@@
VCR
Wechseljahren
Zeitverlauf
üssel@@
kulär
349
RSV
Ionsys
starben
89@@
28,3
hydrogenated
CD3
1,07
Testosteron
krin@@
konstriktion
gs@@
pub@@
om-
ehr
www.e@@
beeinträchtig@@
fibrozil
Applikator@@
buffer
bestätig@@
CyR
ACTG
stausch@@
nämlich
a-treated
PF
Standarddosis
perfor@@
orr@@
Desipramin
blass@@
0,89
UAW@@
aphyl@@
krankheitsmodifizier@@
Nüchternzustand
assemb@@
Dosen@@
0,93
extrah@@
vergiftung
Leitlinien
LAB@@
self-inject
adel
QL@@
Chirurgen
peptides
Intramuskuläre
specially
bilities
Pyri@@
nodal
lined
BEREITUNG
postoperative
Gleichgewichts@@
Ös@@
Olaparib
T-Lymphozyten
Ctenocephalides
MS.
id-Dosis
Tatsache
folic
clear@@
nm@@
gebräuch@@
vorausgegangene
anzahl
glucur@@
human@@
enbil@@
convex
3TC
lies
Obergrenze
haltiges
long-standing
Vials
Ungeöffnete
Schilddrüse
1B@@
IL-17A
aktivierter
ekto@@
ötchen
rezeptor@@
sine
würden
collapse
affin
tropium
fosamil
opap@@

ambulant
tägl
operablem
Nateglini@@
Weichteiloperationen
amit@@
acne
Biop@@
circular
Es@@
synth@@
abgeschrä@@
tsä@@
restriction
multiply
sequelae
utzt
г@@
Zustimmung
Aff@@
rhyth@@
remin@@
inwieweit
schwester
finalen
zyten
inib-
breit
ations-
ie-Krankheit
psychosis
acking
rely
manischen
infizierter
criterion
Pur@@
ompensation
frequenz@@
alised
thesia
opicapone
Rever@@
fang
aminidase
synthetisches
beigefügten
dihydrogenphosphat
verbrau@@
Wiederholungsbehandlung
sodi@@
Pharmakovigil@@
korreliert
fluvoxamine
chine@@
klaren
detachment
hyth@@
alli@@
medic@@
faces
potassium-sparing
fene
amicin
zerkaut
WENDET
blockern
rudin
stag@@
aktivierten
descent
beutels
folie@@
ünd@@
wax
chemically
commercial
recording
NV
WIRD
zweiwöchiger
thermia
ektivität
henylbutyrat
trauma
promptly
intoxication
groß@@
geschwä@@
anteri@@
tained
vented
vene
oxygenase-@@
Tenofovirdisoproxil@@
levonorgestrel
multination@@
Hepatitis-C-@@
gesteu@@
ma-@@
dacarbazine
gesamt
sterili@@
phenylephrine
Sci@@
siv
ju@@
benachrichtigen
sages
korrek@@
compulsive
substitutionen
median@@
cine
Famili@@
dokumenti@@
placebo@@
usch
Fra@@
enzierung
venöser
eze
letz@@
leukocytosis
antiarrhythmi@@
migr@@
verblindete
day@@
lassi@@
itable
cool
überschüssige
ester@@
Wochent@@
worked
Angiotensin-II-@@
Pancre@@
stimmten
midin-@@
enterohepatic
hallucination
Nadelschutz@@
leich@@
colony
llness
optionen
fiel
considerations
negativem
Transk@@
visceral
umm@@
arelin
appar@@
Kaplan-Mei@@
N.@@
vanced
befestigen
kehrt
tiny
vermuteten
down@@
neimittel
Asi@@
ütungsmittel
langwirksame
anwendet
fester
Ereig@@
arterien@@
glycer@@
stdosis
erhöhungen
chemistry
fluore@@
person-years
calcaemia
yearly
demyelinating
transported
Long-@@
tidin
pared
muskulatur
Zentrum
sionally
nen@@
antithrombotic
infecting
hyperten@@
cept
vise
chemicals
ungsplan
orthopädischen
ektiv
intensiv@@
favourable
bestandteile
verfolg@@
survived
Leberenzy@@
enhancing
individueller
mucositis
radiologisch
targeting
mineralisation
sham
dimensions
jective
investigations
acto-AF-@@
vasodilat@@
ques@@
air-@@
reason@@
adjunct
cineur@@
berei@@
ambulante
neurotransmitter
Kardi@@
verspüren
sium@@
stoffs
hydrogen@@
chenzahl
gewählten
ades
tended
adrenoceptor
ver-
zeigersinn
non-linear
kürzere
genital@@
ungssyndrom
panleucopenia
räparate
gilts
exakte
sintervalle
Alog@@
correlated
abfällt
derivate
PB@@
ύπρος
wild
covari@@
ausdrücklich
endgül@@
erholten
immunoglobulins
außen
distal
ett@@
milbemycin
calibr@@
hydroxylated
entford
homogen@@
quired
monatige
liqu@@
metabolising
zahn@@
farbe
neutrali@@
Consi@@
zerkleinert
a-Dosis
avir
tamini@@
gelatinised
äch@@
farb@@
Stamm@@
rimonabant
reicherung
ktu@@
Foc@@
headed
ix@@
lien
leeren
klarem
Gesch@@
ludes
mah@@
blutzuckersenkende
Adal@@
bruchs
orangefarben@@
Kanü@@
aufgenommenen
bra@@
substanzen
Stabili@@
Yor@@
zine
elemente
sinn@@
accuracy
Repaglini@@
persistier@@
visits
sichtigen
opake
etre@@
äufigkeit
aufrechtzuerhalten
glycoside
imal
warum
atinib-@@
langfristiger
populationen
torsion
Aufmerksam@@
wahrscheinlicher
part@@
interindividuelle
tumori@@
CT-AM@@
neg@@
c.A@@
loxac@@
pure
rel
Zervi@@
blasse
cel@@
kumu@@
express
bereitstellen
emmer
voxamin
DK-@@
kaliumsparende
asewerte
four@@
maraviroc
demonstrates
pamo@@
azopani@@
stin@@
beginn@@
schwangere
kanzerogen@@
noc@@
räume
burden
ypi@@
einung
i-@@
astuzumab-@@
contracture
strati@@
orrhoids
sesp@@
transcrip@@
probability
verstärkten
mg-Filmtabletten
arterio@@
fehlern
lications
Zentr@@
demyelini@@
empfindliche
wachsen@@
dru@@
diazepam
sylated
entschied
histolyticum
Ple@@
Ax@@
Cyst@@
upwards
prägung
techn@@
gebrauchsfer@@
dihydro@@
anp@@
adjudicated
arab@@
gestillt
Grund@@
haler@@
bezeichnete
avir-
aggressi@@
verstanden
choliner@@
anzeigt
illin
akathisia
л@@
poli@@
biotransformation
blast@@
persönlich
intrader@@
komplet@@
eness
headings
pool@@
restore
Mort@@
irgendeine
Erfol@@
posterior
Bronchospas@@
deli@@
armen
globul@@
paresthesia
Warnhinweis
haltes
Zweit@@
abb@@
ämmen
regadenoson
zigen
atine
inter-subject
verdünnten
nachteili@@
entero@@
gestellte
logi@@
cornea
mun@@
rist@@
interacts
analge@@
radiologische
imatinib-@@
Dur@@
überwachung
ylacet@@
smus
kittens
width
ge-
prostaglandin
Wimp@@
zulassen
tomy
beta-blockers
einzelner
supp@@
uell
Y93@@
adung
affin@@
aufbrauchen
interfer@@
olim@@
ai
lebt
benzalkonium
Überlegenheit
Dan@@
hardening
monophosp@@
algie
worms
nmol
intrazell@@
ationstherapie
tonisch-klonischen
Protonenpump@@
Wirkungseintritt
seroprotection
dyskine@@
sensitivitäts@@
fosveset
acti@@
88@@
600@@
gereinigt
spannen
esz@@
Handschu@@
stimulants
ká
schädigende
einheitlich
beurteilte
cleavage
lektiv
ut-@@
epati@@
empfän@@
Träch@@
canin@@
tief@@
infektions@@
dep@@
sende
intervention@@
erstmalig
sslich
mised
purple
tin-@@
ara-@@
clu@@
ethyl
unbekannte
HDL-@@
Methad@@
geben@@
cle
Nevir@@
pH-Werts
paradox@@
tles
angioneuro@@
Author@@
ankylosierender
homozygous
oblast@@
viations
department
ription
suppur@@
solubility
chirur@@
enclosed
erforder@@
orischer
openie
preclude
nich@@
abgegebene
bronchodilat@@
disease-free
gefror@@
metrie
diuretischen
fluridin
blä@@
Ble@@
PACK@@
melain
aufgel@@
atus
weichung
o.
stammende
ancies
anen
accoun@@
bruise
tight
xie
ÄUSSERE
verschlechter@@
sequences
stitution
endothelialer
DC
säugenden
resistenz
Spritz@@
grü@@
schneiden
laser
Vollständi@@
possession
erlangen
seems
lamy@@
IX@@
zahlreiche
weglichkeit
amerikan@@
gewünsch@@
worsen@@
DURCHSTECH@@
osteoporotic
juckender
diminished
amidis
arzinoms
eva
ace
med@@
akes
eliminate
mehrfacher
schädlichen
artificial
context
Zoledronsäure-@@
Piper@@
keeps
spon@@
aufgebraucht
age-Zyklus
prolose
rü@@
lymphoproliferative
Wound
aufgetretener
teduglutide
sicherheits@@
Phospho@@
counter@@
zurücklie@@
YMDD-Mutante
virus-@@
ftig
öfter
implanted
š@@
verhin@@
olu@@
mikrobiellen
läsionen
orig@@
enterephthal@@
erat@@
ple
Zieltier@@
bestmögliche
tion1
ancytopenia
ac-@@
bearing
früherer
inadequately
Cre@@
aufgezeigt
einzeldosiertes
spheres
ovariohyster@@
pharmak@@
pidaemia
nicht-steroidale
myx@@
juckende
supported
ils
routinely
non-selective
anze
infosamil
dence
limbus
carbohydrate
igare@@
gelbes
neonat@@
kompeti@@
alleinige
impul@@
acyc@@
understand
mort@@
suspic@@
wir@@
geringeres
breast-@@
begins
Eur@@
behoben
Mä@@
zuverlässig
Kau@@
ound
sinuses
maternalen
übri@@
rich
resuscitation
respon@@
kompatibilitäten
Zeigefinger
ty-@@
mide
apsel
abschnitt
mpfe
vulvovaginal
dentifi@@
ehlkop@@
remind
multinational
myeloischen
Taf@@
placebo-@@
insectic@@
nologie
sphasen
erythrodysaesthesia
clean@@
Ato@@
ponent
entes
intranasal
phenom@@
uz@@
lokali@@
glycolate
nisrate
Japan@@
ypisierung
barkeits@@
isteln
fassungen
astri@@
veran@@
poloxamer
myopic
mpft
dauerhaftes
keln
ejac@@
er1
erkranken
oloxamer
erniedrig@@
calciumspiegel
relax
brinzol@@
uren@@
sein@@
schizophr@@
übergewichtigen
letalem
exposi@@
enseite
abgenommen
medikationen
grund
refle@@
histamines
danaloga
oberfläche
Vier
lipidämie
hyperhidrosis
migraine
kok@@
bronchial
tikums
mesters
perme@@
kürzeren
bestanden
EF@@
disc@@
bicarbonate
Zostavax
Genotyp@@
öffel
fibr@@
TE
false
perc@@
ze@@
stance
rein@@
atumab
ROUT@@
haemangi@@
stin
thromboly@@
Cir@@
Werte@@
tardi@@
diluents
grüne
koronare
fistula
tragstellers
p-values
mid
gewaschen
codone
eses
annte
biosimilar
dissemini@@
sn@@
öhren@@
serie
paradoxical
pril@@
endgültig
kürzungen
molecule
rather
tasks
Impro@@
desquamation
stützen
yo
Guid@@
cinogenicity
bet@@
versorgen
GnR@@
conditional
myelosuppressiven
Alter@@
definitive
begrenztem
cGMP-@@
pfeifende
stoffwechsel@@
Voriconazol@@
fortgeschrit@@
possess
Zuchttieren
hir@@
anormalen
wohingegen
Isavu@@
bowels
umen
mask
rite
coxib
R-CHO@@
oxo-@@
schlechter
abstimmen
menlogo
brownis@@
mE@@
insect
teratogenen
cortico@@
anciclovir
aktivierung
Zin@@
Tit@@
pfirsich@@
Spr@@
moiety
Untersuch@@
irgendein
colam
g.
toxin
embolic
immunomodulatory
asier@@
pfle@@
Aldoster@@
dauerhafter
uric@@
domen
aufzuziehen
descrip@@
Anwen@@
dipeptidyl
Bek@@
binant
agram
arboxy@@
GS-US-@@
xty-@@
alivi@@
afen
YTRACIS
prü@@
peritone@@
enati@@
fused
wechselten
metho@@
ausgedeh@@
lists
topische
illnesses
handhaben
besyl@@
richtlinien
sted
tigkeiten
besseren
vorgesch@@
neoadjuvanten
simil@@
regen
dentist
pamezole
pigmentierung
intensified
Blutplätt@@
aufziehen
ablecken
igne
approx
glutamyltransferase
itzen@@
valvular
toxikologischen
missbrau@@
unru@@
zentralnervöse
satis@@
örper
ungsin@@
onosyl@@
scopy
wöchentlicher
gul@@
Breezhaler-@@
lous
apropterin
überl@@
orthostatic
typi@@
nenden
agly-naf@@
den.
verblieben@@
utane@@
füg@@
w-@@
mangelnder
enly
passage
ulär
ilen
practices
orphous
supple@@
allgem@@
duce
comfort
manische
atheter
psychomot@@
Zecken@@
WARNHINWEISE
angio@@
cohorts
n.
ren
erkran@@
enthaltenden
geschieht
matic
ichtlinien
fortgeschritten@@
dark@@
ylen
driertes
neugeborenen
paraffin
cuss
gewölbte
hinreich@@
geschädigt
interfering
ling@@
erworbenen
immunvermittelten
haemorrhages
fen-@@
firm
failures
weight-@@
nel
aemia@@
konstante
territory
Zeug@@
norpel@@
ginnen
objektiven
empfängern
Drit@@
blut
größen
Monat@@
haemodynamic
tatsäch@@
prob@@
Überempfindlichkeits@@
cepti@@
lasie
krankheitsfreien
grad
lumps
kaline
conclusion
lymphopenia
dokumentiert
atibil@@
Volum@@
stoppen
Überwachungs@@
variant
predominant
alendronate
variations
cramps
SCHRÄNKUNGEN
tivi@@
deriv@@
WBC
schreit@@
diary
aim@@
vorübergehendes
parametern
replac@@
alles
krebs@@
eits@@
gemacht
tification
clockwise
proportionally
commenc@@
apin
dickung
febriler
thickening
gter
ologous
commence
distingu@@
jeglichen
rezidivierenden
inclu@@
folgedessen
kombination@@
gestreut
aminoglycosides
erholt
ducational
virosis
partiellen
Zei@@
dreams
BAX@@
shelf
somen
Wirbelsäulen@@
konjugiert
.co@@
olet@@
IEN
conveni@@
verloren
agomelatine
Miss@@
darbepoetin
sorptions@@
epidermaler
tuberculin
alleles
famotidine
Alan@@
vaskuläre
oco@@
instruction
fortfahren
burns
aviolet
tigkeits@@
prüften
aplas@@
zuckerhal@@
verordneten
formi@@
abklingen
apath@@
anomalien
taining
unabhängigen
verringertes
ously
verantwortlichen
loidal
refrakt@@
Chromosom@@
hebung
tup@@
Schleimhä@@
antineoplastic
in-vivo
precise
ribo@@
initis
puer@@
orti@@
brauch@@
undene
spektro@@
aken
bridge
c.
dynophag@@
historischen
läschen
ckt
poiesis
acteris@@
acetat@@
partners
ngleich
gewählt
chemotherapeu@@
spackungen
fasst
f-
äß
fixe
komplettes
graphischen
[...]
